#version: 0.2
Ġ Ø
Ø §
Û Į
Ø ±
Ù Ĩ
Ù ĩ
Ù Ī
Ù ħ
Ø ¯
Ø ª
ĠØ §
Ú ©
ĠØ ¨
Ù Ħ
Ø ³
Ġ Ùħ
ĠØ ¯
â Ģ
âĢ Į
Ø ²
Ø ´
Ø§ ÙĨ
Ø§ ÛĮ
Ġ Ú©
Ø ¨
Ù ģ
Ġ ÙĪ
Ø§ Ø±
Ú ¯
Ø³ Øª
ÛĮ ÙĨ
ĠØ¯ Ø±
Ù Ĥ
ĠØ ª
ĠØ ±
Ġ ÙĨ
ĠØ¨ Ùĩ
ÙĨ Ø¯
Ø Į
ĠØ ´
Ø ¹
Ù ¾
ĠØ ³
ĠÙħ ÛĮ
ÙĪ Ø¯
ĠØ§ Ø²
Ġ Ùĩ
ĠØ¨ Ø§
Ø¯ Ùĩ
Ø ®
ĠØ ¢
ÙĪ Ø±
Ø ¬
ĠØ ®
Ġ Ù¾
ÛĮ Ø¯
ĠÚ© Ùĩ
Ø§ ÙĦ
Ùĩ Ø§ÛĮ
ĠØ§ ÛĮÙĨ
ĠØ¨ Ø±
Ø§ Ùħ
ĠØ§ Ø³Øª
ĠØ± Ø§
Ø Ń
ÛĮ Ø±
Ø µ
Ġ Ú¯
Ú Ĩ
Ġ ÛĮ
Ġ Ùģ
Ø ·
ĠØ ¬
Ø§ Ø¯
Ø§ Ùĩ
ÙĦ ÛĮ
Ø± Ø¯
Øª Ø±
ĠØ Ń
ÙĪ ÙĨ
Ø§ Øª
Ġ Û
Ġ ÙĤ
Ùĩ Ø§
ĠØ ¹
ÛĮ Ùħ
Ø§ Ø¨
ĠÙĩ Ùħ
ĠØ ²
Ùģ Øª
Ø§ Ø²
ĠØ¢ ÙĨ
Ø± ÛĮ
ÙĪ ÙĦ
ÙĪ ÛĮ
ÙĪ Ø§ÙĨ
Ø´ Øª
Ø³ ÛĮ
Ġ ÚĨ
ĠØ¨Ø± Ø§ÛĮ
ĠÛĮ Ú©
Ø± ÙĪ
Ø§Ø± ÛĮ
Ø ¶
ÙĦ Ø§
Ùħ Ø§
Øª ÛĮ
Ø± Ø§
ÛĮ Ø´
Ø§ÙĨ ÛĮ
ĠØ® ÙĪØ¯
Ú¯ Ø±
ĠÚ© ÙĨ
ĠØ§ ÙĨ
ĠØ± ÙĪ
Û °
Ø °
ĠØ¯ Ø§Ø±
Ø§ Ø¯Ùĩ
ÛĮ Øª
ĠØ µ
Ú© ÙĨ
Ø ¸
ĠØ¨ ÙĪØ¯
ĠÙĨ ÛĮ
ĠÚ© Ø§Ø±
ĠÙħ ÙĪ
Ø® Øª
ĠÚ© Ø±Ø¯
ĠØ ·
ĠÙħ ÙĨ
Ùħ ÛĮ
ĠØª Ø§
Ø º
ĠØ´ Ø¯Ùĩ
Ùħ Ø§ÙĨ
ĠØ´ Ø¯
Ø «
Ø± Ú©
Ø§ÛĮ ÛĮ
Ø§ Ø³
ĠÙħ ØŃ
Ø ¦
Ø² ÛĮ
± Û
ĠØª ÙĪ
Ú ĺ
Ø§ Ø´Øª
ĠØ³ Ø§ÙĦ
Øª ÙĪØ§ÙĨ
Ø² Ø§Ø±
ĠØ¯ ÛĮ
ĠØ® ÙĪ
ÛĮ ÙĦ
ĠÛĮ Ø§
Ġ ÙĦ
Ú¯ ÛĮ
Ø´ Ø¯
Ú¯ Ø§Ùĩ
ĠØ¯ ÙĪ
ÙĨ ÛĮ
Ġ (
ĠØ§ Ùħ
Ø¨ Ø±
Ø´ ÙĪØ¯
ĠÙħ Ø´
Â «
Â »
Ø¨ ÛĮ
ĠÚ© Ø±
ÙĪØ± Ø¯
Ġ Â«
ĠÙħ Ø¹
ĠØ¯ Ø³Øª
Ø¨ Øª
Ø§ÙĨ Ùĩ
Ùģ Ø±
ÙĪ Ø´
ĠÙģ Ø±
ĠÛ ±Û
ĠÙħ Ø¯
Ø§ÙĨ Ø¯
ĠØ³ Ø±
Ùħ Ø§ÛĮ
ĠØ§ ÙĪ
ĠØ§ Ø³
Ø§ÛĮ Ø¯
ĠÙĤ Ø±
ĠÙħ Øª
Ø¬ Ùĩ
ÙĨ Ú¯
Ùĩ Ø±
Ø± Ùģ
ĠØ¯ Ø§Ø´Øª
Ø§ Ø³Øª
ÙĤ ÛĮ
ĠØ¯Ø§Ø± Ø¯
ÛĮ Ú©
ÙĦ Ùĩ
ÙģØª Ùĩ
Ø ¢
Ø§Ø± Ø¯
ĠÛ ²
Ùģ Ø§Ø¯Ùĩ
ÙĪ Ùħ
Ø§Ø± Ùĩ
Ø§Ø¯ ÛĮ
ĠØ¢ Ùħ
ĠØ§Ø³Øª ÙģØ§Ø¯Ùĩ
Ø§ Ùģ
ĠÚ¯ Ø±
ĠÙĨÛĮ Ø²
Ú© Ùĩ
ÙĪ Ø¹
ÙĪ Ø²
ĠÙĩ Ø³Øª
Ø§Ùħ Ùĩ
ĠÙĩ Ø±
ÙĪØ± ÛĮ
Ú¯ ÛĮØ±
ĠØ§ Ø±
ÙĨØ¯ Ùĩ
ĠØ§ ÙĦ
Ø¨ Ùĩ
Ø§ Ø®Øª
ĠØ§ ÙħØ§
Ø±Ú© Øª
ĠÚ© Ùħ
ĠÙ¾ ÛĮØ´
ØªØ± ÛĮÙĨ
Ú© ÙĨØ¯
Ø§ ÙĤ
ĠØ¨ ÛĮØ´
ĠÚ© Ø´
ĠÚ©Ø± Ø¯Ùĩ
Ø¹ Ø¯
Ø¨ Ø§
ĠØ º
ĠÙħ Ø³
Ø§ÙĦ ÛĮ
ĠÙĨ Ø¸
ĠÚ©ÙĨ ÛĮØ¯
ĠÙĤØ± Ø§Ø±
ĠØ®ÙĪ Ø§Ùĩ
ĠØ§ ÛĮØ±
ĠØ´ ÙħØ§
ĠØ³ ÛĮ
ĠÙħ Ø±
ĠØ§ Ùģ
ĠØ´ Ø±Ú©Øª
Ø¹ ÛĮ
ĠÙħ ÙĤ
ØªØ± ÛĮ
ĠØ§ ÛĮ
ĠØ¨ ÛĮ
ĠØ¬ Ø¯
Ø± Ø³
Ø´ ÛĮ
ĠÙĪ ÛĮ
ĠØ¨ Ø¯
Ø¬ ÙĪØ¯
Ø§ Ú©
Ø¹ Øª
ĠØ¯ÛĮ Ú¯Ø±
ĠØ§ÙĨ Øª
ĠØŃ Ø§ÙĦ
ĠØ¨ Ø®
Ø´ ÙĨ
ĠØ±ÙĪ Ø²
ĠÙħ Ø¬
Ø¹ Ùĩ
Ø® Øµ
ĠØ± ÙĪÛĮ
ĠØ¨ Ø³ÛĮ
ĠØ¹ Ùħ
Ùħ ÛĮÙĨ
ÙĪØ± Øª
ĠØ¨ Ø§ÛĮØ¯
ÙĪ Øª
ĠØ¯ Ùĩ
ĠÙħ Ø§
ÙĨ ÛĮÙĨ
Ø´ Ø§ÙĨ
Ġ Ġ
ÙĪ Ùĩ
ÙĩØ§ÛĮ ÛĮ
Ø§Ø² ÛĮ
ĠÙħ ÙĪØ±Ø¯
ĠÙ¾ Ø³
Ø Ľ
ĠØ¨Ø§ Ø²
ĠØ² ÛĮ
Ú© ÙĦ
ĠØ¨Ø§ Ø´
ĠÙĨ Ø§Ùħ
- -
Ø§ÛĮ Øª
ĠÚ©Ø´ ÙĪØ±
ĠØª ØŃ
ĠØ¯ ÙĪØ±
ĠØ§ÛĮØ± Ø§ÙĨ
ĠØ§ Ø¬
¹ Û
Ø§Ùħ ÙĦ
ĠØ¬ Ùħ
ÙĦ Ø§Ùħ
ĠØª Øµ
ĠØ§ Ú¯Ø±
ĠÚ© ÙĨØ¯
Ø³Øª Ø§ÙĨ
ĠØ¨Ø§ Ø´Ø¯
Ø¬ Ø§Ùħ
ÙĤ Ùĩ
ĠØ¯ Ø§Ø¯
ĠØ§ Øµ
Ùĩ Ùħ
ĠØªÙĪ Ø³
ĠØª ÙĨ
ÛĮ Ø§
ĠÛĮÚ© ÛĮ
ÙĦ Ùģ
ĠÙĨ Ø³
Ø¯ Ø±
ĠÙĩØ³Øª ÙĨØ¯
ĠÙĩÙħ ÚĨ
Ø¯ ÛĮ
ÙĪ Ø§
ÙĨ ÙĪØ§ÙĨ
ÙĪ ÙĨØ¯
ĠØ¯ Ø§ÙĨ
ĠÙĪ Ø¬ÙĪØ¯
ĠÙĨ ÙħØ§ÛĮ
ÙĨ Ø§ÙħÙĩ
ĠØ¬Ø¯ ÛĮØ¯
Ø§ Øµ
Ùħ ÙĨØ¯
ĠØ§ Ø¹
Ú© Ø±
ĠÚ¯ Ø°
Ú©ÙĨ ÙĨØ¯
ĠÙĨØ¸ Ø±
ĠÙĨ ÙĤ
ĠØ¨Ø§ Ø²ÛĮ
ĠÚĨ Ùĩ
ĠØ®ÙĪØ§Ùĩ Ø¯
ÙĪ Ø³
ĠØ± Ø³
ĠØ§ Ø¯
ĠØ§ Øª
ĠØª Ùħ
ĠØ¨ Ø²
ĠØ§ÙĨ Ø¬Ø§Ùħ
ĠØ¨ ÛĮÙĨ
Û° Û
Ø´Øª Ùĩ
ĠØ´ ÙĩØ±
ĠØ§Ùģ Ø²
ĠÙĨ ÙħÛĮ
ĠÙ¾ ÛĮ
Ú© ÛĮ
ĠÙ¾ Ø±
ĠØ¯Ø§Ø´Øª Ùĩ
Ù Ķ
ĠØ³ Ø§Ø®Øª
ĠØ§ ØŃ
Ø± Ø§ÛĮ
ÙĪ Ø¨
ĠØ¬ Ùĩ
Ú© Ø§ÙĨ
Ø§Øª ÛĮ
Ø§ Ø·
ĠÚĨ ÙĨØ¯
ĠÚ¯ ÙģØª
Ø± Ùĩ
Ø® ÛĮ
Ú¯ Ø§ÙĨ
³ Û
ÙĤ Øª
Ø§ÛĮ Ø´
Ø±ÛĮ Ú©
ĠØª ÙĪÙĦ
ĠØ´ ÙĪØ¯
ĠØµ ÙĪØ±Øª
ĠÙĨ Ø¯
ĠØ§ ÙĪÙĦ
ĠØ±Ø§ Ùĩ
ĠÙ¾ Ø§ÛĮ
ĠØ¹ ÙĨÙĪØ§ÙĨ
ÙĨ Ø§
ĠÙħ Ø§Ùĩ
ÛĮ Ùĩ
ĠØ¯ Ø§Ø¯Ùĩ
ĠØ§ Ø·
Ø® ÙĪ
Ú¯ Ø°
ĠÙĨÛĮ Ø³Øª
ØªÙĪØ§ÙĨ Ø¯
ĠÙĨ ÙĪ
Ø¯ Ùħ
ĠÙħ Ø·
ĠØªÙĪÙĦ ÛĮØ¯
ĠØ¨ Ø¹Ø¯
ĠØ§ Ø´
Ú© Ø±Ø¯
Ø¨ ÛĮÙĨ
ĠØ³ Ø§Ø²
Ø§Ø± Øª
ĠØ¨Ø³ÛĮ Ø§Ø±
ĠØ¨Ø² Ø±
Øµ Ø¯
Ø Ł
ĠÙħ Ø«
ĠØ§ Ù¾
ĠØ§ ÙĨØ¯
Ùģ Ø§
ÙĪÙĨ Ùĩ
ĠØ¯Ø§ÙĨ Ø´
ĠØª Ø±
ĠÙĩÙħÚĨ ÙĨÛĮÙĨ
Ø¯Ùĩ Ø¯
Ú© Ø³
Ø¨ Ø§ÙĨ
ĠÚ©ÙĨ ÙĨØ¯
ÛĮ Ùģ
ĠÙĩ ÛĮ
Ø§ Ø®
Ø§ Ù¾
ĠØ¨ÛĮØ´ ØªØ±
ĠØŃ Ø¯
ĠÚ¯ ÙĪØ´
ĠØ ¶
ØŃ ÛĮ
ÙĨ Ø¬
ĠÙħÛĮ ÙĦÛĮ
ĠØ² ÙħØ§ÙĨ
ĠØª Ø¨
Û° Û°
Ø§ÙĨ ÙĨØ¯
Ùħ Ø§ÙĨÛĮ
ÛĮÙĨ Ùĩ
Ú¯ ÙĪ
ĠÙģ Ø¹
ĠÙĤ Ø§Ø¨
ĠØ¨Ø® Ø´
ĠØ¢Ùħ Ø±ÛĮÚ©
ĠØ¯Ø§Ø± ÙĨØ¯
ĠÙ¾ Ø±ÙĪ
ĠÚ©Ø±Ø¯ ÙĨ
ÛĮ Ø³
ĠØ¯ ÙĦ
ĠØ¨Ø± ÙĨØ§ÙħÙĩ
ĠÙħ Ø±Ø¯
ÚĨ Ùĩ
ĠÚ© ÙĦ
ĠØ³ Ùĩ
Ø§ÛĮ ÙĦ
Ùħ Ø¯
ĠØª Ø¬
ĠÙģ ÛĮÙĦ
ĠÙħ Øµ
Ú© Ø§Ø±
ÙĪÙĨ ÛĮ
ĠÙħØŃ Øµ
ĠØ² ÛĮØ±
Ø¹ Ø§Øª
ĠØ¢ÙĨ ÙĩØ§
Ø³Øª Ùħ
Ø§Ùħ ÛĮ
ĠØ§ Ø®
Ø§ ØŃ
Ú¯ÛĮØ± ÛĮ
ĠÙĤ Ø¨
Ø² Ø´
ĠØ³ ÙĪ
ĠÙģ Ø±ÙĪ
Ùħ Øª
ĠÙĩÙħ ÛĮÙĨ
ĠÙħ Ø®Øª
ĠØ¨Ø²Ø± Ú¯
ĠÚĨ ÛĮ
ĠÙĩÙħ Ùĩ
ĠÙħØŃØµ ÙĪÙĦ
ĠÙĨ Ùħ
ÙĦÛĮ ÙĦ
Ùħ ÙĨ
ĠÚ© ÙĪ
ĠØ¨Ø§ Ø²Ø§Ø±
ĠØ¨ ÙĨ
ĠØ§ÛĮÙĨ Ú©Ùĩ
ĠØª Ø¹
ĠÙħØ¯ ÛĮØ±
ĠÙĪ Ø§ÙĤ
ĠØ§ ÙģØ±
ÙĦ ÙĪ
ĠØ¨ Ø§Ø±
ĠØ² ÙħÛĮÙĨ
Øº ÛĮ
ĠØªÙĪØ³ Ø·
ĠØ¨ÙĪØ¯ Ùĩ
ĠØ «
Ø³Øª Ùĩ
Ø§Ø² Ùĩ
Ø¬ ÛĮ
ĠØ§Ø· ÙĦØ§
ĠØ® Ø±
ĠØªÙĪ Ø¬Ùĩ
Ú© Øª
Úĺ Ùĩ
Ø§Ø¯ Ø±
ĠÙħÙĨ Øª
Ø® Ø§Ø¨
Ù «
ØªÙĪØ§ÙĨ ÛĮØ¯
Ùħ Ø§ÙĦ
ĠÚ©Ø§Ø± Ø¨Ø±
Ø± Ø³ÛĮ
ĠÛ ±
Û µ
ĠØ¹ Ø±
Ø§ Ø³ÛĮ
ĠØŃ Ø³
Ø§ Ø´
ĠØ§Ø± Øª
ĠØ² ÙĨØ¯
ĠÙģØ¹ Ø§ÙĦ
ĠÚ¯Ø± ÙģØªÙĩ
Ø¨ Ø§ÙĦ
ĠÙħØ®Øª ÙĦÙģ
Øª Ø§ÙĨ
ĠÚ¯ÙĪØ´ ÛĮ
ĠØ¢ Ø¨
ĠØ¬ Ø§ÛĮ
Ø³ Ùĩ
ÙĨ Ùĩ
Øª Ø§Ø¨
Ø± Ø§Ùĩ
ĠØ§ÙģØ² Ø§ÛĮØ´
Ú¯ Ø±ÛĮ
ĠÙ¾ Ø±Ø¯
ĠØ´ Ø¨
Ø¯ Ø§
ĠÙĨÙħØ§ÛĮ Ø´
ĠØ§ÙĨØª Ø®Ø§Ø¨
Ø« Ø±
ĠÚ¯Ø± ÙģØª
Ø² Ùĩ
Ùħ ÙĦ
ĠÙģÛĮÙĦ Ùħ
ĠÙĨÛĮ Ø§Ø²
ĠØ °
ĠÙĨ Ø´
ĠØ¢ÙħØ±ÛĮÚ© Ø§
ĠØ³ÛĮ Ø³ØªÙħ
Ø±Ø§ Ø¦
ĠØ¨ ÛĮÙħ
ØºÛĮ ÛĮØ±
Ø¯ Ø§Ø±
ĠØ³ Ø§
ĠÚ© Ø³
ÛĮÙĨ ÛĮ
ÙĦ Ø¨
ĠØª ØºÛĮÛĮØ±
ĠØ¬ ÙĨ
ĠÙĩ ÙĨ
ĠÙĤ ÛĮÙħ
Ø´ Ùħ
Ø¨ Ø±Ø¯
Ø± ØŃ
Ø² Ø¯
Ø§ Ø¶
e r
Ø¹ ÛĮØª
Ø¯ Ø§Ùħ
ĠÛ² Û°Û
ĠÙĩ Ø²Ø§Ø±
ĠØ´Ø¯ ÙĨ
Ø £
ĠÙĨ Ø´Ø§ÙĨ
ĠÙģØ±ÙĪ Ø´
ĠØ¨Ø§ ÙĦØ§
ĠÛ µ
Ø¬ Ø§Ø¯
Ùģ ÛĮ
ĠÙĩÙħ Ø±Ø§Ùĩ
ĠØª ÙĤ
Ø´ ÙĪÙĨØ¯
ĠÚ¯ Ø²Ø§Ø±
ĠØ® ÛĮ
ĠØªÙĨ ÙĩØ§
ĠÛ ´
ĠØ§ÛĮ Ø¬Ø§Ø¯
Ø¨ ÙĪØ¯
ĠÛ±Û ¹Û
Ġ 1
ÙĪÛĮ Ø³
Ø®ÙĪ Ø§Ùĩ
ĠØ¨ ÙĦ
ĠØ¹ ÙĦ
ĠÙĪ Ø±
ĠØ´ ÙĨ
ĠØ¹ ÙĦØ§
ĠÙħ Ø±Ø§
ĠØ¢ Ø²
ĠÙħ Ùĩ
ĠÙħ ÙĩÙħ
ĠØ²ÛĮ Ø§Ø¯ÛĮ
ĠØ§Ø¯ Ø§ÙħÙĩ
Ġ âĢ
ĠØ§ ÙĤ
Úĺ ÛĮ
Ø´ Ø±
Ġ S
ĠÙĤÛĮÙħ Øª
Ø¨ ÙĪ
ĠÚ¯ ÙĪ
Ø³ Ø§ÙĨ
ĠØ®ÙĪØ¯ Ø±ÙĪ
ĠØ®Ø± ÛĮØ¯
ĠØ® Ø·
ĠØ¨Ø± Ø®ÛĮ
ĠØ® Ø§ÙĨ
ĠØ ¸
ĠØ§ÙģØ± Ø§Ø¯
ĠØ§Ø¹ ÙĦØ§Ùħ
ĠØ´ Ùĩ
Ø¨ Ø§Ø±
ĠÚ¯Ø²Ø§Ø± Ø´
ÙĪ ÙĤ
Û ²
ĠØª Ø´
ĠØ± ÛĮ
ĠØº ÛĮØ±
ĠØ³ Ø±ÛĮ
ĠÙħÛĮ Ø§ÙĨ
ÙĪ Øµ
Ú¯ Ùĩ
ĠØ¯ ÙĪÙĦ
ÙĪ ÛĮØ±
Ø· ÙĪØ±
ĠÛĮ Ø§Ø¯
ÙĪÛĮ ÛĮ
Ø±ÙĪ Ùĩ
ĠÚ© ØªØ§Ø¨
Ġ ÙĦÛĮ
Ø¨ Ø§Ø±Ùĩ
ĠØªÙħ Ø§Ùħ
ĠÚ©Ùħ Ú©
Ġ Úĺ
Ø¸ Ùĩ
Ø² ÛĮÙĨÙĩ
ĠÙĩÛĮ ÚĨ
ĠØª Ø§Ø±ÛĮ
ĠØŃ ØªÛĮ
Ùħ Ùĩ
ĠØ³Ø§Ø² ÙħØ§ÙĨ
ĠÚ¯ Ø±Ø¯
ĠÙħØ´ Ú©ÙĦ
ĠÚ© Ø§Ùĩ
ĠØ¯ ÙĦÛĮÙĦ
ĠÙħ Ø§ÙĨÙĨØ¯
ĠØ²ÙĨØ¯ Ú¯ÛĮ
ĠÙħÙĪ Ø¶
Ø± Ùħ
ÛĮØ¯ Ø§
Ø±Ø§ ØŃÛĮ
ĠÙħ Ùħ
ĠØ¯Ø³Øª Ú¯Ø§Ùĩ
Ø¹ Ø«
ĠØª ÛĮÙħ
ĠØ§Ùħ Ú©Ø§ÙĨ
ĠÙĩ Ø¯
Ø¨Øª Ùĩ
ĠØ§ Ø±Ø§Ø¦
Ú¯ Ø±Ø¯
ĠØ§Ø´ Ø§Ø±Ùĩ
ĠØ§Ø±Ø§Ø¦ Ùĩ
ĠØ¨Ø§ Ø¹Ø«
Ø® Ùĩ
ĠÙĩÙħ Ø§ÙĨ
ÛĮØ¯ ÙĨ
ĠØ§Øµ ÙĦÛĮ
ĠÙĨØ³ Ø¨Øª
i n
ĠÚ©Ø§Ùĩ Ø´
ĠØ¨Ø³ÛĮ Ø§Ø±ÛĮ
ĠÚ¯ Ø±ÙĪÙĩ
ĠÚ¯ ÙĦ
ĠÙĪ ÙĦÛĮ
ÙĦÛĮ Øª
ĠØ§ Ø¨
ĠÚ© Ø§Ùħ
Ø· Ùĩ
ĠØ¯Ø± ÛĮØ§
ĠÙħØ¹ Ùħ
Ø² Ø§ÙĨ
ÙĦÛĮ Ú©
ĠØ§ÙĦ Ø¨ØªÙĩ
ĠÙħÙĪØ¶ ÙĪØ¹
Ø±ÛĮ ÙĤ
ĠÙħÙħ Ú©ÙĨ
ĠØ´ Ùħ
Ø´ Ùĩ
ĠÙĨ ÙĪØ¹
Ġ 2
Ø±Ùģ ÛĮ
ĠØ¯Ø± ØµØ¯
ĠØ³ Ù¾
ĠâĢ ¦
ĠÚ¯Ø° Ø´ØªÙĩ
ĠÙĩ ÙĪØ´
Ø§Ø¨ ÛĮ
ĠÙģ Ø¶
ĠØ® Ø§Ø±
Û ´
ĠÙĤ Ø·
Ġ A
ĠØ¹Ùħ ÙĦ
ĠØ§Ø·ÙĦØ§ Ø¹Ø§Øª
ĠØ± ÙģØª
ĠÙħØ±Ø¯ Ùħ
Ø¶ ÛĮ
ĠÙħÙĨ Ø·
ÙĪØ¯ ÛĮ
Ø¬ Ø§
ĠÙ¾ ÛĮØ¯Ø§
ĠØ® Ø¨Ø±
ĠÛ ¶
ÛĮØ¯ ÛĮ
ĠÙĨ Ùĩ
Ø³ Ø§ÙĦ
ĠÙħØ¯ ÙĦ
Ø± Ø§Øª
ÛĮ Ø¨
ĠÙħÛĮÙĦÛĮ ÙĪÙĨ
ĠØ¨Ø§Ø´ ÛĮØ¯
Ø§ÛĮ ÙĨ
ĠÙĨ ÙģØ±
o n
ĠØµ ÙĨ
ØªÙĪØ§ÙĨ ÙĨØ¯
Øª ÙħØ§
Ø¯ Ø§ÙĨ
ĠÙħ Ø®
ĠØª ÙĪØ§ÙĨ
ĠØ³ ÙĨ
ĠØµ Ùģ
ÛĮÙĨ Ø¯
ÙĪ ÙħÛĮ
Ø¨Ø§ Ø´Ø¯
ÛĮÙħ ÛĮ
ĠÙĪ Ø§Ø±Ø¯
ĠØ· Ø±Ø§ØŃÛĮ
ÙĨ Ø§ÙĨ
ĠØ¨Ø± Ú¯
ĠØ¢ ÙĦ
Ø§ Ø¦
ĠÚ¯ ÙģØªÙĩ
ĠØ¹Ø± Ø¶
ĠØ³ Ø¨
ĠØªÙĪØ³ Ø¹Ùĩ
ÙĤÛĮ ÙĤ
ĠØª Ø±Ú©
ĠØ´ Ø®Øµ
ĠÙĨ ÙģØª
ĠÛ ³
Ùģ ÙĤ
ĠØ· ÙĪÙĦ
ĠÛ±Û ³Û
ĠØª Ø¹Ø¯
ĠØ¨Ø§ ÙĦ
Ø´ Ø§Ø±
ĠÛ²Û°Û ±Û
ĠØ§ØŃ Øª
Ġ C
ĠØ§Ùħ Ø±ÙĪ
ĠØ¨Ø¯ ÙĪÙĨ
Ú¯ ÙĦ
ØŃ Ùĩ
ĠÙĤØ§Ø¨ ÙĦ
Ø³ Ø§Ø²ÛĮ
Ø§ ÙĪØ±
ĠØ¯ Ø§Ø®
ÙĨØ¯ ÛĮ
ÙĦ Ø³
ĠØ±ÙĪ Ø´
ĠÙĪØ§ÙĤ Ø¹
ĠÙģØ¹Ø§ÙĦ ÛĮØª
ĠÙħØ´ Ø®Øµ
ĠÚĨÙĩ Ø§Ø±
ĠÚ©Ø§Ø±Ø¨Ø± Ø§ÙĨ
ĠÙħ Ø±Ú©
Ø§Ø³ Ø¨
ĠÙ¾ Ø´Øª
Ùĩ ÙĨ
Ø³ Ø±
Ø§ÛĮ Ø±
ĠØ³Ø§ Ø¹Øª
ĠØ¯ ÙĨÛĮ
Ø³Øª Ø±
ĠÙħØ¬ Ùħ
Ġ --
ĠÚ©Ø³ Ø¨
Ø¨ Ø±ÛĮ
Û ¸
ÙĤ ÙĦ
ĠØ¯ÙĪÙĦ Øª
Ø° ÛĮØ±
Ø¯ ÙĨ
ÙĦÛĮ Ùĩ
ĠÙĪ ÙĤ
ĠØ¬ Ø²
ĠØ¯Ø§Ø± Ø§ÛĮ
ĠØ² Ø¨Ø§ÙĨ
ĠØ´ Ú©
ĠØ¯Ø§ÙĨØ´ Ú¯Ø§Ùĩ
ÛĮØ´ Ùĩ
ĠØª Ø£
ĠÙģ ÙĤ
ĠÚ©ÙĨ ÛĮÙħ
ĠÙĨ Ø§
ĠØ³ Ø§Ùħ
ĠØ¬Ùĩ Ø§ÙĨ
Ø¯Ùĩ Ø§ÛĮ
Ø¨Ø§ Ø·
ĠØ¹Ø±Ø¶ Ùĩ
ĠÙĨ Ø®
ĠØ§ÙĪÙĦ ÛĮÙĨ
ĠØ³ Ø·
ĠÙħ ÙĦÛĮ
ÛĮØ´ ÙĨ
ĠÙħÙĨØ· ÙĤÙĩ
ĠØ¢Ùħ ÙĪØ²
ĠÙħÙĨØª Ø´Ø±
Ú¯ÛĮØ± Ø¯
ĠØ² ÙħØ§ÙĨÛĮ
ĠÙĪ Ø²
Ø§Ø¨ Ø±
ÙĪ Ø§Ø±
a n
Ø¯ Ø§Ø´Øª
ĠÙħ Ø³Øª
Ùģ Ùĩ
ĠÙĨØ³ Ø®Ùĩ
Ø³Øª ÛĮ
Û ¶
ĠØ´ Ú©ÙĦ
ĠÙģ Ø±Ø¯
ĠÛ ¸
ĠØ¯ ÛĮØ¯
ÙĪ ÛĮØ¯
ĠØ§ Ø¨Øª
Ø± Ø¨Ùĩ
ĠÙħÙĪ ÙģÙĤ
ĠØ¯Ø±ÛĮØ§ ÙģØª
ĠÙĩ ÙĪØ§
ĠØ³ Ø§ÛĮØª
ÛĮÚ© ÛĮ
ĠØ¨Ø± Ø±Ø³ÛĮ
ĠÙħØ¬Ùħ ÙĪØ¹
Û ·
ĠØ§ ÙĤØª
Ú© ØªØ±
ĠØ´Ø¨ Ú©Ùĩ
ĠØ® Ø¯Ùħ
ÙĪÙĨ Ø§
Ú© ÙĪ
ĠØº Ø°
Ø±Ø§ÛĮ Ø·
Ø§ÙĨ Ø³
ĠØŃØ¯ ÙĪØ¯
ĠÙĨ ÛĮØ±
ĠØ´ Ø±Ø§ÛĮØ·
ĠØ¬Ùħ ÙĦÙĩ
ĠÙĨ Ø²Ø¯
ĠÙĤ Ø¯Ø±
ĠØ¨Ùĩ ØªØ±ÛĮÙĨ
ĠØ¨Ùĩ Ø±Ùĩ
ĠÙĤØ¨ ÙĦ
ĠØ¯ÛĮ Ú¯Ø±ÛĮ
ĠØ¨ÙĪØ¯ ÙĨØ¯
Ġ M
Ù¾ ÛĮ
ĠÙħØ¹ Ø±ÙģÛĮ
ĠØ§Ø±Øª Ø¨Ø§Ø·
ĠØŃ Ø¶
ÙĦ Øª
ĠÙĩØ¯ Ùģ
Ø§Ø² Ùħ
ĠØ®ÛĮ ÙĦÛĮ
ĠØ¯ÙĦ Ø§Ø±
âĢĮ âĢĮ
ĠØ§ØŃØª ÙħØ§ÙĦ
ĠÛ ·
ĠÚ©ÙĪ ÚĨ
ÙĨ Øª
ĠÛ² Û°
ĠØ²ÙħÛĮÙĨ Ùĩ
Ø§Ùĩ ÛĮ
ĠÙĩÙĪØ´ ÙħÙĨØ¯
Ø± Ø¨
ĠØ¢ Øº
Û ±
ÛĮØ± Ùĩ
ĠØ¯ÙĪØ± Ø¨ÛĮÙĨ
ĠØ¹ Ø¨
o r
Ø±Ø§ Ùģ
ĠØ§ÙĤØª Øµ
Ú©ÙĨ ÙĪÙĨ
Ø« ÛĮØ±
ĠØ§Ø³Øª Ø§ÙĨ
ÙĪ ÙĦÛĮ
Ø¯Ùĩ ÙĨØ¯
ĠØ¯Ø± Ø¨Ø§Ø±Ùĩ
Ø¦ ÛĮØ³
ĠØ± ÙĨÚ¯
ĠØ® Ø§Øµ
ĠØ· Ø±ØŃ
ĠÚ©Ø±Ø¯ ÙĨØ¯
Ú© Ø§Ø±ÛĮ
Ø¹ ÙĨÛĮ
ØªÛĮ Ø¬Ùĩ
ĠØ§Ø³ Ø§Ø³
ĠØ§Ù¾ ÙĦ
ĠÙħØŃØµÙĪÙĦ Ø§Øª
ĠØ§ Ø¶
ÙĩØ± Ø§ÙĨ
ĠØ· Ø±ÛĮÙĤ
ĠÚ© ÙĪØ¯
Ø® Ø±
ĠÙ¾ Ø§Ø±
ĠÚ¯ ÛĮ
ĠÙĪ Ø§
Ġ P
a r
Ø§ÙĦ Ø¨
ĠØ± ÙĤ
ĠØ± Ø§ÛĮ
ĠØ¯ÙĪØ± Ùĩ
ĠÙħØµ Ø±Ùģ
ĠÚ©ÙĨ Ø§Ø±
ĠØ¨Ø§Ø´ ÙĨØ¯
ĠØ´ ÛĮ
ĠÙģÙĤ Ø·
ĠÙħÛĮ ÙĦ
ÛĮÙĨ Ø¯Ùĩ
ĠØ´ ÙĪØ±
ĠØ¢ Ø±
ĠØ´ Ø§Ùĩ
ĠØ§ Ø®Øª
ĠÙħ Ú©
Ùħ ÛĮÙħ
ĠØ¬ Ø§Ùħ
ĠÙ¾Ø±Ø¯ Ø§Ø®Øª
ĠØ¢Øº Ø§Ø²
ĠØµÙģ ØŃÙĩ
ĠÚĨ Ø±Ø§
ĠØª ÙĩØ±Ø§ÙĨ
ĠÙĨØ¯ Ø§Ø±Ø¯
e n
ĠØªØ§Ø±ÛĮ Ø®
Øµ ÙĪØµ
ĠØªØ¹Ø¯ Ø§Ø¯
ÚĨ ÛĮ
ĠØª Ùĩ
ĠÙĤØ¯Ø± Øª
Ú©ÙĨ ÛĮØ¯
ĠØ¬ ÙĨÚ¯
ÙħØ§ÛĮ Ùĩ
ĠÙ¾ ÙĨØ¬
ĠØ¯ÙĪ Ùħ
Ø±Ø³ Ø¯
Ø¯ ÙĪØ¯
Ø§Ø± Ø§ÙĨ
ĠØ¨Ùĩ ØªØ±
ĠÙħØ³ Ø¦
ĠØ¬Ùħ Ùĩ
ĠØ´ Ø±ÙĪ
ĠØ´ Ø§ÙħÙĦ
ĠØŃ ÙĤ
ĠÛĮ Ø¹ÙĨÛĮ
Ú¯ Ø²
ĠÙĩ Ø²ÛĮÙĨÙĩ
Øµ ÙĦ
ĠÙĪ Ø¨
ĠÙħÛĮ Ø²Ø§ÙĨ
ĠÙĨ ØªÛĮØ¬Ùĩ
ĠÙħØ¯ Øª
ĠØ¯ ÙĨ
ĠÙħØ« ÙĦ
Ø® ÙĪØ±Ø¯
ĠÙĩ ÙĨÚ¯
ĠÚ© ÙħÛĮ
Ø³ ÙĪÙĨ
ĠØ³ Ùģ
ĠØ§Ø³ ÙĦØ§Ùħ
Øª ÙĪØ±
ĠØ« Ø¨Øª
ĠØ§ Ø«Ø±
ĠØ³Ø± ÙħØ§ÛĮÙĩ
ĠÚĨ ÙĨÛĮÙĨ
ĠÙĨØ® Ø³Øª
Ø¯ ÛĮØ¯
ĠØ´Ø±ÙĪ Ø¹
ĠØ¢ ÛĮÙĨØ¯Ùĩ
ĠØŃØ¶ ÙĪØ±
Ø§ÙĦ Ùĩ
ĠØ± Ø¦ÛĮØ³
ĠØª ÙĦØ§
a t
ĠÙĪÙĤ ØªÛĮ
ĠØ³Ø· ØŃ
ĠØ® ØµÙĪØµ
ĠÙĤØ§Ø¨ ÙĦÛĮØª
ĠØ§ÙĤ Ø¯Ø§Ùħ
Ø¬ Ø±
Øª ÙĪÙĨ
Ø§ ÙģØª
ĠØ§Ø¬ ØªÙħØ§
ÙģØ§ ÙĪØª
ĠØ· Ø¨
ĠÙ¾Ø§ÛĮ Ø§ÙĨ
ĠÙĤ Ø³
Û ³
Øª ÙĪ
Ø§ÙĦ Ø§Øª
ĠÙħØ± Ø¨ÙĪ
ĠÙħÙĪ Ø¬ÙĪØ¯
ĠØ§ Ùĩ
Ø® Ø§ÙĨÙĩ
ĠØ´ Ø§ÛĮØ¯
. Â»
ĠÚ¯ÙĪ Ú¯ÙĦ
Ø¯ ÛĮÙĦ
ÙĪÙĦ Ø§
ĠØ¨ÛĮØ´ ØªØ±ÛĮ
Ø§Ùģ Ùĩ
ĠØ§ÙĨ Ú¯
ĠØ¬ Ø§ÙĨ
ĠØµ ØŃ
ĠØ§Ù¾ ÙĦÛĮÚ©
ÙĪØ² Ùĩ
ĠÚ© ÙĦÛĮ
) ØĮ
ĠØªØ¨ Ø¯ÛĮÙĦ
ĠÙħÙĪ Ø§Ø±Ø¯
ĠØ· ÙĪØ±
ĠÙħÙĨ Ø§Ø³Ø¨
ĠØ¨ÙĪØ¯ ÙĨ
Ú¯ÙĪ ÛĮØ¯
ĠØ¯ÙĨ Ø¨Ø§ÙĦ
ĠÛ ³Û
ĠØ³Ø± Ø¹Øª
ÙĦØ§ Ø³
Ú© Ø³ÛĮ
ĠØ¬Ùĩ Ø§ÙĨÛĮ
ĠØ® Ø§ÙĨÙĩ
ĠÙĩÙĨ ÙĪØ²
Ø§Ø· Ø±
ĠØ³ ÙģØ±
ĠÙħØ´ ØªØ±ÛĮ
ĠØªØ¬ Ø±Ø¨Ùĩ
ĠØª ÙĦ
ĠÙĤ Ø§ÙĨ
ĠØ¬ Ø°
ĠÛĮ Ùĩ
ĠÚĨ Ø´Ùħ
ĠØ¯Ùĩ Ø¯
ĠØªØµ ÙħÛĮÙħ
ĠØªØµ ÙĪÛĮØ±
ĠÙģ ÙĨØ§
ĠÙħ Ø§ÛĮ
Ġ {
ĠØ§Ø¬ØªÙħØ§ Ø¹ÛĮ
Ø§Ø¨ Øª
ĠÙ¾ Ø§Ø³
ĠÙĪ ÛĮØ±
ĠÙħØª ØŃ
ĠÚ© ÛĮÙģ
ĠØªÙĦØ§ Ø´
ĠÙħØ¬ÙħÙĪØ¹ Ùĩ
ĠØ³Ø§Ø®Øª Ùĩ
ĠØ¨ÛĮÙħ Ø§Ø±ÛĮ
ĠÚĨ ÙĪÙĨ
ĠØ±Ø³ ÛĮØ¯
ĠØ· Ø±Ùģ
a l
ĠÙĨ Ø±Ùħ
Ø´ Ø¯Ùĩ
ĠØ§ÛĮÙĨ ØªØ±
Ø¯ Ø§Ø±ÛĮ
Ġ T
ÛĮÙĨ Ú¯
ĠØ§Ù¾ÙĦÛĮÚ© ÛĮØ´ÙĨ
ĠØµ Ø¯
ĠÙ¾Ø±ÙĪ ÚĺÙĩ
ĠØ¬ÙħÙĩ ÙĪØ±ÛĮ
Ġ{ --
ĠØ¨Ø± Ø§Ø¨Ø±
ĠØ®ÙĪ Ø¨ÛĮ
ĠØ§ Ø¹Øª
Ú¯Ø° Ø§Ø±
ĠØ§ ÛĮÙħ
ĠØª ÙĦÙģ
ĠØ§ÙħØ±ÙĪ Ø²
Ú¯Ø± Ø§ÙĨ
0 0
ĠÙģÙĨØ§ ÙĪØ±ÛĮ
Ø§Ø¨ ÙĦ
ĠØ· ÛĮ
ĠÙĩ ÙģØªÙĩ
Ø§Ùģ ÛĮ
ĠÚ© Ø§Ø±ÛĮ
ĠÙĪÛĮ Úĺ
Ø§Ø¶ Ø±
Ġ G
ĠÙħ Ø¨
ĠÚ¯ ÛĮØ±
ĠØ¹ÙĦØ§ ÙĪÙĩ
ĠØ¨ Ø§ÙĨ
ĠÛ± Û°
ÛĮÚ© Ø³
ÙĪÛĮ Øª
ĠÚ©ÙĨ ØªØ±
ĠÚ¯ Ø§Ø²
Ú¯Ø° Ø§Ø±ÛĮ
ĠÙĦ Ø§Ø²Ùħ
Ø³Øª Ø§
Û ±Û
ĠØª Ú©
Ø´ ÛĮÙĨ
ĠÙ¾ÛĮØ´ Ø±
Ú© ÛĮÙĦ
ĠØ®Ø§ÙĨ ÙĪ
ĠÙĨÙĤ Ø´
Ø® Ø´
ĠØŃ ÙĪØ²Ùĩ
ĠÙħ Ø§ÙĦÛĮ
ĠÙħØ±Ø¨ÙĪ Ø·
e s
ĠØ¯Ø± Ø¢
ĠÙĪ Ø¶
ĠØ· Ø¨ÛĮ
Ġ D
ĠØ¨ Ø¹
ĠØ³ ÙĪÛĮ
ĠÙĪÛĮÚĺ Ú¯ÛĮ
Ø¶ Ø§
ĠÚ© ÛĮÙĦ
ĠÙĩ Ø§ÛĮÛĮ
ĠØŃ Ø±Ùģ
ĠÙħØ³ ÛĮØ±
Ø¦ ÛĮ
ĠØŃ Ø§Ø¶Ø±
Ø³ Ùħ
ÙĦØ§ ØŃ
ÙĪØ¯ Ùĩ
ĠØ¬ ÙĦ
ÛĮ Ø·
ĠÚĨÛĮ Ø²ÛĮ
ĠØªØŃ Øª
Ú©ÙĨ ÛĮÙħ
ĠÙħØŃ ÛĮØ·
Ù¾ Ø§ÙĨÛĮ
ĠØ§ÙĨØª ÙĤ
ĠÙĤØ³ ÙħØª
Ø± ÙĪØ¯
Ø§Ø¨ Ùĩ
ĠØ¢ Ø³ÛĮ
ĠØ´Ø¯ ÙĨØ¯
ĠØ®ÙĪ Ø¨
Øª ÙĦ
Ù¾ Ø±
ĠØ§ Ø±ÙĪ
Ø¸ Ø±
Ø§Ø´Øª Ùĩ
ĠÙ¾Ø±Ø¯ Ø§Ø²
ĠØ± Ø´Ø¯
ĠÙħÙĪ Ø¨
ĠØ¢ Ø®Ø±
ĠÚ© Ø§ÙħÙĦ
ĠØ¬ ÙĪ
Ùħ Ø²
ĠÙħØŃ Ø¯ÙĪØ¯
Ú¯ ÙĪÙĨÙĩ
ĠÙģ Ú©Ø±
Û ¹
ĠØ¨ÛĮ Ø§ÙĨ
ĠÚ©ÙĪÚĨ Ú©
ĠÙģ Ø±Ø§
ĠÚ©ÙĨØªØ± ÙĦ
Ø§Ø¨ Ø¹
ĠØ®Ø¯Ùħ Ø§Øª
ĠÙĨØ²Ø¯ ÛĮÚ©
ÙĪØ± Ø¯Ùĩ
ĠØ³ Ø§ÛĮØ±
ĠÛĮØ§ ÙģØª
Ùħ Ø§ÛĮÛĮ
Ø¨ Ø·
ĠØ§ ÙģØª
ĠÙħØ¯ÛĮØ± ÛĮØª
ĠØ³ Ø®
ĠØ§Ø¶ Ø§ÙģÙĩ
ĠØ¨ ØŃ
ĠØŃØ§ÙĦ Øª
Ø± ÚĺÛĮ
ĠÙĤ Ø¯
ĠØ¨ Ú¯ÛĮØ±
Ù¾ Ø§
ĠØ§Ø³ÙĦØ§Ùħ ÛĮ
ĠØ³ ÙħØª
ĠØ§Ø± Ø²Ø´
ĠÙħÙĪ Ø§Ø¯
Ġ -
ÙĨØ¯ Ú¯Ø§ÙĨ
ĠÙ¾ ÛĮØ±
ĠØ§ÛĮØ± Ø§ÙĨÛĮ
ÙĪ ÙĩØ§ÛĮ
ĠØ³ Ø®Øª
ÙħØ§ÛĮ Ø´
ÙĪ Ø³Øª
ĠØ´ Ø±
Ú©ÙĨ ÙĨØ¯Ùĩ
ĠÙħØ« Ø§ÙĦ
ÙĪÙĦ ÙĪ
ĠÙĩ ÙĪ
ĠÚ© Ø§ÙĨ
ĠØ§ÙĨ Ø³Ø§ÙĨ
Ø±Ø§ÛĮ ÙĨ
ĠØ¨ÙĨ Ø§Ø¨
ĠØ§Ø® ØªÛĮ
ĠØ® ÙĪØ§ÙĨ
ĠÙħØ· Ø§ÙĦ
Ú© Ø±ÙĪ
ĠÙĦ ÙĪ
ĠØ´ ÙĪÙĨØ¯
ĠØ¨Ø¯ ÙĨ
ĠØ¨ÙĨØ§Ø¨ Ø±Ø§ÛĮÙĨ
Ø§Ùħ ÛĮÙĨ
ĠØ§ÙĨØ¯ Ø§Ø²Ùĩ
ĠÙħ Ø°
ĠÙħØ±Ú© Ø²
ĠÚ©Ø± ÙĪÙĨØ§
ĠÙħ Øº
Ġ 3
Ġ H
ĠØ¢ÙħÙĪØ² Ø´
Ġ R
Ùĩ ÙĨÚ¯
Ġ I
ĠØ¯Ùĩ ÛĮØ¯
Ø¬ Ùħ
ĠØ®Ø§ÙĨÙĪ Ø§Ø¯Ùĩ
ĠØ® Ø§Ø·Ø±
Ø§Ø¨ ÙĤ
ĠØŃ ÙĦ
ÙĦØ§ Ùģ
ĠÙħ ØªØ±
Ø´ÙĨ Ø§Ø³
Ø§ÙĦ Øª
ĠØ§ÙĨ Ø±ÚĺÛĮ
ĠØ§Ø® ÛĮØ±
ĠÛ±Û ²
ĠØ§ÙĨØª Ø¸
ĠØŃ Ú©
ĠÙħÙĪØ¨ Ø§ÛĮÙĦ
Ø³ÙĪÙĨ Ú¯
ĠØ¯ Ø§Ø³Øª
ĠØ¯Ø§Ø± ÛĮØ¯
ĠÚ¯ Ø³ØªØ±
Ø³ Ø§Ø²
ĠØª Ø®
ĠØ³Ø§Ùħ Ø³ÙĪÙĨÚ¯
ĠÙħÙĨ Ø¸
ĠØ³Ù¾ Ø³
ÙĪ Ø§Ø±Ùĩ
ĠÙħØ´ Ø§Ùĩ
ĠÙĨ Øµ
Ø²Ø§Ø± Øª
ĠØ´ ÛĮØ±
ĠÙħÛĮÙĦ Ø§Ø¯ÛĮ
Ø±ÛĮ Ø§ÙĨ
ĠØªØ´ Ú©ÛĮÙĦ
Ø§Ùĩ Ùħ
ÙĩØ§ÛĮ Øª
ĠÙħ ÙĦ
ĠØ¬ Ø§
ĠØ¯ÙĪ Ø³Øª
ĠÙħØª ÙĨ
ĠØ³ ÙĦ
ĠØ§ ÙĪÙĨ
Ùģ Ø§ÙĤ
Ġ B
ĠØ¬ ÙĦÙĪ
Â Ń
ÙĪ ØªÛĮ
ĠØ¯ÙĨÛĮ Ø§
ĠØ®ÙĪØ§Ùĩ ÙĨØ¯
ĠÙĪ Ø²Ø§Ø±Øª
ĠØ³ Øª
ĠÚ© Ø§ÙĦ
ÛĮÙģ ÙĪÙĨ
Ù¾ Ø±Ø¯
Ġ âĢĮ
ĠÙħØ¹Ùħ ÙĪÙĦØ§
ĠØ±Ø§ ØŃ
ĠØ¯Ø§Ø® ÙĦÛĮ
ĠØŃØ§ÙĦ Ø§
ĠÙĩÙħ Ú©Ø§Ø±ÛĮ
ĠÙħØŃ ÙĦ
ĠÙĪØ² ÛĮØ±
Ø± Ø¨ÛĮ
ĠØª Ú©ÙĨ
ĠÙĪÛĮ ÚĺÙĩ
ĠØ¢ ÛĮÙģÙĪÙĨ
i t
ĠØ¨Ø± Ø®ÙĪØ±Ø¯
ĠØ§Ø®ØªÛĮ Ø§Ø±
ĠÙģ ÛĮ
ĠÙģ Ø§Ø±
Ø§Ø®Øª Ùĩ
ĠÙĨØ¯ Ø§Ø±
ĠÙĨ ÙĪØ±
ĠØ³ Ø§Ø¯Ùĩ
ĠØ¬Ùĩ Øª
ĠØ§ÙĤØªØµ Ø§Ø¯ÛĮ
ĠÙĨ Ø¨ÙĪØ¯
ĠØ§ÙĦ Ú©ØªØ±
Ø§ÛĮ Ùĩ
ĠÙ¾ ÙĪØ´
Ø ¤
ĠÙĦ ØŃ
ĠØ§Øª ÙģØ§ÙĤ
ĠØ³Ø± ÙĪÛĮØ³
Ø± Ø®
ĠØ§ØŃ Ø³
Ø± Ø§ÙĨ
ĠØ¹ÙħÙĦ Ú©Ø±Ø¯
ĠØ²ÛĮ Ø§Ø¯
ÙĤ Ø§ÛĮ
ĠÙħØ´Ø§Ùĩ Ø¯Ùĩ
ĠÙħ Ø§Ø±
Ġ L
ĠÙ¾Ø§ÛĮ ÛĮÙĨ
Ø§ÛĮ Ùħ
ĠÙģØ¶ Ø§ÛĮ
ĠÙ¾ Ø²Ø´
ĠØ¹ Ú©Ø³
ĠØªØŃ ÙĤÛĮÙĤ
ÙĪØ§ÙĨ ÛĮ
ĠÙ¾Ø§Ø³ Ø®
ĠÚ©ÛĮÙģ ÛĮØª
ĠØ¹ Ø¶
ĠØª ÙħØ§
ĠÚĨ ÛĮÙĨ
Ø´ÙĨ Ø¨Ùĩ
ĠÙ¾ ÙĦÛĮ
ĠÙĨ Ú¯Ø§Ùĩ
Ø®ÙĪ Ø§Ø³Øª
ĠÙĦ Ø¨
ĠØ¯Ø§Ø¯ ÙĨ
ĠØ³ ÙĨÚ¯
ĠÙħØ´Ú©ÙĦ Ø§Øª
ĠØµ Ø±Ùģ
ĠØ¸ Ø§Ùĩ
ĠØŃ Ø§ÙĦÛĮ
ĠÙħÛĮÙĦÛĮ Ø§Ø±Ø¯
ĠØ§ Ú©
ÙĪØ± Ø´
ÛĮ Ø²
ĠØ§ÙĨØªØ¸ Ø§Ø±
ĠÚ¯Ø±Ø¯ Ø´
Ø¯ Ø§Ø¯
Ø¸ ÛĮÙħ
l e
ĠØµÙĨ Ø¹Øª
ĠØ¹Ùħ ÙĦÛĮ
ĠÙħÙĤ Ø§Ùħ
ĠÙĨ Ú¯Ùĩ
ĠÙħÙĪ ØªÙĪØ±
Ø² ÙĨØ¯
ĠÙħØ± Øª
ĠØ§ÙĨØ¯ Ø±ÙĪ
ĠØŃØ³ Ø§Ø¨
ĠØŃ Ùħ
ĠÚ©Ø§Ùħ ÙĦØ§
ĠØ¨Ø± Ø³
ĠØ¨Ø± ÙĤ
ĠÚ©Ùħ ØªØ±
ĠÙĪ Ø§ØŃ
ĠÛ ¹Û
ÙħÙĨØ¯ Ø§ÙĨ
Ø ¡
ĠÙħØ± ØŃ
Ø§Øµ ÙĦÙĩ
ĠØª Ùģ
ĠÙĨÙħ ÙĪÙĨÙĩ
Ø®ÙĪØ§Ùĩ Ø¯
ĠØ®ÙĪ Ø´
Ø¬ Ø¨
Ø±ÛĮ Ùģ
ĠÙ¾ Úĺ
ÙħÙĦ ÙĦÛĮ
ĠØªÙĦÙģ ÙĨ
ĠÙħÙĪ Ø³ÛĮ
ĠÚĨÛĮ Ø²
ĠÙĪ ÙĤØª
ĠØ§ÙģØ² ÙĪØ¯
ĠØ³ ÙĪÙħ
ĠØ³Ø±ÛĮ Ø¹
ĠØ¯Ø§Ø³Øª Ø§ÙĨ
ĠÙĩÙĨÚ¯ Ø§Ùħ
ĠÙĤ ÙĦ
Ø§ÛĮ Ø¬
Ġ 5
ĠØ¯Ø± Ø³Øª
ĠÙ¾ Ø°ÛĮØ±
Ø± ÛĮÙħ
ĠØªÙĩ ÛĮÙĩ
ĠÚ©ÙĨ ÙĨØ¯Ùĩ
ÙĪ Ø¨ÛĮ
ĠØ³ Ø±Ø§
Ú©Øª Ùĩ
ĠÙĩÙħ ÛĮØ´Ùĩ
ĠÙħ Ø§ÙĨ
r o
ĠØ¹Ùħ ÙĪÙħÛĮ
Ø®Øµ Øµ
ĠÙĩÙĨ Ø±
Ġ E
ĠØ¯ ÙĤÛĮÙĤ
ĠØ®ÙĪØ¯ Ø´
i c
Ùħ ÙĪÙĨ
ĠØ³ Ø§Ø²ÛĮ
ĠØ¨Ø±Ú¯ Ø²Ø§Ø±
Ġ F
Ġ 4
ĠØ´Ø®Øµ ÛĮ
ĠØ§Ø¬ Ø±Ø§ÛĮ
ĠÙĤ ØµØ¯
ÛĮ Ø¯Ùĩ
ĠØ§ØŃØ³ Ø§Ø³
ĠÙħØ±ØŃ ÙĦÙĩ
ĠÙĤØ§ÙĨ ÙĪÙĨ
ÙĪØ§ Ø¹
ĠÙģ ÙĪØª
ĠÚ©Ùħ Ù¾Ø§ÙĨÛĮ
ĠØŃ Ø±Ú©Øª
ĠÙĨØ´ Ø¯Ùĩ
ĠØ¢ ÛĮØ§
ĠÙĨ ÙĩØ§ÛĮØª
ĠÛ²Û° Û°Û
Ø¨ÛĮ Ùĩ
Ø¢ ÛĮØ¯
ĠØ®Ø§Ø± Ø¬
ĠØ§ÙĨ ÙĪØ§Ø¹
ĠØ·Ø¨ ÙĤ
ĠÚ© Ø§ÙģÛĮ
ĠÙ¾ÛĮ Ø§Ùħ
ĠÙħ Ø¨Øª
ĠØŃ Ø§Ùģ
Ø§ ÙĩØ§ÛĮ
r e
s t
ĠÛ±Û ¸
ĠÚ© Ø³ÛĮ
ĠÙ¾ÛĮØ´ ÙĨÙĩ
Ø² Ø§Ø±ÛĮ
ĠÙĨ ÛĮÙħ
Ø¯Ùĩ Ø§
Ø¶ Ø§ÛĮ
ĠÙĨÙħØ§ÛĮØ´ Ú¯Ø±
ĠÚ©Ø´ÙĪØ± ÙĩØ§ÛĮ
ĠØ¨Ùĩ Ø¨ÙĪØ¯
ĠØ§Ø¨ Ø²Ø§Ø±
ĠÚ©ÛĮÙĦ ÙĪÙħ
ĠÙĪØ¶ Ø¹ÛĮØª
ĠØ§Ø¬ Ø±Ø§
ĠØ¨ Ø³ØªÙĩ
ĠØ¯Ø§Ø® ÙĦ
ÙĪÙĨ Øª
ĠÙħØ¹ Øª
ĠØ¯ÙĪØ± Ø§ÙĨ
ĠØ¯ÛĮ Ø¯Ùĩ
ĠÚ¯ ÙĪÙĨÙĩ
Ġ t
ĠØ¯Ø³Øª Ø±Ø³ÛĮ
ĠØ¨Ø± ÙĨØ¯
ĠØ¢Ùħ Ø¯Ùĩ
ĠØªÙħ Ø§ÙħÛĮ
ĠØ¬ Ø±ÛĮØ§ÙĨ
ĠØ± Ùĩ
ĠÙĨÙĪ Ø´ØªÙĩ
ĠØ¨Ø® Ø´ÛĮ
ĠÙħØŃ Ø³
Ùģ Ø¹
Â» ØĮ
ÙĪ Ú©
ÙĦ ÙĤ
ĠÛ ¹
ĠÚ© ÙĪØª
Ø´ Ú©
Ø§ ÙĪÛĮØ±
Ġ2 0
ĠÙħ Ø²
ĠØ´Ùĩ Ø±ÛĮ
ĠØ¢Ø² ÙħØ§ÛĮØ´
ĠØ±Ø§ Ø¨
ĠÙħ Ø§Ø¯Ø±
ÙĪÛĮ Ùĩ
Øµ ÙĪØ±Øª
ĠÛĮØ§ ÙģØªÙĩ
ĠØªØ§ Ø«ÛĮØ±
ĠØ·Ø¨ÛĮ Ø¹ÛĮ
ĠØŃ ÙħÙĦ
ÛĮØ¨ Ø§ÙĨÛĮ
ĠÙ¾ ÙĪÙĦ
ĠÙħÙĪØ³ÛĮ ÙĤÛĮ
ĠØ³ ÛĮÙĨ
ĠØ§ Ø¸Ùĩ
ĠÛ±Û µ
ĠÙĨ Ú©ØªÙĩ
ĠØ´ÙĪØ± Ø§ÛĮ
ĠÙ¾Úĺ ÙĪÙĩ
ĠØ¢ ÙĪØ±Ø¯
ĠØ¸ Ø±Ùģ
ĠØ¨ÙĦ Ú©Ùĩ
ĠØ¨Ø¹Ø¯ ÛĮ
Ú¯ ÙĪÙĨ
ĠÙģ ÙĦ
ĠÙģØ± Ø§ÙĩÙħ
ĠØ¹ Ø§ÙħÙĦ
ĠØ¬Ø§Ùħ Ø¹Ùĩ
ĠØ§ Ú©ÙĨÙĪÙĨ
ĠØŃ Ùģ
ÙĪÙĦÙĪ ÚĺÛĮ
ĠÙħÙĨ Ø§Ø¨Ø¹
ĠØ§ØŃØªÙħØ§ÙĦ Ø§
ĠØ¹ ÙĦÛĮ
Ù¾ Ø°ÛĮØ±
ĠØªØµ Ø§ÙĪÛĮØ±
ÙĪÙĦ Ùĩ
ÙĤ ÛĮÙħ
ĠØª ÙĪÛĮ
Ø±ÙĪ Ùģ
ÙĪ Ø¦
ĠÙħÙĪ ÙĤ
ĠØ±Ø§Ø¨ Ø·Ùĩ
ĠÙĪÛĮØ± ÙĪØ³
ĠÙĨØ®Ø³Øª ÛĮÙĨ
ĠÙĪ Ø³
ĠÙħØªØŃ Ø¯Ùĩ
Øµ Ø±
ĠÙ¾ ÙĨ
ĠÙħ Ùģ
ĠØ±Ø³ ÙħÛĮ
ĠØª Ø³
ĠØ®ÙĪ Ø§Ø³Øª
Ø´Øª ÛĮ
ĠØ¹ÙĦØ§ ÙĤÙĩ
ĠØ§Ùħ ÙĨ
ĠØ³ ÙĦØ§Ùħ
ĠØ¯Ø³Øª ÙĪØ±
ĠÙĨÙħ ÙĪØ¯
ĠÙ¾Ø´Øª ÛĮØ¨Ø§ÙĨÛĮ
ĠØª Ø±Ø§
ĠØ§Ø®Øª Øµ
ĠØª ÙĪØ±
ĠÙĨ Øª
ĠØ§Ø¨Øª Ø¯Ø§
Ø§Ø¯ ÙĦ
ĠØ§ÙĨØªÙĤ Ø§ÙĦ
ĠÙħØ´ Ø§Ø¨Ùĩ
ĠØ§ÛĮ Ø¯Ùĩ
ĠØ¬Ùħ Ø¹
Ø§ÙĨÛĮ Ùĩ
Ù¾Ø±Ø¯ Ø§Ø²
ĠØ´ÙĨ Ø§Ø®ØªÙĩ
ĠØ²ÛĮØ± Ø§
ĠØªØ¨ ÙĦÛĮ
ĠØ§Ø·ÙĦØ§ Ø¹
ĠØ¯ Ø®
ĠØ¨Ø§ÙĨ Ú©
ĠØ§Ø¸Ùĩ Ø§Ø±
ÙĪ Ø·
ĠØ¯Ø± ÙħØ§ÙĨ
ĠÙħÙĪÙģÙĤ ÛĮØª
ĠÙĨØ³ ÙĦ
Ù¾ ÛĮÙħ
Øª ÙĨ
ĠØŃØ§Ùģ Ø¸Ùĩ
Ø¬ ÙĪ
ĠØ§ÙĨØª Ø´Ø§Ø±
ĠØ¯Ø§Ø´Øª ÙĨ
ĠØ§ÛĮ Ø§ÙĦØ§Øª
ĠÙħØ¬ ÙĦØ³
Ú© Ø´
Ø³ÛĮ Ø¯Ùĩ
ĠÚ© Ø§
ĠØªÙĤ Ø±ÛĮ
ĠØµØŃ Ø¨Øª
ĠØ§ ÙĩÙħ
ĠØ¨ ÛĮØ±
ĠØŃ ÙħØ§ÛĮ
ĠØª Ø§ÛĮ
ĠØªØ¨ÙĦÛĮ Øº
ĠØ¯ ÙĤÛĮ
ĠØ¹ Ø±Ø§
ĠØ¹ ÙĪ
a c
ĠÙħÙĨ Ø§Ø·
ĠÚ¯ Ø²ÛĮÙĨÙĩ
Ø®ÛĮ Øµ
Ġ N
h e
Ø¨ Ø§Øª
ĠÚ¯ÙĦ Ú©Ø³ÛĮ
ĠØ¯Ø±Ø¢ ÙħØ¯
ĠÙĨØµ Ø¨
ĠØ¢ ÛĮ
ÙĪÙħ Øª
ĠØ¢ Ø´ÙĨ
ĠØ§ÛĮÙĨØªØ± ÙĨØª
ÙĪÛĮ Ø²ÛĮ
ĠØ´ Ø§
ĠÙĨÙĤ ÙĦ
ĠØªÙĨ Ø¸ÛĮÙħ
ĠÙħÙĤ Ø§ÙĦÙĩ
ÙĤ Ø¯Ø±
ĠÙħØª ÙģØ§ÙĪØª
ĠØªÙĪ Øµ
ÙĦ Ø§ÛĮÙĨ
ĠÙģ ØµÙĦ
ĠÙĨÙĪ Ø´Øª
ØªÛĮ Ø¨
ĠØª Ø§Ø²Ùĩ
ĠØ¢ Ø«
ĠÙģ Ø´Ø§Ø±
Ø´ÙĨ Ø§Ø³ÛĮ
ĠØ§ÙĩÙħ ÛĮØª
ĠÙħØŃ ÙħØ¯
Ø§ÛĮ Ø¹
ĠØ² ÙĨ
ĠÙ¾Ø±Ø¯Ø§Ø² ÙĨØ¯Ùĩ
Ø±Ú© Ø²
ĠØ§ÙĨÚ¯ ÙĦÛĮ
Ø¹ Ø§
ĠÚ©Ø§Ø± Øª
ĠØ¬Ø¯ÛĮØ¯ ÛĮ
ĠØ±ÙĪ Ø³ÛĮ
ĠÙģ Ø§ØµÙĦÙĩ
ĠØŃ ÛĮ
ĠØªÙĦ ÙĪÛĮØ²ÛĮ
Ø¨ ÙĪØ±
ĠØ¯Ø³Øª Ùĩ
ĠØ® ÙĦØ§
ĠÙ¾ÛĮØ´ÙĨÙĩ Ø§Ø¯
Ø§ Ø¬
ĠØ¯Ø§Ø± ÛĮÙħ
Ú¯ ÙĪÛĮ
ĠÙĨ ÙĪÛĮØ³
ĠØ§ Ø´Øª
ĠØ§ÙĪ ÙĦÛĮÙĩ
ĠÚ¯Ø±ÙģØª ÙĨ
ĠØ§Ø®ØªØµ Ø§Øµ
ĠØ®Ø§Ø± Ø¬ÛĮ
i on
ÙĨ ØªÛĮ
ĠØ§Ø³Øª Ø§ÙĨØ¯
Ø§Ø¨ ÙĤÙĩ
ĠØ§Ø¬ Ø§Ø²Ùĩ
Ø¹ÛĮ ÛĮÙĨ
Ø§Ùħ Ø¨Ø±
ĠØ¨Ø§ ØªØ±ÛĮ
ĠÙħÙĨØ¸ ÙĪØ±
ĠØ´ ÙĪ
ĠÙĨ Ùģ
ÙĪØ± Ø§ÙĨ
ĠØ³Ø¨ Ú©
ĠØ¨ÙĦ ÙĨØ¯
Ø² Ø§
ĠØª Ø¹ÛĮÛĮÙĨ
ĠØ¨ Ø¨ÛĮÙĨ
Ø³ÛĮ ÙĪÙĨ
Ú©Ø±ÙĪ Ø³
ĠÚ©Ø± Ùĩ
ĠÙģØ± Ø§ÙĨ
ĠÙĪØ± ÙĪØ¯
ĠØ± Ø´ØªÙĩ
Ø³ ÛĮÙħ
Ø¬ ÙĪÛĮ
Ġ W
ĠØŃÙħØ§ÛĮ Øª
ĠÙħØ´ØªØ±ÛĮ Ø§ÙĨ
ĠØ³ Ø¹ÛĮ
ĠØ§Ùħ ÙĪØ±
ĠØ§Ùħ ÛĮØ¯
ĠÙħÙĤ Ø§Ø¨ÙĦ
Ú¯Ø§Ùĩ ÛĮ
ĠØ§Ø± Ø³Ø§ÙĦ
Ø¹ ÙĨÙĪØ§ÙĨ
ĠÙĪ Ø³ÛĮ
ÙĤ Ø¯
ĠØ´ Ø§Ø±
ÙĨØ¯ Ø§ÙĨ
Ø®Øµ ÙĪØµ
ĠØ¬ Ø³Øª
ÙĤ Ø¨
Ø¹ ØªÛĮ
ĠØ± Ø³ÛĮØ¯Ùĩ
ĠØ§ÙģØ± Ø§Ø¯ÛĮ
Ø§ÛĮ ÙĨØ¯
Ù¾ÛĮ ÙĪ
ĠØ¨Ø± Ø¯
ĠØ§ÙĨØ¯Ø±ÙĪ ÛĮØ¯
ĠØ¯Ùĩ ÙĨØ¯
ĠÙħØ·Ø§ÙĦ Ø¹Ùĩ
ĠØªÙĤØ±ÛĮ Ø¨Ø§
Ø§Ø¨ Ø¯
ĠØªØ´ Ø®ÛĮØµ
ĠØ§Ø±ÙĪ Ù¾Ø§
ĠØ± ÙĪÙĨ
ĠÙħÙĨØ§Ø· ÙĤ
ĠÙĩÙĪØ§ Ù¾ÛĮÙħ
ĠØµ Ø§Ø¯Ø±
ÙħØ§ Ø¯Ùĩ
ĠØ¢Ø² Ø§Ø¯
ĠÙħØŃØ³ ÙĪØ¨
in g
ĠÙĩØ³Øª ÛĮØ¯
ĠØ´Ú© Ø³Øª
Ú© ÛĮØ¯
ĠØŃÙģ Ø¸
ĠØªØ± ØªÛĮØ¨
Ø± ÙĪÛĮ
ĠØ¯Ø³Øª ÛĮ
ĠØ¢Ø« Ø§Ø±
ĠÙģØ± ÙħØ§ÙĨ
ĠÙħØ± Ú¯
ĠØ¢Ø®Ø± ÛĮÙĨ
Ú¯ Ø§Ø±
ĠÙĦ Ø°
Ú©ÙĨ Ùħ
Ø¯ Ø¯
ĠÙĩ ÙģØª
ĠØ¨Ø¹ Ø¶ÛĮ
ĠÙħÙĤ Ø§ÛĮ
Øµ Ùĩ
ĠÙħØª ÙĪ
ĠÙĩ ÙĨØ¯
ĠØª Ø§Ø¨
Ú¯ Ø§Ø¨
ĠÙģ ÙĪÙĤ
ØŃ ÙĦ
ĠÙħØ® Ø§Ø·
ĠØ¯Ø± ÛĮ
ĠÙ¾Ø§ÛĮ Ùĩ
ĠØ¯ÙĤÛĮ ÙĤÙĩ
ĠÙħÙĤØ§ÛĮ Ø³Ùĩ
Ø¢ ÙĪØ±ÛĮ
ĠÙħÙĪ Ø¬Ø¨
ĠÙ¾ Ø±Ø³
Ø³ÛĮ Ø³
ĠÙħØ· Ø±ØŃ
Ø§ÙĤ ÙĦ
ĠØ³ÛĮ Ø§Ø³Øª
ÙĪ Ø²ÛĮ
Ú©Ø±ÙĪØ³ Ø§ÙģØª
ĠÚ©Ø§Ùħ Ù¾ÛĮÙĪ
Ø§ÙĦ Ø¯
ĠÙħØ³ Ø§
ÙĨ Ú¯ÛĮ
ĠØªØŃ Øµ
ĠØ¨ÛĮÙħ Ø§Ø±
ĠØ´ÙĨ Ø§Ø³
ĠØŃÙħ ÙĦÙĩ
ĠØ³ ÙĪØ¯
ĠÙ¾ Ø¯Ø±
ĠØ§Ø³ Ù¾
ĠØªÙĪ Ø¶ÛĮ
ĠØ¶ Ø±
ĠØ³ÛĮ Ø§Ø³ÛĮ
Ġ i
ÚĨ Ø§Ø±
ĠÙħØ§ÛĮ Ú©Ø±ÙĪØ³Ø§ÙģØª
ĠÙ¾ Ø®Ø´
ĠÙħ ÙĩØ±
ĠØ¢ ÙħØ§Ø¯Ùĩ
Ø² ÙĨ
ĠØª Ø§ÙħÛĮÙĨ
ĠØ¯Ùĩ Ùĩ
Ú¯Ø±Ø¯ Ø¯
ĠÙħØ±Ú© Ø²ÛĮ
ĠØªÚ©ÙĨ ÙĪÙĦÙĪÚĺÛĮ
ĠØŃÙĤ ÙĪÙĤ
ĠØ®Ø· Ø±
ĠÙ¾ Ø§Ø¯
ĠÚĨÙĨØ¯ ÛĮÙĨ
ĠØ® ÙĪÙĨ
Ø¦ ÙĪ
ÙĨ ÙĪ
ĠØ±ÙĪ Ø´ÙĨ
Ø§ Ø´ÛĮ
ĠØ± Ø²
ĠÚ© Ø¯
ØŃ Ø§ÙĦ
Ú© ÙĪØ±
ĠÙĪ ÛĮÙĨØ¯
Øª Ø§
Ø¹ Ø§ÙħÙĦ
ĠØ±ÙĪ ÙĨØ¯
Ø± Ø§Ø±
ĠØ° Ø®
ĠØ² ÙĨØ§ÙĨ
ĠØ¨ØŃ Ø«
Ġ O
ĠØ± ÙģØªÙĩ
Ø§Ùģ Ø²Ø§Ø±
ÙĤ Ø§
Ø§Ùĩ Ø§
o u
ĠØ¯Ø± ÙĪÙĨ
ĠØ´Ø§Ùĩ Ø¯
ĠØ¹Ø±Ø§ ÙĤ
ĠØ§Øª Ø§ÙĤ
ĠÙħØ§ Ø´ÛĮÙĨ
ĠÙĤØ¯ ÛĮÙħÛĮ
ĠØ§Ùħ Ø³Ø§ÙĦ
ĠÙĩØ³Øª Ùĩ
Ø§ Ø¬Ùĩ
ĠØ¨Ùĩ Ø¯Ø§Ø´Øª
ĠØ± ÙĪØ§ÙĨ
ĠÙħ Ø¬Ùĩ
Ø¯Ùĩ ÛĮ
ĠØ´ ÙĪÛĮØ¯
ĠÙħØ´ ØªØ±
ĠÚ©Ø§Ø± Ø¨Ø±Ø¯
ĠØ¨Ø§ ÙĤÛĮ
Ø¨ Ø¹
ĠØ¢Ø³ÛĮ Ø¨
ĠØªÙĪØ¶ÛĮ ØŃ
ĠÚ¯Ø± Ùħ
ĠØ¬Ø¯ Ø§
ĠØ¨Ø§ÙĦ Ø§ÛĮ
ĠØ¯ÙĨÛĮ Ø§ÛĮ
ÙĨ Ø§ÛĮ
ĠØ§Ø¹ Ø¶Ø§ÛĮ
Ø¬ ÙħÙĩ
ĠØ§ÙħÙĨ ÛĮØª
ĠÙĤØ± Ø§Ø±Ø¯
ĠØ¢Ùħ Ø§Ø±
ÙĤ ÙĤ
ĠÙ¾ Ø§Ú©
ĠÚ© ÙĪÙĩ
ĠÙ¾ÚĺÙĪÙĩ Ø´
ĠÚ©ÙĪØ¯ Ú©
ĠØ¬Ø° Ø§Ø¨
ĠÙģÙĪØª Ø¨Ø§ÙĦ
ĠÙĪØ± Ø²Ø´
ÙģØ§ Ø¹
ĠÙĨÛĮØ± ÙĪÙĩØ§ÛĮ
Ø¬ ÛĮØª
ĠØ± Ø®
Øº Ø§ÙĨ
ÙĩÙĨ Ú¯ÛĮ
ĠØ¢ ÙĤØ§ÛĮ
ĠÙħØ¬Ùĩ Ø²
ĠØ´ Ø¹
Ø±ÛĮ Ùĩ
Ú©ÙĨ Ø§ÙĨ
ĠØ¹ Ø¯Ùħ
ĠÙħÙĤ Ø¯Ø§Ø±
Ú¯Ø± Ø§Ùħ
Ø¯ÛĮ Ú¯Ø±
Ø³ ÙĦ
Ø®Øª Ùĩ
ÙĪØ± ØªÛĮ
ĠÙĪØ§ØŃ Ø¯
e l
ĠØ§Øµ ÙģÙĩ
ĠÙħØ¬ Ø§Ø²ÛĮ
ĠØ¯ÙĪ Ø¨Ø§Ø±Ùĩ
ĠØ¢ Øª
ĠØ§ Øº
ĠØ¬ÙĦÙĪ Ú¯ÛĮØ±ÛĮ
ĠÙĨ ØŃ
ĠÙģØ± Øµ
ĠØªÙĪ ÙħØ§ÙĨ
e d
ĠÙħØ¹ Ø§
ĠØ¯ Ø§
ĠÙħ Ú©Ø§ÙĨ
âĢ İ
ĠØª Ø¯
ĠØ±ÙģØª Ø§Ø±
ÙĪØ¹ ÛĮ
ĠØ±ÙĪØ³ÛĮ Ùĩ
ĠÚ©ÛĮÙĦÙĪÙħ ØªØ±
ĠØ° ÙĩÙĨ
ĠÚ©ÙĪØª Ø§Ùĩ
ĠØ´Ùħ Ø§Ø±
ĠØªØ±Ú© ÛĮØ¨
Ùħ Ø±
Ø³ Ø§ÙĨÛĮ
ĠØ§Ø± Ø²
ĠØ¨Ø§Ø´ ÛĮÙħ
ĠØ¹ÙĦ ÙħÛĮ
ĠØªØ£ Ø«ÛĮØ±
ĠØ³ Ø±Ø¯
ĠÙħØ´ Ùĩ
Ġ U
ĠØ¹ Ø§ÙĦÛĮ
Ø§Ú© ÛĮ
Û°Û° Û°
ĠØŃ Ø°
ĠØ¯Ø± Ø®ÙĪØ§Ø³Øª
ĠØ§Ø³Øª Ø®
ĠØ¢ÙħØ±ÛĮÚ© Ø§ÛĮÛĮ
ĠÙĪÛĮÙĨØ¯ ÙĪØ²
Ø³Øª Ú¯ÛĮ
ĠØªØºÛĮÛĮØ± Ø§Øª
Ø¨ ÙĨØ¯ÛĮ
ĠØ¢Ø± Ø§Ùħ
ĠØ¹Ø¶ ÙĪ
ĠÙ¾ÛĮØ´Ø± ÙģØª
ĠÙħÙĪ Ø§Ø¬Ùĩ
ĠØ¬ ÙĪØ§ÙĨ
ĠÙħ Ø§Ø¯Ùĩ
ĠÙħ Ø¤
Ø² ÙħØ§ÙĨ
ĠØªØ¬ Ø§Ø±ÛĮ
ĠØ¢Ùħ Ø¯
ĠÙĪØ§ÙĤ Ø¹ÛĮ
ĠÙħ Ø§ÙĦ
ĠÙħØ¯ Ø§Ø±
ĠÚ©ÙĨ Ùħ
ĠØ¬ Ø§ÛĮÛĮ
ĠÙħØ±Ø§ Ø¬
Ø§ÙĨ Øª
ĠÙĪ ÛĮØ¯ÛĮ
ĠØ±ÙĤ Ø§Ø¨Øª
ĠØ¯ÛĮ Ø¬ÛĮØª
e t
ĠØ¢ Ø°
Ø±Ø§ ØŃ
) .
ÙĪØ± ÛĮØª
Ø§Ùħ Ù¾
ĠÙģØ± Ø²ÙĨØ¯
Ø³Øª Ø§ÙĨÛĮ
Ú©Ø± Ø¯Ùĩ
ĠÙħÙĪ Ø³
ĠØ± ÙĪØ¯
o m
ĠØ´ÙĩØ± Ø³ØªØ§ÙĨ
ĠØªÙĪØ§ÙĨ Ø§ÛĮÛĮ
ĠÙĩ Ø´Øª
ĠÙĩØ³Øª ÛĮÙħ
ĠØŃØ±Ùģ Ùĩ
ĠÙĩÙħÚĨ ÙĨØ§ÙĨ
ĠØ¯Ø± Ø¬Ùĩ
ĠØ´ Ø¨ÛĮÙĩ
ĠÙħØ³Ø¦ ÙĦÙĩ
ĠØ¨ ÙĨÛĮ
ĠÙħØ¹ Ø±ÙĪÙģ
ĠÙĩÙħÚĨ ÙĪÙĨ
ĠØª ÙģØ§ÙĪØª
ĠØŃØ¯ Ø§ÙĤÙĦ
ĠÚ¯ÛĮ Ú¯Ø§Ø¨
ĠÚ©ÙĪØ¯ Ú©Ø§ÙĨ
ĠØ¹ÙĦ Øª
Ø§ÙĦ ÙħÙĦÙĦÛĮ
ĠØ¨ Ø´
ĠØ§ØµÙģÙĩ Ø§ÙĨ
ĠÙħØ®ØªÙĦÙģ ÛĮ
ĠØ°Ø® ÛĮØ±Ùĩ
ĠÛ±Û ¶
ĠØªØ§Ø±ÛĮ Ø®ÛĮ
ĠÛ±Û ´
ĠØ²ÛĮ Ø¨
Ú©Ø±Ø¯ ÙĨØ¯
ĠØ´ Ø§ÙĨ
ĠØ¸Ø±Ùģ ÛĮØª
ĠØ±Ø³ Ø§ÙĨÙĩ
ĠØ¢ Ø´
Ø¨ ÙĪØ¨
ĠÚ¯ Ø§ÙĩÛĮ
ĠÙģ Ø§ÛĮÙĦ
Ġ V
Ø§Ùħ Øª
ĠÙ¾ ÙĪØ³Øª
ĠÙĤØ± ÙĨ
ĠØ±Ø³ ÛĮØ¯ÙĨ
ĠÙģØ± ÙĩÙĨÚ¯
ĠØ³Ùģ ÛĮØ¯
ĠØ³Ø§Ø®Øª ÙħØ§ÙĨ
ĠÙħØ³Øª ÙĤÛĮÙħ
ÛĮÙĨ Ú©
ĠØ§ Ø¨Ø±
ĠØ¯Ø§Ø´Øª ÙĨØ¯
Ú¯ÙĪ ÛĮÙĨØ¯
ĠÙħÙĨ Ø¬Ø±
ĠÙħÛĮ Ø²
ĠØ¬ÙĨ ÙĪØ¨ÛĮ
ĠØ¬ÙĨ ÙĪØ¨
ĠÚ© Ø¯Ø§Ùħ
ĠØ¯ Ùģ
Ù¾ Ø¯
ĠÙĨ Ø¨
ĠØ§ÙĨÚ¯ÙĦÛĮ Ø³ÛĮ
ĠÙĨØª Ø§ÛĮØ¬
ĠØ®ÙĪ Ø§Ø¨
ÙĦØ§ Ú©
Ø³ Ø§ÛĮØª
ÙĨ Ø²
ĠØ§Ø³ Ùħ
ĠØ¯ ÚĨØ§Ø±
Ø¨ Ø§ÙĨÛĮ
ĠØ® Ø±ÙĪ
ĠÚ¯Ø° Ø§Ø±ÛĮ
ĠÙħØ« ÙĦØ§
ĠÙģØ± ÙĩÙĨÚ¯ÛĮ
ĠÙĤØ¨ ÙĦÛĮ
ĠØ¯ÛĮÚ¯Ø± Ø§ÙĨ
ĠØ¨Ø¯ Ø§ÙĨ
ĠØ²ÛĮ Ø¨Ø§
ĠØŃ ØªÙħØ§
ĠØ¨ ÙĨØ§
Ġ 6
ĠØ´Ø§Ø± Úĺ
ĠÙħØªÙĪ Ø¬Ùĩ
ĠØ±ÙĪ Ø³Øª
ĠÙĨØ¯ Ø§Ø´Øª
Ø§Ø³ Ø§Ø³
Ø§Øµ ÙĦ
ĠØ±Ø§ Ø³Øª
ĠØ§Ø³ ÙĨ
ÙĨ Ø¸Ø±
ĠÙĤ Ø§Ø¯Ø±
ĠØ¢ÙĨ ÙĦØ§ÛĮÙĨ
ĠØ¶ Ø¯
ĠØ´Ùĩ Ø±Ø¯
Ø±Ø³ Ø§ÙĨÛĮ
ĠØ¢ÙĨ Ø¬Ø§
Ø¨ Ø§Ø²
ĠØ¹Ø¨ Ø§Ø±Øª
ĠØ¬ ÛĮ
ĠØ´ ÙħØ§ÙĦ
ĠØ¨Ø± ÙĪØ²
ĠØ§ Ø±Ø¯
Ø§Ø¨ Ø·
ĠØªØ¹ Ø±ÛĮÙģ
ÙĨØ¯ Ø±
ĠØ¬Ø° Ø¨
ĠØ§ÛĮÙĨ Ø¬Ø§
Ø§Ø¦ ÙĦ
Ø§Ùģ ÙĤ
Ø±ÛĮ ØŃ
ĠÙģØ± Ø¢
Ø¯ Ø§ÛĮ
ĠÙħØ³Ø§ ÙģØ±
ĠÛ³ Û°
ĠØ®ØµÙĪØµ ÛĮ
Ø§Ø¯ Ú¯ÛĮ
Ú©ÙĨ Ø´
ĠØ´Ø®Øµ ÛĮØª
ĠØ³ ÛĮÙħ
a s
ĠØŃØ° Ùģ
ĠÙĨÛĮØ± ÙĪÛĮ
ĠØ¢ÙĨ ÚĨÙĩ
ĠØ®Ø§Øµ ÛĮ
ĠØª ÛĮ
Ùħ ÛĮØ±
ĠÙĨ Ú¯Ø±
ĠØºØ° Ø§ÛĮÛĮ
Ø¨ ÛĮØ±
ĠÚ©Ø§ÙħÙ¾ÛĮÙĪ ØªØ±
ĠØ¨Ú¯ÛĮØ± ÛĮØ¯
ĠÙĨØ¸ Ø§ÙħÛĮ
ĠØ¨Ø± Ø§Ø³Ø§Ø³
ĠÙĪØ² ÙĨ
a m
ĠØ¬ Ø§ÙĦØ¨
Ù ī
ĠØ´Ùħ Ø§Ø±Ùĩ
ÙĪ Ùģ
ĠÙĨÙĤ Ø·Ùĩ
ĠØ¬Ùħ Ø¹ÛĮØª
ĠÙĤ ÙĩØ±
ĠÙĪ Ø¸
ĠÚ©Ø§Ø± Ø¨Ø±ÛĮ
ĠØªØ§ Ú©ÛĮØ¯
ĠÙħØŃ Ø¨ÙĪØ¨
ĠÙħÙĩ ÙĨØ¯
ĠÙ¾Ø²Ø´ Ú©ÛĮ
ĠÙĩ ØªÙĦ
ĠÙĦØ¨ Ø§Ø³
ĠÙĨØ¯Ø§Ø± ÙĨØ¯
ØªÙĪØ§ÙĨ ÛĮÙħ
ĠØ®ÙĪØ§Ùĩ ÛĮØ¯
ĠÙħ Ø®ØµÙĪØµ
ĠØ± Ùħ
Ø§Ø¨ Ø§ÙĨ
ĠÚĺ Ø§Ù¾
ĠØ§Øº ÙĦØ¨
ĠÙĨØ¯ Ø§Ø´ØªÙĩ
ĠØ¨Ø±Ø®ÙĪØ±Ø¯ Ø§Ø±
ĠÚ¯Ø³ØªØ± Ø¯Ùĩ
ĠÛ² Ûµ
ĠØ¹ÙħÙĦÛĮ Ø§Øª
Ùħ Ø¹
Ø§Ú© Ø³
ĠØ§ÙĤØªØµ Ø§Ø¯
ĠÚ¯ Ø±Ø§Ùģ
ĠÙģØ±ÙĪØ´ Ú¯Ø§Ùĩ
ĠØ³ ÙĤ
ĠØ·ÙĪÙĦ Ø§ÙĨÛĮ
ĠØ® ÙĪØ±Ø¯
ĠØ¨Ø® ÙĪ
Ú¯ Ø§ÙĨÙĩ
ĠÙħØŃ Øª
Ùħ Ø§Ùĩ
Ø¨ÛĮÙĨ ÛĮ
Ġ 8
ĠÙħÛĮ Ø¯Ø§ÙĨ
ĠÙģ ÙĨÛĮ
ĠÚ©Ø±Ø¯ Ùħ
ĠØ±Ø§ØŃ ØªÛĮ
ĠÛ±Û³Û ¹Û
ĠÙ¾ Ø³Øª
ĠÙ¾ ÙĦ
ĠØ¬ Ø´ÙĨ
Ø¬ Ø§ÙĨ
ĠØ³ÙĪ Ø®Øª
Ø¢ ÙĪØ±
ĠÙħØŃ ØªÙĪ
ĠØµ ÙĨØ¯
ĠÚ©Ø§Ø± ÙĩØ§ÛĮ
Ø§ÙĦÛĮ Ø§
ĠØ¢ÙĦ ÙħØ§ÙĨ
ĠØ¬ Ø§Ø±ÛĮ
ĠÙħØ´ØªØ± Ú©
Ø¯Ùĩ ÛĮØ¯
Ø¢ Ùħ
ÙĪÛĮ Ø³ÛĮ
ÙĪ ÛĮÙĨ
ĠÙĨ Ø±Ø®
ĠÛĮÚ© Ø¯ÛĮÚ¯Ø±
ĠÚ¯Ø° Ø§Ø´Øª
Ú©ÙĨÙĨØ¯ Ú¯Ø§ÙĨ
ĠØ¨ÛĮØ± ÙĪÙĨ
ĠÙ¾ Ø§
ĠØ¯Ø® ØªØ±
Ø¨Ø±Ø¯ Ø§Ø±ÛĮ
ĠØ§ÙħÚ©Ø§ÙĨ Ø§Øª
Øº ÙĦ
ĠÙĨ ÙĩØ§ÛĮÛĮ
ĠØªØ§ Ú©ÙĨÙĪÙĨ
ĠØ§ÛĮ Ø³Øª
ÙĪ Ø³ÛĮ
ĠÙĨ Ø®ÙĪØ§ÙĩØ¯
ĠØ® ÙĪØ±Ø´
ĠÙħØ³ ÙĦ
ĠØ¹ Ùĩ
i s
ĠÙģØ±Øµ Øª
ĠØ¨Ø§Ø² Ú¯
ĠÙ¾Ø± ÚĨ
ĠÙģØ±Ø§ÙĨ Ø³Ùĩ
ĠØ±ÙĪ ÛĮØ¯
Ø² ÙħÛĮÙĨ
c h
ĠØªØŃ ÙĦÛĮÙĦ
Ø§Ùħ ÙĪØ´
ĠØ³Ø§ÙĦ Ùĩ
Ø¯Ø§Ø± Ø§ÙĨ
Ø¨ ØŃ
ĠØ§ÙĦÚ©ØªØ± ÙĪÙĨ
ĠØ§ ÙĪØ±
ĠØ¬Ø§ÛĮ Ø²Ùĩ
ĠÙħ Ø§ÙĨØ¯
ĠØ¯ Ø´
ĠØ¨Ø§ ÙĪØ±
ĠÙħ ÙĩØ§
ĠÙħØŃ ÙĦÛĮ
Ø³ ÙĪØ±
ĠÛĮ ÙĪÙĨ
ĠÙĨØ¸ ÛĮØ±
ĠØ¹ ÙĦÛĮÙĩ
Ø± Øª
ĠØ¯Ø± Ú©
ĠØ§ÙĨØªØ®Ø§Ø¨ Ø§Øª
ÙħØ§ÙĨ Ø¯
ĠØ§Ùģ Ø²Ø§Ø±
Ġ20 1
ĠÙĪØ§ÙĤ Ø¹ÛĮØª
ĠÙħØ´ Øº
ĠØ¢Øª Ø´
Ø¸ Øª
ĠÙħ Ú¯
Ø¯Ùĩ Ùħ
ĠØµØ¯ Ø§ÛĮ
ĠÙ¾Ø§Ø± Ú©
ĠÚ© ÙĦØ§Ø³
ĠØ§Øª ØŃ
Ġ X
ĠØ®ÙĪØ¯Ø±ÙĪ ÙĩØ§ÛĮ
Øº Ø°
ĠØªÙħØ§ Ø³
ĠÚ¯Ø±Ø¯Ø´ Ú¯Ø±ÛĮ
ĠØ±ÙĪ Ø§Ø¨Ø·
ÙĪØ§ Ø¬
ĠØ´ÙĨØ§Ø³ Ø§ÛĮÛĮ
ĠØ¨Ø§Ø² Ø¯ÛĮØ¯
ĠØ¨ Ú¯Ø°Ø§Ø±
ĠØ¨Ø± Ø¬
Ø· Ø±
ĠÙħØ³Ø¦ ÙĪÙĦ
Ú¯ ÙģØª
Ø§ Ø¸
ĠØ¯Ø± Ø¯
ĠØ³ÙĪ Ø§ÙĦ
ĠØ§Ùħ Ø±
ĠØªÙħ Ø±Ú©Ø²
Ú¯ÛĮØ± ÙĨØ¯
ĠØŃ ÙĤÛĮ
ĠØµÙĨ Ø§ÛĮØ¹
ĠÚ© ÛĮ
ĠÙħØ±Øª Ø¨Ø·
ĠØ¯ Ø§Ùħ
ĠØ±ÙĪÙĨ ÙħØ§ÛĮÛĮ
ĠØ³ÛĮ Ø§Ùĩ
ĠÙħØ±Ø§Ø¬ Ø¹Ùĩ
Ø±ÛĮ Ø¨
Ø¬Ùĩ ÛĮØ²
ĠÙħ Ø§Ø³
ĠÙĨØ¨ Ø§ÛĮØ¯
ĠØ§Ø´Øª Ø¨
ĠØ¨ ÙĪØ±
Ø§ÙĦ Ø¹
Ú© Ùħ
ĠØ±ÙĪ Ø³ØªØ§
ĠØ® Ø§Ú©
ĠØ§ÙĨ ÙĤÙĦ
Ø´ Ø§Ùĩ
ĠÙģÛĮ Ø²ÛĮ
o t
ĠØª Ø¬ÙĩÛĮØ²
Ø®ÙĪØ§Ùĩ ÛĮØ¯
ÙĪÛĮ ÙĦ
Ġ1 0
ĠØ¨Ø² ÙĨ
ĠÚ©Ø³ Ø§ÙĨÛĮ
ĠØ¬Ø² Ø¦ÛĮ
Ø§ÙĦ Ø´
ĠÙ¾ ÙĦØª
Ùħ Ø§Øª
ĠØ¨Ø§Ø´ Ú¯Ø§Ùĩ
a d
ĠØ¢Ø´ÙĨ Ø§
Ġ s
ĠØµ ÙĪØ±ØªÛĮ
ÙĨ ÙĪØ¹ÛĮ
ĠØªØŃØµ ÛĮÙĦ
Ø¨Ø§ Ø´
ĠÚ¯Ø° Ø§Ø´ØªÙĩ
ÛĮØª Ø§ÙĨÛĮ
Úĺ ÙĨ
Ġ 7
Ø¢ ÙĪØ±Ø¯
ĠØ§ Ú©Ø³
ĠØ¸Ø§Ùĩ Ø±
ĠØ³ÙĦØ§Ùħ Øª
ĠÙĪØ³ÛĮ ÙĦÙĩ
ĠÙħØ´Øº ÙĪÙĦ
i l
ĠÙħØ· ÙĦØ¨
ĠÚĨ Ú¯ÙĪÙĨÙĩ
ĠØ¯ Ùħ
ĠØ¨ Ú¯ÛĮØ±Ø¯
ĠØ±ÙĪ ØŃ
ĠÙħØ± ÙĪØ±
ĠÙħØŃ ÙĤÙĤ
ĠÚ¯Ø³ØªØ± Ø´
Ùħ Ø§Ø¯
ÙĤ Ø§Øª
ĠÙ¾Ø±ÙĪ Ø§Ø²
Ø±ÙĪ Ø²
ĠØ´Ø¯ ÛĮØ¯
ĠØ¹Ùħ Ø±
Ġ 9
Ú¯ ÙĨ
ĠØŃ Ø§ØµÙĦ
ĠÙħØ¯ Ø±Ø³
Ø± Ø§ÛĮÛĮ
ĠÙģØ± Ø§ÛĮÙĨØ¯
ĠØ²ÛĮ Ø³Øª
ĠØ° Ú©Ø±
ĠØ± Ø¯
Ø³ Ø¨
Ġ p
ĠØºØ° Ø§
ĠØ±ÙĪØ² Ø§ÙĨÙĩ
o l
ĠØªÙĪØ§ÙĨ Ø³Øª
Ø± ÛĮÙĨ
ĠÙħØ³ Ø§Ø¨ÙĤ
ĠÙĨ Ø§ÙħÙĩ
ĠØªÙĦÙĪÛĮØ²ÛĮ ÙĪÙĨ
Ġ c
ĠØ¬Ø§ÛĮ Ú¯Ø§Ùĩ
ĠÙħØ±Ø§ Ø³Ùħ
ĠÙĨÙħØ§ÛĮØ´ Ú¯Ø§Ùĩ
Ø² Ø§Ø¯Ùĩ
ĠØ¹ÙĦ ÙĪÙħ
ÙģØ± Ùħ
Ø¯ Ø§Ùģ
ĠØ¯ ÙĤØª
ĠØŃ Ø¬Ùħ
ĠÛ±Û ·
ĠØ§Ø³ØªØ§ÙĨØ¯ Ø§Ø±Ø¯
Ø· Ø§ÙĨ
ĠØ¢ Ø¯
ĠØ³Ø§Ø®Øª Ø§Ø±
ĠØ¯ Ú©ØªØ±
Û ¹Û
Û ³Û
ĠÙ¾ÛĮ Ø§Ø¯Ùĩ
ĠÚ¯ÛĮØ± ÛĮ
ĠØ±Ø§ØŃ Øª
ĠÙħÙĨ Ø§Ø³
ĠÙĦØ° Øª
ĠÙħØ³Ø§Ø¨ÙĤ Ø§Øª
ĠÛ±Û ±
ĠÙĨÙĪØ¹ ÛĮ
ĠØ§Ùħ ÙĨÛĮ
ĠØµ Ø¯Ø§
ĠØ´ Ø´
Øª ØŃ
ĠÙħÛĮ Ø´Ùĩ
ĠØªÙĪØµ ÛĮÙĩ
Ú¯Ø° Ø§Ø±Ø¯
Ø±Ø§ ÙģÛĮ
ĠØ¨ Ø¨Ø±
ĠØ¬ÙĦ Ø³Ùĩ
Û Ģ
ĠØ¶ ÙħÙĨ
ĠØ² Ø¯
ĠØ¯ÛĮØ¬ÛĮØª Ø§ÙĦ
ĠØ´ Ø§ÛĮ
Ú©ÙĨ Ùĩ
ĠØªÙĪ Ø§ÙģÙĤ
Ø´ Ø§
ĠØ¨Ø²Ø± Ú¯ÛĮ
ÙħÛĮ Ø²
ĠØªØŃÙĤÛĮÙĤ Ø§Øª
ĠÙħØª Ø®ØµØµ
ÙĪØ±ÛĮ Ùĩ
ĠÙħÙĤ Ø§
ĠØ¢ Ø³
ĠØ´Ùħ Ø§ÙĦÛĮ
ĠØ± Ø³Øª
ĠØªØŃ Ø±ÛĮÙħ
ĠÙĤ ÙĪØ§ÙĨ
ĠØ§Ø´ ØªØ±
ĠÙħÙĤØ§Ùħ Ø§Øª
ĠÛ±Û ³
ĠØµ Ø¨ØŃ
ĠØ¨Ø§ÙĦ Ø§ÛĮÛĮ
ĠÙģØ± ÙĪØ¯
Ú© Ø²
ĠÚĨ Ø§Ù¾
ĠØ³Ùĩ Ø§Ùħ
ĠØ¨Ø± ÛĮØªØ§ÙĨÛĮ
ĠØ®Ø¨Ø± ÙĨÚ¯
ĠÙħØ¹Ø§ ÙĪÙĨ
ĠØ¢ Ø¨ÛĮ
ĠÙĨÛĮÙħ Ùĩ
Ø§ ÙĪÛĮ
ĠØª Ø³Øª
ÙĦ Ø§ÙĦ
ÙĨ Ø´
ĠØ¨Ø§Ø² Ø§Ø±ÛĮ
ĠÙĤ Ø§ÙĦØ¨
ĠØ±ÙĪØ² ÙĨØ§ÙħÙĩ
ĠØ¬Ø§ÛĮ Ú¯Ø²
ĠÙħØ¹ ÙĨÛĮ
ĠÛ± Û°Û°
ĠØ¨ ØªÙĪØ§ÙĨØ¯
ĠØ¨Ø±Ú¯ Ø²Ø§Ø±ÛĮ
ĠÙħØ§Ùĩ ÛĮ
Ø±ÛĮ Ø²ÛĮ
ĠØ®ÙĪØ¯ ØªØ§ÙĨ
ĠØ¢ Ùģ
ĠÙħ Ø¨Ø§Ø±
ĠØ³Ø§Ùħ Ø§ÙĨÙĩ
Ù¾ ÙĦ
ĠØª ÛĮØ±
Ø±ÙĪ Ùħ
Ø§ÙĨ Ú¯ÛĮ
ĠÚ¯ÛĮ Ø§Ùĩ
ĠÙħÚ© Ø§ÙĨÛĮ
ĠØ§Ø· Ø±Ø§Ùģ
Ø² Ø¨
ĠØ§Øµ ÙĦØ§ØŃ
ĠÚ© Ùģ
ĠÛ² Û´
ĠØ´Ø¯ Øª
ĠØªØ¨ ÙĦØª
ĠØ§ÙħÙĨÛĮ ØªÛĮ
ĠØ®ÙĪØ§Ùĩ ÛĮÙħ
ĠØ¨ÙĪØ¯ Ø¬Ùĩ
ĠØ¯ÙĪÙĦ ØªÛĮ
ĠÙ¾ÙĪØ´ Ø´
Ù¾ Ø±Ø³
ĠØ§Ùħ ØªÛĮ
ĠØ§Ø¯ Ø§Ø±Ùĩ
ĠÚ©Ø´ Ùģ
ĠÙħÙĪÙĤ Ø¹ÛĮØª
ĠØ³ Ø§ÛĮ
ĠÙĪ ÛĮØ¯
ĠØ§Ø¹ ÙħØ§ÙĦ
ĠÙĨ Ú©Ø±Ø¯Ùĩ
Ø¦ Øª
ĠØ¹Ùĩ Ø¯Ùĩ
ĠÙĨØŃ ÙĪÙĩ
ĠØ¬Ø¯ ÛĮ
ĠØ¨Ø± Ø¯Ø§Ø´Øª
ĠØ³Ø® ÙĨ
Ú¯ Ø§ÙĨÛĮ
ĠÙĨÙĤ Ø§Ø·
ĠÙģØ§Ø± Ø³ÛĮ
ĠÙħØ´ Ø§ÙĪØ±
ĠØ®ÙĪØ¯ Ùħ
Ġ ÙĦØ§
ĠØ« Ø§ÙĨÛĮÙĩ
ĠØ®ÛĮ Ø§Ø¨Ø§ÙĨ
ĠØ³ Ø§ÙĨ
ĠÛĮØ§Ø¯ Ú¯ÛĮØ±ÛĮ
ĠØ¯Ø± ÙĪ
ĠØ§ÛĮÙĨ Ø³ØªØ§
ĠÙħØª Ø¹Ø¯
ĠÙĨØ§ Ø´ÛĮ
ĠÙĤ Ø¯Ùħ
ĠÙĨ Ø§Ø±
ĠØ¯ÛĮ Ú¯Ùĩ
ĠØ±Ùĩ Ø¨Ø±
Ùħ Ø¦
ĠÙĦ Ù¾
ĠÛ±Û ¹
ĠÙĪØ§ Ú©ÙĨØ´
ĠØ§Ø´ØªØ¨ Ø§Ùĩ
ĠÙħØ¨ ÙĦ
ĠØ§ÙħØ±ÙĪ Ø²Ùĩ
ĠÙģØ± Ùħ
ĠØ§Ú© Ø«Ø±
ĠÙĨÛĮØ³Øª ÙĨØ¯
Ú¯ ÛĮÙĨ
ÙĨ Ø§Ùħ
ĠÙĨØ´ Ø³Øª
ĠØ±ÙģØª ÙĨ
ĠÙģØ±Ø¯ ÛĮ
ĠØ§Ùģ ØºØ§ÙĨ
ĠØª Ø±Ø³
ĠÚ¯ÛĮÚ¯Ø§Ø¨ Ø§ÛĮØª
ĠÙħØµ ÙĨÙĪØ¹ÛĮ
ĠØ§Ø¹Øª ÙħØ§Ø¯
ĠØ¹ Ú©
ĠÙħØŃØªÙĪ Ø§ÛĮ
ĠØ§Ø² Ø¯
ĠØ± Øª
ĠÙĦÛĮ Ø³Øª
Â» .
ĠÙħØŃ Ùħ
ĠØ´ÙĩØ±Ø¯ Ø§Ø±ÛĮ
ĠÛ±Û¹Û ¹Û
ĠÙ¾ ÙĦØ§Ø³
ĠØ± ÙħØ²
Ø· ÛĮ
ĠÙ¾Ø±ÙĪ Øª
ĠØ§Ùĩ Ø¯Ø§Ùģ
ĠØ±Ø§ÛĮ Ú¯Ø§ÙĨ
ĠØ§Ø³ Ø§Ø³ÛĮ
ĠØ¯Ø§Ø¯ ÙĨØ¯
Ø± ÙĨ
ĠØ§ÛĮÙĨ ÚĨÛĮ
ĠÙģ ÙĩØ±
ĠÙ¾ÙĦÛĮ Ø³
ĠÙħØ· ÙħØ¦
ĠØ³Ø¨ Ø¨
ĠÙĤÙĪØ§ÙĨ ÛĮÙĨ
ĠÙħØº Ø²
Ú© Ø§Øª
ĠØ³Ø±Ø§ Ø³Ø±
ĠØ¨ ÛĮØª
ĠØ§ ÛĮØª
ĠØªØ±Ú© ÛĮÙĩ
ĠØŃ ÙĪ
ĠØ¢ ÙĪØ±
ĠØ§ÙĨ Ø³Ø§ÙĨÛĮ
ĠØ§Ø³Øª Ø§Ø±Øª
ĠÙħÙĪ Ø²Ùĩ
ĠØº Ø±Ø¨ÛĮ
ĠØªÙĤ Ø³ÛĮÙħ
ĠÙħÙĩ Ø§Ø±Øª
Ø§ ÙĪ
ĠØ¢ÙħÙĪØ² Ø´ÛĮ
ĠØ® Ø¨Ø±ÛĮ
ÙħÛĮ ÙĦ
ĠØµÙĨ Ø¹ØªÛĮ
. }
ĠØ¨Ø§Ø´ Ùĩ
ĠÚ©Ø§Ø± Ø´ÙĨØ§Ø³
ĠÚĨ ÛĮÙĨÛĮ
ĠØ§Ø¹ ØªØ±
ĠÙħØª Ø¹
ĠØ§Ø± Ø²ÛĮ
ĠØ§ÛĮÙĨØªØ± ÙĨØªÛĮ
ĠØŃÚ© ÙĪÙħØª
ÙĩØ± Ùĩ
ĠÙĤØ±Ø§Ø±Ø¯ Ø§Ø¯
ĠØ¨ÛĮÙħ Ùĩ
ĠØ¢ ÙĪØ±Ø¯Ùĩ
Ø¦ ÛĮÙĨ
ĠÙħØ® Ø§ÙĦ
ĠÚĨÛĮ Ø³Øª
ĠØ¢ Ø¯Ùħ
ĠØ±ÛĮ Ø§Ø³Øª
ĠÙħØ³ Ø§Ø¦ÙĦ
ĠØ¨ Ø³
ĠØ¯ Ú©
ĠØŃ Ø²Ø¨
ĠØ« Ø§Ø¨Øª
Ø´ ÙĪ
ĠØ¨ ÙĨØ¯ÛĮ
ĠØ¢ÙĨ Ø§ÙĨ
Ø¹ Ùģ
ĠÙħØ¹Øª ÙĤØ¯
Ġ m
ĠÚ© Ø´ØªÙĩ
ĠÙ¾ÙĦØª ÙģØ±Ùħ
ĠÙħØ¹Ùħ Ø§Ø±ÛĮ
ĠÙħØ« Ø¨Øª
ĠÙĦØŃ Ø§Ø¸
ĠØª Ø®ØµØµ
Ú© Ø§ÙĦ
ĠÙħØ¯ÛĮØ± Ø§ÙĨ
ĠØ¯Ø§Ø± Ùĩ
ĠÛ²Û°Û ²
ĠØ³ÙĨ ØªÛĮ
ĠØ§ÙħØªÛĮ Ø§Ø²
Ø³ ÙĪÙĦ
ĠØ² ÙĨØ¯Ùĩ
ÙĨØ¯ Ú¯ÛĮ
ĠÙħØ¯ ØªÛĮ
ĠÙĦØŃ Ø¸Ùĩ
ĠØ¹ ÙĨ
ĠØªØµ ÙĪØ±
ÛĮØ± ÛĮ
Ø² Ø±
ĠØ³ÙĦ ÙĪÙĦ
ĠÚ©Ø±Ø¯ ÛĮÙħ
u s
ĠØ¨ ÚĨÙĩ
ĠØ¹Ø¨ ÙĪØ±
ĠÚĨ Ø§ÙĦØ´
ĠØ¯Ø³Øª Ø±Ø³
ĠØ®ÙĪØ¯ Ø±ÙĪÛĮ
en t
ÛĮÚ©Ø³ ÙĦ
ĠØ³Øª Ø§Ø±Ùĩ
ĠØ§ Ú©Øª
Øº Ø§ÙĦ
ĠØ´ÛĮ ÙĪÙĩ
i d
ĠØ§ÛĮÙĨØ³ØªØ§ Ú¯Ø±Ø§Ùħ
ĠØ±Ø³Øª ÙĪØ±Ø§ÙĨ
ĠØ¨Ø§ÙĦØ§ ØªØ±
ĠÙĤ ÙĪÛĮ
ĠØ± Ø¹
Ú© ÙĦÛĮ
Ú¯Ø² Ø§Ø±ÛĮ
ĠØªÙĤ ÙĪÛĮØª
Ø¢ ÙĨ
ĠÙħØ¯Ø±Ø³ Ùĩ
ĠÙĪØ§ÙĤØ¹ Ø§
ĠÚ¯Ø± Ø§ÙĨ
Ø§Ø± Ø´
ĠØ¯ ÛĮØ¯ÙĨ
ĠØ¢ÙĨ Ú©Ùĩ
ĠØªØ¬ Ø§Ø±Øª
Ø¬ Ø§Øª
ĠØ§Øµ ÙĦØ§
Øº ÙĨ
ĠØ³ ÙĩÙħ
ĠØ± Ø¶
ĠØªØ¬ÙĩÛĮØ² Ø§Øª
ĠØ¨Ø®ÙĪ Ø§Ùĩ
ĠÙ¾ Ø§ÙĦ
ĠØ² Ø¯Ùĩ
ÚĨ ÙĨØ¯
ĠØ±Øª Ø¨Ùĩ
ĠØ§Ø±Øª Ø´
ÙĦ Ø§Øª
ĠØ¨Ø§Ø²Ú¯ Ø´Øª
ĠØ²ÛĮØ¨ Ø§ÛĮÛĮ
ÙĦ ÙĨØ¯
ĠØ¹ ÙĤØ¨
ĠØ§ÙĨÙĤÙĦ Ø§Ø¨
ĠÙģ ÙĦØ³
Ø¨ÙĪ Ú©
ĠØ§Ø³Øª Ø±Ø§Øª
O S
ĠØ§Ø´ØªØ± Ø§Ú©
ĠÙģØ¶ Ø§ÛĮÛĮ
ĠÙħÙģ ÛĮØ¯
an d
ĠÙģ ÙĪÙĦ
Ø±Ø§ Ø¬
ĠØ´Ùĩ Ø±ÙĪ
ĠÙħØ¯ÛĮØ± Ø¹Ø§ÙħÙĦ
Ø® ÙĪØ§ÙĨ
ĠÚ©Ø§Ø± Ú¯Ø±Ø¯
ĠØ§Ø³Øª ÙĤ
ĠÙĤØ¯Ø±Øª ÙħÙĨØ¯
ĠØ§ÙĨ Ú¯ÛĮ
ĠÚĨÙĨØ¯ Ø§ÙĨ
ĠÙħÙĨ ÙģÛĮ
ĠØ±ÙĪØ² ÙĩØ§ÛĮ
ĠÙħØ³ Ø§Ø¨ÙĤÙĩ
ĠØ¨Ø±Ø³ Ø¯
ĠÛµ Û°
ĠÙħØ° Ø§Ú©
ÙĦ ÙĪØ¯
ĠÙħØ±Ø§ Ú©Ø²
Ø² ÙĦ
ĠÙ¾Ø³ Ø±
Ġ Ù
Ø¬ Ø§ÛĮÛĮ
Ùħ Ù¾
ÙĨ ÙħØ§ÛĮ
ĠØªØ±Ø§ Ø´Ùĩ
ĠÙħÙĩØ§ Ø¬Ø±
Ø§ÙĦ ÙĦÙĩ
ĠØ¯Ùģ ØªØ±
ĠØº Ø±Ø¨
ĠØ±Ø§Ùĩ ÛĮ
o f
ĠØµ Ø§ØŃ
ĠØ±Ø¹ Ø§ÛĮØª
ĠØ¯Ø§ÙĨ Ø³Øª
ĠÙħØ¬ Ø¨ÙĪØ±
ĠØ¹ Ø¯Ø¯
ĠÙħØŃ Ø§Ùģ
ĠÙħÙĨØª ÙĤÙĦ
ĠØ§Ø¬ Ø±Ø§ÛĮÛĮ
ĠØ¨ÛĮØ´ ØªØ±ÛĮÙĨ
ĠÚ© ÙĦØ§
Ġ f
ÙĪ ÙĦÛĮØª
ĠÙħÙĩ ÙħÛĮ
ĠØ¹ Øµ
Ø§Ø¯ÛĮ Ùĩ
ĠÙĪ Ø§ÙĨ
c t
ĠØ¹Ø± Ø¨
ĠÙħÙĤ Ø±
ĠØª Ú©Ø±
ĠØª ÙħØ§ÛĮ
ĠÙĤØ· Ø¹
ĠØ² ÙĪØ¯
ĠØ³Ø¨ Ø²
ĠÙħØŃØª ÙĪØ§
ĠØ² Ø¯ÙĨ
ĠØ³Ø±ÛĮ Ø§ÙĦ
ĠÙħØŃØ¯ÙĪØ¯ ÛĮØª
ĠÚĺ ÙĪØ¦
ĠØ§Ø³ Ø±Ø§Ø¦
i v
ĠÙħ ÙģÙĩ
ĠÙħØ± Ø²
ĠÙħÙĨ Ø¨Ø¹
ĠÙĨÙĪÛĮØ³ ÙĨØ¯Ùĩ
ĠØ¯Ø± Øµ
ĠØ§Ø³ Ø¨
ĠØ§Ø·ÙĦØ§Ø¹ Ø§ØªÛĮ
ÙĤÛĮ Ùĩ
ĠØ¨Ø¯ ÙĨÙĩ
ĠÙĨØ¸ Ø§Ùħ
ĠÙĩÙĪØ§ ÙĪÛĮ
Ø· Ø±Ùģ
ĠØ¨ÙĪØ¯ Ùħ
ĠØ¯ÙĪ Ø³ØªØ§ÙĨ
Ø¬ Ø¯
a g
ĠØ® Ø±Ø¯
Ø³ ÛĮÙĨ
ĠÙħØ±Ø§ ØŃÙĦ
ĠØ´ÙĩØ± ÙĩØ§ÛĮ
ĠØ± ÙģØ¹
ĠØ¨Ø¯ ÛĮÙĨ
ĠÙģÙĩØ± Ø³Øª
i g
ĠØ§Ø²Ø¯ ÙĪØ§Ø¬
ĠØ§Øµ ÙĦ
ĠØ± Úĺ
Ø§Øµ Ø±
ĠØŃÙĤÛĮ ÙĤØª
ĠØ¨Ø§Ø²Ø§Ø±ÛĮ Ø§Ø¨ÛĮ
ĠÙĩÙħ Ø³Ø±
ĠÙĨ Ø§ÙĨ
ĠØ§Ø±ØªØ¨Ø§Ø· Ø§Øª
ĠØ±ÙĤ Ùħ
ĠÙħØ¹ ÙĦ
ĠÙĦ ÛĮÙĨÚ©
Ø¨ Ø¯
ĠØ§ÙģØºØ§ÙĨ Ø³ØªØ§ÙĨ
ĠØ¯ÛĮØ¯ Ø§Ø±
ĠØ§ÙĨ Ø¬
Ġ K
ÚĨ Ø±
ĠÙĨ Ø´Ø¯
ĠØ± Ø§ÙĨ
ĠØªØ¨ÙĦÛĮØº Ø§Øª
ĠÙħÚ¯ Ø§Ù¾
ØªÙĪØ§ÙĨ Ø³Øª
ĠØ´ÙĨ Ø¨Ùĩ
ĠØ¨ÛĮÙĨ ÛĮ
ĠÚĺ Ø§ÙĨ
ĠØªØ§ÛĮ ÛĮØ¯
Ú© Ø±ÛĮ
ĠØ¯ Ø¹
Ø§Ø´ ÙĤ
ĠÙĨÙģØª ÛĮ
ĠØ§Øª Øµ
ĠØ§ÙħÛĮØ¯ ÙĪØ§Ø±
Ú¯Ø± Ùħ
Ø´ ÙĪÙĨ
ĠØ´Ø± ÙĤÛĮ
Ø§ Úĺ
ÙĪ Ú¯
ĠØ¬ Ø§Ø¯Ùĩ
Ø§ÙĦØ¯ ÛĮÙĨ
ĠØ´Ø§ Ø®Øµ
ĠØ§ØªØŃ Ø§Ø¯ÛĮÙĩ
ĠÙħÙĨ ØŃ
ĠÙħØ§ÙĨ Ø¯Ùĩ
ĠÙĨ Ú©ÙĨÛĮØ¯
ĠÙģ ÛĮØ³
ĠÙģØ¹ ÙĦÛĮ
ĠÙĨÛĮØ± ÙĪ
ĠØ¨Ø§ Øº
Ù¾ Ø§Ø±
Ø¢ ÙħØ¯
ĠÙĩÙĨÚ¯ Ø§ÙħÛĮ
ĠØ§Ú¯Ø± ÚĨÙĩ
ĠÙħØª ÙĪØ³
ĠÙħØ´Ùĩ ÙĪØ±
ĠØ¬ ÙĦØ¨
Ø§Ø¯ Øª
ĠÙĦ Ø·
ĠØ®Ø±ÛĮØ¯ Ø§Ø±ÛĮ
ĠØªÙĪ Ø²ÛĮ
ĠØ¨Ø¯Ø§ÙĨ ÛĮØ¯
ĠÚ©Ø´ Ø§ÙĪØ±
ĠÙĩÙĪ Ø§ÛĮÛĮ
Ú© Ø§Ùħ
Ø§Ø¯ Ø«
a y
Ø§Ø¯ Ø§
ĠØ¨ Ø§Ø±Ø¯
ĠØ§ÛĮÙħ ÙĨÛĮ
ĠØ§ÙĤØ¯Ø§Ùħ Ø§Øª
ĠØªØ± Ø¬ÙħÙĩ
ĠÛ±Û¹Û ¸
Ú©Ø±Ø¯ ÙĨ
Ø¹ Ø¯Ùĩ
ĠØªØ¹Ø¯ Ø§Ø¯ÛĮ
ĠÙ¾ ØªØ±
ĠØªØ± Ø§ÙħÙ¾
ÙĪØ± Ú©
ĠØ® ÛĮØ±
ĠÙĩÙħ ÙĪØ§Ø±Ùĩ
ĠÙħÙĨØ§Ø³ Ø¨ÛĮ
Ø§ÙĨØ¯ Ø§Ø²ÛĮ
ĠÙĨ ÙĪØ²
ĠØ¹Ùħ Ø¯Ùĩ
ĠØ± Ø§ÙĨÙĨØ¯
ĠÙĦ Ø§ÛĮÙĩ
ĠØ¨ Ø³Øª
ĠØ¬Ø² ÛĮØ±Ùĩ
ĠØ§Ø³Øª Ø§Ø¯
ÙĪÙĦ Ø¯
ĠÙĩÙħ Ø²ÙħØ§ÙĨ
ĠØ® Ø¯Ø§
ĠÙĨÙĤ Ø´Ùĩ
ÙħÛĮÙĨ Ø§ÙĨ
ĠØªÙĪØ²ÛĮ Ø¹
ĠØ§Øª ÙĪÙħ
Ø³ Ø§
ĠÙĤ Ø¶
ĠØ¨Ø²Ø±Ú¯ ØªØ±ÛĮÙĨ
ĠØ§Ø± Ø²Ø§ÙĨ
ĠØ¬Ø§ÛĮÚ¯Ø² ÛĮÙĨ
Ø§ÙĨØ¯ ÙĨ
ĠØ®Ø§ÙĨ Ùħ
ĠØ¢ ÙĦØ¨
ĠØ§Ùĩ ÙĦ
ĠÙĪ ÙĦ
Ø± Ø§ÙĨÛĮ
Ø² ÛĮÙĨ
ĠØ¯Ø§Ø± Ùħ
ĠÙĨ Ø§Ø¨
ĠÙĪ Ø§Ø¨
ĠÙħØ¨Øª ÙĨÛĮ
o w
Ú© Ø§
Ø§Ø¶ ÛĮ
ĠØ¯Ø± Ø®Øª
ĠØ¹ÙĪ Ø§ÙħÙĦ
Ø² Ø§ÛĮ
ĠØ¢Ø² Ø§Ø¯ÛĮ
ĠÙĩØ± ÚĨÙĨØ¯
Ø± ÙģØª
Ø² Ø´ÛĮ
Ġ d
ĠØ± Ø¯Ùĩ
ÛĮÙģ Ùĩ
Ø§Øª ÙĪ
ĠØ®Ø¯Ùħ Øª
ĠØ¯ÛĮ Ø¬ÛĮ
ĠÙħØª ØµÙĦ
ĠÙĤØ§ÙĨ ÙĪÙĨÛĮ
ĠÚ¯ Ø´Øª
ĠÙħØ¹ ÙĨØ§ÛĮ
ĠØ´ ÙĨØ§
ĠØ§Ø· ÙħÛĮÙĨØ§ÙĨ
ĠÚĨÙĩØ§Ø± Ùħ
ĠÚĺØ§Ù¾ ÙĨ
ĠÙĪ ÛĮØª
ĠØ¢ Ø³Ø§ÙĨ
ĠØ¯ ÛĮØ±
Ø¨ ÛĮÙĦ
ÙĪ ØŃ
Ø¹ Ùħ
ĠØ·Ø¨ÛĮ Ø¹Øª
ĠØ± Ú©
ĠØ¹ Ø¬ÛĮ
ĠØ¨Ø±ÛĮØªØ§ÙĨÛĮ Ø§
ĠØ±ÙĪ ØºÙĨ
ĠØ¢ ÙĩÙĨÚ¯
ĠØ¨ ØªÙĪØ§ÙĨÙĨØ¯
ĠØ´ÛĮ ÙĪØ¹
ĠØ¨Ø± Ø¯Ùĩ
ĠÙĨÙħØ§ÛĮ ÙĨØ¯Ùĩ
ĠÚ© Ø´ØªÛĮ
ĠÙħØ¯ Ø±ÙĨ
Ø¢ Ø¨
u t
ĠØ±ÙĪ Ø¨
Ø±ÛĮ Ø²
ĠØ¹ Ø´
ÙĨ ÙĪÛĮØ³
ĠÙħØ´Ø®Øµ Ø§Øª
ĠÙĪ ØŃ
ĠÙĩÙĨ Ø±ÛĮ
ĠØ§Ø± Ø´Ø¯
ÙĪØ´ ÙĨ
ĠØ§Ø³Øª Ø±
ĠÚ©ÙĦ ÙħÙĩ
ĠÙĪØ± ÙĪØ¯ÛĮ
o o
ĠØ³ÙĨ Ø³ÙĪØ±
ĠØ®Ø§Ø± Ø¬Ùĩ
ĠÙĤØ± ÙħØ²
ĠÙĦ Ø§ÛĮ
ĠØªÙħ Ø±ÛĮÙĨ
ĠØ¯Ø§Ø± ÙĪ
ĠÙ¾ Ø§ÛĮØª
ĠØŃØ¯ Ø§Ú©
ĠÙĨÙĪØ´Øª ÙĨ
Ø§ÛĮ Ø§ÙĨ
ĠØ®Ø¨Ø± Ú¯Ø²Ø§Ø±ÛĮ
ĠØ®ÙĪØ¯ Ú©Ø§Ø±
ĠØ±Úĺ ÛĮÙħ
ĠØ¯ÙĪ ÙħÛĮÙĨ
ÙĪ Ú©Ø§Ø±
ĠÙħ Ø§Ùħ
ĠÚĨ ÙĩØ±Ùĩ
ÚĨÛĮ Ø¯Ùĩ
ĠØ¹ Ø§Ø¯ÛĮ
ĠÙĩÙħ Ø§ÙĨÙĨØ¯
ĠØ¯Ø§ÙĨ ÙĦÙĪØ¯
ĠØ³ ÛĮØ¯
ĠØ¨ ÙĦÙĪ
ĠØ¨Ø± Ø®
ĠØ§Ø¹Øª Ø¨Ø§Ø±
ĠØ¬ÙĨ Ø³ÛĮ
ĠÙħØ° Ú©ÙĪØ±
ĠÙĨØ¸ Ø§Ø±Øª
ĠØ¨Ø± Ø§Ø¯Ø±
Ø¯ÛĮ Ø¯Ùĩ
u n
ĠÙħØ¨Øª ÙĦØ§
ĠØ³ ÙĪÙĨÛĮ
ĠØ® Ø´
ĠÙĨØ´ Ø§ÙĨÙĩ
Ø®ÙĪØ§Ùĩ ÙĨØ¯
ĠÙĦÛĮ Ú¯
ĠÙĦ ÙĪÙĦÙĩ
Ø¬ÙĪÛĮ Ø§ÙĨ
ĠØ¯Ùĩ ÙĨØ¯Ùĩ
ĠÚ©ÙħÛĮ Ø³ÛĮÙĪÙĨ
Ù ¬
Ù¾ Ø§ÛĮÛĮ
ĠÙħØ· ÙĦ
ÛĮ Ø§Ø¨Ø¯
i r
. .
ĠÙĪØ¸ ÛĮÙģÙĩ
Ø§ÙĤ Ø¹
ĠØ¨ ÙĨØ¯
ĠØ§Ø±Ø²ÛĮ Ø§Ø¨ÛĮ
ĠÙ¾ ÛĮÚ©Ø³ÙĦ
ÛĮÚ©Ø³ ÙĦÛĮ
ĠÚ© Ø±ÛĮ
Ø±ÙĪ Ø´
ĠÚ¯Ø±Ø¯ ÛĮØ¯
Ø§ÙĨ Ø¯Ùĩ
ÙĪ Ø§Ø±ÛĮ
ĠÙħØ§ Ø¬
ĠØª Ø§ÙĨ
ĠØ§Ø¯ Ø¨ÛĮ
ĠÙ¾ ÙĪ
ĠØ¬Ø²Ø¦ÛĮ Ø§Øª
ĠØ¬ Ø¹
ĠÙģØ± Ø§ÙħÙĪØ´
ĠØ¨Ø± ØªØ±
ĠØ¨Ùĩ ØªØ±ÛĮ
ĠÚ¯Ø±ÙĪÙĩ ÛĮ
ĠÙģØ± Ø¶
ĠÙ¾ Ùĩ
ĠØ¬Ø´ÙĨ ÙĪØ§Ø±Ùĩ
ÙģØ± Ø§ÙĨØ³
ĠØ§ÙĪ Ø§ÛĮÙĦ
ĠØ¬ÙĪ Ø§Ø¨
Ø§Ø± Ú©Øª
Ø§ØŃ ÛĮÙĩ
ĠØ¨ Ù¾Ø±Ø¯Ø§Ø²
ĠÙĨÚ¯Ùĩ Ø¯Ø§Ø±ÛĮ
ĠØ¯ÙĦ Ø§ÛĮÙĦ
ĠØ¨Ùĩ ÛĮÙĨÙĩ
ĠÙ¾ÛĮ ÚĨÛĮØ¯Ùĩ
ĠØ®Ø¨Ø±ÙĨÚ¯ Ø§Ø±
ĠØ¬Ø³Øª Ø¬ÙĪ
ĠØ® Ø´Ú©
Ø± Ø¶
Ø§Ø± ÙĪ
ĠØ§ ÙĦÛĮ
ÙħÙĨØ¯ ÛĮ
ĠØ§Øµ Ø·
ĠÙĩÙĪ Ø§ÛĮ
ĠÙĨ ÙĪØª
ÙĪ Ø§ÙĦ
ĠÚ¯ ÛĮÙħ
ĠÙĤ ÙĦØ¨
ĠØ¯Ø±Øµ Ø¯ÛĮ
ĠØ¯ÙĤÛĮÙĤ Ø§
Ú©Ø§Ø± Ø§ÙĨ
ĠØ¨ÙĪØ± Ø³
ĠÙĪØ³ Ø§ÛĮÙĦ
ÛĮØª Ùĩ
u r
Ø§Ø® Ø±
Ø§Ø¦ ÛĮ
ĠÚ© ÙĦÛĮÚ©
Ø± Ø¯Ùĩ
ĠØ·Ø¨ ÙĤÙĩ
ĠØ´ ÛĮÙħÛĮ
ĠÙħÛĮ Ø´ÙĪØ¯
ĠØ§Ø¨Øª Ø¯Ø§ÛĮ
ĠÙĩÛĮ Ø¦Øª
ĠØ§Ø¨ Ø¹
ĠØ¯Ú© ÙħÙĩ
ĠÙĪ Ø§Ø³
ĠØ§ÙĦ ÙħÙĦÙĦÛĮ
Ùģ Ø§ÙĨÙĩ
ĠØ®Ø§ÙĨ Ú¯ÛĮ
ĠØ¨Ø§Ø²ÛĮ Ú©ÙĨ
ĠØªØŃ ÙĪÛĮÙĦ
ĠÛ±Û¹Û ·
ĠØ§ÛĮ Ø§ÙĦØª
ĠØ· ÙĦ
ĠÙħÙĪØ§Ø±Ø¯ ÛĮ
Ø¨ Ø§Ø±ÛĮ
Ø§ÙĨØ¯ Ø§Ø²
ĠØ§ ÛĮÚ©Ø³
Ø§Ø´ÛĮ Ùĩ
Ø§Ø¯Ùĩ Ø§ÛĮ
ĠØ¨Ú¯Ø°Ø§Ø± ÛĮØ¯
Ú¯Ø± ÙģØª
ĠØ§Ø³Ø±Ø§Ø¦ ÛĮÙĦ
Ø§Ø± Ú©
ĠÙħÙĩÙĨØ¯ Ø³ÛĮ
ĠÙĩÙħØ§ÙĨ Ø·ÙĪØ±
ĠØ¨ ÙĤÛĮÙĩ
ĠØµ ÙĪØªÛĮ
ĠÚ© Ø´Øª
ÙĨ Ø§Ú©
ĠØ³ Ú©
ÙĩØ§ÛĮ Ø´
ĠÙĨÚ¯Ø± Ø§ÙĨÛĮ
ĠØ§ÙģØª Ø§Ø¯
ĠØ§ÙĨØ¬ ÙħÙĨ
Ġ b
ĠØ¯ÛĮ ÙĪØ§Ø±
ĠØ§Ø¹ØªØ± Ø§Ø¶
ĠØ² ÙĨØ¬
a p
ĠØ² Ùħ
ĠØ¹ÙĦ Ùħ
ĠØ§ÙĨÚ¯ Ø´Øª
ÙĦ ØŃ
ĠÚ©Ø§ÙĦ Ø§
ÙĨ Ø³
2 0
ĠÙĨØ²Ø¯ ÛĮÚ©ÛĮ
ĠØ§ØªØµ Ø§ÙĦ
ĠÙĦ Øº
ĠÙħØ·ÙħØ¦ ÙĨ
ĠÚ©Ø§Ø± Ú©ÙĨØ§ÙĨ
ĠÚ¯Ø° Ø´Øª
ĠØµØŃ ÙĨÙĩ
ĠØ¹ ÛĮÙĨ
ĠÙħØ¨Ø§Ø± Ø²Ùĩ
ĠØ¶Ø± ÙĪØ±ÛĮ
ÙĪÛĮ Ø´
Ø¨ ÙĦ
ĠØ³ ÛĮÙĦ
ĠÚ©ÙĦ ÛĮØ¯
ĠØ¹Ú© Ø§Ø³ÛĮ
ĠÚ¯Ø° Ø±
ĠÙĤÙĦ Ùħ
ĠØ³ÙĨÚ¯ ÛĮÙĨ
ĠÙĪØ± Ø²Ø´ÛĮ
ĠØ¯ Ø¨ÛĮØ±
ĠØ§ÙĤ Ø§ÙħØª
ĠØ´Ø± ÙĤ
ĠØ´ ÛĮØ´Ùĩ
Ø¨Ø§Ø´ ÙĨØ¯
ÙĦÛĮ Ùħ
ĠØ³Ø±Ø§ Øº
Ø¬ Ø§ÛĮ
ĠÛ² Û²
ĠØ¯ Ø³
ĠØ¢ÙĦØ¨ ÙĪÙħ
ĠØ³Ø± Ø§ÙĨ
ĠØ®ÙĦØ§ ÙĤ
ĠØ§Ø®Øª ÙĦØ§Ùģ
ĠØ±ÛĮ Ø§ÙĦ
ĠØ¨ÛĮÙħØ§Ø± Ø³ØªØ§ÙĨ
ÙĨØ¬ ÛĮ
Ø¨ Ø§ÛĮ
ĠØµØ±Ùģ Ø§
ĠÚĨ ÙĤØ¯Ø±
ĠØ§Øª Ùħ
ĠØªØµ Ø±ÛĮØŃ
ĠÙħÙĦ ÙĦ
ĠÙĤØ· Ø¹Ø§Øª
ĠØ³Ø§Ø² ÙĨØ¯Ùĩ
ĠØ±ÙĪÛĮØ¯ Ø§Ø¯
ĠÛ±Û³Û ¸
ÙģØ§ ÙĪØªÛĮ
ĠØŃ Ø§Ø´ÛĮÙĩ
ĠØ¯ ÙģØ§Ø¹
ĠØ¨Ø± ÙĨØ¯Ùĩ
ĠØ§ÛĮØ³Øª Ú¯Ø§Ùĩ
ĠÛ´ Û°
ĠÚ©ÙĨ ÙģØ±Ø§ÙĨØ³
ĠØ® ÙĪØ±
ĠØ§ÙĪ Ø§Ø®Ø±
ĠÙħØ¹Ùħ ÙĪÙĦÛĮ
ĠÙĨÙħ ÙĪØ¯Ùĩ
Ø¨ Ø®
ĠØ§Ùħ Ù¾
Ø±Ø¨ Ø§ÛĮØ¬
ĠÙħÛĮ Ø±
ĠÙĨÙħØ§ÛĮ ÛĮØ¯
ĠØŃØ³ ÛĮÙĨ
ĠÙ¾ ÛĮÙħ
ĠÙħØ³Ø¦ ÙĪÙĦÛĮØª
ĠØ¨ ÙĪ
ĠÙħØ² Ø§ÛĮ
Ø§Ø¨ ÙĦÙĩ
ĠØªÙĤ Ø§Ø¶
ĠÚ©Ø§Ø±Ø¨Ø±Ø¯ ÛĮ
ĠÙ¾Ø±ÙĪ ÙĨØ¯Ùĩ
ÙĪ Ø§ÛĮ
ĠØ³ Ø¹
ĠØ¢ Ù¾
ĠÙĨÙħØ§ÛĮ Ø¯
ĠØ¯Ø§Ø¯ Ú¯Ø§Ùĩ
Ø« Ø±ÛĮ
ĠØ¨ØŃ Ø±Ø§ÙĨ
ĠÙħØªÙĪØ³ Ø·
Ø¨ ÙĨØ¯
ĠÙħÙĨØª Ø¸Ø±
ĠÚĨ Ø±
Ú¯ Ùħ
ĠÚ¯ Ø§Ùħ
Ġ of
ĠØªØ£ Ø³ÛĮØ³
ĠÙħ ÙĪÙĦ
ĠØ¢Ø° Ø±Ø¨Ø§ÛĮØ¬
ĠØªÙĪØ§ÙĨ Ø³ØªÙĩ
ĠØ§Ø³ØªØ±Ø§Øª ÚĺÛĮ
ĠØ¹Ø¨ Ø¯
ĠØ®ÙĪØ¯ Ø´Ø§ÙĨ
Ø³ Ú©
Ùģ ÙĦ
ĠÙĤ Ùĩ
ĠÙĤØ· Ø¹Ø§
ÙĪÛĮ Ø¨
ĠÙħÙĤ Ø§Ø¨ÙĦÙĩ
ĠØ³Ø§ÙĦ Ùħ
Ø¨ ÙĨ
Ú¯ Ø§Ø±ÛĮ
ĠØªØ±Ú© ÛĮ
ĠÙħÚ¯Ø§Ù¾ ÛĮÚ©Ø³ÙĦÛĮ
ĠÙħØ®Ø§Ø· Ø¨
ĠÙħØŃÙĤÙĤ Ø§ÙĨ
ĠØ¨Ø¨ÛĮÙĨ ÛĮØ¯
ĠØ¨ Ùħ
Ø±Ø§Øª ÙĪØ±
ĠØ¨Ø§ ÙģØª
Ø§ÙĨÚ¯ÛĮ Ø²
Ø§Ø± ÙĩØ§ÛĮ
ĠØ¯Ø± Ø³
ĠÙħØ´ Ø§Ø±Ú©Øª
Øª Ø§Ù¾
ĠØ±Ø§ Ø¯ÛĮ
ĠÚ¯ÛĮØ± Ø¯
Ø² Ùħ
ØŃ Ø§Øª
ĠÙħØ§Ø³ Ú©
ĠÚ©ÛĮÙĦ ÙĪ
ĠÙĩÙħ Ø§Ùĩ
ĠÙĨ Ø§ØŃÛĮÙĩ
ĠÙģØ¶ Ø§
ĠØªØµ ÙĪÛĮØ¨
ĠÙħØµ Ø§ØŃ
ĠØ§Ø¨Ø¹ Ø§Ø¯
ĠÙħÙĤØ§ ÙĪÙħØª
ÛĮ ÙĦÛĮ
Ø§Ø± Ø§Øª
ĠØªÙĪØ¬Ùĩ ÛĮ
ĠÙĨ Ø¨Ø§Ø´Ø¯
ĠØ§ÙĦ Ú¯
ĠØ¯Ø± ÙħØ§ÙĨÛĮ
ĠØª Ø¦
ĠÚ©Ø§Ø±Ø´ÙĨØ§Ø³ Ø§ÙĨ
ĠØ§Ø³ØªØ§Ø±Øª Ø§Ù¾
ĠØ· ÙĦØ§
Ø¯ Ø§ÙĨÙĨØ¯
ÙĪ Ø°
ĠÙ¾ÛĮØ´Ø± ÙģØªÙĩ
ĠØ§Ø±Øª ÙģØ§Ø¹
ĠØ´ Ùģ
ĠØ® Ø§Ùħ
ĠØŃØ¯Ø§Ú© Ø«Ø±
ĠÚ©ÙĨ ÙĪÙĨÛĮ
ÙħØ§ÙĨ Ø§ÙĨ
ĠÙĪØ§ ÚĺÙĩ
ĠÙħØ¹ Ø§Ø¯ÙĦ
ÙĪØ´ ÛĮÙħÛĮ
Ø¯Ùĩ ÙĨØ¯Ùĩ
ĠÚ¯ ÙĪÙĨØ§
ĠØ±Ø§ÛĮ Ø§ÙĨÙĩ
ĠØ§ ÙĦÙĩ
ĠÙħØ³Øª ÙĤÙĦ
Ø§Ùħ ÙĪÙĨ
ÛĮÙĨ ÙĪ
Úĺ Ø§ÙĨØ³
ĠØŃ Ø§Ú©
ĠØª Ø±Ø¯
ĠØ§ÙĦÚ©ØªØ± ÛĮÚ©ÛĮ
ĠÚ© ÙĪØ±
ĠÙħØµØ§ØŃ Ø¨Ùĩ
ĠØ³ Ø§Ø¨ÙĤ
ÙĪÙĤ Ùģ
Ø¹ÛĮ Ùģ
at ion
ĠØ®ÙĪØ§ÙĨ Ø¯ÙĨ
Ø¹Ùĩ Ø¯
ĠØ¹ ÙħÛĮ
ĠÚ©Ø§ÙĨ Ø§ÙĦ
ĠØ¯Ø± Ú¯ÛĮØ±
Ø® Ø±Ùĩ
ĠØ§ÛĮÙħ ÛĮÙĦ
ĠÛ±Û¹Û ¶
ĠØ®Ø±ÙĪ Ø¬ÛĮ
ĠØ¯Ø± Ú¯Ø°
ĠØª Ø±Ø§Ùģ
ĠÙħØ· Ø§ÙĦØ¨
ĠØªÚ©Ø± Ø§Ø±
ĠØ§ÙĦ Ø§ÙĨ
ĠØ§Ø³Øª ÙĤÙĦ
Ø§Ø² Ú¯ÛĮ
ĠØ³Ùģ Ø§Ø±Ø´
ĠØªØ£ ÙħÛĮÙĨ
ĠØ§ÛĮÙħ ÙĨØ§
ĠÚ©Ø´Ø§ÙĪØ± Ø²ÛĮ
ĠØ®Ø· ÙĪØ·
Ø±Ú© ØªÛĮ
ĠØ³Ø± ÙĪØ±
ĠÚ©Ø§Ø± Ø®Ø§ÙĨÙĩ
Ġ w
Ú© Ø´Ø¯
ĠÙ¾Ø±Ø¯Ø§Ø² Ø´
e m
ĠØ® ÙĦÙĤ
ĠÙĨÛĮ Ø§Ø²ÛĮ
ĠØ¯Ø±ÛĮ Ø§ÛĮÛĮ
ĠÙħØª ÙĪÙĤÙģ
ĠØ²ÙĨØ¯ Ø§ÙĨ
ĠÚ©ÙĨ Ø³ÙĪÙĦ
ĠÙħ ÙħÙĨ
ĠØ³ Ø§ØŃ
Ġt he
ĠØ§Ùģ Ø³
ĠÙħØ¬ ÙĪØ²
ĠÙģ ÙĨ
ĠÙħØª ÙĤ
ĠØ±ÙĪØ¨ Ø±ÙĪ
ĠØ¨Ø¯ Ø³Øª
ĠÙģÛĮØ²ÛĮ Ú©ÛĮ
Ùħ ØªØ±
ĠØ§Ø³ Ùģ
ĠÙ¾ÛĮØ± ÙĪØ²ÛĮ
Ø¨ Ø®Ø´
ĠØ§Ø®ØªØµØ§Øµ ÛĮ
ÛĮÙĦ Ø§Øª
ĠØªØ¯ Ø±ÛĮ
ĠØªØ®ØµØµ ÛĮ
ĠÚĨÛĮ Ù¾
ĠÙģØ±ÙĪØ¯ Ú¯Ø§Ùĩ
i m
ĠÙĩØ¯ Ø§ÛĮØª
ĠØ³Ø§ÙĦ Ú¯ÛĮ
ĠÙĨÙħØ§ÛĮ ÙĨØ¯Ú¯Ø§ÙĨ
ĠÙħ Ø³ÛĮ
Øº ÛĮØ±
ĠØ§Ø³ØªÙĤÙĦ Ø§ÙĦ
ØŃÛĮ ØŃ
ĠØ³Ø± Ø¨Ø§Ø²
ĠÙ¾ÙĨ ÙĦ
ĠÙ¾Ø²Ø´ Ú©
Ùĩ ÛĮ
Ø¯ Ø³
ĠÙĩÙĪØ§Ù¾ÛĮÙħ Ø§
ÙĨ Ø¸
ĠÚ©ÙĨÙĨØ¯ Ú¯Ø§ÙĨ
ĠØŃÛĮ ÙĪØ§ÙĨ
ĠÙ¾ Ø§ÛĮØ¯
ĠÚ©Ø´ÙĪØ± ÙĩØ§
ĠÚ©Ùħ ØªØ±ÛĮ
Ø¬ Øª
ĠØ® Ø§ÙĦÛĮ
ĠÙĨ ÙĪØ´
ĠÙĪÛĮØ¯ÛĮ ÙĪ
ĠØªÙĪØµ ÛĮÙģ
ĠØ³ÙĨ Øª
ĠÙģØ± Ø³Øª
ĠØ®ÙĪØ§Ø³Øª Ùĩ
ĠÚ©Ø§ÙĨ Ø§Ø¯Ø§
ĠØ§Ø® Ø¨Ø§Ø±
Ø±ÙĪ Øª
ĠØ¢Ùģ Ø±ÛĮÙĤ
ĠÚ© Ø§Ø¨
Ø¢ ÙģØ±
ĠØ³Ø® ØªÛĮ
i a
Ù¾ ÙĪØ´
Ø® ÛĮØ±
ĠØ¨Ø²ÙĨ ÛĮØ¯
ĠÙĤÙĩ ÙĪÙĩ
ĠØ¨Ø±ÙĤ Ø±Ø§Ø±
ĠØ±ÙĪØ³Øª Ø§ÛĮ
ĠÛĮ Ø®
ĠØª Ø¶
ĠØ§Ø³ Ù¾Ø§ÙĨÛĮ
ĠÚ©Ùħ ÛĮØªÙĩ
ĠÙħ ÙĪØ±
Ġ J
ĠÙ¾ ÛĮÚ©
ĠØ¨ÙĩØ¯Ø§Ø´Øª ÛĮ
ĠØ§ØµØ· ÙĦØ§ØŃ
ĠÙħØ° Ùĩ
ĠØ¹ Ùģ
Ùħ Ø§ÙĦÛĮ
ĠØ§ Ø¹Ø¯
ĠØµØ§ØŃ Ø¨
ĠØ®ÙĪØ±Ø¯ ÙĨ
ĠÚĨ Ø·ÙĪØ±
ĠÚĨ Ø±Ø®
ĠÛ²Û°Û±Û ¸
ÙĨ Ø´ÛĮÙĨ
ĠÙħØ§ÙĦ Ú©
ĠØŃ ÙģØ§
ĠØ±Ùĩ Ø¨Ø±ÛĮ
ĠØ¨ Ø´Ø±
ĠØ· ÙĪØ±ÛĮ
Ø³ Ø§ÛĮ
ĠØ´ÙĩØ±ÙĪ ÙĨØ¯Ø§ÙĨ
ĠÙĤØ· Ø¹Ùĩ
ĠØªØ¹ ÙħÛĮØ±
ĠØ¬ÙĨ Ø³
ĠÙ¾Ø§ÛĮ Ú¯Ø§Ùĩ
Ø§ØŃ Øª
ĠØ±ÙĪ Ø²ÛĮ
ĠØµØ§Ø¯Ø± Ø§Øª
ĠØŃØ³ ÙĨ
o d
ĠÙ¾ØªØ± ÙĪØ´ÛĮÙħÛĮ
ĠØ¢Ø°Ø±Ø¨Ø§ÛĮØ¬ Ø§ÙĨ
ĠØ¨ Ú¯ÙĪÛĮ
ĠØ¹Ø¬ÛĮ Ø¨
ĠØ¢Ø² ÙħÙĪÙĨ
Ø¹ Ø¨
ĠØ´ ØºÙĦ
ĠØ± ÛĮØ´Ùĩ
ĠØ±Ø§ Ø¨Ø·
ĠÙĤØ¨ ÙĦØ§
Ø³ÛĮ ÙĦ
ĠØ³Ø± Ø²ÙħÛĮÙĨ
ĠØ¨ÛĮ Ø³Øª
Ø® Ø§ÙĨ
ĠØ¯ Ø§Ø¦
Øº Ùĩ
ÙĪ Ù¾
ĠØ¯ÙĦ Ø§Ø±ÛĮ
ĠÙħØ¹Ùħ ÙĪÙĦ
ĠØ± ÛĮØ§
ĠØ¯Ø§ÙĨØ´ ÙħÙĨØ¯Ø§ÙĨ
ĠÙ¾ÛĮØ´ ÛĮÙĨ
ĠÙħØ¨ÙĦ Øº
Ú© Ø¯Ùĩ
ĠØºØ° Ø§ÙĩØ§ÛĮ
ĠØªØ¹ ÙĪÛĮ
ĠÙħØ¹Øª Ø¨Ø±
ĠÙħØŃ Ú©
Ġ Z
ĠØ®ÙĪØ±Ø´ ÛĮØ¯
ĠÙħÛĮ Ú©Ø±ÙĪ
ĠØµÙĨØ¯ ÙĪÙĤ
ĠØ¹ÙĦØ§ Ø¦
ĠØª Ø³Ùĩ
ĠØ§Ø®ÛĮØ± Ø§
Ø§Øª ÛĮÚ©
ĠØ¬ÙĦ ÙĪÛĮ
ĠØ¢Ø³ÛĮ Ø§
Ġ [
ĠÚ©Ø§Ø± ÙħÙĨØ¯Ø§ÙĨ
ĠÙħØªØŃ Ø¯
ĠÙĨ Ø§Ø®
Ø¨ ÛĮØª
ĠØ§ÙĨ Ú¯ÙĦ
ĠØ³Ù¾ Øª
ĠÙħØ¬ Ø§Ø²
ĠØ¯Ø¹ ÙĪØª
ĠØ§Ùħ Ø§Ùħ
Ø± Ø²
ĠÙĦ Ùħ
ÛĮ ÛĮØ¯
ĠÙ¾ ÙĦØ§
ĠØ¯ ÛĮÙĨ
ĠØ¨Ø§ Ø¯
ĠÙĨÙģ ÙĪØ°
ĠØª Ø²
ĠÙ¾Ø± Øª
ĠØ³Ø± Ø·Ø§ÙĨ
ĠØ¯Ùĩ ÛĮÙħ
ĠØ³ÛĮÙĨ ÙħØ§
ĠØ±ÛĮ ÛĮØ³
ĠØŃÚ© Ùħ
ĠØ§ÛĮØª Ø§ÙĦÛĮØ§
ĠØ¨ÛĮÙħ Ø§Ø±Ø§ÙĨ
ĠØ§ÙĪ ÙĤØ§Øª
ĠÛ¶ Û°
Ġi OS
Ø¯ Ø§ÙĨØ¯
Ø¨Ø± ÙĨØ¯
ĠÚ©Ø´ ÛĮØ¯Ùĩ
ÙĪ ÙħØ§
ĠÚ©Ø± ÙħØ§ÙĨ
ØŃ Øµ
ĠØ± ÛĮØ³
ĠÙħØ·Ø§ÙĦ Ø¹Ø§Øª
ĠØ§ Ú¯Ùĩ
ĠÛ²Û°Û² Û°
u l
ĠÙĤØ¨ ÙĪÙĦ
ĠÚ¯ Ùħ
ĠØ³Ù¾Øª Ø§ÙħØ¨Ø±
ĠÚĨ ÙĨØ§ÙĨ
ĠØ³ Ø§Ø¨ÙĤÙĩ
ĠØ¨Ø± ÙħÛĮ
Ù ª
ĠØ¯ ÙĨØ¯Ø§ÙĨ
ĠÚĺ ÙĨ
Ùģ Ø³
ĠØªÚ© ÙħÛĮÙĦ
ĠØ¬Ø² ÙĪ
ĠØ± Ø¨Ø§Øª
ÙĤÛĮ Ø¨
ĠØ¯ ÙħØ§ÛĮ
ĠÙĨÛĮ ÙĪÛĮ
Ø´ Ø§ÛĮ
ĠØ§ ÚĨ
ĠØ§ÙģØ² ÙĪØ¯Ùĩ
ĠÙħØ®Ø§ÙĦ Ùģ
ĠØªÙħØ§ÛĮ ÙĦ
ĠØ§Ø³ØªÙĤ Ø¨Ø§ÙĦ
ĠØ§ÙĦÚ©ØªØ±ÙĪÙĨ ÛĮÚ©ÛĮ
ĠØ® Ø¨
ÙĪ Ø¬
ĠØ¨Ú¯ÛĮØ± ÙĨØ¯
ĠØ² Ø§
ĠÙģØ§Ø± Ø³
ĠØ¯ÛĮØ¯ Ú¯Ø§Ùĩ
Ø¯Ùĩ ÛĮÙħ
ĠS t
ĠÙĦÙĪ Ø§Ø²Ùħ
ÙĨØ¯ ÙĨ
ÙĪØ± ÙĪ
ĠÙĨØ¸ Ø±ÛĮÙĩ
ĠÙģØ± Ø§ÙĨØ³
ĠÙ¾ Ø§ÙĨ
c e
ĠÛ² Û±
ĠÙħØ¤ Ø³
ĠØµ ÙģØ±
ĠØ³ ÙĨØ¯
ĠÙĤ Ùħ
ĠÙħÙģÙĩ ÙĪÙħ
ĠØªÙĦÙĪÛĮØ²ÛĮ ÙĪÙĨÛĮ
ÙĤ Ø§Ø¯
ĠØ¨ Ø§Ø±ÛĮ
Ġ1 9
ØªØ± Ø§
ĠØ§Øª ÙħÛĮ
ĠÚ©Ø§Ø± ÙĩØ§
ĠÙ¾Ø§ÙĦ Ø§ÛĮØ´
ĠØ§Ø±ÙĪ Ù¾Ø§ÛĮÛĮ
ÙĨ ÙħØ§ÛĮÛĮ
ĠÙĩ Ø´Ø¯
ĠÚ¯ÙģØª Ú¯ÙĪ
ĠØ§Ø¨Øª ÙĦØ§
ĠÛ²Û°Û±Û ·
ĠØ³Ø® ÙĨÚ¯
Ø³ Ø§Ø®Øª
ĠØ¬Ùħ Ø¹Ùĩ
ĠÙħÛĮ Ú©ÙĨØ¯
ĠÙĤÙĦ Ø¹Ùĩ
ĠØ¨Ø± Ø¯ÙĨ
ĠØ³Ø± Ø®
ĠÙĨÙģ Ø³
ĠØŃ ÛĮÙĨ
ĠÙħÛĮ ÙĪÙĩ
ĠØŃ Ø§ÙĪÛĮ
ĠØ® ÙĦÛĮ
ĠØ¹ÙĪ Ø¶
ĠØ¨ ØªÙĪØ§ÙĨÛĮØ¯
ĠÙĨÙĪØ² Ø§Ø¯
ÙĪÙĦ ÙĪØ´ÙĨ
ĠÙħØ¹ ÛĮ
ĠØ§ÙĪÙĦ ÙĪÛĮØª
ĠØ¯Ø§ÙĨØ´ Ø¬ÙĪÛĮØ§ÙĨ
ĠØ±ÙĪØ¯ Ø®Ø§ÙĨÙĩ
ĠÙ¾Ø±ÚĨ Ùħ
ĠÚ©ÙĦ ÛĮØ¯ÛĮ
ĠÛ²Û°Û±Û ¶
u m
ĠÙħÙĨ Øµ
ĠÙ¾ÛĮ ÚĨ
ĠØ¹ ØµØ±
ÙĦ Ø·
t er
o s
ÛĮØ¯ ÙĨÛĮ
ÙħØ§ÙĨ ÙĨØ¯
ĠØ§ÙĦÚ¯ ÙĪØ±ÛĮØª
ĠÙĤ Ø§
ĠÙħØ³ Ú©ÙĨ
Ø±ÙĪ ÙĨØ¯
ĠÙģØ±Ø¢ ÛĮÙĨØ¯
ĠÙĨÛĮÙĪÛĮ ÙĪØ±Ú©
ĠØ¨ÛĮ Ø§ÙĨÛĮÙĩ
ĠÙħÙħÙĨ ÙĪØ¹
Ø¯ Ø³Øª
Ø§ÛĮ ÙĤ
ĠØ®ÙĦØ§ ØµÙĩ
ĠÙħØ³ Ø¬Ø¯
ĠØªØ£ ÛĮÛĮØ¯
ĠØ¨ Ø§Ø±Ùĩ
ĠØ¹Ø±Ø¨ Ø³ØªØ§ÙĨ
ĠØ±ÙĪØ² ÙĩØ§
ĠÙĩØ± Ú¯Ø²
ĠØ§Ø¨Ø²Ø§Ø± ÙĩØ§ÛĮ
Ø³Ø§Ø² Ø¯
Ø¯ Ø±Ø§
ĠØ§Øµ ÙĪÙĦ
ÙĪØ§ÙĨ Ùĩ
ĠØ¹Ø´ ÙĤ
ĠÙħÙĩÙħ ØªØ±ÛĮÙĨ
ĠÚ¯Ø±Ø§Ùģ ÛĮÚ©ÛĮ
ĠØ§Ø± Ùħ
a b
ĠÙĩ Ø¬
ĠØ§ÛĮÙĨ ØªÙĦ
ĠÙ¾Ø§ÛĮØª Ø®Øª
ĠØ¢ Ø±Ø§ÛĮ
Ø§Ùģ Ø²Ø§Ø±ÛĮ
ĠÙħØªØ¹ ÙĦÙĤ
ĠØ§Ú©Øª Ø¨Ø±
ĠÙħÙĩØ§Ø¬Ø± Øª
es s
ĠÙĨ Ø´ÙĪØ¯
ĠØ´ Ø±ØŃ
Ø§ÙĦØ¹ Ø§Ø¯Ùĩ
ĠØªØµÙĪÛĮØ± ÛĮ
ĠØ¹ Ø§Ø´ÙĤ
ĠØ§Ùħ ÛĮØ±
ĠØ´ Ø§Ø®
ĠÚ¯ÙĪ Ø´Øª
ĠÙħØ± Øº
ĠØ§Ø¯ Ø¹Ø§
ĠÙĪØ§Ø¨ Ø³ØªÙĩ
ĠØ±Ø§ÙĨ ÙĨØ¯Ùĩ
ĠØŃØ§Ú© Ùħ
ĠÙħØªØ¹Ø¯ Ø¯ÛĮ
Ø¯ Ø§ÛĮÛĮ
Ú©Ø±Ø¯ Ùħ
ĠØªØ± ÙĪØ±ÛĮ
ĠÚĨ Ø§Ø±
ĠÙĩÛĮ Ø¬Ø§ÙĨ
ĠØ±Ø§ÙĨÙĨØ¯ Ú¯ÛĮ
ÙĪ ÙĤÛĮ
Ø§Ø¯ Ø§Ø±
ĠØªØ¹ Ø§ÙħÙĦ
ĠØªØ§Ø¨ Ø³ØªØ§ÙĨ
ĠÙĨÛĮØ§Ø² ÙħÙĨØ¯
ĠØµ ÙĦØŃ
ĠØ§ÙĦ Ø¹
ĠØ¹ Ø²ÛĮ
ĠØ§ÙĨØ¯ Ø§Ø²ÛĮ
Ø§ÙĨ Ú¯
ĠÙħØ§Ø± Ø³
ĠØ¢ ÚĺØ§ÙĨØ³
ĠÙĩØ± ÚĨÙĩ
ĠÙ¾ÛĮØ´Ø± Ø§ÙĨÙĩ
Ø¨Ø± Ú¯
ØŃ Ø§ÙĦÛĮ
ĠØµÙĨØ¯ ÙĦÛĮ
Ù¾ Ùĩ
ĠÙħØ§Ùĩ Ùĩ
ĠÙĤÙĩØ± ÙħØ§ÙĨÛĮ
ĠØ±Ø³ Ø§ÙĨÛĮ
ĠÚ© Ø§Ø®
ĠØ¨ÙĨÛĮ Ø§ÙĨ
ĠØ® ÙĦ
ĠÙĦ ÙĨØ²
Ø§ÙģØª Ø¯
ĠØ±Ø§Ùĩ Ú©Ø§Ø±
ĠØ§Ø±ØªØ¨Ø§Ø· ÛĮ
ĠØ´ Ú¯ÙģØª
ĠÙħØŃ ÙĪØ±
ĠÙħØ±Ø¯ Ø§ÙĨ
ĠØ¨Ø±Ø¬ Ø³ØªÙĩ
ĠÙĪ Ø§ÙĦ
ĠØ¨Ø§Ø±Ø¯ Ø§Ø±ÛĮ
ĠØªÚ©ÙĨ ÛĮÚ©
ĠØªØ±Ø§Ùģ ÛĮÚ©
ĠÙħØ´ Ú©ÙĦÛĮ
ĠI n
ĠØ±Ø² ÙĪÙĦÙĪØ´ÙĨ
ĠÙĪØ¨ Ø³Ø§ÛĮØª
ĠØ®Ø±ÙĪ Ø¬
ĠÛ²Û°Û±Û ¹
ĠØ¨ Ø¯ÙĩÛĮØ¯
ĠÙħÛĮ Øª
ĠØ³Ø§ÙĦ Ø§ÙĨÙĩ
ĠÛĮØ§ÙģØª ÙĨ
Ùĩ Ø§Ùħ
ĠÙĨÙĤ Ø§Ø´ÛĮ
ĠØ§Ø±Øª ÙĤØ§
ĠØ´Ø±Ø§ÛĮØ· ÛĮ
ĠØ¨ Ø¯ÙĩØ¯
ĠÚ©Ø§ ØºØ°
Ø§ ÙĪØ±Ø¯
ĠØ¢ÙĦ ÙħØ§ÙĨÛĮ
ĠÙħØ¨ ÙĨÛĮ
ĠÚ©Ùħ Ø¨ÙĪØ¯
ĠØ³ ÙĪØ±ÛĮÙĩ
ĠÚĨ Ù¾
Ø§Ø² ÙĪÙĨ
ĠÙħØ¹ Ø±Ø¶
Ø±Ø§ Ø«
ĠØ¶ Ø¨Ø·
ĠØ® ÙĨ
ĠÚ©ÙĨ Ùĩ
ĠÙĨØ³Ø¨Øª Ø§
ĠØ¨Ø± ÙĪÛĮØ¯
ĠØ¸Ø§Ùĩ Ø±Ø§
ĠÙĨ ÙĩØ§
ÙĪØ¯ Ú¯ÛĮ
ĠØ¨Ø§Ø² Ø¯Ø§Ø´Øª
ĠØ´Ùģ Ø§Ùģ
Ø² Ø¯Ùĩ
ĠÛĮ Ø§Ø¨Ø¯
ĠØªØ¹ Ø·
ÛĮØ´ Ø§ÙĨ
ĠØ¢ Ú¯Ø§Ùĩ
ĠÙ¾Ø±ÚĨ ÙħØ¯
ĠÙħØŃØ¯ÙĪØ¯ Ùĩ
ĠØ³Ø±Ø§ÙĨ Ø¬Ø§Ùħ
ĠÙ¾ÛĮ ÙĪØ³Øª
ÂŃ âĢĮ
ĠÙĦÛĮ ØªØ±
ĠØ§ ÛĮÙĦ
ĠÙĨ Ú©Ø§Øª
o p
ĠØ³Ø®ÙĨÚ¯ ÙĪÛĮ
Ø³Øª ÛĮÚ©
ĠØ¨ÙĪØ¯ ÛĮÙħ
ĠÙħØ¬ Ø¯Ø¯
Úĺ ÛĮÚ©
ĠÙ¾Ø± ÙĪØ±Ø´
ĠØ¨ ÙĪØ´
ĠØª Ø®Øª
ĠØ¹Ø± Ø¨ÛĮ
ĠØ±Ø§ÛĮ Ø¬
ĠÙħØ®Ø§Ø· Ø¨Ø§ÙĨ
ĠØªÙĩ Ø¯ÛĮØ¯
ĠÙħÛĮØ§ÙĨ Ú¯ÛĮÙĨ
E D
ĠØ± ÙħØ§ÙĨ
ĠÙĨ Ú¯Ø±Ø§ÙĨ
ĠÛ² Û¸
ĠØ¹ÙĦØ§Ø¦ Ùħ
ĠØªØ§ Ø³ÛĮØ³
ÙĪÛĮ Ø²
Ùħ Ø±Ú©Ø²
ĠØ¶ Ø¹ÛĮÙģ
ÙĪÙħ ÛĮØª
ĠÛ² Û·
Ø§Ùģ Ø¹
ĠØ³Ø§ÙĨ ØªÛĮ
Ø§ÛĮ ÙĦÛĮ
ĠØ§ÙĦÚ¯ÙĪØ±ÛĮØª Ùħ
Ø´ ÙĩØ±
ĠÙ¾ÙĨØ¬ Ø±Ùĩ
ĠØ® Ø§Ø·
Ù¾ Ø³
ĠØŃØ³ Ú¯Ø±
ĠÚ© ÙĦÛĮÙĩ
ĠØµ ØŃÛĮØŃ
ĠØ§Ø³Øª Ø±Ø³
ĠÙħÙĪ Ø«Ø±
o c
ĠØ´ ÛĮØ§
ĠØ§ÙĨØªÙĤ Ø§Ø¯
ĠØŃÙģØ§ Ø¸Øª
ĠÙģÛĮØ³ Ø¨ÙĪÚ©
âĢ ı
ĠÙħ ÙĦØ§
ĠØ±Ø¶ Ø§ÛĮØª
ĠÙ¾ÛĮ Ú¯ÛĮØ±ÛĮ
ĠØ¬Ø§ Ø°
ĠØ¢Ø¯ Ø±Ø³
ĠÙ¾Ø´Øª ÛĮ
ĠØŃÙħÙĦ Ø§Øª
ĠÚ©ÙĦ ÙħØ§Øª
ĠØ¹ÙħÛĮ ÙĤ
ĠØ¯ Ø§Ø±ÛĮ
ĠØ§ÙĨÚ¯ÙĦ Ø³ØªØ§ÙĨ
ĠÙĨ ÙĪÛĮØ³ÛĮ
ĠÛ² Û°Û°
ĠÙģÛĮÙĦ ØªØ±
ĠØ±ÛĮ Ø²ÛĮ
ĠØ§ØŃØª ÙħØ§ÙĦÛĮ
ĠØ±ÙĪÛĮ Ú©Ø±Ø¯
ĠØ¨ÙĨ ÙĪÛĮØ³
ÙĪÙħ Ùĩ
ĠÙĪÛĮØª Ø§ÙħÛĮÙĨ
ĠØ¨Ø§Ø± ÙĩØ§
ĠÙħØª ÙģØ§ÙĪØªÛĮ
Ø´Ùħ Ø§Ø±
ĠØªÙĨØ¸ÛĮÙħ Ø§Øª
ĠØ³ Ø¤
ĠØ¨Ø±Ø® ÙĦØ§Ùģ
Úĺ Ø§Ø¯
Ø¯ ÛĮÙĨ
Ø³ Ø±ÛĮ
ĠÚ©ÛĮÙĦÙĪÙħ ØªØ±ÛĮ
ĠÙĨØ¨ÙĪØ¯ Ùĩ
Ø³ ÙĪ
ĠØ¬Ø§Ùħ Ø¹
ĠØ® Ø±Ø§
ĠØ¬Ø¯ ÙĪÙĦ
ĠØ¢Ùħ Ø§Ø²ÙĪÙĨ
ĠØ¹ Ø±ÙĪ
ĠØ² Ø§Ø¯Ùĩ
ĠÙ¾ ÙĪØ±
ĠÙĨÚ¯Ø§Ùĩ ÛĮ
ĠØ¹ Ø¯
ĠÙħØ±ÙĪØ± Ú¯Ø±
ĠÚĨ Ú©
ĠÙħ Ø±ÛĮ
ĠØ³ ÙĪØ±
ĠØ¨Ø§ Ø¨
ĠØ¢ Ú¯Ø§ÙĩÛĮ
! !
ĠÙħÙĪÙĤ Ø¹
Ùħ ØŃ
ÙĪÛĮ Ø§
ĠØ§ÙģØª Ø§Ø¯Ùĩ
Ø® ÙĪØ±
ĠØ¨Ø± ÙĤÛĮ
ĠÚĺØ§ÙĨ ÙĪÛĮÙĩ
Ù¾ ÛĮÙĨ
ĠØ¨Ø§Ø² Ø³Ø§Ø²ÛĮ
ĠØ³ ÛĮØ±
ĠÙħØŃ Ø§Ø³
ĠÙĪ Ø§Ú©Ø³
ĠØ¹Ø± ØµÙĩ
ĠÙĨÙĪ Ú©
ĠØ¨Ø´ Ú©Ùĩ
ĠÙĩØ´Ø¯ Ø§Ø±
ĠØ¢ Ø¨Ø§ÙĨ
Øº ÙĦÛĮ
ĠØŃ Ø§Ø¯Ø«
ĠÙģØ±Ø§ÙĨØ³ ÙĪÛĮ
ĠØ³ ÙĦÛĮ
ĠØ¬Ø§ÙĨ Ø¨ÛĮ
ĠØª ÙĪÛĮÛĮ
ĠØŃ Ø±
ĠØ±Ø§Ø³Øª Ø§ÛĮ
ĠÙĩ ÙĪÛĮØª
ĠØ´ÛĮÙħÛĮ Ø§ÛĮÛĮ
ĠØ¢Ø±Ø§Ùħ Ø´
ĠØ®ÙĪØ±Ø´ ÛĮØ¯ÛĮ
ĠØŃÙĤ ÙĪÙĤÛĮ
ĠÙĨÙĪ Ø§ÙħØ¨Ø±
Ø§ÛĮ ØªÛĮ
Ø¹ ÙĦÛĮ
ĠØ´Ø¯ Ùħ
Ø§Ùħ ÙĦÛĮ
Ø±Ùģ Ùĩ
ĠÛ±Û¹Û ´
ĠØ³Ø§ÙĦ ÛĮ
ĠÙĦ Ø±
ĠØ¯Ø±Ø¢ Ùħ
ĠØ¢ ÙĩÙĨ
ĠØ¯Ø´ ÙĪØ§Ø±
Ø¢ ÛĮÙĨØ¯
ĠØ§ÙĪ Ù¾
Ú© Ø´ÛĮ
ĠØ¨ ÙĪÙħÛĮ
ĠØ¬Ø¯ÛĮØ¯ ØªØ±ÛĮÙĨ
ĠØªØ± Ø¬ÛĮ
ĠÙģ Ø§Ø²
ĠØ¯Ø± Ùħ
ĠØ¨Ø® Ø§Ø±
ĠÚ©Ø§Ø±Ú¯Ø±Ø¯ Ø§ÙĨÛĮ
ÙĦ Ø±
ĠØªØ¨ÙĦÛĮØº Ø§ØªÛĮ
ĠØ« Ø±ÙĪØª
ĠØ¬Ø§Ø° Ø¨Ùĩ
Ùģ ÛĮÙģ
ĠÛ² Û¶
ĠØ§Ø³Øª ÙĪØ¯ÛĮ
ĠØ¨Ø§Ø² Ùĩ
ĠÙĨ Ø§Ù¾
ĠÙħÛĮ Ø±Ø§Ø«
Ø²ÛĮ Ú©
ĠÛ± Û°Û
ĠÙĨ Ø§Ø³
Ø§Ùħ ÙĦÙĩ
a v
ÙĩØ§ Ø³Øª
ĠÙĪÛĮØ¯ Ø¦
ĠØ® Ø³
Øº Ùħ
ĠØŃØ§Ø¯Ø« Ùĩ
Ġ1 3
ĠÙĨÛĮØ§Ø² ÙĩØ§ÛĮ
ĠÛµ Û°Û°
ĠÙħ Ø£
ĠÙħÙĨ Ø²ÙĦ
ĠØ§Ùħ ØªØŃ
ĠÚ¯Ø±Ø¯Ø´ Ú¯Ø±Ø§ÙĨ
ĠØ± Ø¯ÛĮ
ĠÛ±Û¹Û µ
ĠØ¨ÙĨ Ø²ÛĮÙĨ
5 0
Ø´Ø¯ ÙĨ
ĠØ¨Ø§ Ø³ØªØ§ÙĨ
ĠÙħÙĤ Ø¯Ùħ
ĠÙħØŃØ§Ø³ Ø¨Ùĩ
ÙĤ Ø±
ĠÛ³Û µ
ĠÙħØ±Ø§ ÙĤ
ĠØ¨Ø¨Ø± ÛĮØ¯
ĠÛ °
ĠØ¨Ø§Ø²ÛĮ Ú¯Ø±
ĠÙĤ ØªÙĦ
ĠØ´ ÙĨÛĮ
ĠÙĪ Ø¹Ø¯Ùĩ
ĠÚ©ÙĪ ÛĮÙĨ
ĠÙĨ Ø¨Ø±Ø¯
ĠØ³ÙĤ Ùģ
Ø¨ Ø§Ø²ÛĮ
ĠØªÙĪÙĦÛĮØ¯ ÛĮ
ĠÙ¾Ø°ÛĮØ± Ø´
Ø¦ ÙĪÙħÛĮ
Ø´ Ú©ÙĦ
ĠÚĺÙĪØ¦ ÙĨ
ĠÙĨ Ø¬Ø§Øª
ĠÙĨØ¸Ø± Ø§Øª
ĠÙĨÙĪ Ø¬
Ø§Ùĩ ÛĮÙħ
âĢ ¦
ĠØ¨ Ø§ÛĮ
ĠÙħØ¬ ÙĦÙĩ
ÙĪØª ÙĪ
ÙĤÛĮ Ø§ÙĨ
ĠØ¨ Ø´Ùĩ
ĠØ§Ø¹Øª ÙĤØ§Ø¯
Ø´ ÙĪÛĮØ¯
ĠÙĩ Ø±Ú©
ĠÙĨØ§Ùħ ÛĮØ¯Ùĩ
ĠØ§ÙĨØ¯ Ú©ÛĮ
Ø¬ Ø¹
ĠØ¨Ø® ÙĪØ§ÙĨ
ĠØ´ÛĮØ§ Ø¦ÙĪÙħÛĮ
ĠØ§ Ø´ÛĮ
Ø±Ø³ ÛĮØ¯
ĠØ¯Ø§Ùħ ÙĨÙĩ
Ø² Ø§Ùħ
ĠØ³Ø§ Ú©ÙĨ
Ġ n
ÚĨØ± Ø®Ùĩ
ĠØ§Øª ÙĪØ¨
ĠØ¬ Ø³
ĠÙĨÙĩ Ø§Ø¯
ĠØ§ÙĨÚ¯ÛĮ Ø²Ùĩ
ĠØ±Ú© ÙĪØ±Ø¯
ĠØ§Ø¶ Ø·Ø±
ØºØ° ÛĮÙĩ
ĠØ±ÙĪØŃ Ø§ÙĨÛĮ
ÙħØ¯ Øª
ĠÙħØ§ÙĨ Ø¹
Ø§Ø±ÛĮ Ø³
ĠØ¯ Ø§ÛĮ
ĠØ§ÙĨ Ø¨
ĠÙģ Ø±ÛĮ
e x
ĠØ¨Ø§Ø²Ø§Ø± ÙĩØ§ÛĮ
ĠØªØµ Ø§Ø¯
Ù¾Ø± Øª
ĠÙģØ± Ø§Ø±
ĠØ³ Ø±ÙĪ
Ġ in
ĠÛ±Û³Û µ
ĠÙ¾Ø§Ø¯ Ø´Ø§Ùĩ
ĠØ¢ÙĪØ± ÛĮÙĦ
ĠØ´Ø§ÙĨ Ø§
ĠØ§ØªÙĪÙħ Ø¨ÛĮÙĦ
ĠÚ¯ ÙĨ
ĠØ³ÙĤ ÙĪØ·
ĠØ´ÙĩØ±ÛĮ ÙĪØ±
ĠØ³ÛĮ Ø§Ø±Ùĩ
ĠÛ³Û ²
ĠÛ²Û°Û±Û µ
Ø³Øª Ø±ÛĮ
Ùģ Ø§ÛĮ
ĠØªØ±Ú©ÛĮ Ø¨ÛĮ
ĠØ¬ÙĨÚ¯ ÙĦ
ĠÙĨÙħØ§ÛĮ ÙĨØ¯
ĠØª Ø±ÛĮ
ĠØ§Ùħ Ø¶Ø§
ĠØ§ÙħØªØŃ Ø§ÙĨ
Ú© ØªØ±ÛĮ
ĠÙħØ³ Ø§ÙĦÙĩ
Ø® ØªÛĮ
ĠÚ©ØªØ§Ø¨ Ø®Ø§ÙĨÙĩ
ĠØ§Ø³ØªØ± Ø§ÙĦÛĮØ§
ĠØªØ® Ùħ
ĠØµØ±Ùģ Ùĩ
ĠÙħØ¹ ÙĨ
ĠÙĤØ¨ ÛĮÙĦ
ĠØ¸Ø§Ùĩ Ø±ÛĮ
ĠÙħØª Ø§Ø³
ĠØ· Ø±Ø§ØŃ
Ø² ÙĨÛĮ
ĠÙħØ³Ø§ÙģØ± Ø§ÙĨ
Ùģ Ø¬
ĠÙħÙĤ ØµØ¯
Ø¨ Ø§Ø¨
ĠØ³ Ø±Ú©
ĠØ¢ÙĨ ØªÛĮ
ĠÚĨ Ø±Ø¨ÛĮ
ĠØ´Ø¹ Ø±
ĠØ¶ Ø±Ø¨Ùĩ
ĠÙĤÛĮÙħ ØªÛĮ
ĠØ¨Ø± Ø¯Ø§Ø±ÛĮ
ĠØ§Ø¯Ø¨ÛĮ Ø§Øª
ĠØ§Ø®Øª ÙĦØ§ÙĦ
ĠÛ² Û³
ĠØ¯Ø§Ø± Ø§ÛĮÛĮ
ĠØ´ÙĩØ± Øª
ÛĮÙĨ Øª
ĠØ² Ø±Ø¯
ĠÙģØ± ÛĮÙħ
ĠÙ¾ Ø¯ÛĮØ¯Ùĩ
i p
ĠØ§ØŃ ÙħØ¯
ĠÚĨ Ø§ÛĮ
ĠÚ¯Ø±ÙģØª ÙĨØ¯
ĠÙĩ Ø§ÛĮ
ĠÙĦØ· Ùģ
ĠØ·Ø±Ùģ Ø¯Ø§Ø±Ø§ÙĨ
ĠØ¨Ø§ÙĨ Ú©ÛĮ
ĠÙħØ¤ Ø«Ø±
ĠØº Ø±
ĠÚ¯ÙĪØ´ Ùĩ
ĠØ¨ ÙĦÛĮ
ĠØ±ÛĮØ§ Ø¶ÛĮ
ÛĮØ¯ Ú¯ÛĮ
ĠÚ¯Ø±Ø§Ùģ ÛĮÚ©
ĠØª ØºØ°ÛĮÙĩ
ĠØ¯ÙĪ Ø´ÙĨØ¨Ùĩ
ĠÙħØ¹ Ø§ÙħÙĦÙĩ
ĠØ§Ø³ØªØ® Ø¯Ø§Ùħ
ĠØ¯Ø± Ø³ØªÛĮ
ØªÙĪ Ø¬Ùĩ
ĠØ³Ù¾ Ø§Ùĩ
ĠØ´ÙĨ Ø§Ø®Øª
ĠØ¨Ø§Ø² Ø±
er s
ĠØ³ÙĦ Ø·
Ġ ,
ĠØ±Ø³ Ø§ÙĨØ¯
ĠÙħÙĪ Ø¬
ĠØ§Ø® ÙĦØ§
ĠØ³Ø§Ø®Øª ÙĨ
ĠÙĪ Ø¬Ùĩ
ĠØ¨Ø± Ø·Ø±Ùģ
ĠÚ¯ÙĪÙĨØ§ Ú¯ÙĪÙĨ
ĠØª Ø§Ø²Ú¯ÛĮ
ĠØ¬ Ø±Ùħ
ĠØ¹ Ø§Ø¯Øª
ĠØ¢Ø´ÙĨ Ø§ÛĮÛĮ
ĠÙ¾ÛĮ ÙĪÙĨØ¯
ĠØ³Øª Ø§Ø¯
Ú©ÙĨ ÛĮ
ĠØªÙħØ§ Ø´Ø§
ĠØŃÛĮ Ø§Øª
ĠØ¯ÙĪ ÚĨØ±Ø®Ùĩ
ĠÙħØŃ ÙĦÙĩ
ĠØ¢ÙĦ ÙĪØ¯Ú¯ÛĮ
Ø§ÛĮ Ùģ
ĠÙģØ±Ø¢ ÙĪØ±Ø¯Ùĩ
ĠØµÙģ ØŃØ§Øª
ĠÙ¾Ø± Ø²
ĠØ±ÙĪ Ø§ÛĮØª
ĠØ¯Ø³ Ø§ÙħØ¨Ø±
Ø¬ ÙĪÛĮÛĮ
ĠØ³ÙĦØ§Ùħ ØªÛĮ
ĠÙ¾ÛĮØ´ Ú¯ÛĮØ±ÛĮ
at e
ĠØ±ÙĪØ³Øª Ø§ÛĮÛĮ
Ø§ÙĦ Ùħ
Ø§ Ú©ÙĨÙĪÙĨ
ĠÙħØŃØ§Ùģ Ø¸Øª
Ú¯ Ø§
ĠØ± ØŃ
ĠØªØ±Ø¬ÛĮ ØŃ
ĠØ¢ÙĪØ±Ø¯ ÙĨ
ĠØŃ Ø¯ÛĮ
ĠØ³ ÙĨØ¬
ĠØªÙĪ ÙĤ
ĠÙ¾ÙĨØ¬ Ùħ
Ù¾Ø°ÛĮØ± ÛĮ
ĠØ¬ ÙĪØ±
ĠØ¯Ø§ÙĨØ´ Ú©Ø¯Ùĩ
ĠÙħØªØ§Ø³ ÙģØ§ÙĨÙĩ
ĠÙ¾Ø± ØªØ§Ø¨
Ø±Ø§ Ø³
ĠØ§Ø³Ùģ ÙĨØ¯
ĠÙ¾ÛĮØ± Ø§ÙħÙĪÙĨ
ĠØ¯Ø± ÙĨ
ĠÙħØ±Ø§ÙĤ Ø¨Øª
ĠØ¯Ø±Ú¯Ø° Ø´Øª
ĠØ´ ÙĦÙĪ
ĠÙĩ ÛĮØ¯
ĠÚĨÙĩØ§Ø± Ø´ÙĨØ¨Ùĩ
ĠÙĦ Ø²
Ø¢Ø¨ Ø§Ø¯
ĠÙĨ ÙĪØ³
ĠØ§ØŃ ØªØ±
ĠØ§ÙĨ Ø¹
ÙĪ ÛĮÙħ
Ú© ÙĪÙĦ
ĠØ´ ØºÙĦÛĮ
ĠÙ¾ ÙĪØ±Øª
ĠØ® Ø§ÙĦ
ĠØŃÙĦ ÙĤÙĩ
ĠØ¶ Ø¹Ùģ
ĠØ³Ø§ÙĦ ÙĨ
ĠÙĦ ÙĨØ¯ÙĨ
ĠÙħØª ØºÛĮØ±
ĠÙħØŃÛĮØ· ÛĮ
Ø®ÙĪØ§Ùĩ ÛĮÙħ
ĠÙ¾Ø§Ú© Ø³ØªØ§ÙĨ
ĠÙħ Ø§Ø²
ĠÙģ ÙĩÙħ
ĠÙħØ²Ø§ÛĮ Ø§ÛĮ
ĠØ¨ ØªÙĪØ§ÙĨ
ÛĮØ¯ Ùħ
ÛĮØ¯ÙĨ Øª
Ø§ÙĨÛĮ Ø§ÙĨ
ĠØ¬Ø³Øª Ø¬ÙĪÛĮ
ĠÙ¾ Ø±Ø§
ĠØ§Ø¯ Ø¹
ĠÙħØ°Ùĩ Ø¨ÛĮ
ĠÙĪ Ø§ÛĮ
ĠÙħØ¹ Ø§ÙħÙĦ
ĠØ§ÛĮÙĨ ÚĨ
ĠØ´Ø§Ø® Ùĩ
ĠÙħØ§Ø¬ Ø±Ø§
ĠØ§Ø³ØªØ§ÙĨØ¯ Ø§Ø±
Ø® Ø§Ø±
Ø¯Ø±Ø§ Ø³ÛĮÙĪÙĨ
ĠØ± ÙĩØ§
ĠÙĪÛĮØ¯ Ø¦ÙĪ
Øª Ùħ
ĠØ±ÛĮØ³ Ú©
ĠÚ©Ø§Ø± Ø§ÛĮÛĮ
Ø¬ Ø§Ø³Øª
ĠÙĪØ§Ø³ Ø·Ùĩ
ĠÙħØªÙĨ ÙĪØ¹
ÙĦ Ø²
ĠØ¨Ø± ÙĪØ¯
ÙĨÛĮ Ø§
ĠÚ©ÙĦØ§ Ø³ÛĮ
ĠØŃÛĮÙĪØ§ÙĨ Ø§Øª
ĠØªØ± Ø§ÙĨÙĩ
ĠØ¨ ÛĮØ¯
ĠØ¨Ùĩ ÙħÙĨ
ĠØ³ Ùħ
ĠØ§ÙĨØ¯Ø±ÙĪ ÛĮØ¯ÛĮ
Ø§Ø¯ ÙĨ
ĠØ¨ Øª
ĠØ¬Ø¹ Ø¨Ùĩ
ÙģØ§ ÙĤÛĮ
Ø¯ÛĮ Ùĩ
ĠÙħØ± Ø³
ĠÚĨØ±Ø§ Øº
ĠØ¯Ø±ÛĮØ§ ÚĨÙĩ
ĠÙħ ÛĮÙĨ
ÙĨ Ø´Ø§ÙĨ
ĠØ§ Ø«
ĠØ¯Ø´ ÙħÙĨ
ĠØ¹ ÙĪØ§Ø±
ĠØ® ÙĦØ§Ùģ
00 0
Ùĩ ÙĨÛĮ
ĠØ¬ Ø±
ĠÙģØ± Ø´
ØªÛĮ Ú©
ĠØ®ÙĪØ§ÙĨ Ø¯Ùĩ
ĠØ¯Ø§Ø´Øª Ùħ
ĠÛ¹ Û°
ĠÙħØ´Ø§ÙĪØ± Ùĩ
ĠÙĤÙĩØ± ÙħØ§ÙĨ
Ø§Ùĩ Øª
ĠÙĨ Ø§Ø¯Ø±
ĠØªÙĨ ÙĪØ¹
Ø· ÙĪØ±ÛĮ
ĠÙ¾ ÙĨÙĩ
ĠÙĩÙħ ÙĪÙĨ
ÙĨ ÙĪÛĮØ³ÛĮ
ĠØ² ÙĪØ¯ÛĮ
ĠØ¬ÙĨ Ø¨
ĠÙħØ· Ø§Ø¨ÙĤ
Ø² Ø§ÛĮÛĮ
ĠØ¬ÙĨ Ø¨Ùĩ
ĠÙĦ Ùĩ
Ø´Ø¯ ÙĨØ¯
ĠØªØ¹ÙĪÛĮ Ø¶
ÙĨ ÙħØ§ÛĮØ´
ĠØ¢ ÙģØª
ĠÙħØ£ Ùħ
ĠØ³ÛĮÙĨ ÙħØ§ÛĮÛĮ
or t
ĠØ§ ÛĮØ´Ø§ÙĨ
ĠØ§Øª ÙģØ§ÙĤÛĮ
ĠØ´ÛĮØ± ÛĮÙĨ
ĠØ§Ø¨Ø± Ø§Ø²
± Û°
1 0
ĠÚ¯ Ø§Ùĩ
ĠØ¨ ÙĨØ¯Ø±
ĠØ¬Ùħ Ø¹ÛĮ
ĠØµ Ø§Ø¯
Ø¯Ø§ Ø«
ĠØ¨ Ùģ
ĠØºÛĮØ± ÙĤ
ĠØ¹ÙħÙĦÛĮ Ø§ØªÛĮ
ĠØªÙģ Ú©Ø±
Ø²ÛĮ Ùĩ
Ø±Ø§ØŃ Øª
Ø³ ÙĨ
ĠÙĨ Ø±
ĠÙħÙĨØ· ÙĤÛĮ
ĠÙħØŃÚ© ÙĪÙħ
Ø§Øª ÙĪØ±
ĠÙ¾Ø±ÙĪØª Ø¦ÛĮÙĨ
ÛĮÚ© Ø±
ĠÙħØ°Ø§Ú© Ø±Ùĩ
ĠÙħØª ÙĪÙĦØ¯
ĠØ§ØŃØ³Ø§Ø³ Ø§Øª
ĠÚ¯ÙģØª Ùħ
ĠÙħ ÙĦØª
ÛĮÚ© Ùĩ
ĠÙħÛĮØ² Ø¨Ø§ÙĨ
ĠØ± ÙĨÚ¯ÛĮ
ĠØ¢Ùħ Ø¯ÙĨ
ĠÙħØ² ÛĮØª
ĠÚĺØ§Ù¾ ÙĨÛĮ
ĠØ¬ Øº
Ø« ÛĮ
ĠØ¬ Ø±Ø§ØŃÛĮ
ĠØ¨ ØµÙĪØ±Øª
ĠÙĨ ÙĪØ±ÛĮ
ĠØ§Ø¨ Ø±ÛĮ
ĠÚ¯Ø±Ø¯ Ø¯
ĠÚ© Ø§Ø¨ÙĦ
ĠÙħØµ Ø±
ĠØ§ØŃ Ø¯Ø§Ø«
Ø¨Ø± Ø§ÙĨ
ĠÙħØª ÙĩÙħ
ĠØªÙħØ§ Ø´Ø§ÛĮ
ĠÙĪØ§ØŃ Ø¯ÙĩØ§ÛĮ
ĠÙħØ§ÙĦÛĮ Ø§Øª
ĠÙĪÙĤ ÙĪØ¹
ĠØ¯Ø³ØªÛĮ Ø§Ø¨ÛĮ
ĠØªÙĨ ÙĩØ§ÛĮÛĮ
Ġ1 2
ĠÙģ ÙĪØ±ÛĮÙĩ
iv e
Ø§Ùħ Ø§
ĠØª ÙĪÙĨ
ĠÙģØ±Ø§ ÙĪØ§ÙĨÛĮ
ĠÙ¾Ø± Ø¯Ùĩ
Ûµ Û°
ĠÙ¾ÛĮÙħ Ø§ÙĨ
ĠÚ©Ø´ ÙĪØ±ÛĮ
ĠØ¬ Ø§Ø¨
ĠA M
ĠØ® Ø§ÙĪØ±
Ø¢Ùħ ÙĪØ²
Ø±Ø¯ Ú¯ÛĮ
Ø± Ø§Ø±ÛĮ
ĠÙħØªØ¹Ø¯ Ø¯
ĠØ¨ ÙĪÛĮ
ĠØªÙĪÙĦ Ø¯
ĠØ®ÙĪØ§Ø³Øª Ø§Ø±
ĠØªÙĪ Ù¾
Ø¹ ÙĪØ¯
Ø¨Ùĩ Ø´Øª
ĠØ¨Ø¹ Ø¯ÙĩØ§
ĠØ§ØªÙĪØ¨ ÙĪØ³
ĠØª ÙħÛĮØ²
ĠØ§Ø¯ Ø§Ø±ÛĮ
ĠØ¨ÙĨÛĮ Ø§Ø¯
ÙĪÙĦ Øª
ĠØ¬Ø¯Ø§ Ú¯Ø§ÙĨÙĩ
Ø¯ ÙĪÙĨ
ĠØ´ÙĪØ± ÙĪÛĮ
ĠØªØ¬ Ø±Ø¨ÛĮ
Ġ Q
ĠØ®ÙĦÛĮ Ø¬
Ú¯ ÙĪÛĮÛĮ
Ø¯Ø§ÙĨ ÛĮØ¯
ĠÙĩÙħ Ú¯ÛĮ
ĠÙ¾ Ø§Ø±ÛĮØ³
e ct
ĠØ®Ø±Ø¯ Ø§Ø¯
Û² Û°
ĠÚ©Ø§Ø± Ø´ÙĨØ§Ø³ÛĮ
Ġ h
ĠÙ¾Ø±Ø¯Ø§Ø®Øª Ùĩ
ĠÚ©Ø§Ø± Ø¢ÙģØ±
ĠØ§Ø³ Ú©
ĠØ§ÙĨ ÙģØ¬
ĠÙĪØ§Ú©Ø³ ÙĨ
ĠØªØ´ ÙĪÛĮ
ac k
Ø§ÙĨ Ø§
ĠØ¯Ø± ØŃØ§ÙĦÛĮ
ĠØ³Ø®ÙĨ Ø±Ø§ÙĨÛĮ
or e
ĠÙĪØ¸ Ø§ÛĮÙģ
Ø¯ ÙĦ
Ġ l
Ùħ ÙĪ
ĠØ±ÙĪØ§ÙĨ Ùĩ
ĠØ§ÙģØ² Ø§Ø±ÛĮ
ĠÙģØ±Ø§ ÙĪØ§ÙĨ
ĠØ³ Ø§Ø¯Ú¯ÛĮ
ĠØ§ÙģØª Øª
ĠØ¨Ùħ Ø¨
ĠÛĮ ÙĪØ±ÙĪ
ĠÙ¾Ø§ÛĮØ¯ Ø§Ø±
ĠÚ© Ø§ÙĦÛĮ
ĠÙħ ØªØ±ÛĮ
ĠØ¢Ø³ ÙħØ§ÙĨ
ĠØ§ÙĪ Øª
ĠØ³Ø± Ù¾Ø±
ĠÙħÛĮ Ú©ÙĨÙĩ
ĠÚĨ Ø´
ĠÙĪ Ø§ÙĦØ¯ÛĮÙĨ
ĠÙĪ Ø§Ø´
ĠÛ¸ Û°
ĠØµØ¯ ÙĪØ±
ĠÙħ Ø¶
ĠÙ¾Ø±Ø³ Ø´
ĠØ§ ÙĤÛĮØ§ÙĨ
ĠØª Ø¹ÙĩØ¯
ĠØ¹ Ø¯Ùĩ
ĠØ¹Øµ Ø¨ÛĮ
ĠÙĩÙħØ§Ùĩ ÙĨÚ¯ÛĮ
ĠØª Ø§ÙĦ
ĠØ¯ ÙĪÙĨ
ĠØº ÙĪÙĦ
Ġ and
ĠØ§Ø³Ù¾Ø§ÙĨÛĮ Ø§
ĠØªØŃ ÙĪÙĦ
ĠØ§Ù¾ Ø±Ø§ØªÙĪØ±
ĠØ² Ø®
ĠØ¨Ùĩ Ø§Ø±
ĠØ± ÙĤÛĮØ¨
ĠÙħØªÙĤ Ø§Ø¶ÛĮ
ĠØºØ° Ø§ÛĮ
ĠÚ¯ÛĮØ§Ùĩ Ø§ÙĨ
a k
ĠÙģØ±Ø²ÙĨØ¯ Ø§ÙĨ
ĠØ¨ Ø³ØªØ±
ĠØ§ÙħØ±ÙĪ Ø²ÛĮ
ĠÙģ Ø³
ĠÙĪ Ø§Ø±
ÛĮ Ø¨ÙĩØ´Øª
ĠÙĨØ¯Ø§Ø± ÛĮØ¯
ĠØ¨ Ø³ØªÚ¯ÛĮ
ĠÙħØ³Ø¦ÙĪÙĦ Ø§ÙĨ
Ø§ÙĦ ØŃ
Ø¨ Ø®Øª
ĠP ro
ĠÚ© Ø¬Ø§
ĠØ³ ÙĪØ²
ĠØ¨Ø§Ø²ÛĮ Ú©ÙĨØ§ÙĨ
ĠÚ© Ø±ÙĪÙħ
ĠÙģØ§Ø± Øº
ĠØ¨Ø±ÙĤ Ø±Ø§Ø±ÛĮ
ĠØ¨Ø±Ø§ÛĮ ØªØ§ÙĨ
ĠØªÙĪÛĮÛĮ ØªØ±
ÙĪ Ø§Ø²
ĠÛ²Û°Û±Û ´
ÙĪØ´ ÛĮ
Ø§ ØªØ±
Ù¾ Ø²
Ù ł
al l
Ø± ÙĨÚ¯
ĠØ§ÙĨØª ÙĩØ§ÛĮ
ĠØ§Øª ÙĩØ§Ùħ
ĠØ§ Ø±Ø§
ĠÚ¯Ø° Ø§Ø±
ĠØ· ÛĮÙģ
ÙħØ§ÙĨ Ùĩ
ĠÚ© Øª
ĠÚĨØ±Ø§ Ú©Ùĩ
Ø§Ø³ÛĮ ÙĪÙĨ
ĠÙģÙĦØ³ Ø·
ĠØ§Ø¨Øª Ø¯Ø§ÛĮÛĮ
i f
ĠU S
ĠØª Ø§Ø¨Ø¹
ĠÙĩØ³Øª Ùħ
ĠØª ÙĨØ¯
ĠÙģ Ø§ÛĮ
ĠÙħÙĪ Ø´Ú©
ĠØ²ÙħÛĮÙĨ ÛĮ
ÙĪØ±Ø¯ ÛĮÙĨ
ĠÙħØª ÙħØ±Ú©Ø²
ĠÙħØ± Ø¨ÛĮ
ĠÙĤØ± Ø¨Ø§ÙĨÛĮ
ĠÙ¾ÚĺÙĪÙĩØ´ Ú¯Ø±Ø§ÙĨ
ĠÙĨÙĪ Ø¢ÙĪØ±ÛĮ
ĠØ¢Ø¨ Ø§Ø¯
ĠÙ¾Ø±Ø² ÛĮØ¯ÙĨØª
ĠÙħÛĮ ØªÙĪÙĨ
ĠØ¯Ø± Ú¯ÛĮØ±ÛĮ
ĠÙħØ§ÛĮ Ø¹
ÙĦ ÛĮÙĨ
ĠÙĨÙĪ Ø§Ø±
ĠØ¯ ÙģØ§
ĠÚ¯ Ø¬Øª
i e
ĠØ¯ÛĮØ¬ÛĮ Ø§ØªÙĪ
ĠØ³ÙĪ Ø¦
ĠÙĪ Ø§Øª
ĠÙĩØ± Ú¯ÙĪÙĨÙĩ
ĠØ¨ Ú©Ø§Ø±
ĠØ´ÙĨÛĮ Ø¯Ùĩ
ĠÙħÙĨØŃ ØµØ±
ĠØ¹ÙĪØ§Ø± Ø¶
ÙħÙĨ Ø³ØªØ§ÙĨ
ĠØ®Ø±Ø§ Ø³Ø§ÙĨ
ĠØ¯ ÙħØ§
ĠÙĨÙħ Ø§Ø¯
ĠØª ÙĨÚ¯
Ø±Ø§ Ú¯ÙĪÙĨ
ĠØ¨ Ú©
ĠØ®ÙĪØ¯ ÙħØ§ÙĨ
Ø¨Ø± Ø§ÛĮ
Ø§Ø® ØªÛĮ
ÙħØ§ÛĮ Ø´ÛĮ
ĠÙĤ ÙĪÙĦ
ĠØ¯ ÛĮØª
ÙħÛĮ Ùĩ
ĠÙħ ÙĪÙĨ
ĠØªØ® ÙģÛĮÙģ
ĠÙĩ Ø§Ø³Øª
ÚĨ ÛĮÙĨ
ĠÙħÙĪØ³ Ø³Ùĩ
Ø§Ø¨ Ø±ÛĮ
ÚĨ Ø³Ø¨
ĠØ²ÛĮØ± Ø³Ø§Ø®Øª
Ø¨Ø± Øª
ĠÛ· Û°
ĠÙħØ´Ú©ÙĦ Ø§ØªÛĮ
Ø¯Ø§ÙĨ ÛĮÙħ
ĠØ±ÙĪ Ø¨Ùĩ
ĠØ¢ Ø³Øª
ĠØ®ÙĪØ§ÙĨ ÙĨØ¯Ùĩ
ĠØ§Ø±Ø¯ ÛĮØ¨ÙĩØ´Øª
ĠØŃØ³ Ø§Ø³
ĠÙ¾Ø¯Ø± Ø´
ĠÙħØ¯ Ø±Ú©
ĠÚ¯ ÛĮÙĦ
ĠÙĪÛĮØ± Ø§ÛĮØ´
ĠÙħØ³Øª ÙĨØ¯
Ú¯Ø± Ùĩ
ĠÙĪØ§Ø±Ø¯ Ø§Øª
ĠÛĮÙĩ ÙĪØ¯ÛĮ
Ġ /
ĠØ· Ø±ÙģÛĮ
ĠØ§Ø³ÙĨ Ø§Ø¯
ĠT he
ĠÛĮÚ© Ù¾Ø§Ø±
it y
ĠÚ¯ ÛĮØª
ĠØªØ§ Ø¬
ĠÚ©ÙĦ Ø§Ùĩ
ĠÙħØ°Ø§Ú© Ø±Ø§Øª
ĠØ¬ ÙĦØ³
Ø§Ø± Ùģ
ĠØ±ÙĩØ¨Ø± Ø§ÙĨ
ĠÙĩ Ø§
ĠØ§Ø³ÙĨ Ù¾Ø¯
ĠØ± ÙĨØ¬
ĠØ¢ÛĮ Ù¾Ø¯
e c
ĠØ±ÙĪØ² Ùĩ
ĠØ®Ø´ ÙĪÙĨØª
ĠÙħØ¯Ø§Ø± Ø³
Û±Û ¹Û
ĠØ¨Ø²Ø±Ú¯ ØªØ±
ĠÙģØ±Ø§ ØªØ±
ĠØ² ÙĨÚ¯
ĠÙħØ±Ø¯ Ø§Ø¯
ĠØ§ÙĨ ÛĮÙħ
ĠØ³ ÙĦØ§ØŃ
Øº Ø§Ùħ
ĠÙĩØ¯Ùģ ÙĪÙĨ
ÛĮ Ø³ÛĮ
ĠÙĩÙħ Ú©Ø§Ø±Ø§ÙĨ
ĠÙĦØº ÙĪ
ĠØ§ØªÙħ Ø§Ùħ
ĠØ§ÙĦ ÙħÙ¾
ĠØ´ Ø§Ø¯
ĠØº ÙĨÛĮ
ÙĪØ± Ø§
ĠØ¨Ú¯ÙĪÛĮ ÛĮÙħ
r a
ĠØ²Ùħ Ø³ØªØ§ÙĨ
ĠØ´Ø¨ Ø§ÙĩØª
ĠÙħ Ø®Ø§Ø¨
Ġ a
p er
ĠÛ³ Û°Û°
ĠØ¨Ø±Ú¯ Ø´Øª
ĠÙħÙĨ Ø¹
ĠÚ©ÙĦØ§Ø³ÛĮ Ú©
ĠØºÛĮØ± Ùĩ
ĠH D
Ú¯ÙĪÙĨ Ú¯ÛĮ
ĠÙħØ¯ Ø¹ÛĮ
ĠÙħØ¯ ÛĮ
ĠØ¨ÙĦÛĮ Ø·
ĠÙħØ® ÙģÛĮ
ĠÚ©ÙĨ ÙĪÙĨ
ĠØ³ÙĪÙħ ÛĮÙĨ
ĠØ´Ø§ÛĮ Ø¹Ø§Øª
ĠØ¨ Ú¯Ø°Ø§Ø±Ø¯
ĠØ§Ø³ÙĨÙ¾Ø¯ Ø±Ø§Ú¯ÙĪÙĨ
ĠÙĩØ²Ø§Ø± Ø§ÙĨ
ĠÙĨØ§ Ú¯Ùĩ
ĠÙħØ¬ Øª
ÙħÛĮÙĨ ÛĮ
ĠÛĮ ÙĪ
ÙĦÙģ ÛĮ
Ø§Ø± Ø§
ĠØ¹Ø¨ Ø§Ø³
ĠØ³ Ø¦ÙĪ
es t
ĠÙ¾ Øª
ĠÚ©Ùģ Ø´
ĠÛ±Û³Û ·
ÛĮØ¯ ÙĨØ¯
Ø¬ Ø²
Ø§ ÙĪÙħ
ĠÛ±Û¹Û ²
ĠØ§ÙĦ ÙĦÙĩ
ĠØŃ Ø¬
ĠØªØ´ÙĪÛĮ ÙĤ
ĠÚ©ÙĪ Ø§ÙĦ
ĠÙħÛĮ Ø§ÙĨÙĩ
ĠØ± ÙĪØ§ÙĨÛĮ
ĠÙħ Ø´Øª
ĠØ¹Ùģ ÙĪÙĨØª
ĠÙģØ± ÙĪØ±Ø¯ÛĮÙĨ
ĠØ¯Ø± Ú¯Ø§Ùĩ
ĠÚ©ÙĪÚĨ Ú©ÛĮ
ĠÙĨ Ø¬
Ø¯ ÙĨÛĮ
ĠÚ©Ø± Ø¨ÙĨ
o b
ĠØ¯Ø±ÛĮ Ø§ÛĮ
ar t
ĠÙħÙĦØ§ ÙĤØ§Øª
ĠØ§ÙĦÚ©ØªØ±ÙĪÙĨ ÛĮÚ©
ĠÙħØ¤Ø³ Ø³Ùĩ
ĠØ³ Ø¯
ĠÙħØ§ Úĺ
Ġt o
Ø¨ÛĮÙĨ ÛĮØ¯
ĠØªØŃØµ ÛĮÙĦÛĮ
ĠØ´ Ø¨Ùĩ
ĠÙĪØ¶ Ø¹
ĠÙĨ ÙĪØ§
ĠÙħØ´Ùĩ Ø¯
ĠØ® Ø§ÙħÙĪØ´
ĠÛ³Û ¶
Ø§Ùĩ Ø¯
ĠØ´Ú© ÙĦÛĮ
ĠÙħØ§Ùĩ ÙĪØ§Ø±Ùĩ
ĠÚĨ Ú¯ÙĪÙĨÚ¯ÛĮ
ĠÙħÙĪØ¶ÙĪØ¹ Ø§Øª
ĠØ¨Ø§ Ø¨Øª
ĠØ´Ø§ Ø¹
ĠÙħØ¬ Ø¯
ĠØªØ¹ Ø¨ÛĮÙĩ
ĠØªØ¨ Ø±ÛĮØ²
ĠØ¨Ø§ÙĦØ§ ØªØ±ÛĮÙĨ
ĠØ³Ø± Ùħ
Ú¯Ø±Ø¯ Ø§ÙĨ
ĠÚ©Ø§Ø±Ú¯Ø±Ø¯ Ø§ÙĨ
ĠÚ©ÙĦ Ø§ÙĨ
ĠØ±Ø³ÛĮØ¯ Ú¯ÛĮ
Ø§ÙĦ Ø¨ÛĮ
ĠÙģ Ø¯Ø±Ø§Ø³ÛĮÙĪÙĨ
ĠØ¯Ø± Ø¨
ĠØ¨Ø±Ø³ Ø§ÙĨØ¯
ĠÙĨ Ú©Ø±Ø¯
Ø§ÙĨ ÙĪ
ĠØ¢ Ú©
ĠØ¨Ø§ Ú©ØªØ±ÛĮ
Ø´ Ø§ÙĩÛĮ
ĠØ§Ø³ØªØ® Ø±Ø§Ø¬
ĠØ³Ø§ØŃ ÙĦ
ĠÙ¾Ø§Ø± ÚĨÙĩ
ĠÙĨÙĤ Ø¯
ĠØ¬ÙĪØ§ÙĨ Ø§ÙĨ
ĠÙģ Ø±Ú©
ĠÙħØŃØµ ÙĪÙĦÛĮ
ĠØ¹ ÙĤ
ĠØ¹Ùħ ÙĤ
ĠÙĨÙĪØ¬ ÙĪØ§ÙĨ
Ø³ ÛĮØ±
Ù¾ Øª
Ùħ Ø±Ùĩ
ĠØ³Ø¤ Ø§ÙĦ
Ø§Ø¨ ØªÛĮ
ĠÙģ Ø§ÙĦ
ĠÙĤØ· Ø±
ĠÙĩ Ø¯ÛĮÙĩ
ĠÙ¾ÛĮØ´ ØªØ±
ÙĦÛĮ ÙĦÛĮ
ĠØ¨ÛĮ Ø§ÛĮØ¯
ĠÚĨ ÙĪØ¨
ĠÙĩÛĮØ¯ Ø±ÙĪ
ĠÙ¾ÙĨ Ø§Ùĩ
ĠÙģ ÙĪÙĨ
ĠØ§Ø³ ÙĦ
ĠÙħØ·ÙĦ ÙĪØ¨
ĠÙĤÙĦ Ø¨ÛĮ
ÙħØ§ Ø³
ĠÚ© Ø§Øª
ÙĩØ§ Ø¨
ĠØ´ ØªØ§Ø¨
ĠØ¬ ÙĪØ´
ĠÛĮØ§Ø¯ Ø¯Ø§Ø´Øª
ĠÙħØ¹Ø§ÙħÙĦ Ø§Øª
ĠØ® ÙĪØ±Ø¯Ùĩ
ĠØ¨ Ø§ÙĨØ¯
ĠÛĮÚ© Ø´ÙĨØ¨Ùĩ
ĠÙ¾Ø±ÚĨÙħØ¯ Ø§Ø±
ĠÙ¾ÙĨÙĩ Ø§ÙĨ
ĠØ§ÙĪ Ø¬
ĠØ§Ø« Ø¨Ø§Øª
ĠØ²ÙĨØ¬ ÛĮØ±Ùĩ
ĠÙĩ ÙĪØ±
ĠÙĪØ³ Ø·
ĠÚ©ÙĨ ÛĮ
ĠØ®ÙĨ Ú©
Ú©Ø± Ø§ÙĨ
Ø§Ø¯Ùĩ Ø§
Ø¨ Ú©
ĠÙĨ Ú¯Ø§Ø±
v er
ĠØªØŃÙĤÛĮÙĤ Ø§ØªÛĮ
ĠØ¨ÛĮ Ø§ÙĪØ±
ĠØ§Ø³Øª ÛĮ
ĠÙħÙĪØ³ ÙĪÙħ
ĠØ¯Ùĩ Ùħ
ĠØ¢ÙĨ Ø¬Ø§ÛĮÛĮ
Ú¯Ø° Ø§Ø±Ø§ÙĨ
ĠØ¹ÙĨ Ø§ØµØ±
ĠØ§Ø´ÛĮ Ø§
Ù¾Ø±Ø¯Ø§Ø² Ø¯
ÙĪ Ú©Ø±
Ø¹Ùĩ Ø¯Ùĩ
o g
ĠØ³ ØªÙĪÙĨ
ĠÙģØ±ÙħØ§ÙĨ Ø¯Ùĩ
ĠØªÙĦ Ú¯Ø±Ø§Ùħ
ĠØ§Ø® Ø°
ĠØªØŃ ÙħÙĦ
ĠØ¶ Ø®
ĠØ§ÙĦÙĩ Ø§Ùħ
ĠØ¬ ÛĮÙħ
ÙĦØ§ Ú¯
ĠØªØ¬ Ø²ÛĮÙĩ
Ùģ ÙĪÙĨ
ĠÙħØªÙĨ Ø§Ø³Ø¨
ĠØ§Ø³ ÛĮØ¯
ĠÚ©ÙĪØ¯ Ú©ÛĮ
ĠÙģÙĦ Ø²ÛĮ
ĠÙħØŃØ¨ÙĪØ¨ ÛĮØª
Ø ©
ĠØ±ÛĮ Ø²
ĠØ¯Ø§ Øº
ĠÙ¾ Ø§Ù¾
ĠÙĩÙħØ±Ø§Ùĩ ÛĮ
ĠØ²ÙĪØ¯ ØªØ±
ĠØ§Ø² Ø§ÛĮ
ĠÙĨ Ø§Ø²
ĠÙħØ± Ø¨Ø¹
ĠÙħ Ø§Ø¯
ĠØ± Ø¶Ø§
ĠØ§ØªÙģØ§ÙĤ Ø§Øª
ĠØ¨ ÙĪÚ©
ĠâĢ¦ .
ÙĪ Ø§ÛĮÛĮ
ĠÚ©ÙĨ Ú¯Ø±Ùĩ
ĠÚ¯ Ø§ÙĦ
ĠØ®Ø§Ø·Ø± ÙĨØ´Ø§ÙĨ
ĠÚĺÙĪØ¦ ÛĮÙĩ
ĠÚ¯ Ø±ÛĮ
ĠØ¯Ø± Ùĩ
ĠØ¢Ø° Ø±
ĠÙĨÙĪÚ© ÛĮØ§
ĠØªØ§ Ù¾
ĠØ´ Ø±Ú©ØªÛĮ
Ø® ÙĪØ§ÙĨÛĮ
ĠÙħ Ø§ÙĨÛĮ
ĠØ§ÙĦÙħÙ¾ ÛĮÚ©
ĠØ³Ø§Ø² ÙħØ§ÙĨÛĮ
ĠØªÙĪÙĦÛĮØ¯ Ú©ÙĨÙĨØ¯Ú¯Ø§ÙĨ
ĠØ´ÛĮØ± Ø§Ø²
ĠÚ©ÛĮÙĦÙĪ Ú¯Ø±Ùħ
ĠÚ¯Ø²Ø§Ø± Ø´ÛĮ
Ø´ ÙĪÛĮÛĮ
Ú©ÛĮ Ùĩ
on t
ĠØ¬ÙĦØ³ Ø§Øª
ĠØ¨Ø®ÙĪØ§Ùĩ ÛĮØ¯
ĠØ¨Ø§Ø²Ø± Ú¯Ø§ÙĨÛĮ
ĠØªØ¯ ÙĪÛĮÙĨ
ĠØºÛĮØ± Ùħ
ĠÚ©Ø§ÙĦ Ø§ÙĩØ§ÛĮ
ĠÙħØŃÙħ ÙĪØ¯
ĠØ¨ Øº
ĠÙĪ Ø§Ø¶
ĠØ´ Ø§ÙĨØ³
ĠÙħØ· Ø¨
Ù¾ ÙĪÙĦÛĮ
Ú¯ÙĪ ÛĮÙħ
ĠØ²Ø§ ÙĪÛĮÙĩ
Ø±Ø§Øª ÙĪØ±ÛĮ
ĠÙĤ ÛĮ
ĠØ·ÙĦ Ø§ÛĮÛĮ
ĠØ§ Ø¨ÙĪ
Ø±Ú© Ø§Øª
ĠÛ±Û ±Û
ÚĨ ÙĪØ¨
ĠØ³Ø· ÙĪØŃ
ĠÛĮÚ© Ø³Ø§ÙĨ
ĠØ§ÛĮ ÙģØ§
âĢĮ ÂŃ
ĠÙĤ Ø²
ĠÚ©Ø§Ø± ÙĩØ§ÛĮÛĮ
ĠØ§ØŃØªØ± Ø§Ùħ
ĠÚ©Ùħ ØªØ±ÛĮÙĨ
ĠØ¨Ø§ÙĦØ§ Ø®Ø±Ùĩ
ĠØ§ÙĨØ¯ Ø§Ø®Øª
ĠØ®ÙĪØ´ Ø¨Ø®Øª
Ú¯Ø± ÙģØªÙĩ
ĠØªØ® Ø±ÛĮØ¨
ĠUS B
ĠÚ© Ø§ÙģÙĩ
ĠØ³ÙĪ Ø§Ø±
ĠØ° ÙĩÙĨÛĮ
Ùģ Ø±Ø¯
ĠØ§ÙĦØ¹ Ø§Ø¯Ùĩ
ĠØ§Ø±Ø²Ø´ ÙħÙĨØ¯
Ø¨ ÙĪÙĦ
ĠØ¶ Ø±Ø¨
Ġ +
Ù¾ ÙĪØ±
ĠÙħÙĪ Ø§ÙĤØ¹
ĠØ¯Ø³Øª Ú¯ÛĮØ±
Ø§Øª ÙĪÙĨ
ĠØªØ³ ÙĦØ§
ĠÙħØ¹ ÙĨØ§
ĠØ¬ÙħÙĩ ÙĪØ±
ÙħØ§ÙĨ Ø¯Ùĩ
ĠÙĩ ÙĦ
ĠÙħÛĮ Ú©ÙĨÙħ
Ø¶Ø§ Ø¹
ĠÚ© Ø§Ø³Øª
ĠÙĩÛĮ Ø§Øª
ĠÙ¾Ø§ÛĮ Ø§ÙĨÛĮ
ĠÙħØ± Ø§Øª
Øµ Ø§Ø¨
ĠÙħÙĩ Ø¯ÛĮ
Ø§ Ú¯Ø±
ĠØ¢ ÙĪØ±ÛĮ
Ġ Y
ĠÚĨÙĨØ¯ Ø§ÙĨÛĮ
ĠØ§Ùģ Ú©Ø§Ø±
8 0
ĠØ®Ø±ÛĮØ¯ Ø§Ø±Ø§ÙĨ
Ø§ÙĦØ¹ ÙħÙĦ
ĠØªÙĪÙĤ Ùģ
Ùħ Ø¯ÛĮ
ĠÙ¾ ÙĪÙĦÛĮ
ĠØ± Ø£
ĠØ®ÙĪØ¯Ø±ÙĪ ÙĩØ§
ĠØŃØ³ Ø§Ø³ÛĮ
ÛĮÙĨ Ø§
ĠÙĤØ· Ø¹ÛĮ
Ø§ÙĦÛĮ Ø§ÛĮÛĮ
ĠØ§Ø³ØªØ® ÙĪØ§ÙĨ
Ø® ÙĪØ¯
ĠØ³ Ø¯Ùĩ
ĠØ¬Øº Ø±Ø§ÙģÛĮ
ĠØ· Ø¹Ùħ
ĠØ¨Ø§ Ø³ØªØ§ÙĨÛĮ
ĠÚ©Ø§Ø± Ú¯Ø±Ø§ÙĨ
ĠÙħØªØ®ØµØµ Ø§ÙĨ
ĠÙģÛĮØ²ÛĮ Ú©
ĠØ®ÙĪØ¯Ø±ÙĪ Ø³Ø§Ø²
Ùħ Ø§Ø±Ú©
ÙħÛĮ Ø§ÙĨÙĩ
ĠØ§ÙģØªØª Ø§ØŃ
ĠØ®Ø·Ø± ÙĨØ§Ú©
Ù¾ Ø§ÛĮ
ĠÚ© Ù¾ÛĮ
Ú¯Ø± ÙħÛĮ
ĠÚ©ÙĪ ÙĪÛĮØ¯
ĠÙģØ¹ ÙĦØ§
ĠÙħØ¬Ø¯ Ø¯Ø§
ĠÙĪ Ø§Ùħ
ĠØ´ Ø³Øª
ĠØ§Ùĩ Ø§ÙĦÛĮ
ĠØ¯ÛĮØ¯ ÙĨÛĮ
ĠØ¯Ø±ÙĪ Ø§ÙĤØ¹
ĠÙģÙĦØ³ ÙģÙĩ
ĠØ´Ú© Ø§ÛĮØª
ÚĨ ÙĨÛĮÙĨ
ĠØ¢Ùħ Ø§Ø¯Ú¯ÛĮ
Ø¨ÙĪØ± Ú¯
ĠØ¢ ØªÛĮ
Ġ g
Ġ2 00
ĠØ³ ÛĮÙĨÙĩ
ĠØ¹ Ø¸ÛĮÙħ
ĠØ³Ø¨ Ø²ÛĮ
ĠÚ©Ø´ ÛĮØ¯ÙĨ
ĠØ§ÙĨÚ¯ÙĦÛĮ Ø³
ĠÙħØ¹ØªÙĤØ¯ ÙĨØ¯
i st
Ø¹Ø¯ ÛĮ
Ú¯Ø° Ø±Ø¯
ÙħÛĮ ÙĦÛĮ
Ø§Ú© ØªÙĪØ±
Ø±Ø³ Ø§ÙĨ
ĠÙĨØ§Ø³ Ø§
ĠØ¨Ø§ÙĦ Øº
ĠØ¯Ùĩ Ø§ÙĨ
ĠÙħ Ø§ÛĮÙĦ
ĠØ¬ÙĨØ¨ Ø´
ĠÙħÙĪ ÙĤØª
ÙĪ Ø¨Ùĩ
ĠØ¹Ùħ Ø¯
ĠÙ¾ Ø§ÛĮÛĮ
ĠÛ² Û¹
ĠÙ¾ Ø¯ÛĮØ¯
ĠÙĩÙĪØ§Ù¾ÛĮÙħ Ø§ÛĮÛĮ
ĠÙħ ÙĤÛĮ
ÙĪÙĨ Ú¯
ĠÚ© Ø§Ù¾
ĠÙħÙĤØ§ ÙĪÙħ
ĠÙħØ¯ Ø§ÙĪÙħ
ĠØ¬ Ø¨Ø±Ø§ÙĨ
ĠØº ÙĦ
ĠØ³ÛĮ Ú¯ÙĨ
ÙģØ± Ø§ÙĨ
Ø¨ ØªÛĮ
ĠH T
ĠØ³ÙĪ Ø§ÙĦØ§Øª
ĠØ´ Ø´Ùħ
ĠÙħØŃ Ø§Ø³Ø¨
ĠØ§Ø³ Ú©ÙĨ
ĠÚ¯Ø± ÚĨÙĩ
Ùħ Ø«
ĠÙĨ ÚĺØ§Ø¯
ĠØ¯ÛĮ Ù¾ÙĦ
ĠÛ²Û°Û±Û ²
ĠÛĮÚ© Ùħ
ĠØ§Ø³Øª Ø±Ø§ØŃØª
ĠØ±Ø§Ùĩ ÙĨÙħØ§ÛĮÛĮ
ĠÛ¶ Û´
Ú© Ø³Øª
ÙĪØ±Ø¯ ÛĮ
ĠØ± Ùģ
ĠØ§Ø´ Ú©
ĠØ§Ø¬ Ø§Ø±Ùĩ
ĠØ¢Ø± Ø²
Ø¯ ÙĦÛĮÙĦ
ĠØ§ÙĨÚ¯ Ø§Ø±
ĠÙħØ®Ø§ÙĦ ÙģØª
¹ Û°
ĠØ¨ ÛĮÙĦ
ĠØ§ÙħÙ¾ Ø±Ø§ØªÙĪØ±ÛĮ
ĠØªÙĤØ§Ø¶ Ø§
ĠÙĤ ÙģÙĦ
ĠØ§ÙĤÛĮØ§ÙĨ ÙĪØ³
ĠØ§ØŃ ØªÛĮ
ĠÚ©Ø±Ø¯ ÛĮØ¯
ĠØ´Ùĩ ÛĮØ¯
ĠØ®Ø§ÙĪØ± ÙħÛĮØ§ÙĨÙĩ
ĠØ¨ Ø³Ø§Ø²
Øº Ø¯
ĠÙģØ±Ùħ ÙĪÙĦ
ĠØ®ÙĪØ´ ØŃØ§ÙĦ
ĠÚ©ÙĦ Ùħ
ĠØ¯Ùĩ ÙĨØ¯Ú¯Ø§ÙĨ
ĠØ³ÙĪ Ø¡
ĠÙħØ´ Ø§
ĠÛ±Û³Û ¶
ĠØ§ÛĮ Ø³
ĠÙ¾Ø±ÙĪØª Ú©ÙĦ
Ú©Øª ÙĪØ±
ÙĨÙĪ Ø´Øª
ĠØ¨ ÙĦØ§Ú©
ĠÚĨØ± Ø®Ùĩ
ĠØ§ÙĦ Ú¯ÙĪ
Ø§Ø² Ø¯Ùĩ
ig h
ĠÙħÛĮÙĦ Ø§Ø¯
n d
ĠÙģØ±Ú© Ø§ÙĨØ³
ÙģØ± Ùĩ
ĠØ¢ ÛĮØª
ĠÙ¾ Ø±Ùģ
ĠØ¯ Ø§ÙĨÙĩ
ĠÙħØŃ ÙĪ
ĠÚ©ÙĪØ§ÙĦ Ú©Ø§Ùħ
ĠØ§ÙĨÙģØ¬ Ø§Ø±
Ø± ÙĩØ§ÛĮ
ĠØ®ÙĪØ¯ Ø¯Ø§Ø±ÛĮ
Ø´ÙĪ ÛĮÙħ
ĠÙĪ Ùģ
g e
ĠØ¹Ùħ ÙĪÙħ
ĠÙħØ¯Ø§Ø± Ú©
ĠÙħÙĪ Ø§Ùģ
ĠØ§Ø³Øª Ø¹
ĠÙħÙĪ Ø´
Û±Û ²
ĠÚ© ÙĪÙĦ
ĠÚ¯ÛĮ Ø§ÙĩÛĮ
ĠÚ©ÙĪØª Ø§ÙĩÛĮ
ĠÙ¾Ø§Ø± Ø³
ĠÛ´ Ûµ
ĠÛ²Û°Û±Û ³
ĠÙĪ ÛĮÙĨ
ĠØ§ÙĪ Ø¶Ø§Ø¹
ĠÙģ ÛĮÙĨ
ĠÂ« Â«
ÙĩØ§ÛĮ Ø´Ø§ÙĨ
ĠØªØ§ Ú©Ø³ÛĮ
ĠÛ¹Û ¸
Ù¾ Ø±ÛĮ
ĠÙħØ¹ Ø¯ÙĨ
Ú¯ ÙģØªÙĩ
ĠÙĨØ§Ùħ Ø²Ø¯
ĠÙĨÙħ Ú©
ĠÙ¾Ø§ÙĦØ§ÛĮØ´ Ú¯Ø§Ùĩ
ĠÙĦÙĪ Ú©Ø³
Ú©ÙĪ Ù¾
ĠÙħÙĪØ§Ùģ ÙĤØª
ĠØ¨ Ú©Ø´
Ø±ÙĪØ² Ø±Ø³Ø§ÙĨÛĮ
ĠØ¨Ú¯ÛĮØ± ÛĮÙħ
ĠØ§ Ø°
ĠÙģÙĦ Ø²
ĠÙħØ§Úĺ ÙĪÙĦ
ĠØ® Ø³ØªÙĩ
on e
ĠÙħÛĮØ± Ø²Ø§
ĠÚ©Ø§Ùħ Ù¾
Ø§ÙĤ Ø¯
ĠÙģØ¹Ø§ÙĦ Ø§ÙĨ
ĠÛ´ Û°Û°
ĠÚ¯Ø°Ø§Ø´Øª ÙĨ
ÙĪ Ø³ØªÙĩ
ĠÙĩÙħ Ø³
ĠÙĪÛĮØ¯ÛĮ ÙĪÛĮÛĮ
ĠØ§Ø³Øª ÙĨ
ĠÚ¯ ÙĨØ¬
Ø¶ Ùĩ
Ø§ÛĮ Ø¨
ĠÙĩ Ø§Ø´
p l
ÙĦ Ø§ÙĨ
ĠÙĪ ÙĨ
ĠØ´Ø¨ Ø§ÙĨÙĩ
ĠØªØ² Ø±ÛĮÙĤ
ĠØ§Ø¶ Ø§ÙģÛĮ
ĠØ¨Ùĩ Ø´
ĠÙĤØ¯ ÛĮÙħ
ĠØ¢ Ø²Ø§Ø±
ĠÙħÙĪØ¶ÙĪØ¹ ÛĮ
Ø¸ Ø§Ùĩ
ĠÙħØ® ÙĦÙĪ
ĠÙģ Ú©Ø±ÛĮ
ĠØ´ÙĪ ÛĮÙħ
ĠØ®ÙĪØ´Ø¨Ø®Øª Ø§ÙĨÙĩ
ĠÙĦ Ø¨Ùĩ
ÙĤÛĮ Ø¯Ùĩ
ar d
ĠÙħÙĤØ± Ø±Ø§Øª
ĠØ±ÙĪ Ø´ÛĮ
ĠÚ¯ÙģØª ÙĨ
Ø¯ Ø±ÛĮ
ĠÙĤØ¶ Ø§ÛĮÛĮ
ĠÛĮÚ©Ù¾Ø§Ø± ÚĨÙĩ
Ùħ ØªÛĮ
ĠØ§ÛĮÙĨ Ùĩ
ĠÛ±Û¹Û ³Û
ĠÙĦØ° Ø§
e ar
ĠØ¨ Ø¨Ø±Ø¯
Øµ Ø±ÛĮ
ĠØ§Ø³ÙĨ Ù¾
Ġ3 0
ĠÙĩØ¯ Ø³Øª
ÙĨÚ¯ Ø§Ø±ÛĮ
ĠÙģ Ø§Ú©ØªÙĪØ±
ĠØ¨Ø± Ø¹ÙĩØ¯Ùĩ
ĠØ² Ø§ÛĮ
ĠØ³Ø¹ ÙĪØ¯ÛĮ
ĠÙĨ ÙħØ§
ĠÙģÛĮÙĦ ÙħÛĮ
ĠÙĪ ÛĮÙĦ
ÛĮ ØªÛĮ
ĠÙĨÛĮØ±ÙĪ Ú¯Ø§Ùĩ
ĠØªØ¦ Ø§ØªØ±
ĠØ±ÙĪØ² ÙħØ±Ùĩ
ĠÙħØ¨ ÙĨØ§ÛĮ
ĠØ¨ ÙħØ§ÙĨØ¯
ĠØ®ÙĪØ§ÙĨ Ø¯
ĠØ³ÛĮÚ¯ÙĨ Ø§ÙĦ
ĠØ¨Ø§Ø´ Ùħ
ĠØ®ÙĦØ§ÙĤ ÛĮØª
ĠØŃØ± Ø§Ø±Øª
ĠÙĩÙĨØ± ÙħÙĨØ¯
ĠØ¢Ø´ Ú©Ø§Ø±
Ùħ Ø±Ø¯
Ú¯ Ø±Ø§
ĠÙ¾ÙĨØ¬ Ø´ÙĨØ¨Ùĩ
ĠØ´Ø± Ø·
ĠÙħØ´Ø®Øµ ÛĮ
Û³ Û°
Ġ1 5
ĠÙ¾Ùĩ ÙĦ
6 0
ĠÙħØ±Ø¨ÙĪ Ø·Ùĩ
ĠØ¹ Ø³ÙĦ
ĠÙģ Ø§ÙĤØ¯
Ø®Øµ ÛĮ
Ø· Ø¨ÛĮ
ĠØ¢ÙģØ±ÛĮÙĤ Ø§
ĠÚ©Ø§ÙĦÛĮ ÙģØ±
ĠØªØŃ ÙĤÙĤ
ĠØ¬ ÙĨÛĮÙĨ
Ø§Ø¯ ÙĪ
ĠØ¯Ø³ØªÛĮ Ø§Ø±
ĠÙħÛĮ Ú©ÙĨÙĨØ¯
Ú©ÙĨ ÙĨ
ĠØªØŃØµÛĮÙĦ Ø§Øª
ĠØ§ Ú©ÙĪ
ÙĪØ¯ Ø±
Ø§Ùģ Ø²
Ú¯Ø± Ø§ÛĮÛĮ
ĠØ§Ø± ÙħÙĨØ³ØªØ§ÙĨ
ĠØ§ÙĪÙ¾ Ú©
Ø§Ø± ÙĨ
ĠØ¨Ø§Ø² ÙĨØ´
ĠÙ¾Ø±ÙĪ Ùģ
Ø§Ø¨ ÙĨØ¯
Ø¸ Ùħ
ĠÙħÙĤÛĮ Ø§Ø³
ĠØ¨Ø¯ ÛĮ
ĠÚĨÛĮØ² ÙĩØ§ÛĮÛĮ
ĠØª ÛĮØ±Ùĩ
Ø´ Ø§ÛĮÛĮ
Ùĩ ÙĪØ´
ĠÙĩÙĨØ± ÙħÙĨØ¯Ø§ÙĨ
ĠÚ©Ùħ Ù¾ÛĮÙĨ
Ùħ Ú©
ĠÙħØ³Øª ÙĤØ±
ÙĪÙĦ Ø§ÙĨ
ĠØ®ÙĪ Ø§Øµ
Ø§ ÙĤÛĮ
ĠØ§ÙĪØ± Ø§ÙĤ
ĠÚ© ÛĮØ³
Ø¨ÛĮÙĨ ÛĮÙħ
ĠØ¨Ø¨ÛĮÙĨ ÛĮÙħ
ĠØªØ¯Ø±ÛĮ Ø³
ĠØ¨Ø± Ø²ÛĮ
ĠØ¨ Ø¯Ùĩ
Ø³ Ø§Ùħ
ĠØ´ÛĮ Ø®
ĠØ±Ø§ Ø³ØªØ§
Ø¯Ø§ÙĨ Ø³Øª
ĠØ§ÙĨØ¨ ÙĪÙĩ
ĠØ³ ÙĦÙģÛĮ
ĠØ³Ø§Ø² ÙĨØ¯Ú¯Ø§ÙĨ
Ø±Ø³ ÙĨØ¯
ĠÙħ Ø§Ú©
Ø± Ø§ØªÛĮ
ĠÙ¾ Ø±ÛĮ
ĠÙħ ÙĨØ¯
ĠØ¢ÙħØ±ÛĮÚ© Ø§ÛĮ
ĠÙĪØ§Ø¶ ØŃ
ØŃ Ø«
ĠØ® ÙĪÛĮØ´
ĠØ´ÙĩØ± ÙĩØ§
ĠØ² ÙĨÛĮ
ĠØªØºÛĮÛĮØ± Ø§ØªÛĮ
ĠØ¨Ø¹Ø¯ Ø§
ĠÙĪ Ø±Ø¯
ĠÙĨ Ú©ÙĨØ¯
ĠÙ¾Ø§Ø¯ Ø´Ø§ÙĩÛĮ
Ù¾ÙĪÙĦÛĮ Ø³
Ø¯ÙĩÙĨØ¯ Ú¯Ø§ÙĨ
ĠØ¯Ø§ ÙĪØ·
ĠR e
ĠØ¢Ø² ÙħØ§ÛĮØ´ÛĮ
ĠØ³Ø±Ø¨Ø§Ø² Ø§ÙĨ
ĠØµ Ø¯Ø±
ĠÙĨÙĪØ´ ÛĮØ¯ÙĨÛĮ
Ú© ÙĪÙĩ
Ø´ ÛĮØ±
ĠØ¨ ÛĮÚ©
ĠÛ²Û°Û ±Û°
ĠÙĨ Ø§Øª
ĠÙħÙĨØ¸ Ùħ
ĠÙ¾ÚĺÙĪÙĩ Ø´ÛĮ
ĠØ¯ ÙĪØ¯
ĠÙĨÙħØ§ÛĮ ÙĨØ¯Ú¯ÛĮ
ĠØ±Ø§Ø¯ÛĮ ÙĪ
Ø§Ø³Øª ÙģØ§Ø¯Ùĩ
ĠÙħÙĦ Ú©
Ùģ Ø±ÙĪ
ĠØ¨Ø± Ø¯Ø§Ø±
ĠÚ¯ÙģØª ÙĨÛĮ
ĠØ¬ÙĦ ÙĪÙĩ
Ú¯ ÙĪÙĨÛĮ
Ø§Ø± Ùħ
ĠØªØŃ Ø±ÛĮÚ©
ĠØ¨Ø± ÙĨØ¬
ĠØ¯Ø± Ø§Ø²
ĠØ³ Ø§ÛĮÙĩ
Ú© ÛĮÙĨ
ĠØ° Ø±Ø§Øª
ĠÚĨÛĮÙ¾ Ø³Øª
ĠØ· Ø±Ø²
ĠÙĨÙĪØ§ ØŃÛĮ
ĠØªØ¶ ÙħÛĮÙĨ
ĠØ¹ ÙĤÛĮØ¯Ùĩ
ĠØ§ÛĮØ±Ø§ÙĨÛĮ Ø§ÙĨ
ĠÙħÙĤ Ø§ÙĦØ§Øª
u b
ĠØª ÙĪØ±ÛĮ
ĠØ§Ø´Øª ØºØ§ÙĦ
ĠØ¹ ÙĦØ§Ùħ
ĠØªØ³Ùĩ ÛĮÙĦØ§Øª
ĠØ´ Ú©Ø§Ø±
ĠØ¯ÙĦ Ø®ÙĪØ§Ùĩ
Û± Û°
ĠÙħØ±Øª Ø¨
ĠØ§ÙĦ Øª
ÛĮØ¯ Ø§ÙĨ
ĠØ¨ Ø¯ÙĩÙĨØ¯
ĠØ¨Ø®ÙĪØ§ÙĨ ÛĮØ¯
ĠØ¹Ø¨Ø§Ø±Øª ÙĨØ¯
ĠØ¢ÙģØª Ø§Ø¨
ØºØ¯ ØºÙĩ
Ø® Ø§Øµ
ĠØŃØ³Ø§Ø³ÛĮ Øª
ĠØ¹ÙħØ¯ ØªØ§
Ù¾ Ø§Ø¯
ÚĨ Ø§ÙĦ
ĠØ¢ÛĮ ÛĮÙĨ
ĠØ¯Ø§Ø± ÙĪÙĩØ§ÛĮ
ĠÚ¯ Ø§Ø²ÛĮ
a st
ĠØ¯Ø± ØŃØ§ÙĦ
ĠØ¬ ÙĪÛĮ
n e
Ø¢ ÙħÛĮØ²
ĠØ¯Ø±ÙĪ Ø§Ø²Ùĩ
ĠØ§Ø¹Ø¯ Ø§Ø¯
ĠÙ¾ ÙĩÙĨ
ou r
ĠÛ²Û°Û±Û ±
ĠÚĨÙĨØ¯ ÛĮ
ĠØ¢ÙĦ ÙĪØ¯Ùĩ
Ø² Ø§Ø¯
ĠÙĨÛĮ Ú©
ĠØª Ù¾Ùĩ
Ù¾Ø¯ ÛĮØª
ĠØ³ÙĪ Ù¾
ÛĮÙħ Ø§
ĠÙĨØ¯Ø§Ø± ÛĮÙħ
Ø²ÛĮ Ø¯Ùĩ
ĠÙģ ÙĪ
ĠÙħØª ÙħØ§ÛĮ
Ø§ÛĮ Ø²
ÙĪØª Ø§
ĠØ±Ø§ Ø¶ÛĮ
ĠØ§ÛĮÙĨ ÙĩØ§
ĠØ¨ Ø·ÙĪØ±
in e
ĠÙħØ¬Øª ÙħØ¹
ĠØªÙĤØ§Ø¶ Ø§ÛĮ
ĠÙĤ ÙĨØ¯
ĠÛĮØ§Ø¯ Ø¢ÙĪØ±
ĠÛ±Û³Û ´
ĠØ¬Ø°Ø§Ø¨ ÛĮØª
ĠØ¯Ø³ØªÙĪØ± Ø§ÙĦØ¹ÙħÙĦ
ĠØ¯Ùħ ÙĪÚ©Ø±
g le
ĠÙ¾ÛĮ ÙĪØ³ØªÙĩ
ĠØ§ Ú©Ø³ÛĮ
Ø· ÙĪ
ĠØµØ§Ø¯ ÙĤ
ĠØ±ÙĪ Ùħ
ĠØªØ¹ Ø§Ø¯ÙĦ
ĠØ³ÛĮ Ø¨
ÙĨÚ¯ ØªÙĨ
Ø´ÙĨ Ø§ÙħÙĩ
ĠØ®ÛĮ Ø§ÙĦ
ĠØ¢ Ù¾Ø¯ÛĮØª
ĠØ§ÙģØ² ÙĪÙĨÙĩ
ĠÙħØ´ Ø±ÙĪ
Ø¯ ÙĪØ¯ÛĮ
ĠØ¯Ø±Ùħ ÙĪØ±Ø¯
ÙĨÙħØ§ÛĮ Ø¯
el l
ĠÙħØ³ Ø§ØŃØª
ĠØ§ÙģØ³ Ø±Ø¯Ú¯ÛĮ
ĠÙħØ¹Ø§ ÙĪÙĨØª
ĠÙħÚ© Ø§ÙĦ
ĠÙĩØ¬ Ø±ÛĮ
ĠØ¢ ÙĦÛĮ
ĠÙħÙĨ ÙĪ
ĠØ§ ØªØ±
ĠØ¢ÙĨ ÙĤØ¯Ø±
ĠÙħØ·Ø¨ ÙĪØ¹
ĠÛ¹Û ¹
ĠØ¯ ØºØ¯ØºÙĩ
ĠÚ© Ø¬
ĠÙħÙĤ Ø·
ĠØ¢ Ùĩ
ĠØŃ Ø§Ú©ÛĮ
ĠØ¨Ø³Øª Ø±ÛĮ
i k
P S
ĠØ§Ø³Øª Ø¹Ø¯
Ùģ ÛĮÙĩ
ĠØ¨ ØªÙĪØ§ÙĨÛĮÙħ
ĠØªØ¹Ø· ÛĮÙĦ
ĠØ³Ø§ Ø¹ØªÛĮ
ĠÙģÙĪÙĦ Ø§Ø¯
ĠØ¬ Ø±ÛĮÙħ
Ø´Ùħ Ø§Ø±ÛĮ
Ø± Ø§ÙĦ
ĠÛĮ Ø²Ø¯
ĠØŃ Ø±Ú©Ø§Øª
ĠÙ¾Ø§Ø± ÙĦ
ĠÚ¯Ø± Ùĩ
ĠØªØ® ÙħÛĮÙĨ
ĠØ¬Ø±ÛĮÙħ Ùĩ
ĠØ±Ø³ Ùħ
ĠÚĺ ÙĨØªÛĮ
ĠÙĦØ¨ ÙĨØ§ÙĨ
ĠÙĨ Ø§Ú©
ĠÙ¾ ÙħÙ¾
ĠØª Ú©Ùĩ
Ø· Ø§Ùģ
ĠØ¨Ø±ÙĪØ² Ø±Ø³Ø§ÙĨÛĮ
ĠØ¸ Ùĩ
N A
ĠÙħØ³ÙĦ ØŃ
ĠØ¨ ÙĦØ§Ùģ
ÙħÙĨ Ø¸
ĠØªÙĪÙĦÛĮØ¯ Ú©ÙĨÙĨØ¯Ùĩ
ĠÙħÙĨ Ø§ÙģØ¹
Ú¯Ùĩ ÛĮ
ĠØ§Ø¯Ø¹ Ø§ÛĮ
ĠÙħØ§Ø± Ú©Øª
ĠÛ¹Û µ
ar e
ĠØ®ÙĪØ± Ø§Ú©ÛĮ
ĠØ³ Ú©Ùĩ
Ú¯Ø°Ø§Ø± ÙĨØ¯
ĠÙĨÙĪ ÛĮÙĨ
i b
ĠÙ¾Ø± ÙĨØ¯Ùĩ
ĠÙĪØ§Ø´ ÙĨÚ¯ØªÙĨ
Ø§ Ø°
u e
ĠØ®Ø§ÙĨÙĪ Ø§Ø¯Ú¯ÛĮ
Ú¯ Ø§Ùħ
ĠØ¯ÙĪ Ú¯Ø§ÙĨÙĩ
Ø± ÙĩØ§
ĠÚ©Ø´ ÛĮØ¯
ĠØ²ÛĮØ¨ Ø§ÛĮ
ĠØ¯Ø§Ø´Øª ÛĮÙħ
ĠØ³ Ú¯
Ø¯ Ø§ÙħÛĮ
ĠØ¹Ø¶ ÙĪÛĮØª
ĠØ´ Ú©Ø±
ĠØ§ÛĮ Ø²
ĠØ¯ÛĮØ¬ÛĮØª Ø§ÙĦÛĮ
ĠC h
ĠÙħØ§Ùħ ÙĪØ±ÛĮØª
Ú¯Ø§Ùĩ Ø±Øª
Ø³ Ø§Ø¨
Ø¬ÙħÙĩ ÙĪØ±
ĠØ¹ Ø«
ĠÙħ Ú¯Ø±
ĠÚ¯Ø±Ø¯ ÙĨ
Ø¨ÛĮ Ø§
Ø±Ø¯ ÙĨ
ĠÙģØ±ÙĪØ´ ÙĨØ¯Ùĩ
ĠØªÙĨ Ø´
ĠÙ¾Ø±Ø³ Ù¾ÙĪÙĦÛĮØ³
ØªØ± Ø²
ĠØ¯Ø± Ø¬
ĠÙĨÙĪ Ø¨Øª
ĠÙħ ÛĮÙĨÛĮ
ĠÙĦÙħ Ø³
ÙĪ Ú¯ÙĪ
ĠØ¨ÙĦØ§Ùģ Ø§ØµÙĦÙĩ
Ú©Ø§ÙĦ Ø§
Ø±ÛĮ Øª
ĠÙħØ¬Ùħ Ø¹
Ùģ ÛĮØ³
ĠÙģÙĦØ³Ø· ÛĮÙĨÛĮ
ĠØ¯ÛĮØ± ÙĪØ²
ĠØªØ¨ Ø§Ø¯ÙĦ
ĠØ¨Ø±ÙĨØ¯ ÙĩØ§ÛĮ
ĠØªÙĪØ± Ùħ
ĠØªØ¹ ÙĦÙĤ
ĠØ¹Ùħ ÙĪÙħØ§
ĠØ¹ Ø¨Ø§Ø±
ĠØ¢Ø²ÙħØ§ÛĮØ´ Ú¯Ø§Ùĩ
3 0
ĠÙħØ§Ø± Ú©
ĠØ¨ÙĨ Ø²
ĠØ¢ ÙģØ±
Ø§ÙĦ ØªÛĮ
ÙģØ± Ø³Øª
ĠÚ©Ø±ÛĮ Ø³Øª
ĠØŃÙĪ Ø§Ø¯Ø«
Ø³ÛĮ Ø³ØªÙħ
ĠØ¨Ø±Ø¯Ø§Ø´Øª Ùĩ
Ø¦ Ùĩ
ĠÙĨÙĪ Ø§Ø²
ĠØ³Ø§Ø² Ùĩ
Ġ y
en d
Ø§Ø· Ø¹
Ø¯ ÙĪ
ĠØ§ÙĨ Ø¨Ø§Ø±
ĠÙħÙĤ Ø¯Ø§Ø±ÛĮ
ĠÙĤ Ø§Ø±Ùĩ
ĠØ§Ø³ Ú©Ø§Ø±
ĠÙĤ Ø§Ø¬
oo gle
a x
ĠÙħØ³ÛĮØ± ÛĮ
ĠÛĮ ÙĪØªÛĮ
ĠØ§Ø¹Ø¯ Ø§Ùħ
ĠØµ Ø¨Ø±
ĠÙħØ¹ Ø¯ÙĨÛĮ
ĠØ§ÛĮÙĨ Ø¬Ø§Ø³Øª
ÙĦÛĮ Ùģ
ĠØ§Ø´ ØºØ§ÙĦ
ĠÙħÙĨ ÙĪÛĮ
as s
ĠÚ©Ø§Ø± ÙħÙĨØ¯
ĠÚ¯ ÙĪØ±
ĠØ§ÙĨØ¹ Ø·Ø§Ùģ
ÙħÙĨØ¸ ÙĪØ±
ĠÙħØ±Ø§Øª Ø¨
Ø§Ø± Ø´ÛĮ
ÙĪ ÙĤØª
ĠØ´Ùĩ Ø±Ú©
ĠÚ©Ø± Ùħ
ĠÚ©Ø§Ø± Ú©Ø±Ø¯
ĠØ¹ÙĦ ÛĮØ±
ĠÙ¾Ø²Ø´ Ú©Ø§ÙĨ
Ø· ÙĦ
ĠÙ¾Ø°ÛĮØ± ÙģØªÙĩ
Ø§Ø² Ø¯ÙĩÙħ
ĠÙħØ§ÙĦÚ© ÛĮØª
ĠÚ©Ø§ÙĦÛĮÙģØ± ÙĨÛĮØ§
Ø±Ø³ Ø§ÙĨØ¯
ĠÛ²Û°Û°Û ¸
in d
ĠØ§ØªØŃ Ø§Ø¯
ĠÙĩÙģØª Ùħ
Ø¨Ø§ÛĮ Ø³Øª
ÙĨ Ùħ
ĠØµ Ø¯ÙĩØ§
ĠÙĨÙĩØ§ÛĮØª Ø§
ĠÙħ ÙĪØ¯
ĠØ· Ø§ÙĦ
ĠØ² ÙĪØ¬
ĠÙħÙĤ Ø§Ø¯
ĠÚ© ÙĪØ´
ĠØ§Ø«Ø± Ø§Øª
ag e
ĠØªØ§Ø±ÛĮ Ú©
ac e
ĠÚ© ÛĮØ¨
ĠÙĦØ§ÛĮ ØŃÙĩ
ĠØ¨Ø® Ø§Ø·Ø±
ĠØ¯Ø§ÙĨØ´Ú¯Ø§Ùĩ ÛĮ
ĠÙħÛĮ Ú©ÙĨÛĮÙħ
ĠÙĨØ¸ Ø±ÛĮ
ĠÙĪØ§ ÚĨ
Ø§Ø¯ ÙħÛĮ
ĠÙħÙĤ Ø¯Ø³
ĠØ¨Ø§Ø± Ø§ÙĨ
ĠØªØ£ Ú©ÛĮØ¯
ĠØ§Ø± Ø§ÛĮÙĩ
ĠÙĨØ§ ÙĪ
ĠØ²ÙĨØ¯ Ø§ÙĨÛĮ
ĠØ§Ø¶Ø·Ø± Ø§Ø¨
Ø§Ø± ÙĩØ§
ĠØ¨Ø± Ú¯Ø±Ø¯
ĠÙħØŃ Ø¶
ĠÙħØŃØµÙĪÙĦ Ø§ØªÛĮ
Ú¯Ø° Ø±
ĠÚ¯ÛĮÚ¯Ø§Ø¨ Ø§ÛĮØªÛĮ
ĠØ³Ø± Ú¯Ø±ÙħÛĮ
ØŁ !
ĠØ¨Ø± ÛĮ
ĠØ§ÙĦ Ú¯ÙĪÛĮ
ĠØ¯Ø§ÙĨ Ø³ØªÙĩ
ĠØ¨Ø² ÙĨØ¯
Û±Û ³Û
ĠØ¨ÛĮÙĨ Ø¯
ĠØ§ÙĨØ¯ Ø§Ùħ
ĠÛ³Û ±
t h
L ED
ĠØ§Ø¯ ØºØ§Ùħ
Ø§Ø± ØªÛĮ
Ø¨Ø§ Ú©Ø³
ĠØ³Ù¾ Ø±Ø¯Ùĩ
ĠØ¨Ø± Ùĩ
ĠÙ¾ ÛĮØ¯
ĠØ³Ùģ Ø§Ø±Øª
ĠØ§Ø³Ù¾ ÛĮÚ©Ø±
Ø§Ø² ÙĨ
ĠÙħÛĮ Ø®ÙĪ
ÙĪ Ø¬ÙĪØ¯
p p
ĠÙĤØ± Ø¢ÙĨ
ĠØ¨Øº Ø¯Ø§Ø¯
ĠØ¯Ùĩ ÛĮ
ĠÙħØ´Ø§ ØºÙĦ
ĠÛĮÙĪÙĨ Ø§ÙĨ
ĠÛ±Û¹Û ±Û
ĠÙĨÙĤ ÙĦÛĮÙĩ
ĠØ¯Ø± Ø®
ĠÙĨÙĤ Øµ
ĠÙħØ¯ Ø§ÙĦ
ĠÙģÛĮ Ø¨Ø±
ĠÚ©Ùħ Ø§ÙĦ
ĠØ³ÙĦ Ø·Ø§ÙĨ
ĠÙħØ®ØµÙĪØµ Ø§
ĠØ¯Ø±Ø®Øª Ø§ÙĨ
ĠÙħØ§ÙĨØ¯ ÙĨ
ĠÙ¾Ø± Ø³Øª
ĠØ¬ØºØ±Ø§ÙģÛĮ Ø§ÛĮÛĮ
ĠÙħ Ø§Ø³Øª
ĠÙħØŃ Ø±Ú©
ĠØ¯Ø§Ø¦ ÙħÛĮ
ĠØ¢ Ú¯ÙĩÛĮ
ĠØ¨Ø± ØªØ±ÛĮ
ĠÙ¾ÛĮØ´ÙĨÙĩ Ø§Ø¯ÛĮ
ĠØ§ÙĨ ØŃØµ
ĠØ¯Ø± Ø§ÛĮ
ĠØ§ÙĨÛĮÙħ ÛĮØ´ÙĨ
Ø§ØŃ ØªÛĮ
ĠØ¨Ø±Ø§ÛĮ Ø´
ĠÙ ¡
ĠØ´ÙĩØ±Ø¯ Ø§Ø±
ĠØ³Ø§ÛĮ Ø²
ĠØ±Ø£ ÛĮ
ĠØ¨Ø¯ ÙĦ
ĠØ´ Ø§ÛĮØ¹
Ø¯ Ø§Ø±Ø¯
ĠØ¨Ø± Ø¢ÙĪØ±Ø¯
ĠØªØ¬Ø±Ø¨ÛĮ Ø§Øª
ĠØ¹ÙĦØ§Ùħ Øª
ĠÚ© Ø±ÙĪ
ĠØ§ÛĮØ± ÙĨØ§
ĠÙĨÙĪÛĮØ³ ÙĨØ¯Ú¯Ø§ÙĨ
ĠØ¨ÛĮ Ø§ÙĪØ±Ø¯
ĠØ§Ø´ Ú©Ø§ÙĦ
ĠØ§Ø±Øª ÙĤØ§ÛĮ
ĠØ¬ÙĨ Ú¯ÛĮ
E S
Ø² Ø³ØªØ§ÙĨ
ĠØ¨Ùĩ Ùħ
ĠØ®Ø± Ø§Ø¨
ĠÙħ Ø§Ø±ÛĮ
ĠØ¨Ø§Ø²ÛĮ Ú¯Ø±Ø§ÙĨ
ÙĤ Ø§Ùħ
ĠØ³Ø±Ù¾Ø± Ø³Øª
ĠØªÛĮÙħ ÛĮ
ĠÙĨÙĩØ§ Ø¯ÙĩØ§ÛĮ
ĠØªØµ ÙģÛĮÙĩ
ĠÚĨØ§Ø± ÚĨÙĪØ¨
ĠÙĨØ§ Ø§Ùħ
ĠÙĪ Ú©ÛĮÙĦ
Ø¢ÙĪØ± ÙĨØ¯
ĠÙģ ØªØŃ
ac t
ĠÙħÙĨØª ÙĤ
Ùģ ÛĮØª
ĠÙħØ¯ÛĮØ± Ùĩ
Ø§ÙĨ Ø´
Ø¬Ùħ ÙĦÙĩ
ĠÙĤØ¶ ÛĮÙĩ
ĠÙħÙģÙĩ ÙĪÙħÛĮ
Ø¢ ÛĮ
ĠÙĪÛĮØ¯Ø¦ ÙĪÛĮÛĮ
ĠØ¨ÛĮØ± ÙĪÙĨÛĮ
ĠÙĩÙĪØ§Ù¾ÛĮÙħ Ø§ÛĮ
ĠØ§Ø®ÙĦØ§ ÙĤÛĮ
u re
Ġ v
ĠÙħÙĪØªÙĪØ± ÙĩØ§ÛĮ
ĠÙ¾Ø§ÛĮÛĮ Ø²
ĠÚ©Ø§Ø± Ø§Ú©
ĠÙģØ±Ø¯ Ø§
ÙĦ Ùħ
ĠØ§Ø±Ùħ ÙĨÛĮ
ĠÙħÚ© ÙħÙĦ
ĠØ¹ Ø·
ĠÙħØ³ Ú©
ÙħÛĮ Ø²ÛĮ
ÚĨÛĮ Ø²
ÙĦØ§ Øº
ĠØ³ÙĪ Ù¾Ø±
ĠØ¸Ùĩ ÙĪØ±
ĠØ¬ Ú©
ĠØ±ÙĪÙĨ ÙĤ
ĠØ¨Ø§ Ú©Ø³
ĠØ§ÛĮØª Ø§ÙĦÛĮØ§ÛĮÛĮ
ĠØ³Ø· ØŃÛĮ
ĠØ´ Ø§Ùħ
ĠØªØ±Ø¯ Ø¯
ĠØ¨Ø¨Ø± ÙĨØ¯
ĠÚĨ Ø§Ùĩ
ĠØªØ³Ùĩ ÛĮÙĦ
ĠØ³Ø§Ø² Ú¯Ø§Ø±
ĠÚĨÙĨØ§ÙĨ ÚĨÙĩ
ĠÙĦ Ø§Øª
ĠØ¯Ø§ÛĮ Ø±Ùĩ
ĠØ¬ Ø§ÙĦØ¨ÛĮ
ĠÙĨÙĤ Ø±Ùĩ
ĠÙĤØ³ ÙħØªÛĮ
Û±Û ¹
ĠÙħØŃ Ø±ÙĪÙħ
Ø¹ Ú©Ø³
ĠØ³Ù¾ Ø±ÛĮ
ĠÙħØ´ Ú©ÛĮ
ĠÙĪØ§ Ú¯Ø°Ø§Ø±
ĠØ¨ Ù¾Ø±Ø³
ĠØªÙĪ Ø§Ø¨Ø¹
ĠØ®ÙĪØ¯ ØªÙĪÙĨ
ĠÛ´ Û¸
ĠÙĨ Ø®ÙĪØ§ÙĩÙĨØ¯
ĠÙħØµ Ø±ÙģÛĮ
ĠØŃÙħ Ø§Ùħ
ĠÙħØ®ÙĦÙĪ Ø·
an t
ĠØª Ú©ÛĮÙĩ
ĠP l
ĠØ¹Ø²ÛĮ Ø²
Ø§Ø³ Ùħ
ĠÙģ Ø§Ø´
Ġ re
ĠØ³ Ø§Ø³
ĠØ¨Ø±Ø²ÛĮ ÙĦ
ĠØ§Ø³ØªØ§ÙĨØ¯Ø§Ø± Ø¯ÙĩØ§ÛĮ
ĠØ¯Ø§Ø³Øª Ø§ÙĨÛĮ
ĠÙĨÙĤ Ø¶
Ùħ ÙĪÙĦ
ĠØ² ÙĦØ²
ĠØ¨Ø± Ø¬Ø§Ùħ
ĠØ¨ÙĨ Ø§Ø¨Ø±
ĠØ¨Ø§Ø±ÛĮ Ú©
ĠØ®Ø§Ø· Ø±Ø§Øª
ĠØ§Ø´ Ø®Ø§Øµ
ĠØ§Ø® ØªØ±Ø§
ĠÙĤ Ø¶Ø§
ĠØ¨ Ø¯ÙĩÛĮ
ĠÙĨ Ø§Ø¯ÛĮ
ĠÙħØ¹ÙĦ ÙĪÙħ
ĠØ²ÙĦØ² ÙĦÙĩ
ĠÙħØ±ÛĮ Ø®
ĠÚ© Ø§ÙĨØ¯
ĠØ§Ø¹Øª Ø¨Ø§Ø±ÛĮ
ĠÙĨ ØªÙĪØ§ÙĨØ³Øª
ĠÛ² Û°Û°Û°
ĠÚĨØ´Ùħ Ùĩ
ĠØ®Ø· ÛĮ
Ø¨ ÙĦÛĮ
ĠÛĮØ§Ø¯ Ø¢ÙĪØ±ÛĮ
ĠØ´Ø¯ ÛĮÙħ
ĠÚ©Ø§Ø± ÙģØ±
ĠÛ²Û°Û°Û ¹
ĠÙ¾Ø± Ùĩ
s e
ĠÙħØ±Ø³ Ø¯Ø³
ĠØ® Ùħ
Ø§Ùħ Ø¹
ĠØ®ÙĪØ§Ùĩ Ø±
Ø®Øª ÙĨ
ĠÙħÛĮ ØªÙĪØ§ÙĨÛĮØ¯
Ùģ Ø´
ĠØ® Ø´Ùħ
ĠG T
Ø¢ ÙĦ
ĠÙħØ¨Øª ÙĦ
Ġ1 4
ĠØŃ Ø±Ú©ØªÛĮ
ÙĪ Ø§Øª
Ø²ÙĨ ÙĨØ¯
ĠÙĤ ØµÙĩ
ĠØ¯Ø±ÙĪ Øº
Ġ1 1
ĠØ¯Ø± ÙĪÙĨÛĮ
ar k
ÙĤÛĮÙħ Øª
ĠÙħØº Ø²ÛĮ
ĠÚ©Ø§Ø±Ø¢ÙģØ± ÛĮÙĨ
ĠØªÙĤ Ø¯
ÙĪØ± ÙĨ
ĠØ¢Ùħ ÙĪ
ĠÚ©ÙĦÛĮ Ø³Ø§ÛĮ
ÙĪÛĮ ÚĺÙĩ
ĠÙģ Ø¯Ø±
ĠØ¨Ø± ÚĨØ³Ø¨
ÚĨ Ø§ÙĤ
ĠÚ©Ø± ÙĪÙĨ
ĠÛĮØ® ÚĨØ§ÙĦ
Ø³ Ø§Øª
Ø¯Ø§Ø¯ ÙĨØ¯
ĠØ®Ø± Ø¬
ĠØ² ÙĪÙħÛĮØª
ĠØªØ¬ Ø¯ÛĮØ¯
) :
Øª ÛĮÙĨ
ĠÙĩ ÙĨØ¯ÛĮ
ĠØ¨ Ú¯Ùħ
ĠÙĨ Ø¹
ÛĮØª ÙĪÙĨ
ĠØ¯ÛĮØ¯ Ùħ
ĠÙĩ Ú©Ø±
ĠØ§ÛĮÙħ ÙĨ
ĠÙħÙĨØªÙĤ Ø¯Ø§ÙĨ
ĠÙħÙĤØ§Ø¯ ÛĮØ±
ĠØ§Ø³Øª ÙĪØ±
igh t
ĠØŃ Ø±ÛĮÙħ
Ġt h
Ø³Øª ÛĮÚ©ÛĮ
Ø´Ø± Ø¯Ùĩ
ĠÙħÙĨØª ÙĩÛĮ
ÙħÙĨ Øª
Ø±Ø§ØŃ ØªÛĮ
o v
ĠÙĨØ´ Ø±ÛĮÙĩ
ĠÙĪ ØµÙĦ
ĠØ¯Ø§Ø± ÙĨ
ÛĮÚ© Ø§
ĠÙ¾Ø§Ø¯ Ú©Ø³Øª
ĠØ±Ø³ ÙħØ§
ĠØªØ± Ø¨ÛĮØª
ĠØ§Ùħ Øª
ĠØª Ø¸Ø§Ùĩ
ĠÛĮÙĪÙĨ Ø§ÙĨÛĮ
ĠØªÙĦÙģ ÙĨÛĮ
ĠÚĨ ÙĪØ¨ÛĮ
ĠØ¯ÛĮ ÙĪØ§ÙĨ
ĠØªØ§ÛĮ Ù¾
ĠÙħ ÙĪØ§ÙĨ
ĠÙĪØ¶ ÙĪØŃ
ĠØ®Ø¨Ø±ÙĨÚ¯ Ø§Ø±Ø§ÙĨ
Ġ1 00
Ø¨ Ø³
ĠÙĪØ±Ø²Ø´ Ú¯Ø§Ùĩ
ĠÙĤØ· Ø§Ø±
ĠØ§Ùħ Ø§Ø±Ø§Øª
ĠØ³Ø§Ùħ Ø§ÙĨ
ĠÙħØªØ± ÙĪ
ĠØ¯ ÛĮÙĨÛĮ
ÙĦØ³ ÙĦÙĩ
ĠØ¶Ø± ÙĪØ±Øª
Ø¢ Ø±
ĠØ® ÙĪÙĨÙĩ
ĠÚ©Ø±ÙħØ§ÙĨ Ø´Ø§Ùĩ
ĠØ® Ø¯Ø§ÛĮ
ĠØ§Ø³Ùħ Ø§Ø±Øª
ĠÙħØ§Ø¯Ø± Ø´
Ø§Ùħ Ø¯
ĠØ§Øª Ø®
ĠÙħØ±Ø¯ ÙħÛĮ
Ø¦ ÙĪÙĨ
ĠÙħ Ø¸
ĠÙħØ³ØªÙĤÛĮÙħ Ø§
ĠØ¯Ø§Ø± Ø§
ĠD e
Øµ ÛĮ
ĠS p
ĠÚ©Ø± Ø¨
ĠØ¨ÛĮØ¯ Ø§Ø±
ĠÙĨØ§Ø¯ÛĮ Ø¯Ùĩ
ĠÙ¾Ø°ÛĮØ± ÛĮ
ĠØ±ÙĪØ´ÙĨ Ø§ÛĮÛĮ
ĠØ§ÙĦ ØŃ
ĠØ§ÙģØª Ø®Ø§Ø±
ĠÙħÛĮ Ø§Ø¯
ĠÙĪØ¨ ÙĦØ§Ú¯
Ø¬ ÙĨ
ĠØ§ÙģØ³ Ø§ÙĨÙĩ
ĠØ¨ ÙĦÙĩ
Ø§ÙģØ²Ø§Ø± ÙĩØ§ÛĮ
ĠØ´ÙĨ ÛĮØ¯ÙĨ
ĠØ· Ø±
ĠÙħØ¹ÙĦ Ùħ
ĠÙģ Ø´Ø±Ø¯Ùĩ
ĠÙħÙģ Ø§ÙĩÛĮÙħ
Ø¨Ø§ Ø³ÛĮ
ĠØ§ÙĨÚ¯ÛĮ Ø²
ĠØ§Ú©Ø³ÛĮ ÚĺÙĨ
ĠÙģØ±Ø³Øª Ø§Ø¯Ùĩ
ĠÙĪÛĮ Ø²Ø§ÛĮ
T E
ĠØ§Ùħ ÙĪØ§Ø¬
ĠÙĨ Ø¨Ø§Ø´
ĠÚ¯ Ø±ÙĪ
ĠØ¢Ú© Ø§Ø¯ÙħÛĮ
ĠÙ¾ÙĩÙĦ ÙĪÛĮ
ĠØµ ÙĦØ§ØŃ
ĠÙĨØ¯ Ø§Ø¯Ùĩ
ÙĪØ§ÙĨ Øª
ĠÙĪØ³ÛĮ Ø¹
ĠØ³ÛĮÙĨ ÙħØ§ÛĮ
Û±Û ¸
ĠØ¹Ø¯ Ø§ÙĦØª
ĠØ¢ ÛĮÙĨÙĩ
ĠØ¬ ÙģØª
ĠØªØ±ÙĪØ±ÛĮ Ø³ØªÛĮ
ĠÚ©ØªØ§Ø¨ ÛĮ
ĠØ§ØªØ® Ø§Ø°
ĠØ¹ÙĨ ØµØ±
ĠØ¨Ø§Ø² Ú¯Ø±Ø¯
Ú©ÙĪ Ú©
ĠØ§Ø±Ùħ ØºØ§ÙĨ
ĠØ±Ø§Ùĩ ÙĨÙħØ§ÛĮ
ĠÚ©Ø§ÙħÙ¾ÛĮÙĪ ØªØ±ÛĮ
ĠÚ¯ÛĮÙĦ Ø§ÙĨ
ĠØ§ÛĮÙĨ Ú¯ÙĪÙĨÙĩ
ĠÙħØŃ Ú©Ùħ
ĠØ¨Ø® ÙĪØ±
ĠØ§Ø¨ ÙĨ
ĠØ´ÙĪ Ø§ÙĩØ¯
ĠØ³ÛĮ Ú¯Ø§Ø±
ĠÙĩØ´Øª Ùħ
ĠØ¹Ùħ ÙĦØ§
Ġ1 6
ĠÙħ Ø¨Ø§
Ø´ÛĮ Ø§ÙĨ
ĠØªÙĪØ¶ÛĮØŃ Ø§Øª
ĠØ±Ø§ Ø¬Ø¹
ĠØ¨ ÙĪØª
ĠÙħØ£Ùħ ÙĪØ±ÛĮØª
ĠØ¬ Ø§Ø³
ĠØ¨Ø§ÙĦØ§ ØªØ±ÛĮ
Ø¹ Ø´
ĠØ³Ø± ÙĨØ´ÛĮÙĨ
ĠÙħØº Ø§Ø²Ùĩ
ĠØ¬Ø² Ø¡
ĠÚ© Ø§ÙħÛĮ
ĠØ« Ø¨Ø§Øª
ĠØ§ÙĦ Ùģ
ĠÙĩÙħØ³Ø± Ø´
ĠÚ© Ù¾
ĠØ³ ÙĦØ³ÙĦÙĩ
ĠØ¬Ø§ ÙĪØ§
ĠØ¢ÙĦ ÙĪÙħ
i z
ĠÙħØ³Ú© ÙĪÙĨÛĮ
ĠØ¯ÛĮ Ø³Ú©
ĠÙĪÛĮ ÙĦÛĮ
ĠØ¹Ø¨Ø¯ Ø§ÙĦ
ĠÙ¾ ØªØ§ÙĨ
ĠØªÙĦ ÙĤÛĮ
ÙħÙĦ ÙĦ
Ø¦ ÛĮØ¯
ĠØ³ÛĮÙĦ ÙĨØ¯Ø±
ÙĪØ± ÙĩØ§ÛĮ
ĠÙħØª Ø´Ú©ÙĦ
Ø§Ù¾ ÙĪØ±
ĠØ±Ø§ Ú©
ĠØªØ¹ ÙĦÛĮ
ĠØªØ§ Ø®ÛĮØ±
ĠØ³Ø± ÚĨ
ĠÙħØµ ÙĪØ¨Ùĩ
ĠÙĤØ· Ø¨
Ø§ Ø¬ÛĮ
ÙĩÙħ Ø±Ø§Ùĩ
ĠØ±ÙĤ Ø§Ø¨ØªÛĮ
ĠØª Ø§ÛĮÙĦ
ĠÚ©Ø§Ø¨ ÛĮÙĨ
ÙħÛĮ Ø§ÙĨ
Ø³ ÙħÙĩ
ĠÙĩÙħØ§Ùĩ ÙĨÚ¯
Ġ *
Ú¯ Ø±ÙĪÙĩ
ĠØ³ÙĦÛĮ ÙĤÙĩ
ÙĪØ³ Ùģ
ĠÙħØ§Ùĩ ÛĮØª
ĠÙħÛĮ Ø¯ÙĩØ¯
ĠØŃØ¶ ÙĪØ±ÛĮ
Ġ st
ĠØ§Ø¹ Ø·
ĠØªÚ© Ø§ÙħÙĦ
ĠØ® Ø³ØªÚ¯ÛĮ
ĠÚ¯Ø±ÙģØª Ùħ
ØŁ Â»
Ú©ÛĮ ÙģÛĮØª
Ø¯ÙĨ Ø¨Ø§ÙĦ
ĠÙĪ Øµ
a in
ĠØŃÛĮ Ø§ØªÛĮ
ĠÛ±Û³Û ²
ĠÛĮ Ø§Ø±
ĠØ§ØŃ ÙħØ¯ÛĮ
ĠØ¨Ø§Ø± Ø´
ĠØªØµØ§Ø¯ Ùģ
ĠØ§ Ú©Ø±Ø§ÙĨ
ĠÙħØ§ÙĨÛĮ ØªÙĪØ±
ĠØ¨Ø± Ø§
ĠÙĦÛĮ ØªØ±ÛĮ
ĠØªØ¦ ÙĪØ±ÛĮ
ĠØ³Ø± Ú¯Ø±Ùħ
ĠØ®Ø§ÙĨ ÙĪØ§Ø±
ĠÙĨ Ú¯
Ø¬ ÛĮÙĩ
Ø§Øª ÙĦ
ĠØ´ÙħØ§ Ø³Øª
ĠÙħØ´Ø§Ø¨Ùĩ ÛĮ
ĠÙĨÙħ Ø±Ùĩ
ĠÙħÙĤØ· Ø¹
ĠÙħØ·ÙĦ Ø¹
ĠØ±ÙĪØ³ØªØ§ ÙĩØ§ÛĮ
ÙĪ Ø§Ùħ
Ø´ Ø¨
Ø¬Ùħ ÙĪØ¹
Ø´ ÛĮÙĨÛĮ
Ø´ ÛĮØ¯
Ø³ Ú©ÙĪ
ĠØ¨ÙĨ Ø§ÛĮ
ĠØªØ± Ø´
ĠÙĨÙģØ± Ùĩ
ĠÙ¾Ø± ÙĪØ§ÙĨÙĩ
ĠØ³ ÙĪØ§
ÙħØ§ Ø¹
ĠØ¢ÙħÙĪØ² Ø§ÙĨ
ĠÙħØ¬Ø§Ø² Ø§Øª
ÙĤ ÙĪÙĩ
S D
ĠØ¨Ø± ÙĨ
Ø§Ø³ Ø·
ĠØ¯Ø§ÙĨØ´ Ø¬ÙĪ
Û±Û µ
ĠØ§Ø¨ Ø²Ø§Ø±ÛĮ
ĠÙħØ³ÛĮ ØŃÛĮ
ĠÙ¾ Ú©ÛĮ
ĠÛ²Û°Û°Û ¶
Ø§Ø· ÛĮØ³ÛĮ
ĠØªØµØ§ÙĪÛĮØ± ÛĮ
ĠÚ©Ø§Ø± Ú¯Ø§Ùĩ
Ø® ÙĨØ¯
ĠÚ©Ùĩ ÙĨ
Ùĩ Ø²Ø§Ø±
ĠÙģØ±ÙĪ Ø®ØªÙĩ
ĠØ®Ø§ÙĦ Øµ
ĠÚ©ÛĮØ¨ ÙĪØ±Ø¯
ĠÙĤØ§ ÚĨØ§ÙĤ
Ú©Ø³ ÙĪØ³
ĠØ§Ø³ Ù¾Ø±Øª
ÙĩØ§ÛĮ ØªØ§ÙĨ
ĠØ®ÙĪØ¯Ø±ÙĪ Ø³Ø§Ø²ÛĮ
Øª Ùĩ
ĠÙħØŃØ§Ùģ Ø¸
ĠØ§ ÙħØ§ÙĨ
r an
ĠØ¨ Ø°
ĠÙĤ ÙĪÙĩ
Ù¾Ø±Ø¯Ø§Ø² ÛĮÙħ
ĠÙħÛĮ Ú¯ÙĪÛĮØ¯
ĠÙħØ³ Ø¯ÙĪØ¯
Ø¹ ÙĦØ§
ĠØ¢Ø´ Ù¾Ø²
u d
il l
ĠØ³Ø§ Ø¹Ø§Øª
ĠØ§Ø³ØªØ§ÙĨ Ø¨ÙĪÙĦ
ĠÙħÛĮ ØªÙĪØ§ÙĨØ¯
Ù¾ ÙĦÛĮ
ĠØµØŃ Øª
Ø§Ùģ ÙĦ
Ġ Â
ĠÙħØ®Øª Øµ
ÙĨØ¯ Ø±Ø§ÙĨ
Ġ e
ĠØŃÙģ Ø§Ø±ÛĮ
ĠAM D
ĠÙħØ¬ Ø³ÙħÙĩ
âĢĮ ØĮ
ĠÙ¾ Ø§ÙĪØ±
ĠÙĦØ² ÙĪÙħ
ĠØŃÙĤÛĮ ÙĤÛĮ
ĠØ¨ÛĮÙĨØ¯ Ø§Ø²
ĠØ¨Ø± Ùģ
ĠØ±Ø³ Ø§ÙĨØ¯Ùĩ
ĠÙĨØ´ Ø³ØªÙĩ
ĠØ¯Ø§Ø± ÙĪÛĮÛĮ
ĠÛ¹Û ·
ĠØ§ÙĨØ¯ Ú©
ĠØŃØ¯ Ø³
Ø¹ Ø§ÙĨ
Ø±Ø§ Ø³ÛĮ
Ø¶ Ø§ÙĨ
Ú© ÛĮÚ©
Ø±ÛĮÚ© Ø§
ĠÚ©Ùĩ Ú©
i x
ĠÙ¾ØªØ§ÙĨ Ø³ÛĮÙĦ
ĠÛ²Û°Û°Û ·
ĠÚ¯Ø±Ø¯ ÛĮØ¯Ùĩ
Ø³Øª ÙħÛĮ
ĠÚ©Ø§Ø±Ø¨Ø± Ø¯ÙĩØ§ÛĮ
Ø§Ø³Øª ÛĮØ´ÙĨ
ĠÙģÛĮ ÙĦÛĮ
Ú©Ø§ÙĨ Øª
ĠØ¹Ú© Ø§Ø³
ĠÙħØ¨ØªÙĦ Ø§ÛĮØ§ÙĨ
ĠÙĤØ¯Ùħ Øª
ĠÙĤÙħ Ø±ÛĮ
ĠÙĨ ÛĮÙħÛĮ
ĠÙĤ ÙĪØª
ĠØ¯ÙĪÙĨ Ø§ÙĦØ¯
ĠØ® Ø§ÙĨØ¯
ĠÛ³Û ´
ĠØ¯Ø±Ø¢ ÙĪØ±Ø¯
Ø·ÛĮ ÙĦÛĮ
ĠÙĦ ÛĮÙĨÙĪ
ĠØ¶Ø± Ø±
ĠØ³Ø§ Ú©ÙĨØ§ÙĨ
Ø§Ø³ Ø±
ĠØ±ÙĪÛĮ ØªØ±Ø²
ĠÙģØ¶ Ø§Ù¾
ĠØ§ ÛĮØ¯
ĠØ§Ø³Øª Ø«
ØªØ± ÙĩØ§ÛĮ
ĠØ¶Ø® Ø§ÙħØª
Ø±ÛĮ ØŃÛĮ
ĠØ®ÙĪ Ø²Ø³ØªØ§ÙĨ
ĠØª Ø¯Ø§
ĠØ¯ÛĮ Ø§Ø¨Øª
ĠØµØ§ØŃ Ø¨Ø§ÙĨ
ĠÙ¾Ø±Ùģ Ø±ÙĪØ´
ĠÙĨØ§Ùħ Ø´
ĠÙĨ Ø±ÙĪ
ĠØ³ÙĨØ¬ Ø´
ÙĪØ³ÛĮ ÙĦÙĩ
ĠS h
ĠØ¹Ø±Ø§ ÙĤÛĮ
ĠØŃ Ø§ÙħÛĮ
ĠØ¹Ø« ÙħØ§ÙĨÛĮ
ĠÙħ ØµØ¯
ĠØ¯ ÙĦÛĮÙĦÛĮ
ĠÙĨ ÙĪØ¨
ĠØ´ Ø§Ø³ÛĮ
ĠØ±Ø¯ÛĮ Ùģ
Ø¨Ø§ÙĦ Ùĩ
ĠÙħØŃÙĪ Ø·Ùĩ
ĠÙĨØ§Ø¨ ÙĪØ¯
ĠØªÙĤ ÙĦ
ĠÙ¾ÛĮ Ø³Øª
u p
ĠØ¹ ÙĨØ§
od e
ĠØ³ ÙĨÛĮ
ĠÙģØ±ÙħØ§ÙĨ Ø¯ÙĩÛĮ
ĠÙħØ§Ø² ÙĨØ¯Ø±Ø§ÙĨ
ĠØ´Ø§Ø¹ Ø±
ĠÙĩØ³Øª ÙĨ
Øª Ø§ÛĮ
ĠÙĦÙħ Ø³ÛĮ
ĠÚ¯ ÙĨØ¯
ĠÚ¯ÛĮ Ú¯Ø§ÙĩØ±Øª
ĠØ¢ Ø±Ø§
ĠØªÙģ Ø³ÛĮØ±
ĠØ§Ø±Ø¯ ÙĪ
ĠÙĨ Ø¯ÙĩÛĮØ¯
ĠÙĩÛĮ Ø¨Ø±
ĠØ¢ ÙĦÙģ
ĠØ±ÙĪ Ø³
ĠÙħÛĮ Ø¯Ùĩ
ĠÙĦ ÙĤØ¨
ĠØ³ÙĪØ¦ Ø¯
ĠÙħÛĮ Ø¯
ĠÚ©Ø§ÙĦ Ø§ÛĮ
ĠØ§ÙĨØ¯ ÛĮØ´Ùĩ
Ø®ÙĪØ§Ùĩ Ùħ
Ġ5 0
ĠØºÛĮØ±ÙĤ Ø§Ø¨ÙĦ
ĠÙģØ¯Ø± Ø§ÙĦ
ĠØ¹ Ø·Ø±
Ø³ Ú©ÛĮ
ĠØ´Ú© Ùħ
Ø¯Ø± Ø¶Ø§
ĠÙĪ ÙĦØª
Ø§Ø² ÙĦ
Ø¨ÛĮÙĨ Ø¯
ĠÙĨØ¯ Ø§Ø±Ùĩ
ĠÙģ ÙĪÚ©
ĠÙħØ¹ Ø§ØµØ±
ĠÙħØµ ÙĪØ¨
ÙĨØ¬ Ø§ÙĨ
ĠØ® Ø²
ÙĪØª ÙĨ
ÙĪÙħ ØªØ±ÛĮ
ĠØªØ¹Ø· ÛĮÙĦØ§Øª
Ùħ ØªØ±ÛĮ
ĠÙĪØŃ Ø´Øª
ĠØ¯ ÙĪÛĮ
ĠÙ¾Ø±Ø¯Ø§Ø² Ø´ÛĮ
ÙĪ ÙĪØ¯
Ú¯ ÙĪÙĦ
ÙĤ Ø§ÙĨ
ĠÚ©Ø§ÙħÙ¾ÛĮÙĪØªØ± ÙĩØ§ÛĮ
ĠÙĨ ÙģØ¹
ĠØ³Ø¹ ÛĮØ¯
ĠØ³Ø§ÙĦ ÙĩØ§ÛĮ
ĠØ³Ø± Øª
ĠÙħØ³ÛĮ ØŃ
Ø¹ ÙĦ
ĠØŃØ¯ ÙĪØ¯ÛĮ
ÚĨ Ø±Ø®
ĠØ¯ÙĪ Ø§Ùħ
ĠØ³Ùģ ÛĮØ±
ĠÙħØ³ÙĦ ÙħØ§ÙĨØ§ÙĨ
Ø·ÙĪ Ø¨Øª
ĠÙĩÙħØ³ Ø§ÛĮÙĩ
ĠÙģ Øµ
ĠØ§Ùĩ Ø¯Ø§
i o
ĠØ³Ø± ÙĤØª
ĠÚ¯ÙĪ Ø§ÙĩÛĮ
ĠÙ¾Ú©ÛĮ Ø¬
ĠÚĨ Ø³Ø¨
ĠØ³Ú© ÙĪÙĨØª
ĠØªØµÙħÛĮÙħ Ø§Øª
ĠÙħØªÙĨ ÙĪØ¹ÛĮ
q u
ĠØ¹Ø¨Ø¯ Ø§ÙĦÙĦÙĩ
ĠÙĩØ±Ú© Ø¯Ø§Ùħ
ĠØ± Ø§Ùħ
ĠÙĩ Ø§ÛĮØ´
ĠÙĨ Ø§Ùĩ
ĠÙĩ ÙĦÙĨØ¯
ĠÚ© Ø§Ø³
ĠÛ³Û ¸
i re
ĠÚĨÙĩ ÙĦ
Ø¬ Ø§ÙĨÛĮ
ĠØ¨Ø§ Ø§ÛĮÙĨ
ĠÙ¾ÛĮØ§Ùħ Ú©
ĠØ®ÙĪØ§Ùĩ Ø§ÙĨ
ĠØªÙħ Ø¯ÛĮØ¯
ĠØ¬Ùĩ Ø´
Ø¨ ÙĪØ±Ø¯
ĠÛ· Ûµ
ĠØ¯ Ø´Øª
ĠØº Ùħ
ĠØ³Ø§ØŃ ÙĦÛĮ
Ù¾ ÙĪ
Ø² Ø¯ÛĮ
ĠØ¨Ø± Ø´
ĠØ³ÙĪ ÚĺÙĩ
ĠØ§Ùħ Ø¶Ø§ÛĮ
Ú¯Ø± Ø§Ø¯
ĠØŃÚ© Ø§ÛĮØª
ĠØ®Ø³ Ø§Ø±Øª
ĠÙģØ± Ø³
ĠÛ±Ûµ Û°
ĠÙ¾ Ø¯
ĠØ§ÙħÛĮØ¯ÙĪØ§Ø± Ùħ
ÛĮØ´ Ú¯ÛĮ
ĠØ§ØªØ± ÛĮØ´
ĠØ´ÙĩØ± Ø³Ø§Ø²ÛĮ
ĠØ§Ø¨ ÙĦØ§Øº
ĠÙĨÙĪØ³ Ø§ÙĨ
ĠÙģÙĦ Ø´
Ùħ Ø²Ø¯
ĠÙħÙĩÙĨØ¯ Ø³
Ø§Ø± Ø³ØªØ§ÙĨ
ĠÙħÛĮ ØªÙĪØ§ÙĨ
ĠÛĮÙĪØªÛĮ ÙĪØ¨
Ùģ ÙĪØ±
Ø® Ø§Ø·Ø±
Ø² Ø¯ÙĩÙħ
ĠÙ¾Ø°ÛĮØ± ÙģØª
ĠØ§Ø³Øª Ø®Ø±
ĠØ§ØªÙĪÙħ Ø§ØªÛĮÚ©
ĠØ±Ø§ÙĨÙĨØ¯ Ú¯Ø§ÙĨ
Ø¹ÛĮ ØªÛĮ
ĠØ¨Ø±Ú¯ Ø²ÛĮØ¯Ùĩ
ĠÚ© Ø§Ø´
ĠÚ©Ø±Ø¯ Ø³ØªØ§ÙĨ
ĠØ± Ø·ÙĪØ¨Øª
ĠØ§ÙĦ Ú©Ø³
ĠØ¬ÙĪ Ø§ÛĮØ²
ĠØ¬Ø§ÙĨ Ø´ÛĮÙĨ
ĠØ¨ÙĦ ÙĪØªÙĪ
ĠÙħØŃØ§Ø³Ø¨ Ø§Øª
ĠG oogle
ĠØ§ Ú©Ø§ÙĨØª
ĠÙĤ Ø§Ø´ÙĤ
ĠØŃ Ø§ÙħÙĦ
ĠØ® Ø§Øª
ĠØ¨Ø± Ø§Ø¨Ø±ÛĮ
ĠØ¨Ø± ÙĪÙĨ
ĠØ±ÙģØªØ§Ø± ÙĩØ§ÛĮ
ĠÚ©Ø´ÙĪØ± ÙħØ§ÙĨ
Ø¨Ùĩ Ùĩ
ÙģØ¹ Ø§ÙĦ
Ú©ÙĦ Øª
ĠØ±Ø² Ø±ÙĪ
ĠØµ Ø¹ÙĪØ¯
ĠØ³ÙģØ± ÙĩØ§ÛĮ
ĠÙħÙĩ ÙħØ§ÙĨ
oc k
ĠØ§ÙĪ Ø§Ø³Ø·
ĠØ±ÙĤ Øµ
Ø¯ ÙĪØ±
ĠÙģ ÙĪØ±Ø¯
ĠØ´Ø¹ Ø§Ø±
ÙĪÛĮ Ø¬
ĠØ´ Ø§Ø¯ÛĮ
ĠØªÙģ Ø±ÛĮØŃ
ĠØ³ÙĪ Ø§Ø±ÛĮ
ĠÙħ Ú©Øª
ĠÛĮÚ© Ø¨Ø§Ø±
ĠÙģØ±ÙĪ Ø´ÛĮ
Ø± ÛĮØ¯
ĠÚ© ÙĪØ§ÙĨØª
ĠØ§Ùħ Ø±ÛĮ
ĠØ¨Ø§ÙĦ ÙĤÙĪÙĩ
ØªÛĮ ÙĪ
ĠÛ¶ Û°Û°
ĠÙħÙĨØŃ Øµ
ĠØ§Ø·ÙĦØ§ Ø¹ÛĮ
ĠØ´ÛĮ Ø¹Ùĩ
Ø§Ú© Øª
ĠÛ´ Û²
ĠÙħØ³ Ú©ÙĪ
ĠØ² Ø¨Ø§ÙĦÙĩ
ĠÙħÛĮ Ø¨Ø§Ø´Ø¯
ĠÚ©Ø§Ø± Ø¢ÙħØ¯
ĠÚ©Ø§ ÙĪØ´
ĠÙħØ¯ Ø§Ùħ
ĠÚ¯Ø± Ø§ÛĮØ´
ĠÙħ Ø§Ø±Øª
ĠA l
ĠÙĤØ§Ø¬ Ø§Ø±
ĠØª Ø§Ø±
ĠØ±ÙĤ Ø¨Ø§ÛĮ
ĠÙħØ³ÙĦ ÙħØ§ÙĨ
ĠÙĪÙĦ Ø§ÛĮØª
ĠØ®Ø§ÙĨØ¯ Ø§ÙĨ
Ùħ ÛĮÙħÛĮ
ĠØ²Ø§ÛĮ ÙħØ§ÙĨ
ĠÙħ Ø³ØªÙħ
ĠÙħØ± Ø²ÛĮ
ĠØ®ÙĪØ¯ Øª
ĠØ¯ ÙĨØ¯Ùĩ
Ø¨ Ø²Ø±
ĠØ¬ÛĮÙħ Ø²
ĠØ®Ø¯Ùħ Ø§ØªÛĮ
ĠÙħØªÙħØ§ÛĮ Ø²
Ú© Ø§Ø±Øª
Ú¯ÛĮØ± ÛĮØ¯
ĠØ¸ ÙĩØ±
ĠØ§Ø¬ Ø²Ø§ÛĮ
ĠØª Ø§Ùħ
ĠÙħØ³ÛĮØ± ÙĩØ§ÛĮ
ĠÚ© ÙĦØ§Ùħ
ĠÙĤØ±ÙĨ Ø·
ĠÙħÙĩ Ø§Ø±
Ø§Ø¯ ÙĦÙĩ
ĠÛ¹Û ¶
ĠØ´ÛĮØ± ÛĮÙĨÛĮ
Ú¯ Ø²Ø§Ø±
ĠØ§ÙħÛĮØ¯ÙĪØ§Ø± ÛĮÙħ
ØªÙĨ Ø§Ø¨
ĠØ¨Ø± ÛĮØ²
ĠÙħØ±Ø¯ ÛĮ
ĠØ¢ ÙĤØ§
ĠØ¨Ø®ÙĪØ§Ùĩ ÛĮÙħ
ĠÙĪÛĮÙĦÛĮ Ø§Ùħ
ĠØ§Ø³ØªÙĪØ¯ÛĮ ÙĪ
ÙĦ ÙĨ
ĠØ¯ Ø§ÙĪØ±
ĠÚ¯Ùħ Ø±Ú©
ĠÙħÙĪØ§ÙĨ Ø¹
ĠÚ© ÛĮØª
ĠØ§ÙĤ Ø¯Ø§ÙħÛĮ
Ùģ Ø±ÙĪØ´
ĠØªØ±Ú©ÛĮØ¨ Ø§Øª
ĠØ¨ÙĨÙĪÛĮØ³ ÛĮØ¯
i le
Ø®ÙĪØ§Ùĩ ÛĮ
ĠÙħØ® Ø²ÙĨ
ĠÛ³Û ·
ÙĦ Ø§ÛĮ
ĠÙħØŃ Ø¯ÙĪØ¯ÛĮ
ĠØ´Ùħ Ø³ÛĮ
Ø¹ Ø§Ø±
ĠØ²Ø® Ùħ
ĠØ¨Ú¯Ø°Ø§Ø± ÙĨØ¯
ĠÙħØª Ø£
ĠØ§ÛĮØ± Ø§Ø¯
Ø¢ ÙĪØ±Ø¯Ùĩ
ÙģØ± Ø¶
Ø¬Ø§ Ø¹
ĠØ§Ú© Ø«Ø±ÛĮ
ĠØ§Ø® Ø±Ø§Ø¬
ĠÙ¾ÛĮØ± ÙĪØ²
ĠØ®Ø± Ø¯Ùĩ
ĠØ§Ø² Ø¬ÙħÙĦÙĩ
ĠØ§Ø¨Ø± Ø§ÙĩÛĮÙħ
ĠØ¨Ø¹ ÙĨÙĪØ§ÙĨ
Ù¾ Ø§ÛĮÙĩ
ĠØ¯Ø± Ø¨Ø±
ĠØ³ÙĨ Ú¯ÛĮ
ĠØ¨Ùĩ Ø§ÙĨÙĩ
ĠØ® Ø¯
Ú©ÙĪ ÛĮÙĨ
Ø§Ùħ ÙĨ
ĠØ·Ø§ÙĦ Ø¨Ø§ÙĨ
ĠØ§ÙĨØ¯ Ø§Ø²
ĠØªØ¹ Ø¬Ø¨
ÙĨ ÙĦ
ĠØ®Ø· Ø§
Ø´ÙĨØ§Ø³ Ø§ÙĨ
ĠØ±ÙģØª Ø§Ø±ÛĮ
ĠÙģØ³ Ø§Ø¯
Ú©ÙĨ Ø§Ø±
ĠÙĤØ±ÙĨØ· ÛĮÙĨÙĩ
ĠÛĮØ§Ø¯ Ø´Ø¯Ùĩ
ĠØªØ® ÙĦÛĮÙĩ
ĠØ¯ÙģØ§ Ø¹ÛĮ
ĠÙħØ¹ ØªØ±
ĠÙģØ± ÙħØª
ĠÙ¾Ø§Ø± Ø§Ùħ
c om
ĠØ¹ Ø¸
ĠØ¨Ø§Ø±Ø¯ Ø§Ø±
ĠØ§Ø¬ ØªÙĨØ§Ø¨
ĠÙĦÛĮÙĨÙĪ Ú©Ø³
ĠÚ©Ø§ÙĨ ÙĪÙĨ
ĠÚ©Ø§Ø± Ú¯Ø±
Ġ1 8
ĠÚĨØ´Ùħ Ú¯ÛĮØ±ÛĮ
Ùħ ÙĤ
Ø±Ø³ ÙĨØ¬ÛĮ
ĠØ¹ÙĦØ§ ÙĤ
ĠØ±ÙĪ ØŃÛĮ
ĠE n
ĠØ¯Ø§Ø¯ Ùħ
ĠÙĨØ¸ Ùħ
ĠÙħØ·ÙħØ¦ ÙĨØ§
Ø¨Ø± Ùĩ
ĠØ¬ Ø¨ÙĩÙĩ
ĠØ¨ Ú¯ÙĪÛĮÙħ
ĠÛ±Û² Û¸
ĠØ¬ Ø²ÛĮ
ĠØªØ¹ÙĦÛĮ ÙĤ
ÛĮ Ø§Øª
ĠØªÙģ Ø±ÛĮØŃÛĮ
Ġp ro
Û¹Û ¹
Ùħ Ø´
ĠÙĨØ¯Ø§Ø´Øª ÙĨØ¯
ĠØ±ÙĪÛĮ Ùĩ
ĠÙħØ¬ Ø²Ø§
ĠØ± ØµØ¯
Ø¢ Ú¯Ø§Ùĩ
ĠÙħØ¯ÛĮØ± Ú©ÙĦ
ĠØ³Ø® ÙĨØ§ÙĨ
ĠØ§Ø¹ Ø²Ø§Ùħ
ĠØ§Ø®ØªØ±Ø§ Ø¹
Ø²ÙħÛĮÙĨ Ùĩ
ĠÛ¶ Ûµ
ĠØ²ÙĨØ¯ Ú¯
ĠØ§Ùģ Ø³Ø±
ĠØ¬ ÙĪØ§ÙĨÛĮ
ĠÙħ Ú©Ø±
Ø§Ø±Øª ÙħØ§ÙĨ
Ø§Ùħ ÛĮÚ©
ĠØª ÛĮØ²
ĠÚ¯ÙģØª ÛĮÙħ
ÙĨØ¸ ÛĮØ±
ĠB l
ĠØ³Ø±Ú© ÙĪØ¨
ĠØ§ÙģØ² ÙĪÙĨ
ÙĪÙĦ ÛĮÙĨ
ĠØ¬Ø§ÙĨ Ø¨
ĠÛ±Û² Û°
ĠÙĩÙħ Ø¯Ø§ÙĨ
ĠÚ¯ÙģØª ÙĨØ¯
Ø±ÙĪ ØŃ
ĠÙĤØ² ÙĪÛĮÙĨ
ĠØ³ÙĪØ§ ØŃÙĦ
ĠØ¬ÙĪ Ø§ÙħØ¹
ĠØ¬Ø³ ÙħÛĮ
ĠØªØ± ÙħØ²
ĠØ´Ø¹ Ø¨Ùĩ
ĠØ¯Ø® Ø§ÙĦØª
ĠØ§Ø¬ Ø¨Ø§Ø±ÛĮ
ĠØ¯Ø¨ÛĮØ± Ø³ØªØ§ÙĨ
ĠÛĮ Ø§Ø±ÛĮ
ĠØªØ§Ø³ÛĮØ³ Ø§Øª
ĠØ¯ÙĨØ¨Ø§ÙĦ Ùĩ
ĠÙĤ Ø§ÛĮÙĤ
ÙħØ¯ Ø§Ø¯
ĠØ§Ø®Øª ÙĦ
ĠÙħÙĪ Ø²ÛĮÚ©
ĠØ¨Ø§Ø² Ø±Ø³ÛĮ
ĠØ§ÛĮ Ø§Ùħ
ĠÚ©ÙĪÚĨ Ú©ØªØ±
ĠÙĨØ¯Ø§Ø± Ùħ
ĠÙĨØ¸ Ø±Ø³ÙĨØ¬ÛĮ
ĠØ¯ÙĪ Ø³ØªÛĮ
ĠÚ¯ÛĮØ± ÙĨØ¯Ùĩ
ĠØ¢ ÛĮØ¯
.Â» Â»
ĠØ¢ ÙĨØ¯
ĠØ¯Ø³Øª Ø§ÙĪØ±
ĠT h
ĠÙģØ¶ Ø§ÙĩØ§ÛĮ
ÙĨ ÙħØ§
ĠØªÙĪ Ø¬ÛĮÙĩ
ĠÙĩÙĨØ± ÙĩØ§ÛĮ
ĠØ®ÙĪ Ø´Ùħ
ĠÙĤ Ø¨Ø±
ĠÙ¾ ÙĦÙĩ
ĠØ¬Ø§ÛĮÚ¯Ø² ÛĮÙĨÛĮ
ĠØªØµØ§Ø¯ ÙģÛĮ
ĠØ¨ Ø´ÙĨ
an g
Ø®ÙĪ Ø¨ÛĮ
ĠØº Ø§ÙģÙĦ
ĠØº ÙĦØ·
ĠØªÙħ Ø¯ÙĨ
ĠØ³Ø± ÙĨÙĪØ´Øª
or d
ĠØªØ´ Ø±ÛĮØŃ
ĠÙģØ± Ø§Ø±ÛĮ
ÙĪÛĮ ÚĨ
Ùħ Ø¬ÙħÙĪØ¹
Ú¯Ø±Ø¯ ÛĮ
Ø¨Ø® Ø´Ø¯
e b
ĠÚ¯Ø´Øª Ø§ÙĪØ±
ĠÙħÚ©Ø§ÙĦ ÙħÙĩ
ĠÙ¾ÛĮØ± ÙĪÛĮ
ĠÙĨØ§Ú¯Ùĩ Ø§ÙĨÛĮ
Øº Ø±
r y
ĠØ§Ø² Ø·
Ø²ÙħÛĮÙĨ ÛĮ
ĠÙĩ Ø§Ø±Ø¯
ĠÙģØ±Øµ ØªÛĮ
Ø± ÙĪÛĮÛĮ
ĠØ¨ Ø´ÙĪØ¯
ĠØ§Ú©Ø«Ø±ÛĮ Øª
ĠØ´ÙĦÙĪ Øº
ĠÙħØ§ÙĦÛĮ Ø§ØªÛĮ
ĠØªÙģ Ø§ÙĩÙħ
ĠÚ©ÙĪ Ú©
ĠÙ¾ÙĪØ´ ÛĮØ¯Ùĩ
ĠÙĤØ± Øµ
ĠØ¯ÛĮ ÙĪÛĮØ¯
ĠØ¨Ø±Ø³ ÙĨØ¯
ĠØ§ Ø¦Øª
ĠØ³Ø±Ø§ Ø³Ø±ÛĮ
ĠØ¯ Ú©ÙĪØ±
ĠØ¹ ÛĮÙĨÚ©
ĠØ¢ ÙħÛĮØ²
ĠÙĦØŃ Ø¸
ĠØ± ÙĪØ¯Ùĩ
ØªÙĨ ÙĩØ§
ĠØº Ø§Ø±
ĠÙĨ ØªÙĪØ§ÙĨ
ĠÙĪØ³ÛĮ Ø¹ÛĮ
ĠØ®Ø§Ø· Ø±Ùĩ
ĠÙĨ Ú©
ĠÙħØªÙĤØ§Ø¶ÛĮ Ø§ÙĨ
ĠØ§ÙĨØªØ®Ø§Ø¨ ÛĮ
ÙĪÙĨ Ø²ÛĮ
Ø´ Ø§Ø¯
ĠØªØ¬ ÙħØ¹
ĠØ¢Ø¨ Ø´Ø§Ø±
Ġ ÙĦØ§Ú©
ĠØ§Ùħ ÙĦØ§Ú©
ØŃ Ø¯
ĠØ¨Ú¯ÙĪÛĮ ÛĮØ¯
ĠØ§ÙĪ Ø¨
Û°Û ±Û
ĠØ·Ø±Ø§ØŃ Ø§ÙĨ
ĠØ§ÙĦ Ùħ
ĠØ¯Ø± Ø§Ùħ
ĠØ³Ø± ÙģÛĮØ³
ĠØ¢ÙĦÙĪÙħ ÛĮÙĨÛĮ
ĠØ¹ ÙĤÙĦ
ĠÚ©ÙĨ ÛĮÙĨ
³ Û°
Û°Û ²
Ø¹ Ø§ØªÛĮ
ĠØ§ÙĦ Ø²Ø§Ùħ
Ø´Ø¯ ÛĮØ¯
ĠØ² ØŃ
Ø§ÙĦÛĮ Ø²
ĠØ¨ ØµØ±ÛĮ
ĠÚ© Ø§Ø¯Ø±
ĠÙ¾Ø§Ø±ÙĦ ÙħØ§ÙĨ
Ø¯Ùĩ Ø§ÛĮÛĮ
ĠÙħØ¨Ø§ ØŃØ«
ĠØ¢Ø³Øª Ø§ÙĨÙĩ
ÙĪ ÙĪ
ĠÙĩ Ú©Øª
ĠØ´ Ø§ÙĨÙĩ
ĠØ³Ø± ÙħØ§
ĠÙĪØ§Ø¨ Ø³ØªÚ¯ÛĮ
ĠÙģÙĪÚ© ÙĪØ³
ĠÛµ Ûµ
ĠØ´Ø§ÛĮ Ø¹Ùĩ
ĠØ§Ø¹ØªØ±Ø§Ø¶ Ø§Øª
Û°Û µ
' s
ĠØ¬ÙĦ Ø¯
ĠØ¯ Ø¨ÛĮ
ĠÙħØº ÙĨ
1 1
ĠØ¸ Ø±ÛĮÙģ
Ø¨Ø® Ø´ÛĮ
ĠØ®ØµÙĪØµ Ø§
ĠÚ©Ø§ÙĦ Ø±ÛĮ
ĠÙħØ¯ ÙĨÛĮ
ĠÙĩ Ø§Ø±
ĠÙħØ§ÛĮ Ú©ÙĦ
ĠØ§ÙĪ Ø³Øª
ĠÙ¾ÙĦØ§ Ø³ØªÛĮÚ©ÛĮ
ĠÙ¾Ø§ÛĮØ¯ Ø§Ø±ÛĮ
ĠÙĩÙħ Ø§ÛĮØ´
ÙĪ Ø§Ø³
ĠØ¨Ø®ÙĪØ§Ùĩ Ø¯
ĠØ±ÙĪÛĮØ¯ Ø§Ø¯ÙĩØ§ÛĮ
ĠÙħØ§Ùĩ Ø§ÙĨÙĩ
ĠÙĩÙħ ÛĮØ´Ú¯ÛĮ
ÙĪÙĨØ¯ ÛĮ
ĠÙģØ± ÙĤ
ĠØ³ÙĦØ· ÙĨØªÛĮ
ĠÙĤ Ø§Ø¶ÛĮ
ĠØ¯ Ú¯Ø±
ĠØ¯ÙħÙĪÚ©Ø± Ø§Øª
ĠÙĤ ÙĦÙĩ
ĠØ¶ Ø±ÛĮØ¨
ĠØµØ¨ØŃ Ø§ÙĨÙĩ
ĠÛ²Û°Û°Û µ
ĠÚ©ÛĮØ³ Ùĩ
ĠÙĨ Ø®ÙĪØ§ÙĩÛĮØ¯
e w
Ø¬ ÛĮÙĨ
ĠÙĤØ¶Ø§ ÙĪØª
ĠÙĩÙħÛĮÙĨ Ø·ÙĪØ±
ĠÙĨØ´ Ø±
ĠÚ© Ø§Ùģ
ĠØªØ¯Ø±ÛĮ Ø¬
Ø± Ø§Ùħ
ĠØ®Ø§Øµ ÛĮØª
ĠÙ¾ÙĦØ§ Ø³ØªÛĮÚ©
ĠØ±Ø³ Ø§ÙĨ
ĠØ±Ø§Ùĩ Ø¨Ø±Ø¯
ĠÙħÙĨØ§Ø³ Ø¨Øª
ĠØ±ÙĤ Ø¨Ø§
Ø§Ùĩ ÙĪ
ĠÙħÚ© Ø²ÛĮÚ©
ĠÙħØ³ Ø§ÙģØª
ĠØªØµ Ø±Ùģ
ĠÙħÙĨ Ø´
ĠE x
Ù¾ ÙĪØ±Øª
ĠØ¯Ø±Ø® Ø´Ø§ÙĨ
ĠÙĨ ÙĩÙħ
ĠÙ¾ Ø®Øª
ĠÙģØ± Ø§Ø²
Ø° ÛĮ
Ù¾ Ø±ÙĪ
ĠØ§Ú©Øª Ø´
ĠØ¨Ø± Ø³Ø§ÙĨ
ÙħÛĮ Ø¯Ùĩ
ĠØªØ® ÙĦÙģ
ĠØ³Ø±Ùħ Ø±Ø¨ÛĮ
ĠØ¨ÛĮ Ø§ÛĮ
ĠØ¨ÛĮ ÙģØª
ĠØ¨ÙĦÙĪØªÙĪ Ø«
ĠÙħØ¹ Ø¯Ùĩ
ĠØ®ÙĪØ¯ Ø±Ø§ÙĨ
ĠÙĪÛĮØ¯ÛĮ ÙĪÛĮ
ĠØ§Ø³Øª ØŃ
ĠÚĨØ´ ÙħØ§ÙĨ
ĠØ§ Ú¯Ø²
ĠØ° ÙĪØ¨
ĠÙģØ¶ Ø§ÙĨ
ÙĨ Ø±
ĠÙħÙĪ ÙĩØ§ÛĮ
ĠØ¢Ùħ Ø§Ø±ÛĮ
ĠØ§Ø³Øª Ø¯
ĠØµ Ø§Ùģ
ĠØ¨Ø± ØªØ±ÛĮÙĨ
ĠØªØ¹ Ø·ÛĮÙĦÛĮ
Ú© ÙĪØ³
ĠØ´ÙĨØ§ Ø³ÛĮ
ĠÚ¯Ø± ÙħØ§
ĠØ±Ø§Ø¯ÛĮ ÙĪÛĮÛĮ
ĠÛ±Û³Û¹Û ¹
Ù¾Ø°ÛĮØ± Ø¯
ĠÛ¸ Û°Û°
ĠØ¨Ø§ Ø¨Ø§
ĠÛ· Û°Û°
ĠØŃ ÙģØ±Ùĩ
ĠØ³ Ø§Ø±
Ú©ÛĮ ÙĪ
ĠØ¬Ø¯ Ø§ÛĮÛĮ
ĠØ±Ùģ Ø§Ùĩ
ĠÙħÙĪØ¬ÙĪØ¯ Ø§Øª
ĠØ¨ÛĮ Ø³ØªÙħ
ÛĮØ¯ Ø±
ĠØ¬Ø² Ø§ÛĮØ±
ĠØ¯Ø± Ø¨Ø§Ø±
ÙħØ¬ÙħÙĪØ¹ Ùĩ
ĠÙ¾ Ø§ÛĮØ´
Ùģ Ø³ÛĮ
ĠÙĨÙħÙĪØ¯ Ø§Ø±
ĠØ®Ø¯Ø§ ÙĪÙĨØ¯
ĠÙĩÙĪØ± ÙħÙĪÙĨ
ĠØ§ÙĦ ÙĤØ§
ĠÚ©ÙĨ Ú©ÙĪØ±
ĠÛ±Û³Û ³Û
Ġ r
ĠÙģ ÙĪØ±ÛĮ
ĠØ¶ Ùħ
ĠÙģ Ø´
ĠÚĺÙĨØªÛĮ Ú©ÛĮ
ĠØ§ Ø±Ú©
ĠØŃÙĪ Ø§Ø³
ĠÙħØ±Ø² ÙĩØ§ÛĮ
ĠØªØ±Ø¯ ÛĮØ¯
ĠÙĩ Ú©
Ù¾Ø±Ø¯ Ø§Ø®Øª
ĠÙĨØµ Ùģ
ĠØ® ÛĮØ±Ùĩ
ĠØ³Ø¨Ø²ÛĮ Ø¬Ø§Øª
ĠØªØ§ Ú©
Ø¯Ø§ÙĨ Ùħ
ĠÙħØª Ø¯Ø§
ĠØ· ÙĦØ¨
ÙĪÛĮ Ø§ÙĨ
ĠØ³Ú© ÙĪØª
ĠÚ¯ ÙĪÛĮØ§
ĠÚ© ÛĮØ´
ĠØ·Ø±Ùģ Ø¯Ø§Ø±
ĠÚ¯ Ø³Øª
ĠØ§ Ø¯ÛĮ
ĠØ¯Ø±ÙĨ ÙĩØ§ÛĮØª
ÙĪØ³ Ùĩ
Ø· ÙĪØ¨
ĠÚ©ÙĨ Ø³Ø±
ĠØ§Ø¨ Ø¯Ø§
ĠØ¨Ùģ ÙĩÙħ
ĠØ§ Ø¯Ø±
ĠÙĤÙĩØ± ÙħØ§ÙĨØ§ÙĨ
ĠØªØ±Ø§ Ú©ÙĨØ´
ĠÚ©Ø´ ÛĮ
Ùģ ÙĪØ±Ø¯
ĠØªØºÛĮÛĮØ± ÛĮ
ØºÛĮ Ø¨
ĠØ·Ø±Ùģ ÛĮÙĨ
Ùħ Ø§Ø±
ĠØ§Ø³ØªÙĤ Ø±Ø§Ø±
ĠÙ¾Øª ÙĨØª
ĠÚ¯ ÙħØ§ÙĨ
om p
ĠØ¨Ø±Ø³ ÛĮØ¯
ĠØ§Ø±ØªÙĤØ§ Ø¡
ĠØª Ø®ØµÛĮ
ÙĪÛĮØ¯ ÛĮØ§
ĠÙ¾Ø±ÙĪ Ø³Ùĩ
ĠÚ©Ø¬ Ø§Ø±ÙĪ
ĠÙħØŃÙħ Ø¯Ø±Ø¶Ø§
it e
Ú©Ø±ÛĮ Ù¾Øª
ĠÙħÙĨØµ ÙĪØ¨
Ġ2 5
ĠÙģØ±Ø§ Ú¯ÛĮØ±
ĠØ§ÛĮØ³ ÙĪØ³
ĠÙĩÙĨØ¯ ÙĪ
ĠØ² Ø±
ĠÙĩÙĪ Ø§Ø¯
ĠØ¨Ø§ Øª
ĠØ¹Ø¶ ÙĦØ§Øª
ĠØªØŃ Ø³ÛĮÙĨ
Ú¯Ø±Ø¯ ÙĨØ¯
ĠØ§Ø³ Ú©Ø±
ĠØ§ÙĨ ÙĤ
ĠØ¹ÙĨØ§ ÙĪÛĮÙĨ
ĠØ¢Ø´Ù¾Ø² Ø®Ø§ÙĨÙĩ
ĠÙĨÙĤ Ø´ÛĮ
ĠA d
ĠØ³ ÙĪÙĨ
ĠÙħ ÙĦØ§ØŃ
ÛĮØ¯ ÙĪÙĨ
ĠØªØ¹ÙħÛĮØ± Ø§Øª
ĠØ§ØŃØªÛĮ Ø§Ø¬
ĠÚ©ÙĪ ÚĨÙĩ
ĠØ³ ÙĦÙĪ
ĠØ®Ø±ÛĮØ¯ Ø§Ø±
ĠØ§ÙĨÙĤÙĦ Ø§Ø¨ÛĮ
e p
ĠØ´ Ø±ÛĮÚ©
ĠØ³ÛĮ Ø³ØªÙħÛĮ
ĠØªØ³ ÙĦØ·
ĠÙĤ Ø§Ø±
Ø§ÙĤ Øª
ĠØŃØ¯ÙĪØ¯ Ø§
ĠØ±Ø§ Ø¨Ø±Øª
4 0
ĠØªÙĨ ÙģØ³
Ø³ Ø§ÙĦÛĮ
ĠÙ¡ Ù
ĠÙĨÙħØ§ÛĮ Ø§ÙĨ
Ú© ÙĨØ¯Ùĩ
ĠÚ¯Ø± Ø¨Ùĩ
ĠÙħÛĮØ² Ø¨Ø§ÙĨÛĮ
ĠÚ©Ùħ Ú©ÛĮ
Ø¨Ø²Ø± Ú¯
ĠÙ¾Ø± Ø·Ø±Ùģ
ĠØ¨ ØªÙĪÙĨ
ĠØ§Ø³ Ú©Ø§Øª
ĠÙħÙĪØ±Ø¯ ÙĨØ¸Ø±
ÙĨÛĮ Ø§Ø²
ĠÙħØ« Ø¨ØªÛĮ
ĠØ§Ø³ØªØ¯ ÙĦØ§ÙĦ
ĠÚ©Ø´ÙĪØ± ÙĩØ§ÛĮÛĮ
ĠÙģØ±Ø³Øª Ø§Ø¯
ĠÙħØ´Ø®Øµ Ùĩ
Ø§Ú© Ø±
ĠØ²ÛĮ Ø³ØªÛĮ
ĠØ¯ÛĮÙ¾ÙĦ ÙħØ§Øª
ĠØ±Ø§ Ø³
ĠØ±Ø§ Ø²
Ø¬ÙħÙĩ ÙĪØ±ÛĮ
ĠØ¨Ù¾Ø±Ø¯Ø§Ø² ÛĮØ¯
ĠÙĩØ³Øª ÛĮ
ĠÚ©Ø§Ø± Ø´
ĠØ§ÙĨ ÙĪÛĮØ¯ÛĮØ§
ĠØ´ ÙĦÛĮÚ©
ĠÙħÛĮ Ø§ÙĨÛĮ
Ø³Ø§ÙĦ Ùĩ
ĠØ¨ Ú©Ø´Ø¯
ĠØ§Ø¹ Ø¶Ø§
Ú©Øª Ø§Ù¾
Ø®ÙĪØ§ÙĨ Ø¯
ĠØªÙģ Ú©ÛĮÚ©
ĠØ¢Ø±Ø§ÛĮ Ø´
ĠØ§ÙĨØªØ®Ø§Ø¨ Ø§ØªÛĮ
1 2
ĠØ¨ Ø´ÙĨØ§Ø³
Ġf or
ĠØ¨Ø± ÙĪÙĨØ¯
Ø³Ø§ÙĨ Ø³
ÙĨÙĪ ÙĪ
ĠØ§ Ø«Ø±ÛĮ
ĠØ¨Ø± Ùħ
ĠÙħÙĪØ¨ Ø§ÛĮÙĦÛĮ
ĠÙĩ ÙĪÙħ
ĠØ§ÙĨ Øµ
ĠØ¯Ø± ÙĨØ¸Ø±
ĠÙħØ¹ÛĮ Ø§Ø±
ĠØ§Ø² Ø´
C D
ic e
Û°Û ´
ĠÙĪÙĤ Ø§ÛĮØ¹
Ù¾ Ø²Ø´
ĠÙĨÚ¯Ø± ÙģØªÙĩ
Ø§Ø¨ ÛĮØ¯
ĠØªÙĪÛĮ ÙĪØªØ§
ĠÙĨØ§ÙĪ Ú¯Ø§ÙĨ
ĠØªÙĪÙĦÛĮØ¯ Ø§Øª
ĠÙĨØ§ Ø´ÙĨ
ĠØ®ÙĪØ¯ Ú©Ø´ÛĮ
ĠÙħØ±Ø§ ÙĤØ¨
ĠÙĨØŃ ÙĪÛĮ
ĠØ¢Ø³ÛĮ Ø§ÛĮÛĮ
ĠÙħØŃÙĦ ÙĪÙĦ
ĠØ¯Ø§Ø¯ ÛĮÙħ
ĠÛ´ Û´
ĠØŃØ§Ùģ Ø¸
ĠØŃØ§ÙĦ ÛĮÚ©Ùĩ
ĠØ¬ Ø§Ø¨Ùĩ
ĠØ§ÙĪ ÙĦÛĮ
ĠÙħÙĤØ± Ø±
ĠÙ¾Ø± ÙĨØ¯Ú¯Ø§ÙĨ
ĠØ¨Ø¯Ø§ÙĨ ÛĮÙħ
ĠØ«Ø±ÙĪØª ÙħÙĨØ¯
ĠØ²ÛĮ Ø§ÙĨ
Ùģ ÙĩÙħ
ĠØª Ø´Ø¯ÛĮØ¯
ĠØ±Ø³ Ø§ÙĨØ¯ÙĨ
ĠØ±ÙģØª Ùħ
ĠØ§Ø³Ø¨ Ø§Ø¨
Ø§ÙĦÛĮ Ø³Øª
ĠØ§ÙĪ Ú©Ø±
ØŃ Ø¯ÙĪØ¯
ĠC ore
ĠØ¢ Ø±ÛĮ
Ú¯ÙĪ Ø³Øª
ĠØªØ®ØµÛĮ Øµ
ĠÙ¾ÛĮ Ø¬
ĠØ¯Ø³ Ú©ØªØ§Ù¾
ĠØ¨ ÙħØ§ÙĨ
ĠØ¯Ùĩ Ø³ØªØ§ÙĨ
Û±Û ¶
ĠØª ÙĪØ¯Ùĩ
ĠÚĨÛĮØ² ÙĩØ§ÛĮ
ĠØ¨ÙĦ Ú©
ĠØªØ±Ø§ Ú©Ùħ
ÙĨÙĪÛĮØ³ Ø¯
ĠØ³Ø± Ø´Ø§Ø±
ÙĪÙģ Ø§ÙĨ
ĠÙĪ Ø§ÙĦÛĮ
ĠØ¨Ø± Ø¢ÙĪØ±Ø¯Ùĩ
ÙĪÙĨ Ø²
ĠØ±Ø§ÙĩÚ©Ø§Ø± ÙĩØ§ÛĮ
ĠÚ© Ø¯ÙĩØ§ÛĮ
Ù¾Ø±ÛĮ Ø§
ĠÙĨ Ø§ØµØ±
Ø§Ø¨ Ø§ÙĨÛĮ
ĠÙ¾ÛĮÚĨ ÛĮØ¯Ú¯ÛĮ
ĠÙħØ¯ Ø§ÙģØ¹
ĠØ´Ú© Ø³ØªÙĩ
ĠØ¨Ø¯ ØªØ±
ĠÙĦ ÙĨ
ĠÚ©ÙĨ ÙĨ
ØªØ± Ø³
ĠÙħÛĮ Ø´Ø¯
ĠØ³Ø§Ø®Øª ÙħØ§ÙĨÛĮ
ĠÙħÙĨØ· ÙĤ
ĠØ§Ø®ØªÙĦ Ø§ÙĦØ§Øª
Ġ( ØĽ
Ø¬ Ø³ØªØ§ÙĨ
ĠØ¨Ø²Ø±Ú¯ Ø³Ø§ÙĦ
ĠÙħØ¯ÛĮØ± ÛĮØªÛĮ
ĠØ³ ÙĪÙĦ
ĠØ´Ø§Ø±Úĺ Ø±
oo k
ĠØŃØ³ Ø§Ø¨ÛĮ
ĠØ¨Ø§ Ú©ÛĮÙģÛĮØª
ĠØ¨ÙĨ Ø§Ùħ
ĠÙĦØ§Øª ÛĮÙĨ
ĠØ§ØµÙĦØ§ØŃ Ø§Øª
Øª Ø²
ĠØ´ÙĨØ§ Ø®ØªÛĮ
Ù¾ ÙĦØ§Ø³
ĠØ¨Ø¯ ÙĨÛĮ
ĠÙĨØ¯Ø§Ø´Øª ÙĨ
ĠØ² ÙĪÙħ
ĠA n
ĠÙĨÚ¯Ùĩ Ø¨Ø§ÙĨ
Ø²ÛĮ Ø³Øª
ĠØ¯Ø±ÛĮØ§ÙģØª ÛĮ
ĠØªÙĩ ÙĪÛĮÙĩ
Ù¾ ÛĮØ´
ĠØ§Ú©Ø³ ÛĮØ¯
ÙĨ ÙĩØ§
ĠØ§ÙĨØ¯ ÙĪÙĨØ²ÛĮ
Ø² ÛĮÙħ
ĠØª ÙĨÛĮ
ĠØ±ÛĮ ÚĨ
ĠØ§Ø´ÛĮØ§ Ø¡
ĠØ¨Ø§ Ùħ
ĠØªØ³ ÙĦÛĮÙħ
ĠÙħ ÙĪÙĨØª
ĠÙĨÙĪØ± ÙĪØ²
ĠØ®ÙĦØ§ÙĤ Ø§ÙĨÙĩ
ĠØ§Ø²Ø· Ø±ÛĮÙĤ
Ø§ÛĮ Ø§Øª
ĠÚ© ÛĮÚ©
ĠÙĨØ§Ø± Ø§ØŃØª
ĠÙĤØ¯ Ø±ÛĮ
ĠØ³Ø§Ø¹Øª Ùĩ
ĠÙħÛĮ Ø´
ĠÙĦÙĩ Ø³ØªØ§ÙĨ
ĠØ®ÙĪØ¯ Ø±ÙĪÛĮÛĮ
ĠÙģ ÛĮØ±
ĠØ² Ø¨Ø§ÙĨÛĮ
ĠÙĨ Ú©ÙĨÙĨØ¯
Ø´Ø¯ Øª
ĠHT C
ĠÙĨØ´ Ø§ÙĨÛĮ
Ùģ ÛĮÙĦ
ĠØ³Ø±Øª Ø§Ø³Ø±
ĠØªÙĪ ÙħØ§ÙĨÛĮ
ĠØªÙĨ ÙģØ³ÛĮ
ĠÙĩÚ©Øª Ø§Ø±
ĠØªÙħØ±ÛĮÙĨ Ø§Øª
ĠØ¯Ø± Ø®Ø´
ĠÙĨØ§Ùħ ÛĮ
ĠÚĨÙĩØ§Ø± ÙħÛĮÙĨ
ĠÙĨØ¨Ø§Ø´ ÛĮØ¯
ĠÙħÙĪ Ø§ÙģÙĤ
ĠØ§Ø³Ø§Ø³ Ø§
ĠØ¨Ø¹ ÛĮØ¯
ĠÙĨÙĪØ¬ÙĪØ§ÙĨ Ø§ÙĨ
ĠÙĪØ±Ø¯ Ù¾Ø±Ø³
ĠØ³Ø§Ø² Ú¯Ø§Ø±ÛĮ
ĠÙģÙĦ ÙĪØ±
ĠÚ¯ Ø²
ĠÙħØªØ¯Ø§ ÙĪÙĦ
Ø´ Ú©Ø±
ĠÛĮÙĩÙĪØ¯ÛĮ Ø§ÙĨ
ĠØ§Ø³Øª Ø±ÛĮÙħ
ĠØªØ± ØºÛĮØ¨
ĠØ³ÙĦØ· ÙĨØª
ĠØ® ÙħÛĮÙĨÛĮ
ĠØ¯Ø§Ø± ÙĪÛĮ
ĠØ´ÙĪ ÙĩØ±
Ø¨ Ø§Ø³
ĠÚ©ÙĨ Ø§Ø±Ùĩ
ĠÛ¸ Ûµ
ĠÙħØ¯ ÙĨØ¸Ø±
ĠØªØ¹ Ø±ÙģÙĩ
ĠÙĦ ÙĨÙĪÙĪ
ĠÙ¾Ø§Ø¯ Ø§Ø´
ĠØ¢ ÛĮÚ©
ĠØ®ÙĪØ± Ø§Ú©
ĠØ¯Ø³ØªÚ¯Ø§Ùĩ ÛĮ
ĠÙĨØ¨ÙĪØ¯ ÙĨ
ĠØ¯ÙĪ Ø´
ĠØºÛĮØ±ÙĤ Ø§ÙĨ
ĠÙĩÙħ Ø¯
ĠÙĦ Ø§ÛĮØª
ĠØ³Ø± Ø´ÙħØ§Ø±ÛĮ
ĠØ±ÙħØ² ÙĨÚ¯Ø§Ø±ÛĮ
ĠÚ¯Ø§Ø² Ø±Ø³Ø§ÙĨÛĮ
Ø§ÙĦ ÙĪÚ¯
ĠØª Ø«
ĠØ¯Ø±ÙĨ ØªÛĮØ¬Ùĩ
e g
ĠÙĩÙĪØ§Ø¯ Ø§Ø±Ø§ÙĨ
ĠÙĨØ³ Ø¨ÛĮ
ĠÙĨ Ú©Ø³ÙĪØ³
ĠÙħØºÙĨ Ø§Ø·ÛĮØ³ÛĮ
ĠÙħÙĪÙĦ Ú©ÙĪÙĦ
ĠØºÛĮØ±ÙĤØ§ÙĨ ÙĪÙĨÛĮ
ĠÙĩØ± ÙħØ²
Ø¢ ÙĪÛĮ
ĠÚĨ Ø±Ø¨
ĠÚ¯Ø° Ø§Ø±Ø§ÙĨ
ĠØ¢ÙĨ Ø±Ø§
ĠÙĪ Ø§Ø±ÛĮ
ĠØªØ³ ÙĦÛĮ
ĠØ¨Ù¾Ø±Ø¯Ø§Ø² Ø¯
P I
Û°Û ¸
ĠÙħØ§Ø±Ú©Øª ÛĮÙĨÚ¯
ĠÙģ Ø§Ø¶
ĠØ³Ø§Ø² Ø¯
ĠÙ¾ÙĨØ¬ Ø§Ùĩ
ĠØ¨Ø§ ØªÙĪØ¬Ùĩ
ĠØ® ÙĪÙĨÛĮ
ĠÛ²Û°Û°Û ´
ĠØºØ± ÙĤ
ĠØ§ÛĮ ÙĪØ§ÙĨ
ĠÙģ Øª
ĠÙħÙħÚ©ÙĨ Ùĩ
ĠØ³Ø¨ Ø¯
ĠØ´ÙĪØ± Ø§
ĠØ¯ÙĦ Ùħ
ĠÙĨØ¯ Ø§Ø¯
ĠÚ©Ø§ Ø´Ø§ÙĨ
ĠÙ¾Ø±Ø·Ø±Ùģ Ø¯Ø§Ø±
ĠØ¨Ø± Ø¹Ú©Ø³
ĠØ¬ Ø³Ùħ
ĠØ§Ú©Ø³ Ù¾Ø±ÛĮØ§
ĠØ³ ØªÛĮ
ĠÙħØ± Ø·ÙĪØ¨
ĠØ¨ÙĦÙĪ Ú©
ĠØ±Ø³ÛĮØ¯ ÙĨØ¯
Ø§Ø±Øª Ø§ÙĨ
Ø· ÙĨ
ĠØ®ØµÙĪØµÛĮ Ø§Øª
ĠÙĨÚ¯Ø§Ø± Ø´
ĠØ§Ú©ÙĪ Ø³ÛĮØ³ØªÙħ
ĠØ§Ø³Øª Ø§ÛĮÙĦ
Ùħ Ú©ÙĨ
ĠÙħÛĮ Ú©Ø±Ø¯
ĠØ¨ ÙĦØ§
ĠØ¨Ø§Ø² ÙħÛĮ
ĠØªÛĮ Ù¾
Ø§ÙĦØª ØŃØµ
ĠÙħÙĪØ¯ Ùħ
ĠØ¨Ø±ÛĮØªØ§ÙĨÛĮ Ø§ÛĮÛĮ
Ø³ Ùģ
ĠÙĨÙħ Ø§Ø²
ĠÙĪ ÙĨØ²
u st
ĠØ´Ùħ Ø§Ø±ÛĮ
ĠØ¨ÙĨ ÚĨ
ĠÙģÛĮÙĨ Ø§ÙĦ
ĠØ§Ø±Ø² ÙĩØ§ÛĮ
ĠØ¯Ø±Ú¯Ø° Ø´ØªÙĩ
ĠØ¢ÙĨ Øª
i es
ĠÙħÙĨ Ùģ
ĠÚ©ÙĪÙĩ Ø³ØªØ§ÙĨÛĮ
ĠØ¯Ø®ØªØ± Ø§ÙĨ
ĠØ¯ ÙĪØ±ÛĮ
ĠØ¨Ù¾Ø±Ø¯Ø§Ø² ÙĨØ¯
ĠÙĨ ÛĮØ´
ĠÙħØ± Ø¬Ø¹
âĢ ĭ
ĠØªØ§Ø±ÛĮØ® ÚĨÙĩ
Ø±Ø§Ø± ØªÛĮ
ĠØ§ÛĮÙĨ Ø·ÙĪØ±
ĠØ±ØŃ Ùħ
Ø§ ÙĪØ²
ĠØ±ÙĪØ§ÙĨ Ø´ÙĨØ§Ø³ÛĮ
ĠÙĨØ§ÙĨ ÙĪÙħØªØ±ÛĮ
ĠÙĨØ§Ø¯Ø± Ø³Øª
ĠØ§Ø¦Øª ÙĦØ§Ùģ
ĠÙĦ ÛĮÙĨ
e y
ĠØ¨Ú©Ø´ ÛĮØ¯
ĠÙ¾Ø§Ø± Ø³ÛĮ
ĠØ§Ùģ Ø±Ø§
ĠØ¢ Ø¦
ĠØŃØ§ÙĦ ØªÛĮ
ĠØ§Ø³ÙĦ ØŃÙĩ
ĠÚ¯ÙĪÙĨØ§ Ú¯ÙĪÙĨÛĮ
ĠØ³Øª Ø§Ø±
o x
ĠØ§Ø± ÙĤØ§Ùħ
ĠØµ Ø¯Ùħ
ĠÙħØ® Ø¯Ø±
ĠØªØ§Ø«ÛĮØ± Ú¯Ø°Ø§Ø±
ĠØ¹ Ø§Ø·
ÙĦÛĮ ØªÛĮ
ÙĩØ§ Ø´
ĠØ§Ø¶Ø·Ø± Ø§Ø±ÛĮ
ĠØ§ÙĨØªØ´Ø§Ø± Ø§Øª
ĠØ¯Ø§ÙĨØ´ Ø¬ÙĪÛĮÛĮ
Ø± Ø§Ø²
Û¶ Û°
ĠØªØ±Ø³ ÙĨØ§Ú©
ĠÚ¯ÛĮÚ¯Ø§ÙĩØ±Øª Ø²
ĠØ®ÙĪØ¯Ø±ÙĪØ³Ø§Ø² Ø§ÙĨ
ĠÙħØ´ ÙĪØ±Øª
ĠÙĨØ§Ùħ ÙĨ
ĠØ¢ÙĨ Ø±
ĠØ§ÙĨØªØ¸ Ø§ÙħÛĮ
ĠÙĤ Ø§Ø¦ÙĦ
ĠØ³Ø§ÛĮ Ø¨Ø±ÛĮ
ĠÚ¯ ÙĪÛĮØ´
ĠÙħØ± Ø¯Ùĩ
Úĺ ÛĮÚ©ÛĮ
ĠØªÙĤ ÙĪÛĮÙħ
Ø¨ Ø¹Ø¯ÛĮ
ĠÚ© Ø±Ø§Ø³
Ùħ Øµ
ĠØŃ Ø±Ø§Ø±ØªÛĮ
ÙĨ ÙĪÙĨ
ĠØ®ÙĪØ¯ ÙħÙĪÙĨ
ĠÙĪÙĨØ² ÙĪØ¦
ĠØ³Ùĩ ÙħÛĮÙĩ
ĠÚ©ÙĦÛĮ Ø³Ø§
Ø¶ ÙĦ
p t
Ø¸ ÛĮ
Ø¨Ø§ Ø¹
ĠÚ©ÙĩÚ© Ø´Ø§ÙĨ
ĠØ¨Ø§Ø² ØªØ§Ø¨
ĠÙ¾Ø§ÛĮ ÛĮÙĨÛĮ
ĠØªÙĪØ§ÙĨØ³Øª ÙĨØ¯
ĠÚ©Ø§Ø±Ø§Ú© ØªØ±
Ø³Øª ÙĪÙĨ
ĠØ¨Ø¯ Ùħ
s s
ĠØµÙĨ ÙģÛĮ
Ø³ ÙħÛĮ
ĠØ¯ÙĤÛĮ ÙĤÛĮ
ĠÙ¾ ÙĪØ¯Ø±
ĠØ® ÙħÛĮØ±
ĠÚ© ÙħØ§
ĠØ¨Ø± ÙĦÛĮÙĨ
Ù¾ Ø²ÛĮ
ĠØ± ÙĪÙĦ
ĠÙĪØ³ Ø¹Øª
ĠÙħÙĩÙĨØ¯ Ø³Ø§ÙĨ
ÙģØ±ÙĪ Ø´ÛĮ
ØªØ± ÙĪ
ĠÚĨØ± Ø®Ø´
ĠÚ¯ÙĪ Ø§Ùĩ
ĠÙ ¢
ÛĮØ§ Ø·
ĠÙģÛĮÙĦÙħ Ø¨Ø±Ø¯Ø§Ø±ÛĮ
or k
ĠØŃ Ø±ÙĪÙģ
ĠÙ¾Ø§Ø±Ú© ÛĮÙĨÚ¯
ĠØ®Ø§Ú© Ø³ØªØ±ÛĮ
ĠØ´ÙĪØ± Ø´
ĠÛ± Û°Û°Û°
7 0
ĠØ³ÙĪ Ø¦ÛĮØ³
ĠØ§Ø³Ù¾Ø§ÙĨÛĮ Ø§ÛĮÛĮ
a il
ĠØ§ØŃØ³ Ø§Ø³ÛĮ
ĠÛ²Ûµ Û°
ĠÙ¾ÙĪ Ø³ØªÛĮ
Ø±Ø³ÛĮ Ø¯Ùĩ
ĠØ§ÙĦ ÙħØ§ÙĨ
ĠØ¯Ø§ÙĪØ· ÙĦØ¨
ĠÙ¾Úĺ ÙĪ
ĠØªØ±ÙĪØ±ÛĮ Ø³Ùħ
ĠØ¨Ù¾Ø±Ø³ ÛĮØ¯
ĠÙĪÛĮ Ø²Ø§
ÙĪÙĨ ÛĮÚ©
ĠØ³Ø§Ø®Øª Ø§Ø±ÛĮ
ÙħØ§Ùĩ Ùĩ
ĠÙĪ ÛĮÚ©
ĠÙħØ³ØªÙħ Ø±
Ú¯ ÛĮÙĦ
ĠÙħØ¬ ÙĦ
Ø§Øª Ø§
ĠA r
S t
ĠØ¯ ÙģØ¹
ĠÙħ Ú¯Ø§Ø¨
ĠÙ¾ ÙĦØ§Ú©
ĠØ¨Ø± ÙĪ
ĠØ§ÙĪ ÙħØ¯
ĠÚ¯ ÙĪÛĮÛĮ
Ġ201 7
ĠØ´ ÙĦ
ĠØ¹Ùħ ÙĪØ¯ÛĮ
ĠØ´ Ø±ÛĮ
ĠL ED
ĠÚ©Ø±Ø¯ ÛĮ
ĠÚĨØ´Ùħ Ú¯ÛĮØ±
ĠØ³ ÙĪÛĮÛĮ
ĠÙĩÛĮØ¨Ø± ÛĮØ¯ÛĮ
ĠØ¯ Ø§ÙĦ
ĠØ§Ø³ØªØ¹Ø¯ Ø§Ø¯
Ø§ Ø¹
ĠØ¹Øµ Ø¨Ø§ÙĨÛĮ
ĠÚ¯Ø§ÙĦ Ø±ÛĮ
ĠØ§ÙĦØª ÙĩØ§Ø¨
ĠØ®ÙĪØ´Ùħ Ø²Ùĩ
ĠØŃØ³ ÛĮÙĨÛĮ
Ù¾Ø±Ø¯ Ø§Ø²ÛĮ
ĠÙģØ¶Ø§ÙĨ ÙĪØ±Ø¯
ĠØ®Ø´ Ú©ÛĮ
ĠØª ÙĦÙĩ
ĠÙħÛĮ Ø®
Ø®ÙĪØ§Ø³Øª Ùĩ
ĠØªØ§Ø¨ ÙĦÙĪ
ĠO ne
ĠØ¨Ø§ ÙĩÙħ
ĠÙĨØ§Ø± Ø§ØŃØªÛĮ
ĠØªØ§ÛĮÙĦ ÙĨØ¯
Ø¢ÙħÙĪØ² Ø§ÙĨ
ĠØª ÙĩØ§
ĠØ±ÛĮ Ø®ØªÙĩ
ĠØ§Ø³ØªØ±Ø§Øª ÚĺÛĮÚ©
ĠÙ¾ Ø±Ú©
ĠÚ¯ Ø´ÙĪØ¯
ĠÚ©Ø§Ùħ ÙĦÛĮ
ĠØ¯Ø± Ø§ÛĮÙĨ
ĠÙħØ¹ Ø¨Ø¯
ou t
ĠÙħØ®Ø§Ø¨ Ø±Ø§ØªÛĮ
ĠØªÙĦ Ø®
ÙĪ Ø§Ø±Ø¯
ĠØ§ Ø³ÛĮ
ØªÙĪØ§ÙĨ Ùħ
ĠÙħØªØŃ Ø±Ú©
ĠÙĪØ§Øª Ø³
ĠØ¯ÙĪ Ø§Ø²Ø¯Ùĩ
Ù¾Ø±Ø¯Ø§Ø² ÙĨØ¯
ĠÚ©Ø§Ø± ØªØ§ÙĨ
ĠÙħØ§Ø±Øª ÛĮÙĨ
ØªØ± Ùĩ
Ø§ÙĦ Ø¨Ø§
ĠÚ¯ÙĦ ÙĪÙĦÙĩ
ĠØŃ Ø§Ø¬
ĠØ¹ÙĦÛĮØ± Ø¶Ø§
ĠÙħÚ© Ø¹Ø¨
ĠØª ÙĦØ³
ĠÙĦØ± Ø²Ø´
ĠÙħØ¬ Ø±ÙĪØŃ
ĠÚ¯Ø± Ø¬Ø³ØªØ§ÙĨ
ĠØªØ« Ø¨ÛĮØª
Ø®ÛĮ ÙĦÛĮ
ĠØ® ÙĨØ¯Ùĩ
ĠÚ©ÙĦ ÛĮÙĨ
ĠØ§Ø®ÙĦØ§ ÙĤ
ĠÙħÙĨØª ÙĤØ¯
ĠÙħØª Ø¯
ĠØ¨Ø§Ø² Ø®ÙĪØ±Ø¯
ĠÙĨÙħØ§ÛĮ Ø´ÛĮ
ĠØ± ÛĮØª
ĠÚ©Ùħ Ø¯ÛĮ
ĠÚ© ÛĮÙĩ
ĠÙģ ÙĪØ±
ĠÙħÛĮØª ÙĪÙĨÙĩ
ĠÙħØ¹ ÛĮÙĨ
ĠØ´Ø®ØµÛĮ ØªÛĮ
Øµ Ø±Ùĩ
ĠØ¨Ø±ÛĮØ² ÛĮØ¯
ĠØ¨Ø§ÛĮØ¯ ÙĨ
ĠØ§ÛĮØ³Øª Ø§Ø¯Ùĩ
ĠÚ© ÛĮÙĨ
ĠØ´ Ø±ÛĮÙģ
ĠØ³ ÙħÙĨ
ĠÙĦ Ø³
ĠØ± Ø¤
ĠÙĨØ§Ø² Ú©
ĠÙĪÙĨØ²ÙĪØ¦ ÙĦØ§
Û±Û ´
Û±Û ·
i an
Ġ4 0
ĠÙ¾ ÛĮØª
ĠÙħØ³ ÙĪ
Ø¹Ùģ ÙĪÙĨÛĮ
ĠI P
ĠÙ¾Ø±Ø§ Ú©ÙĨØ¯Ùĩ
ĠØªØ¨ Ø¹
ĠC l
ĠÙ¾ÙĪØ± Ø´Ùĩ
ĠØªÙĪ Ø¦ÛĮ
P U
Úĺ Ø§ÙĨØª
ĠÛ²Û°Û°Û ³
ĠØ¹ Ø±Ùģ
ĠÙħØª ÙĨÛĮ
ĠØ® Ø±ÛĮ
ĠÙĨ Ú©Ø±Ø¯ÙĨ
9 9
ĠÙĨ Ø§Ø´
ĠÚ©Ùħ Ù¾
ĠÙħØ® Ø±Ø¨
l y
ĠØº ÙĦØ§Ùħ
ĠÙħÙĨØŃØµ Ø±Ø¨Ùĩ
ĠÙĨÙħØ§ÛĮØ´Ú¯Ø± ÙĩØ§ÛĮ
ĠØ¨ ÙĤØ§ÛĮ
ed ia
ĠØ¯ÙģØ§ ØªØ±
ĠÚ©ÙĨØ³Ø± Øª
ĠÙ¾ÛĮ Ø§Ø²
ĠØ³Ø±Ø¯ Ø±
ĠÙĤ ÙĪØ§
ĠÙħØ±Ø§Ø¬ Ø¹
ĠÚ©Ø§Ø±Ø¨Ø± Ø§ÙĨÛĮ
ĠØ¹Ø¨Ø§Ø± ØªÛĮ
ĠØ¢ ÙħÛĮ
ĠØµ ÙĦÛĮ
ĠÙħÚ©Ø§ÙĨÛĮ Ú©ÛĮ
ĠÙĩ Ø§ÙĦÛĮ
ĠØ§ÙĨØ¯ ÛĮØ´
ÛĮØ§ ÙģØªÙĩ
ĠÛ±Û³Û¹Û µ
ĠÙĦØ¨ Ø®ÙĨØ¯
ĠØ±ÛĮ Ø²Ø´
Ø² ÙĦÛĮ
ĠÙģØ§Ø¶ ÙĦ
Ø´ ÙĪÛĮ
ĠÚ© Ø§Ø´Øª
ĠØ§Ùħ Ø±ÛĮÚ©Ø§
ĠØ±Ø§ Ú©Øª
ĠØº Ø§ÙĦØ¨Ø§
ĠØ·ÙĦØ§ ÙĤ
ĠØ¯ÙĪØ³Øª Ø§ÙĨÙĩ
Ø® Ø¨
ĠØ¨Ø® ØªÛĮ
Ø¨Ø± Ø²
ĠØ§ÛĮ ÙģØ§ÛĮ
ie w
Ġ x
ĠØ¹ Ø§Ùħ
ĠÙĦ Ø§ÙħÙ¾
Ø· Ø¨
ĠØ¨Ø§ Ø®
ĠÙħØ®Ø§Ø¨ Ø±Ø§Øª
ĠØ¯Ø§Ø¦ Ùħ
ĠØ¨Ø§Ø²Ø¯ÛĮØ¯ Ú©ÙĨÙĨØ¯Ú¯Ø§ÙĨ
ĠØ§ Ø¨Ùĩ
ĠÙĤØ¨ Ø§ÙĦ
Ø§ÛĮØª Ø§ÙĨ
Ø³ ÙĪØ²
ĠØ¯Ø´ ÙĪØ§Ø±ÛĮ
ÙĪÙĦ Ø§ÛĮ
ĠÙ¾ÙĪ Ø³ØªÙĩ
ĠØ§ÙĦ Ú©ÙĦ
ĠØ´ÙģØ§Ùģ ÛĮØª
ĠØºÙĦ Ø¨Ùĩ
ĠØ³ Ø§ÙĨØ¯
ĠØ¯Ø±Ø¢Ùħ Ø¯Ùĩ
ĠØ± Ø¬
ÙĨÚ¯ Ø±ÛĮ
ĠÙĨ Ø§ÛĮØ¨
Ġ 0
ĠØ¨Ø§ÛĮ Ø³ØªÛĮ
ĠÚĨ Øª
ĠÂ ·
ĠÚ©Ø§Ø± ÙĨØ§ÙħÙĩ
ĠØ¹ Ø°
ĠÛ²Û°Û² Û±
ĠØŃØ§Ú©Ùħ ÛĮØª
ĠØª Ù¾
ĠØŃ Ø±ÛĮÙģ
ĠÛ±Û¹Û ¹Û°
ĠÙĤÙĦÙħ Ø±ÙĪ
Ø§Ø¦ ÙĪ
Ú© Ø¨
Øª Ø³
ĠØ¨Ø§ÙĨ ÙĪØ§ÙĨ
ĠØ¹Ø²ÛĮ Ø²Ø§ÙĨ
ĠØ§ÙĨ ØŃ
Â» )
ĠØ§ÙħÙ¾ Ø±Ø§ØªÙĪØ±
Ùĩ ÙħØ§ÙĨ
ĠÙħÙĩØ± ÙħØ§Ùĩ
ĠÙĨØ§ Ø¸Ø±
ĠØ± Ú¯
ÙĤ ÙĪÙĦ
Û´ Û°
ÙħØ§Ø¹ ÛĮÙĦ
ĠÙĩÙħ Øª
ĠÙħØŃØªÙĪ Ø§ÛĮÛĮ
ĠÙħÛĮØªÙĪÙĨ ÛĮØ¯
ĠØ¯Ø³ØªØ§ÙĪØ± Ø¯ÙĩØ§ÛĮ
Û² Ûµ
ĠØ§ÙĨØªØ¸Ø§Ø± Ø§Øª
ĠØ¬ ÛĮÙĨ
ĠØ¶Ø¯ Ø¹ÙģÙĪÙĨÛĮ
ĠØª Ø¯Ø§Ø±
ĠÚ¯ Ø§ÙĪ
ĠÙĨ ÙħØ§ÙĨØ¯
Û°Û ±
Ú¯ Ø´Øª
Ġ k
ĠØ¨ÙĦÙĪ ÚĨ
ĠØ¢ ÙĪØ§Ø²
ĠÚĺÙĨ Ø±Ø§ÙĦ
ĠØ§ÙĨØ¯ Ø§Ø®ØªÙĩ
ĠØ³ÛĮÙħ Ø§
ÛĮØª Ø§ÙĨ
ĠØ³Ùģ Ø§Ø±Ø´ÛĮ
Ø§ÙĦ Ø«
ĠÙħØŃ Ùģ
ĠÙħÙĪØ§Ø¬Ùĩ Ùĩ
ÙĪØ± ÙĩØ§
Û°Û ·
ĠÚ©ÙĪØ§ÙĨØª ÙĪÙħÛĮ
ÙĪ ÙĩØ§
ĠØ¨ÙĪØ´ ÙĩØ±
ĠØ± ÛĮÙħ
am e
ĠØ¢ÙħØ±ÛĮÚ©Ø§ Ø¦ÛĮ
ĠÙħÙĤØ± ÙĪÙĨ
ĠØ±ÙĪØŃ ÛĮÙĩ
ĠØ¢ Ú¯ÙĪØ³Øª
ĠØªØ± Ùħ
ĠÙĨÙĤ Ø¯ÛĮ
ĠÚ¯ÙĦ Ø³ØªØ§ÙĨ
ĠØªÚ©Ø± Ø§Ø±ÛĮ
ĠÙĪØŃ Ø´ÛĮ
Øª Ø§Ø²Ú¯ÛĮ
Ø¸ Ùģ
ĠØ¨Ø§ Ø´ÛĮ
ĠØ¨Ø® ØµÙĪØµ
ĠØ¢ Ø¨Ø±
ĠÛĮ Ø§Ø²Ø¯ÙĩÙħ
ĠØµ Ø®Ø±Ùĩ
ĠØ¢Ø± ÚĺØ§ÙĨØª
ĠØ¢ÙģØ±ÛĮÙĤ Ø§ÛĮ
ĠØ¨Ø§Ø²ÛĮ Ø§Ø¨ÛĮ
ÙĨ ÙĤ
ĠÚ¯ ÙĦÙĪ
ĠÙĨØ§Ú¯Ùĩ Ø§ÙĨ
ĠÚ©Ø§ÙģÛĮ Ø³Øª
i al
ØŃ Ø³ÛĮÙĨ
Ø¬ Ú©
ĠØ¨ÛĮØ§ÛĮ ÛĮØ¯
ÙĪØªÛĮ Ú©
ĠÙĩ ÛĮÙĦ
ÚĨ ÙĨØ§ÙĨ
ĠÚĨ Ø§ÙĤ
ĠØ§Ùħ Ø¯Ø§Ø¯
Û³Û µ
ĠÙĤØ·Ø¹ ÙĨØ§ÙħÙĩ
ĠØ¬Ø§Ø¨ Ø¬Ø§ÛĮÛĮ
ĠÙĩÙħ Ú©Ø§Ø±
ĠØ§Ø¹ Ùħ
ĠÙħØ³Ø§ÙģØ± Øª
ĠØŃ Øµ
ĠØŃØ³Ø§Ø¨ Ø¯Ø§Ø±ÛĮ
ĠÙģ Ø§Ø¬
ĠØ¬Ø° Ø§Ø¨ÛĮ
ĠØ³ ÙħÛĮ
Ø¢ ÙĩÙĨ
ĠØ³ÙĨ Ø§Ø±ÛĮ
Ø§ÙĨØ¯Ø§Ø² Ø¯
ĠØ¬ ÙĪÛĮÛĮ
y n
ĠØ±ÙĪ Ø§Ø¬
Ù¾ ÙĨ
ĠÙħ Ø§Ø¨
ĠØ¨Ø§Ø± Ú¯Ø°Ø§Ø±ÛĮ
ĠØ·Ø¨ÛĮØ¹Øª Ø§
ĠÚ©Ùħ Ø±
ĠT r
ĠÙ¾Ø§ÛĮØª ÙĪÙĨ
ĠØ²Ø® ÙħÛĮ
ĠØ§ÙģØ²ÙĪØ¯ ÙĨ
ĠÙ¾ÙĨ ÛĮØ±
ĠÙĤØ±Ø§Ø±Ø¯ Ø§Ø¯ÙĩØ§ÛĮ
ĠØ§Ø¸ÙĩØ§Ø± Ø§Øª
ĠÙħØŃ Ø±
ĠS E
Ø¢ Ù¾
ĠØµÙĦØ§ØŃ ÛĮØª
ĠØ´ Ø±Ú©
ĠÙ¾ ÙĪÛĮØ§
Ø§Ø³ Ø§Ø²ÛĮ
it h
ĠÙĤØ§ Ø¹Ø¯Ùĩ
ĠØ¯ÙĦ Ø§ÛĮÙĦÛĮ
ĠÚ¯ Ø´ØªÙĩ
ĠÙĩ Ø±ÛĮ
ĠØ§Ø¹ ØªÛĮ
ĠÙģØ±ÙĪØ´ ÙĨØ¯Ú¯Ø§ÙĨ
ĠA pp
ĠØª Ø·Ø¨ÛĮ
ĠÚ©Ùħ ÙĪÙĨÛĮ
ĠÙħÙĪ Ø¸Ùģ
ĠÙĤ ÙĨ
ĠÙħØŃÙħ Ø¯ÛĮ
ĠÙħÙĪØªÙĪØ± ÙĪÙĦØ§
ĠÙĨØ§Ø¨ ÙĪØ¯ÛĮ
f f
ĠØ§Ùĩ ÙĪØ§Ø²
ĠÙħÙħÙĨÙĪØ¹ ÛĮØª
ĠÙ¾Ø± ØªÙĪ
Ġi s
id e
ĠØ² ÙĪØ±
or m
! Â»
ĠÙģØ§Ø¬ Ø¹Ùĩ
p e
ĠÙĨ ÙĪØ¯
Ø±Ø§ ÙĤ
ĠÚ©Ø§ÙĦ Ø§ÙĩØ§
ĠØ´ÙĩØ±ÙĪ ÙĨØ¯
ĠÚ©Ø§ÙĦ Ø¬
Ø§ Ø¹Øª
Ø±Ø¯ ÛĮ
ĠØŃ Ø§Ø¦
ĠØ³ÛĮ ÙĦÛĮÚ©
ĠØªÙĨ Ø§Ø³Ø¨
ĠØ¯Ø§ÙĨØ´ ÙħÙĨØ¯
ĠS c
ĠÙħØ®Ø§ÙĦÙģ Ø§ÙĨ
ĠØ§Ø³Øª Ø§Ø¯ÛĮ
ÙĦ Ø§ÙĨØ¯
ĠÛ³Û ³
l d
Ùģ Ø±ÛĮ
ĠO LED
im e
ĠÙħØ§ Ø´ÛĮÙĨÛĮ
ĠØ¨Ø® Ø±ÛĮØ¯
ØŃ ÙĤ
ĠØ¨ÛĮÚ© Ø§Ø±ÛĮ
ĠØªØ¸Ø§Ùĩ Ø±Ø§Øª
ĠÙħÙĨØ¸ Ø±Ùĩ
ĠØ®ÙĪØ¯Ø´ ÙĪÙĨ
ĠØŃ Ø¨Ø³
ĠÙĩÙĪ Ø¢ÙĪÛĮ
ĠØ²ÛĮØ± ÙħØ¬ÙħÙĪØ¹Ùĩ
ĠÚ©Ø§ÙħÛĮ ÙĪÙĨ
ĠØ´ Ú©ÙĨ
ØŁ ØŁ
ĠÛ±Û³Û¹Û ¸
o st
Ġ ÛĮØ¯
ĠâĢ ı
ĠÚ©Ùħ Ø±Ø¨
ĠØ§Ú© Ø´ÙĨ
ĠØ¬Ø²ÛĮ ÛĮØ§Øª
ĠÙĨ Ø±Ø³ÛĮØ¯Ùĩ
ĠÙħØ¬ Ø±ÛĮ
ÙħÚ© Ø¹Ø¨
ĠØ¹ Ø§ÙĦÙħ
Ú©Ø± Ø¯ÙĩØ§ÛĮ
ĠÙħØ¹ Ø§Ø¯ÙĨ
Ø¬ ÙĪØ±ÛĮ
Ø§Ø¯ Ø§Øª
ĠÙ¾Ø±ÙĪÙģ Ø§ÛĮÙĦ
Ø· Ø±ÛĮ
ĠÙĤØ±Ø§Ø±Ø¯ Ø§Ø¯ÛĮ
ĠÚ¯ Ø±ÛĮÙĩ
ĠØªØ¹ÙĩØ¯ Ø§Øª
ĠØ±Ø§ Ø¯
ĠÚ¯ÙĨØ¯ Ùħ
ĠØ¶Ùħ ÙĨØ§
ĠØ´Ú© Ø§Ùģ
ĠÚ¯ÛĮÙħ ÛĮÙĨÚ¯
ĠØ¨Ø¨ÛĮÙĨ Ø¯
ĠØ¹ÙħÙĦÚ©Ø±Ø¯ ÛĮ
ĠÙĩÙħ Ø¬
ĠÙĨÙĪØ³ Ø§Ø²ÛĮ
ĠÙħÚ©Ø± Ø±
ĠÙ¾ÛĮØ§Ùħ Ø¨Ø±
ĠØ±Ø¯ÛĮ Ø§Ø¨ÛĮ
ÙħØ¯ Ø§ÙĨ
Ù¾ ÙĪÙĦ
ĠØª Ú©Ø§ÙĨ
ĠØ§Ø³ØªÙĪØ¯ÛĮ ÙĪÛĮ
ĠÙħØ°Ùĩ Ø¨
Ø¨ÙĪØ¯ ÙĨ
Ø¹ÙĦØ§ ÙĪÙĩ
Ø¨ÛĮÙĨ ÙĨØ¯
Ġ2 4
ĠØ¹Ø§Ø· ÙģÛĮ
ĠÙĦ Ú©Ùĩ
ĠÙĩÙĪØ§Ù¾ÛĮÙħ Ø§ÙĩØ§ÛĮ
ĠØ¨Ø²ÙĨ ÙĨØ¯
Ú© Ø§ÙĨÛĮ
Û°Û ¶
ÙħÛĮ ØªÛĮ
ĠÙĤ Ø§Ø¦
Ú© Ø¯Ø§Ùħ
ĠØ° Ø±Ùĩ
ĠÙĨÛĮØ³Øª ÛĮØ¯
ĠØ´ÙĪØ± Ø´ÛĮØ§ÙĨ
ĠÙħØª Ø¹ÙĩØ¯
ĠÙĦÛĮ Ø²Ø±
Ø§ÙĨØ¯ Ø§Ø²Ùĩ
ÙĨØ´ ÛĮÙĨÛĮ
ĠØ¢ Ø³Ø§ÙĨÛĮ
ĠØ¨Ø¯ ØªØ±ÛĮÙĨ
ĠØ§ÙħÚ©Ø§ÙĨ Ø§ØªÛĮ
ĠØ§ÙĨØª ÙĩØ§
Ø± ØºÙħ
ĠØ¯Ø´ÙħÙĨ Ø§ÙĨ
Ø§ÛĮ Ø´ÛĮ
ĠÛµ Û·
ĠØ§ÙħØª Ø¯Ø§Ø¯
ĠØ§Ø¹ØªÛĮ Ø§Ø¯
Ġ j
ĠØ³ÙĪ Ø¦ÛĮ
ĠÙĩØ§Ø´ ÙħÛĮ
ĠÙĨØ§Ùħ Ú¯Ø°Ø§Ø±ÛĮ
ĠØ§Ø³Øª Ùģ
Ø· ÙĦØ¨
ĠØ·Ø± ØŃÛĮ
Ġ ÂŃ
ĠÙħØª ÙĪÙĨ
ĠÙ¾Ø±ÙĪØ§Ø² ÙĩØ§ÛĮ
ĠÙħØ¹ÙĨ ÙĪÛĮ
Ġ20 20
ĠÙ¾ÙĩÙĨ Ø§ÛĮ
ÙĦÙģ ÙĦ
Ø§ÙĨØ¯ Ø±
Ø§ÙĦÛĮ Ø³Ùħ
Ġ201 8
ĠØªØŃÙĪÙĦ Ø§Øª
ÙģØª ÛĮ
ÙĩÙĪØ´ ÙħÙĨØ¯
ĠÚ©Ø§Ø± ÙĦ
ĠÚ© ÛĮÙħ
ĠÙģØ± ÙĨÚ¯ÛĮ
ĠÙħÚ©Ø§ÙĨÛĮ Ø²Ùħ
ĠØ¯Ø± Ø³ÛĮ
in t
ĠØ¨Ø§ Ú¯
ĠÙģØ±Ø§ÙĨ Ú©
ĠØŃ ÛĮØ§Ø·
ĠÙĨØ´ ÙĪÙĨ
ĠÙĪØ± ÙĤ
Øª ÙĪØ±ÛĮ
ĠÙħØŃØ³ ÙĨ
) }
Ø§Øµ Ø±Ùĩ
ĠØ§Ø³ ÙħØ§Ø¹ÛĮÙĦ
ĠØªØ¯Ø§ ÙĪÙħ
ĠØ§ÛĮØ±Ø§ÙĨ Ø³ÙĦ
ĠØ¯Ø§ÙĨØ´ Ø¬ÙĪÛĮ
ĠØ¨Ø§ Ø¯ÛĮ
Ġ201 6
ĠØ¨Ø§Ø± Ø³ÙĦ
ĠÙ¾ Ø§Ø±Ùĩ
ÙĨÛĮ Ú©
ĠØªØ§ÛĮ ÙħØ²
ĠØªØ§ÙĦ Ø§Ø±
ĠÚ¯ÙĨ Ø¨Ø¯
ĠÚ©Ø± ÛĮÙħ
Ú¯ Ø³ØªØ±ÛĮ
ĠØ§Ø·ÙĦØ§Ø¹ÛĮ Ùĩ
ĠÙħÙĪØ¶ Ø¹
ÙĪØ¯ ÙĨ
ĠØ§ÙĤ ÙĦØ§Ùħ
ĠÙħØ³Ø§ÙģØ± ØªÛĮ
ĠØ¨ÙĪ Ø¬ÙĪØ¯
ĠÚ©Ø§Ùħ ÙĨØª
ĠØ¨ÛĮØ§ÙĪØ± ÛĮØ¯
ĠØ¬ ÛĮØ¨
ic k
ĠØ§Ø³Ù¾ ÛĮØ³
Ø³ ÙĪØ²ÛĮ
ĠØ§ÙĪ Ùħ
Ø§ÙĦ ÙħÙĦÙĦ
ĠâĢ ĭ
ĠØ¨ ÙĪÙħ
ĠØªØ£ Ø®ÛĮØ±
a z
ĠØ² Ø§Ø¦
ĠÙĨØ§ÙħÙĨ Ø§Ø³Ø¨
ĠØ® ØªÙħ
ĠÙħØŃØª ÙĪÛĮ
ĠØ²ÙĨØ¬ Ø§ÙĨ
ĠØ¨ÙĨÚĨ ÙħØ§Ø±Ú©
ÙĪÚ¯ Ø±Ø§ÙģÛĮ
ĠÙĪØ§ Ú¯ÙĨ
ĠØ¨ Ú¯
ÛĮ Ø§ÛĮ
ĠØ²ÙĨØ¯ Ø§ÙĨÛĮØ§ÙĨ
Ú¯ÛĮØ± ÛĮÙħ
ĠØ§ØŃ Ø±Ø§Ø²
ĠÙħØ· ÙĦÙĤ
ĠØªÙĦØ³ Ú©ÙĪÙ¾
ĠØ« ÙħØ±
ĠÚ©Ø§Ø± ÙĪØ§ÙĨ
Ø§Øµ Ø¯
ĠÚ¯ÛĮØ± ÙĨØ¯
ĠØ³Ø§ÛĮ Ù¾Ø§
ĠÙħØªØ± ÙħÚ©Ø¹Ø¨
ĠÙĪØ§ Úĺ
ĠØ¨Ø¨ÛĮÙĨ ÙĨØ¯
ĠÙĨÙģ Ø±ÛĮ
ĠØªØ± Ø§ÙĨ
ĠØ± ÙĨØ¯Ø±
ic ro
ĠÙħÙĪØ³ Ø³Ø§Øª
ĠÙĦØ² ÙĪÙħØ§
ĠØ¨Ø±Ø§ÛĮ Ø´Ø§ÙĨ
ĠÙĨØªÙĪØ§ÙĨ Ø³ØªÙĩ
ĠØ² Ø±Øª
ĠÙĩÛĮ ÙĪÙĨØ¯
ĠÙħØ±Ø¯ ÙħØ§ÙĨ
ĠØ± ÛĮÙĩ
ĠÛ¸ Û¸
ĠØ¹ ÛĮØ¯
ĠP h
ĠÙħØ§Ø¬ Ø±Ø§ÛĮ
ĠÚĨ ÛĮÙĩ
ĠØ¨ÛĮÙģØª Ø¯
ØªÙĪØ§ÙĨØ³Øª ÙĨØ¯
ĠØºÛĮØ± ÙģØ¹Ø§ÙĦ
ĠÙģØ§ÙĦ ÙĪ
ÙĨ ÚĺØ§Ø¯
Ø³ ÙģØ§ÙĨÙĩ
ĠØ³ÙĪØ± Ø§Ø®
ÙĦÛĮ Ø³
ĠØ¯Ø§Ø¯ Ú¯Ø³ØªØ±ÛĮ
ĠÛ´ Û·
ĠØŃ ÙĪØµ
ÙĨ Ø§ÛĮÛĮ
ĠÙħÛĮ Ø´ÙĨ
ĠØ¢Ø±Ø§Ùħ Ú¯Ø§Ùĩ
ĠÙħØ´ ÙħÙĪÙĦ
ĠÙħØ³ÙĦ ÙħØ§
ĠØ§Ø³ØªØŃ Ú©Ø§Ùħ
ĠØ± ÛĮÙĨÚ¯
ĠØ¢ÛĮÚ© ÙĪÙĨ
ĠÙħØŃ ØªØ±
Ø² ÛĮØ¯
ĠØ§Ø¹ ØµØ§Ø¨
ĠØªØ´ Ú©Ø±
ĠØ¯Ø³ØªÙĪØ± Ø§Øª
Ġ201 9
ĠØ¢Ùħ Ù¾Ø±
ĠØ¹Ø§Ø´ÙĤ Ø§ÙĨÙĩ
Ø§ ÚĨ
ĠØ¬ÙĦ ÙĪÛĮÛĮ
ĠØ®Ø· Ø§Ø¨
ĠØ¹ Ø²
ĠØ±ÙģØª ÙĨØ¯
ĠÙĩÙĪØ´ÙħÙĨØ¯ Ø§ÙĨÙĩ
Ù¾ ÙĨØ¬
ĠØ§Ú©ØªØ´ Ø§Ùģ
ĠØ¨Ø± Ø§Ø´
ĠÙħØ¹ Ú©ÙĪØ³
ĠØ³Ø± Ø´
ĠØªÙĪÛĮ ÛĮØª
ĠØ§Ø³ØªÙĨ Ø§Ø¯
ĠÙħØŃ Ø§ØµØ±Ùĩ
ĠØ¬ÙĪ Ø§Ùĩ
Ø³ ÙħØª
H D
ĠØ§ ÙĦØ§
ĠØ¢ Ø±Ùħ
ĠÙĨÙĪØ²Ø§Ø¯ Ø§ÙĨ
ĠØ« Ø§ÙĨ
ĠØ®Ø· Ø±Ø§Øª
ĠÙħÙĪØ¬ÙĪØ¯ ÛĮ
Ú¯Ø±ÙģØª ÙĨ
ĠÚĨ Ø§ÙĦ
ÙĪØª ÛĮÙĨ
ĠØ¨ÙĦ Ø¯
ĠØ¨Ùĩ Ø§ÛĮ
ĠØ®ÙĦ Ø¨Ø§ÙĨ
Ø§ØŃ Ø¨
ĠÙĩ Ø§ÙĦ
ĠØ§Ø³ØªÛĮ ÙĪ
ĠØ§ÙģØ²Ø§Ø± ÙĩØ§ÛĮ
ĠØ´ÙĨØ§ ÙĪØ±
Ø³ÛĮ Ú©ÙĦØª
ĠÙĨØ¸Ø± Ùħ
ĠØ¯Ùĩ Ø§ÙĨÙĩ
ĠØŃØ¶ Ø±Øª
ÙĪØ² ÙĨ
ĠØ§ÙĨØŃØµ Ø§Ø±ÛĮ
ĠØª Ú¯
as h
ĠÙĨØ´Ø¯ ÙĨ
en s
ĠØ· ÙĪÙģØ§ÙĨ
Ø§Ùģ Ø±Ø§
ĠÙĨÚ© Ø§ØªÛĮ
Ø§ÙĦØªØŃØµ ÛĮÙĦ
ĠØª ÙģØ§ÙĪØªÛĮ
ĠØ¯ÛĮ ÙĪØ§ÛĮ
Ø² ÙĪØ¯ÛĮ
ĠØ¨ Ø¯ÙĩÛĮÙħ
ĠÙħØº Ø°ÛĮ
ĠÙģÙĤ Ø±
ĠØ¬Ø§ ÙĩØ§ÛĮ
ĠÙģ ÙĦÙģÙĦ
ĠÙ¾ Ø³ØªÛĮ
ĠÙħÛĮ Ú©ÙĨÛĮØ¯
ĠÙĪØ§ Ú¯Ø°Ø§Ø±ÛĮ
ĠÙ¾Ø§Ø³Ø® Ú¯ÙĪÛĮÛĮ
ĠØ³Ùģ Ø±ÛĮ
ĠÚ¯ÙĨ Ø§Ùĩ
ĠÚ©ÛĮÙģ ÛĮ
ĠÚ¯Ø§Ø² ÙĩØ§ÛĮ
ĠØªØ± Ø§Ø²
Ø² Ø¨Ø§ÙĨ
ĠØ§ÙĪÚ©Ø± Ø§ÛĮÙĨ
ĠØ§Ø¹ØªØ± Ø§Ùģ
ĠØ¢Ø³ÛĮ Ø§ÛĮ
ĠÙģ ÙĦØ§
ĠØªÛĮØ± ÙħØ§Ùĩ
ĠC ES
ĠÛĮ ÙĪÙĨÛĮ
ĠØªØ¬ Ø§ÙĪØ²
ĠØ« Ø§ÙĦØ«
ĠØ¯Ø± ÙħÛĮ
Ú¯Ø±Ø¯ ÛĮØ¯
ĠØ§Ø±Ø² Ø´ÛĮ
ÛĮ Ø§Ø±
ĠØ¨Ø¯ ÛĮÙĩ
ĠØ§Ø±Ø¯ Ø¨ÛĮÙĦ
ĠØ³ÛĮ Ø³ØªØ§ÙĨ
Ú¯Ø± Ø§ÛĮ
Ø¢Ùħ Ø¯Ùĩ
Ø¨ Ø§Ø¯
ĠØ¢ÙĨ Ø¬
ĠÙ¾Ø±Ùĩ ÛĮØ²
ĠÙħ Ú©Ø³
ÙĪÚ© Ø±Ø§Ø³ÛĮ
ĠÙħØ§ÙĦ Ø²ÛĮ
Ú¯ Ø±Ø§Ùģ
ĠØ¹Ø¸ ÛĮÙħÛĮ
Ġ8 0
ĠÚ©Ø§Ø±Ø¢ÙģØ± ÛĮÙĨÛĮ
ĠØ§ÙĪØ¨ Ø§ÙħØ§
ĠØ¨ Ø³Ø§Ø²Ø¯
ĠÙħÙĩ ÙħØ§ÙĨØ§ÙĨ
ĠØ¨ÛĮ ØªÛĮ
ĠÙĨØ§Ø´ÙĨ Ø§Ø®ØªÙĩ
ĠØª ÛĮÚ©
ĠØ±ÛĮÚĨ Ø§Ø±Ø¯
ĠØ® ÙĪÛĮ
ĠØ¹Ø¬ÛĮ Ø¨ÛĮ
I D
ĠØŃ Ø³ÛĮ
ĠÙĪØ²ÛĮØ± Ø§ÙĨ
ĠÙħØªØ£ Ø³ÙģØ§ÙĨÙĩ
ĠØªØ¹ÙĪÛĮ ÙĤ
ĠØ´ ÛĮØ¨
A M
ĠÙĨØ±ÙĪ Úĺ
ĠØ¨ÛĮ Ùĩ
ĠØ¯ÛĮ ÙĪØ§Ø±ÛĮ
ĠØ¨Ø± Ø§Ùħ
ĠØ± Ø´Øª
ĠÙĤØ±Ø¨Ø§ÙĨÛĮ Ø§ÙĨ
ĠØ² Ø§Ø¯
ÙħØ¯ Ø§Ø±
ĠØªØ¬ Ø§Ø±
ĠÛ²Û°Û°Û ±
ĠØ±Ø² ÙĪÙħÙĩ
ĠÙħÙĪØªÙĪØ± Ø³ÛĮÚ©ÙĦØª
ĠØ¬ Ø§Ø¯
ĠØªØ§Ø±ÛĮ Ú©ÛĮ
Ø³Ø± Ø¹Øª
ĠØªØ± ÙĪÛĮØ¬
ĠØ³ÙĪ Ø§ÙĦÛĮ
ĠÙĨØ§Ù¾ Ø°ÛĮØ±
ĠØ´Ø¯ ÛĮØ¯ÛĮ
ĠÙģÙĪÙĦ Ú©Ø³
ĠÙħØ³ Ø¹ÙĪØ¯
ĠÙĦ Ø§Ùħ
ÙĨÛĮ Ø²
ĠU n
ĠØ¨Ø§ Ø¯Ø§Ùħ
ĠÙ¾Ø´ØªÛĮ Ø¨Ø§ÙĨ
ĠØ± Ø¨Ø·
ĠÛĮ ÙħÙĨ
ĠØ´Ø§Ùĩ Ø²Ø§Ø¯Ùĩ
ĠØ´ ÛĮÚ©
ĠÚ¯Ø± ÙħØ§ÛĮ
at ch
ĠØ§Ø´ Ø¹Ø§Ø±
ĠØ± ØºÙħ
ĠÙħØµ Ø·
ĠØ¨Ø± Ø§ØªÙĪÙĨ
Ú¯Ø° Ø§Ø´Øª
Ø¨ Ø§ÛĮÛĮ
ĠØ§Ø³ Ø§Øª
ĠØ³ÙĪ Ø³ÛĮ
ĠÙĩ Ø¯Ø±
Ø° Ú©Ø±
ĠØ¢ ÙĪ
Û² Û°Û±Û
ĠÙĨØ¨ÙĪØ¯ ÙĨØ¯
ÙĤ Ø§Ø¨
ÙĨÚ¯ Ø§Ø±
ĠØªØ§Ø¨ Ø´
Ø³Ø§ Ø¹Øª
ĠØ§ÙĦ Ø¨Ø±Ø²
ĠÙĨÙĪÛĮØ³ ÙĨØ¯Ú¯ÛĮ
ĠØ¨ Ú¯ÙĪÛĮØ¯
ĠÙħØ§ÛĮ Ú©
ĠØ± ÛĮØ´
ĠÙĪØ²Ø§Ø±Øª Ø®Ø§ÙĨÙĩ
ĠÙħØ±Øª Ø¨Ùĩ
Ù¾ÛĮ ÙĪÙĨØ¯
ĠÙĪÙĦØª Ø§Úĺ
ĠØ§ÙħØ§ Ú©ÙĨ
ĠÛ²Û°Û°Û ²
ĠØ¨Ø³Ø§Ø² ÛĮØ¯
ĠØª Ø²ÛĮ
ĠØ¨ÙĨÛĮ Ø§Ø¯ÛĮ
ĠÚ¯ ÙĦÛĮ
ÙħØ« ÙĦ
ĠØ®ÛĮ Ø§Ø¨Ø§ÙĨÛĮ
ĠÙĦÛĮ ÙĪØ§ÙĨ
ĠØ§Ø±Øª ÙģØ§
ĠØ³ ØŃ
ĠÙĩ Ø±Ø¯
ĠÙħØ´ Ú©ÙĪÚ©
ĠØ§Ú© Ø¨Ø±
ĠØ¢ ÙĪÛĮ
ĠÚ¯ ÙĪÛĮ
ØŃ Ø³Ø§Ø¨
ĠØ¯Ø§Ø±ÙĪ ÙĩØ§
ĠØ¨Ù¾Ø±Ø¯Ø§Ø² ÛĮÙħ
Ùħ Ø³
ĠØ³ÙĨÚ¯ ÛĮÙĨÛĮ
ĠØ®Ø± Ùħ
ĠØ¯Ø±ÛĮ ÚĨÙĩ
ĠØªØ¬ ÙĪÛĮØ²
ĠÙħØ§ÙĩÛĮ ÚĨÙĩ
h er
ĠE d
ĠÙĪÛĮØ¯ÛĮ ÙĪÙĩØ§ÛĮ
ĠØ³ØªØ§Ø± Ú¯Ø§ÙĨ
ĠÙ¾Ø§Ø± Ø³Ø§ÙĦ
ĠØª Ø§ÛĮÙħ
ĠØ§Ø³ Ú©Ø±ÛĮÙ¾Øª
Ø³ ÙĪØ§Ø±ÛĮ
ĠØ§Ø´ØªØ¨Ø§Ùĩ Ø§Øª
ĠØ¨ØŃ Ø±Ø§ÙĨÛĮ
j ect
ĠÙħÙĦ Ú©Ùĩ
Ø§Øª ÙĪØ±ÛĮ
ĠØ± ÙĨ
ĠØ§Ø±Ø§ Ø¯Ùĩ
ĠØªØ£Ø«ÛĮØ± Ú¯Ø°Ø§Ø±
ĠØ² Ùĩ
ĠØªØ¹ ÙĤÛĮØ¨
Ġd e
ĠÙĩÛĮÙĪÙĨØ¯ Ø§ÛĮ
ĠØ§ÛĮÙħ Ø§ÙĨ
A R
ĠØ¨ ÙĨØ¯Ùĩ
Ø§Ø± ÛĮØ¯
ĠØ¢Ø´ Ù¾Ø²ÛĮ
ĠÙĪ Ø¬
Øª Ú©
ĠÙ¾ Ø§Ø´
ĠÙģØ± Ùĩ
ĠØ±Ø¶ ÙĪÛĮ
ĠÛ±Û³Û ±Û
ĠÙĤØ¯ Ø±Ø¯
ĠØ³ ÛĮÚ©
ĠØªØ² Ø¦ÛĮÙĨ
ĠØ®ÙĪØ§Ùĩ Ùħ
ĠØ¯Ø±Ø¢Ùħ Ø¯ÙĩØ§ÛĮ
ĠÙĨÛĮ Ø³Ø§ÙĨ
ĠØ¶Ø± Ø¨Ø§ÙĨ
ĠØ¯Ø±Ø¯ Ø³Ø±
Ú©Ø±Ø¯ ÛĮÙħ
ĠÙĦØŃØ¸ Ø§Øª
ĠØ¨Ø± Ú¯Ø±ÙģØªÙĩ
ÙĩÙħ Ùĩ
ÙĪÙħ ØªÛĮ
ĠÙĨ Ø§Ø¯
ĠÙĤ Ø´
m ent
ĠØ¯ÛĮ ÙĪØ§Ø±Ùĩ
Ġ6 0
ĠÙĤØ§Ø± ÚĨ
Øª ÙĪÙĨÙĩ
ĠØªÙĦÙģ Ø§Øª
ĠÚĺØ§ÙĨ Ø±
ĠÙħÙĤØ¯Ùħ Ø§ØªÛĮ
ĠÛ±Û¹Û¸ Û°
ĠØ¨Ø§ÙĦ ÛĮÙĨÛĮ
ÙĨØ¯ ÙĪ
ĠØ³ÙĨ Ø§ØªÙĪØ±
Ø§Ø³Øª Ø§ÙĨ
ĠÙĩ ÙĪÙĦ
Û±Û ±
Ø¦ ÙĪØ³
ĠÙĨØŃ ÙĪ
ĠÙģØ±Ø¢ ÛĮÙĨ
ĠÙ¾ ÛĮÙĨ
ĠÙħØ§Ø³ Ø§Úĺ
ĠÙĤ ÛĮØ¯
ĠÙ¾ÙĪØ´ ÛĮØ¯ÙĨÛĮ
ĠÙħÚ©Ø§ÙĨÛĮ Ú©
ĠØªÙĪ Ú©ÛĮÙĪ
ĠØ± ÙĨÙĪ
ĠÙĦÙĪ Ú©
ĠØªÚ© ÙĦÛĮÙģ
ĠÙħÙĤØ¯Ùħ Ùĩ
ĠØªØ±Ø³ ÛĮÙħ
Ú©Ø³ ÙĪÙĨ
ĠØ¯Ø±Ø§ÛĮ ÙĪ
Ø® ÙĪØ±ÛĮ
Ġ on
ĠØ¨ ÙģØ±Ø³Øª
ĠØ§Øµ Ø±Ø§Ø±
ĠÙģ Ø±ÛĮØ¨
ĠØ¨ ÙħØ§ÙĨÙĨØ¯
ĠÙģØ§Ø¶ÙĦ Ø§Ø¨
ĠÙĤØ¨ ÙĪÙĦÛĮ
ĠÛ±Û¸ Û¸
ĠØ´Ø§ÛĮ Ø³ØªÙĩ
Ø§ÛĮ Ù¾
ĠØ²ØŃ ÙħØª
Ø¨ ÙĨÛĮ
ĠØ¨ÙĨØ§ ÙĩØ§ÛĮ
Ø² Ø§ÙħÛĮ
ĠÙĪ Ú©
ĠÙĨØ¸Ø± ØªØ§ÙĨ
ĠÙĨÚ¯Ø± Ø´
ĠÙ¾ Ø§Ø¦
Ø¨ ÙĦÙĨØ¯
ĠØ¨Ø§Ø²ÛĮ Ú¯Ø±ÛĮ
ÙĪÚ©Ø§Ø± ÙĩØ§ÛĮ
ex t
ĠÙħÙĦØ§ØŃ Ø¸Ùĩ
ĠØ¯Ø³Øª Ú¯ÛĮØ±ÛĮ
ĠÚ¯ ÙĪØ¯
ÛĮ Ø§Ø¨ÛĮ
ĠØ¯Ú©ÙĪØ± Ø§Ø³ÛĮÙĪÙĨ
ĠØ³ØªÛĮ Ø²Ùĩ
Ø¹ÛĮ Ø§ÙĨ
ĠØ§Ø¨Ùĩ Ø§Ùħ
ĠØ§ÙģØªØ§Ø¯ ÙĨ
ĠØ¹ Ø§Ø¯ÙĦ
Ø® ÙĪØ´
Ø¬ ÙĨÚ¯
ĠÙģ Ø§ÙĨØª
Ø®ÛĮ Ø²
ĠØ® Ø´ÙĨ
Ø¯ Ø³ØªÛĮ
ĠØ³ÙĦÙĪ ÙĦÛĮ
ĠØ¨Ø§ Ø®Øª
ĠØ§ÛĮÙĨ Ùģ
ĠØ±Ø³Ùħ ÛĮØª
ĠØ¨ÙĦÙĨØ¯ ÙħØ¯Øª
ĠØ§Ø³ Ú©ÛĮ
ĠØ¯ÛĮÙĪØ§ÛĮ Ø³
ĠØ¢Ø± Ø§ÙħÛĮ
ĠØº Ø±ÛĮØ¨
ĠÚ© Ø¨Ø¯
Ùģ ÛĮÚ©
ĠØ§Ùģ ÙĤÛĮ
ĠØ¨Ø§Ø²ÛĮ Ø§ÙģØª
S L
ĠÙħØŃ Ø§Ú©
ĠÚ¯ Ø§Ø±Ø¯
ĠØ²ÛĮØ¨Ø§ ØªØ±ÛĮÙĨ
Û°Û ³
ĠØ±Ú© ÙĪØ¯
ĠØŃØ§Ø¦ Ø²
ÛĮÙĨ ÙĪØ³
ĠØ³ÙħÙĨ Ø§ÙĨ
ĠØ¯Ùģ ÙĨ
ĠÙģ Ø§Ø·
ĠÛ¹Û ²
Ø¹Ø¨ Ø§Ø³
Ø³Øª ÙĨ
ĠØªØ± ÙĪØ±
ĠØ§Ø· Ø±Ø§ÙģÛĮ
ĠÙĤ Ùģ
ĠÙħÙĨØª Ø®Ø¨
ĠØ¢ÛĮØª Ùħ
ĠÙĩ ÛĮØª
ĠØº Ø±ÛĮ
ĠÙħ Ùī
ro m
ĠÙĨÛĮ ÙĪØªÙĨ
ĠØ§ÙĦÚ¯ÙĪ ÙĩØ§ÛĮ
Ø« Ùĩ
ĠÙħÚ©Øª Ø¨
ÙĦÛĮ Ú©Ø³
ĠÙĨ Ø§ÙĤ
ĠØ¯Ø³Øª Ø§ÙĪØ±Ø¯
ĠØ¨Ø±Ø³ Ø§ÙĨÙĨØ¯
ÙĦÛĮ ÙħÛĮ
ĠÙĩÙĪØ´ÙħÙĨØ¯ ÛĮ
ĠØ¨Ø³Øª ÙĨ
ĠØ¨Ø²Ø± Ú¯Ø±
ĠÚ©Ø§ Ø´ÛĮ
ĠÙħÛĮ Ú©ÙĨÙĨ
ĠÙħÙĤ Ø§ØµØ¯
ĠØ¸ Ø±ÙĪÙģ
ĠØ´Ø±Ú©Øª ÙĩØ§ÛĮ
ĠØªØ¹ Ø§
ĠÙħØ¨ÙĦ ØºÛĮ
ĠØ¨Ø¯ ÛĮØ¯
ĠÙĨ Ø§Ø²ÛĮ
Øª Ø§Ø±ÛĮ
ĠØ¢ÙħØ¯ ÙĨØ¯
ĠÙĩÛĮØ¯Ø±ÙĪ ÚĺÙĨ
ĠØ§Ø¨Ø²Ø§Ø± ÙĩØ§
Ø³ ÙĪÛĮ
ĠØ¨ÙĦ ÙĨØ¯ÛĮ
ĠØªÙĪØ§ÙĨ ÙħÙĨØ¯ÛĮ
Ø®ÙĪØ± ÙĨØ¯
ĠÙ¾ÙĨØ¬ ÙħÛĮÙĨ
âĢĮâĢĮ âĢĮâĢĮ
ĠØªÛĮØ± Ø§ÙĨØ¯Ø§Ø²ÛĮ
ĠØ±ÙĪØ² Ú¯Ø§Ø±
Ø§Ùħ ØªÛĮ
ĠØ¨Ø¯ Ø§ÙĨÙĨØ¯
ĠÙħØ¶ Ø±
ĠÚ© ÙĪØ±Øª
ĠÙħ ÚĨ
ĠØ¢ Ø¬
ĠØ³ Ø³
ĠÙ¾ Ú©ÙĨ
ĠØ¢ÙĨ ØªÙĨ
ĠØ¹Ùĩ Ø¯
ĠØ¨ÛĮ Ø§Ùħ
ĠÛ´ Û¶
ĠÙħØ±Ø³ ÙĪÙħ
ĠØº Ø§ÙĦØ¨
ĠØ³Ø§ÙħØ§ÙĨ Ø¯ÙĩÛĮ
ĠØ¨Ø¯ÛĮÙĩ ÛĮ
ĠØ´ ÙĪÙħ
R M
ĠØ¢ÙĪØ±Ø¯ ÙĨØ¯
ĠØ§Ùħ ÙĪØ§ÙĦ
ĠÙĩ Ø§Ø±ÙĪ
ĠÚ©ÙħØ±Ø¨ ÙĨØ¯
ĠÚ©ÙĪØ± Ùĩ
ĠÙħÙģ ØµÙĦ
ĠØ¨Ø§Ø² Ø¯ÙĩÛĮ
at a
ĠØŃ Ø±ÙģÛĮ
ĠØ®ÙĪØ§ÙĨ ÙĨØ¯Ú¯Ø§ÙĨ
ĠÙĤØ± Ùĩ
ÙĨØ¸ Ø§ÙħÛĮ
ĠØ§ÙĤØ¯Ø§Ùħ Ø§ØªÛĮ
ĠØŃÙĪØµ ÙĦÙĩ
ĠØ§Ùħ ÛĮÙĨ
ĠØ¹ Ø§ÙħÙĦÛĮ
u g
Ø§Ùħ Ú©Ø§ÙĨ
ĠØ¬ÙĪØ± Ø¬
I S
ĠØ°Ø® Ø§ÛĮØ±
ĠØ¯Ø§ÙĨØ³Øª ÙĨ
ÙĪØ² ÛĮØ±
ab le
ĠÙģØ± Ø¹ÛĮ
ĠØªÙĪØ± ÙĩØ§ÛĮ
ĠØ¨Ø®ØªÛĮ Ø§Ø±ÛĮ
1 9
ĠØ³ÙĨÚ¯ Ø§Ù¾ÙĪØ±
ÛĮÙĨ Ø§ÙħÙĩ
ĠÛ¹Û ´
b er
ĠÙħÙĨ Ø¸Ø±
ou n
ĠÛĮÙĪÙĨ Ø³Ú©ÙĪ
ĠÙħØ´Øª Ø§ÙĤ
ĠØªÙĦÙģ ÛĮ
ĠØ®ÙĨ Ø«ÛĮ
Ø± Ø¶Ø§
ĠÙħØ¹ Ø§Ùģ
ĠØ¢Ù¾ Ø§Ø±ØªÙħØ§ÙĨ
ĠØ¨ ÙĪÙĦ
ĠØ³ Ø§ÙĨØª
ĠØ¶ ÙĦ
ĠÙħØŃÙħ ÙĪÙĦÙĩ
ĠØ§Ø³Øª Ø§ÙĨÛĮ
ĠÚ©ÙĦÙħ Ø¨ÛĮØ§
ĠØªØµ Ø§ØŃØ¨
ĠØ¨Ø±Ø§Ø¯Ø± Ø´
ĠÛµ Û´
ĠÙĩ Ø§Ùħ
ĠÚ¯Ø± Ø³
ĠØ¢Ø±ÚĺØ§ÙĨØª ÛĮÙĨ
ĠØ§ÛĮÙĨ Ú©Ø§Ø±
ĠØ¯ Ø²
ĠP C
Øª Ø¹
ĠÙ¾Ø³Ø± Ø´
ĠÛ±Û¹Û· Û°
ĠÙħØ¯ Ø§Ø®
ĠØ§Ø¹ ÙĦØ§ÙĨ
ĠÙħØ¨Ø§Ø± Ø²
e ch
ĠØ§Ø³Øª ÛĮØ´ÙĨ
ĠØŃÚ© ÙĪÙħØªÛĮ
ĠÛµ Û²
Ø±ÙĪ ÛĮØ¯
ĠÙĨ ÙĪÛĮØ²
ÛĮØ± ÙĪ
ØªÙĪÙĨ ÛĮØ¯
ĠØ¢ ÙĤ
ĠÚ¯Ø±Ø¯Ø´ Ú¯Ø±
ĠØ¬Ø§Ø³ ÙĪØ³ÛĮ
ĠÙĩØ³Øª Ø´
ĠØ®Ø· Ø§ÛĮ
ĠÙħØªÙĪ Ø§ÙĦÛĮ
ĠØªÙĪ Ùħ
ĠÙĨØ´ ÙĪÙĨØ¯
ĠÙħÙĪØ´ Ú©ÛĮ
ĠØªØ± ÙħÛĮÙħ
ĠÙĤØ· Ø±Ùĩ
ĠÛ±Û³Û¹Û ·
ĠÙħØ®Ø§Ø· Ø¨ÛĮÙĨ
ĠØªÙĤØ¯ ÛĮØ±
ĠÙĦØ· ÙģØ§
ĠØªØ§Ø¨ Ø³ØªØ§ÙĨÛĮ
ĠØ§ÙĤ ÙĪØ§Ùħ
ĠâĢĭ âĢĭ
ol d
ow er
A T
ĠÙħÚ¯Ø§Ù¾ ÛĮÚ©Ø³ÙĦ
ĠÙĦ Ø§ÙĨ
ĠÚ©Ø± Ø³ÛĮ
Ø±Ø§ ÙģØª
om e
ĠÙ¾ÛĮÙĪØ³Øª ÙĨ
Ø§ÙĤ Ø¨
ĠÙ¾Ùĩ Ù¾Ø§Ø¯
ĠÙĨØ§Ø® ÙĪØ¯
ĠÙĨØ´ ÙĪÛĮØ¯
Ø±Ùħ Ø§Ùĩ
ĠØ¬Ø§Ùħ Ø¯
ĠÙħØ§Ø¯Ø± Ø§ÙĨ
ĠÙģØ±Ø§ÛĮÙĨØ¯ ÙĩØ§ÛĮ
ĠØªØ§ ÚĨ
ĠÚĨ Ø±Ùħ
ĠØª Ø®ØªÙĩ
ĠØ³ Ø§ÙĤ
ĠØ§Ø³ Ø§ÙħÛĮ
ĠÙħØ´ØªØ± Ú©Ø§ÙĨ
ĠÙĦØ§ Ø³ØªÛĮÚ©
Ø±ÙĪ Ø¨
ĠØºØ° Ø§Ø®
Ø§ Ø¸Ø±
ĠÙĨØ´Ø³Øª ÙĨ
) Â»
ĠØµ Ø±Ø§ÙģÛĮ
ĠÙħØ¹ÛĮ Ø§Ø±ÙĩØ§ÛĮ
ĠØªÙĪ ÙĤÛĮ
in k
ĠÚ© ØªÛĮ
ĠØ¨ Ø¨ÙĨØ¯
c ess
ĠØ§Ø³Øª ÙĪØ±ÛĮ
ĠÙħÙĩ ÙĦØª
ĠÙģØ±ÙħØ§ÙĨ Ø±ÙĪ
ĠÙĦ Ø§Ø²
ĠØ§ Ø¨ÛĮ
ĠØ§Ùģ Ø´Ø§
ĠÙħÙĩØ± Ùĩ
o k
ĠÙħÙĨØ§Ø· ÙĤÛĮ
ĠØº Ø¨Ø§Ø±
ĠØ¨Ùĩ Ø´Øª
ĠÙ¾Ø§Ø³ Ø¯Ø§Ø±Ø§ÙĨ
ĠØ®Ø¨Ø± ÙĩØ§ÛĮ
ĠØ¨Ø±Ø§ÛĮ Ùħ
ĠØ¨Ø²Ø± Ú¯Ø§ÙĨ
ĠÚ©Ø§Ø±ÙģØ± ÙħØ§
ĠÙħÙĪ Ùģ
ĠÙĤ Ø´Ø±
ĠÚ©ÙĨ Ø³
ĠØªØ§ Ø´ÙĪ
ĠÙĪ Ø§Ø¯Ø§Ø±
ĠÙĨØ§ÙĨ ÙĪ
ĠÙĨØ§Ø§Ùħ ÛĮØ¯
ĠØ³ ÛĮØ±ÛĮ
ĠâĢ ¢
ĠP r
ĠØ¨ ÙĪØ¦
ĠØ¨Ùĩ Ú©
ĠÙĤØ¨ÛĮÙĦ Ùĩ
ĠÚ©Ø´Øª ÙĨ
ĠØ¹ÙĪ Ø§ÙħÙĦÛĮ
ĠØªÙĪØ§ÙĨ ÙħÙĨØ¯
ÛĮØ´ ÙĨÛĮ
Ġ1 7
ĠØ§Ø³Ø§Øª ÛĮØ¯
ĠÚ¯ÙĪØ§Ùĩ ÛĮÙĨØ§ÙħÙĩ
ĠÙħÛĮ Ø³Ø±
ĠÙĨ Ø²
ØªØ± ÙĩØ§
Ù¾ Ø´Øª
ĠØ¨Ø±Ø§Ø¯Ø± Ø§ÙĨ
l l
ĠÚĨ Ø§Ø±Ùĩ
en ce
ÙĪ Ø¬Ùĩ
ĠØ¢ÙĨ Ø§ÙĦÛĮØ²
re e
ĠØ¨Ø±Ø¯Ø§Ø´Øª ÙĨ
ĠØ³Ø±Ø¯ Ø§Ø±
ĠÙĤØ§Ø¨ ÙĦÛĮØªÛĮ
ĠÚ©Ø´Øª Ø§Ø±
ĠÛ¸ Û¶
ĠÙĨØ§Ùħ ÛĮØ¯
Ø± ÙģØªÙĩ
ĠÚ¯Ø± Ø¯Ùĩ
ĠØ³ ÙĨÛĮÙĨ
ĠÙģØ¶Ø§Ù¾ ÛĮÙħ
ĠØ±Ø§ÙĩØ¨Ø±Ø¯ ÛĮ
ĠØ¨ÛĮÙĨ ÙĨØ¯Ùĩ
Ø¬ ÙħÛĮ
ĠÙĩÚ©Ø± ÙĩØ§
ĠÚ©Ø± Ø¬
ĠØ¨ÙĨ Ú¯Ø§Ùĩ
ĠÙ¾ÛĮ Ø§ÙħÛĮ
ĠÚ¯Ø±ÙģØª ÛĮÙħ
ĠÛĮØ§ÙģØª ÙĨØ¯
ĠØ§Ø®ØªÙĦØ§Ùģ Ø§Øª
ĠØ¨Ùĩ Ø§Ø¯Ø§Ø±
Ø§Ø¦ ÙĦÛĮ
ĠÙĨÙĪØ² Ø¯ÙĩÙħ
Ø´ÙĨØ§Ø³ ÙĨØ¯
ĠØ¨ Ú¯Ø°
ĠÙħÙĤ Øµ
ĠÙĨØ§ ÚĨØ§Ø±
a w
Ø³ Ø±Ø§
Ø¦ Ø§ÙĦ
ĠÚ© ÙĪÛĮØª
ĠØ¹ ÙĤØ¯
ĠØ§Ø³Ø±Ø§Ø¦ ÛĮÙĦÛĮ
ĠÙħÛĮ Ø´ÙĪÙĨØ¯
ĠÙĦ Ø´Ú©Ø±
Ø§ÙĦ Ø§
Ø§ÛĮ ÙĨØ¯ÛĮ
ĠØ¨Ø± Ø§ÙĨÚ¯ÛĮ
ĠÙĨÛĮØ³Øª Ùħ
ĠÛµ Û¶
ĠÙĨÙĪØ¨ ÙĦ
ĠØ¨Ø§Ø²ÙĨØ´ Ø³ØªÚ¯ÛĮ
ĠØ¨ÙĦÙĪÚĨ Ø³ØªØ§ÙĨ
ĠØ¯Ø³Øª ÙħØ²Ø¯
ĠØ§Ø± Ø¬Ø§Ø¹
ĠØ§Ø¯Ø± Ø§Ø±
ĠØªØµÙĪÛĮØ± Ø¨Ø±Ø¯Ø§Ø±ÛĮ
ĠÙ¾ ÙĪÙĨØ¯
ĠÙĨØ´Ø§ÙĨ Ú¯Ø±
ĠØ¨Ø²Ø±Ú¯Ø± Ø§Ùĩ
ĠØ³ Ø¯Ø§ÙĨ
S M
ĠØ§Ø±Ø§ Ø¶ÛĮ
ĠØ¬ ÙĨØ¬
ĠÚ©ÙĦ Ø³ÛĮÙħ
Ø¯ Øª
al ax
ÙĪÙĨ ÙĤÙĦ
ĠÙĤÙģ Ø³Ùĩ
ĠØ§ÙĨ Ú©Ø§Ø±
ĠÙĩ Ø§Ø¦ÛĮ
ĠÚ©ÙĪ Ù¾Ø±Øª
ĠØª Ø±Ùģ
Ø· Ø§ÙĨÛĮ
ĠØ¹ Ø¨Ø§Ø³ÛĮ
ĠØ§Ø¬ ÙĦØ§Ø³
ĠÙħØ³Ø¦ÙĪÙĦ ÛĮÙĨ
Ø¬ ÙĪØ±
ĠÙħØ¹ Ø§ÛĮ
ĠÛĮØ§Ø± Ø§ÙĨÙĩ
ĠÛ· Û²
ĠØº Ø±ÙģÙĩ
ĠÙħ Ø§Øª
Ø¶ Ø±
ĠØ¨Ø¯ ÛĮÙħ
ĠÙħÙĨ Ø§ÙĤ
ĠØ¯Ø§ Ø¹Ø´
ĠØ¬Ùħ ÙĦØ§Øª
Ø¯Ø§Ø¯ ÙĨ
ĠÙĨØ§ Ú¯ÙģØªÙĩ
Ø´Ùħ Ùĩ
ĠÙģØ±Ø¶ ÛĮÙĩ
alax y
Ú¯Ø° Ø´Øª
or y
ĠØ®Ø² Ø§ÙĨÙĩ
ĠØ¯Ø±Ø¢Ùħ Ø¯ÛĮ
ĠØ§ÙĦÙĩ ÛĮ
ĠØº ÛĮ
ÙĤ ÙĦÛĮ
ĠÙģ ÙĨØ¬Ø§ÙĨ
ĠØ¨Ø§Ø± Ø²
ĠØ¢Ø° Ø±ÙħØ§Ùĩ
ÙĪÙħ ØªØ±
Øª ÛĮÙħ
ĠØ±ÛĮØ§Ø¶ÛĮ Ø§Øª
Ùģ Ú©Ø±
ĠÙĤØ±Ø§Ø± Ú¯ÛĮØ±ÛĮ
Ùħ Ø±Ø¨
ĠØ¨ Ù¾ÙĪØ´
Ú©Ø´ ÛĮØ¯
ÚĨÛĮ Ø²ÛĮ
ĠQ u
ĠØ¹Ùħ Ø§Ø±Øª
ĠÙħ Ø§Ø¯ÛĮ
ĠØ´ÙĨ ÛĮØ¯
Ø¸ ÙħÛĮ
ĠÙĪÙĤ ÙģÙĩ
Ø± ÙĪÙĨ
ĠØºØ° Ø§ÙĩØ§
ĠÙģÙĨ ÙĦØ§ÙĨØ¯
ĠØ² ÛĮÙĨ
Ùģ ÙĨ
ÚĨÙĩ Ø§Ø±
ĠØ¨ ÙĦÛĮØª
ĠØ¨ÙĦ ÚĺÛĮÚ©
ĠØ¯Ø§Ø¯ Ø³ØªØ§ÙĨ
Ù¾ÛĮ ÚĨ
ĠØ³Ø§ÙĦÛĮ Ø§ÙĨÙĩ
ĠL CD
ĠÙħ Ø±ÙĪ
ĠØªØ·Ø¨ÛĮ ÙĤ
Û°Û ¹
Ø¬Ø§ÙĨ Ø¨Ùĩ
ĠØ¨Ø²Ø±Ú¯Ø³Ø§ÙĦ Ø§ÙĨ
Ø§Ø¨ ÙĪØ±
Ø²ÛĮ Ø³ØªÛĮ
ĠD NA
ĠØ§Ø° ÛĮØª
Û ķ
ĠØ¯Ø§Ø´Øª ÛĮØ¯
ĠÛĮ ÙĪÚ¯
ĠÙģÙĦ Ø§ÙĨ
ĠÚ¯Ø°Ø± Ø§ÙĨØ¯ÙĨ
Û¹ Û°
ĠØ¢Ø±Ø§ÛĮ Ø´ÛĮ
ĠÙħØµØ· ÙģÛĮ
ĠØªØ¯Ø§Ø± Ú©
ĠØ§Ø¹ Ø¸Ùħ
Ġy ou
Ø±ÛĮ Ø¶
ĠÙħÛĮ Ø¯ÙĪÙĨ
Øµ Øª
ĠØ§Ø³ Ú©ÙĨØ¯
ĠØŃÙħ ÛĮØ¯
ĠÙĨÙħØ§ÛĮØ´ Ú¯Ø±ÛĮ
ĠC on
ĠÙħÙĪ Ø§Ø²ÛĮ
M I
Ø¨ ÙĦØª
ĠØªÙĪ Øª
ĠØ´Ú©ÙĦ Ø§Øª
ĠØ³Ø§Ø³ Ø§ÙĨÛĮ
ĠÙģØµ ÙĦÛĮ
ĠØ§Ø¨Ø¯Ø§ Ø¹
ĠÙ¾Ø§ÛĮ Ø§ÙĨÙĩ
ØªÙĪØ¬Ùĩ ÛĮ
Ú¯ÛĮØ± Ø§ÙĨÙĩ
ĠÙħÙĪØ³ ÙĪÛĮ
ĠÙħØ¹ÙĨ Ø§Ø³Øª
ĠÙ¾Ø±ÚĨÙħØ¯ Ø§Ø±Ø§ÙĨ
ĠØ¨Ø± Ù¾Ø§
ĠØªÙĪÙĨ ÙĦ
ĠÚ©ÙħØ§ Ú©Ø§ÙĨ
ĠØ¢ Ø±Ø¯
Øº Ø±ÛĮ
ÙħØ§ Ø³ÛĮ
ĠØ¬Ø¯ÛĮØ¯ Ø´
ĠÙĩ Ø±ÛĮÚ©
ÛĮØ´ ÛĮ
Ø¯Ø§ÙĨ Ø´
ĠÙħØ§ÙĨØ¯ Ú¯Ø§Ø±
ÙĪÙĦÙĪ ÚĺÛĮÚ©ÛĮ
ĠØªÙĪÙĤÛĮ Ùģ
ĠØ· ÙĨØ²
Ø®ÙĪ Ø§Ø¨
ac h
ĠÙĨ Ø¨Ø§Ø´ÙĨØ¯
T he
ĠØ§ÙĦ ÙĨ
ĠÙģØ±Ø¯ ÙĪØ³ÛĮ
9 0
ĠÛĮ Ø§Ø²Ø¯Ùĩ
ĠØ¨ÛĮØ§ÙĪØ± ÙĨØ¯
ĠÚ©ÙĪØ´ Ø´
ÛĮ Ø§Ø¯
ĠÙħÙĨØ¸ ÙĪÙħÙĩ
ĠØ¬ Øª
ĠØ¯Ú© ØªØ±ÛĮ
ĠÛ±Û°Û ¸
ĠÙħÙĩØ§ Ø¬Ùħ
ĠÙĨ Ø¯ÙĩØ¯
ĠØ±ÙĪ Ø§ÙĦ
ĠØªÚ© ÙħÛĮÙĦÛĮ
ĠÙħØŃØªØ± Ùħ
Ġ &
ĠÙħÙĪØ±Ø¯ ÛĮ
ĠØªØ³ Ø±ÛĮ
e e
ul l
ĠØªÙħØ§ÛĮ Ø²
ĠØªØŃ ÙħÛĮÙĦ
ĠÚ¯ Ø´
ÙĤØ§ Ø¹Ø¯
ĠØ¨Ø± Ú¯Ùĩ
ĠÙĤØ¯Ø±Ø¯ Ø§ÙĨÛĮ
ĠÙĪÛĮØ± Ú¯ÙĪÙĦ
ĠÙĩÙģØª Ú¯ÛĮ
ĠÙ¾ Ø®ØªÙĩ
ĠØ§ÙĨØ¬Ø§Ùħ ÛĮØ¯
ĠÙ¾Ø± ÛĮÙĨ
ĠÙħ Ø²Ø§Ø±
ĠI D
Ú¯ ÙĪØ´
ĠÙĩØ§ÛĮ Ø´Ø§ÙĨ
ĠÙĨÙħÙĪØ¯ ÙĨØ¯
ĠÛµ Û¸
ĠÙ¾Ø±Ø¯Ø§Ø®Øª ÙĨØ¯
ĠÙĩÙģØª Ø§Ø¯
ĠÚ© ÙĪØ¨
ĠØ¹ ÙħØ§ÙĨ
ĠØ³ÛĮÙĨ Ø§
ĠÙĨ ÛĮÙĨØª
ĠØ¬ ÙĨØ§
ĠÙħÛĮ Ú©Ø±Ø¯Ùħ
ĠÙħØ³ Ø§Ø¦ÙĦÛĮ
Ø§ÙĤ Ø¹ÛĮ
ĠÙ¾ÙĪØ´ Ùĩ
ÙĦ Ú©
ĠÙħØ¨ Ø¯ÙĦ
Ø§ÛĮ Ø§
D R
Ã Ĺ
ĠØ¯Ø§ÙĪØ· ÙĦ
ĠÙħÛĮ Ú¯ÙĪÛĮÙĨØ¯
ĠÚ¯Ø±Ø¯ ÙĪ
ĠØ§ÙĤØ§ÙħØª Ú¯Ø§Ùĩ
ĠÙħØ´ÙĩÙĪØ± ØªØ±ÛĮÙĨ
ĠØ§ÛĮÙĦ Ø§Ùħ
ĠÙĤØ± ÙĪÙĨ
ĠØ¨Ø§Ø²Ú¯ Ø´Ø§ÛĮÛĮ
ĠØ® Ø²Ø±
ÙħÙĦ Ú©
ĠÚĺ ÙĪØ±ÙĨ
ÙĦØ§ ÙĤ
ĠÙ¾Ø±Ø³ ÙĨÙĦ
Ø¬Ø§Ùħ Ø¯
ro id
Ù¾Ø§ Ø´ÛĮ
ĠØ²ÙĨ Ø§ÙĨÙĩ
ĠØ¯ÛĮ Ø§ÙģØ±Ø§
ĠØ¬ÙĨÚ¯ ÙĦÛĮ
ak e
ĠÙģÙĪ Ø§ÛĮØ¯
ĠÙĨÙħÙĪØ¯ ÙĨ
ĠÙĨÙĩØ§ Ø¯Ùĩ
ĠØ¹ Ø§ÛĮÙĤ
et t
ÙĪ Ø¶
ing s
ct ion
ĠØ¹Ùģ ÙĪÙĨÛĮ
ĠÙ¾ÛĮ ØªØ±
Ø¨Ø§Ø± Ø§ÙĨ
ĠØ±Ø§Ùĩ ÙĨÙħØ§
ĠS SD
ĠØ¹Ùħ Ø±Ø§ÙĨ
ĠØ¯Ø§ ÙĪØ±ÛĮ
ĠÙĦØ± Ø³ØªØ§ÙĨ
ĠØ¹Ø¯ Ø¯ÛĮ
ĠÙĪ Ø®
ĠÙ¾ÛĮØ´ ÙĨÙĩØ§
ĠØ§ÙĤ ÙĦÛĮÙħÛĮ
or s
ĠÙĦÛĮ Ø¨ÛĮ
ÙĨ Ø§ÙĦ
ĠÙĪØ§ÙĤ Ø¹Ùĩ
Ø³Ø§Ø² Ø§ÙĨ
ĠØ¹ÙĦ ÙĨÛĮ
ĠÙħØ§Ø¯ Ø±ÛĮ
ĠÙħÙĪÙģ ÙĤÛĮ
ĠØ¨ ÙĨÚ¯
ĠØ¢Ø« Ø§Ø±ÛĮ
ĠØ¢Ø¦ ÙĪØ¯ÛĮ
2 1
ĠÙĤ Ø§ÙĦÛĮ
ĠÙħÛĮ Ú¯Ùĩ
ĠÚ¯ÙĪ Ø¬Ùĩ
ĠÙģØ± ÙĤÛĮ
ÛĮÙħ ÙĨ
Ú© Ø¯
ĠØ¯Ø§Ùħ ÙĨ
ĠØ§Øµ ÙĪÙĦÛĮ
ĠÙģÙĤ ÛĮØ±
ĠØ§Ø¹Ø· Ø§
ĠØ¢ÙĦÙĪÙħÛĮÙĨÛĮ ÙĪÙħ
ĠØªÙĤÙĦ ÛĮØ¯
ĠØ·ÙĦ Ø§ÛĮ
ĠÛ±Û¹Û¶ Û°
Ù¾Ø³ ÙĨØ¯
Û±Û ³
ĠÙĨÛĮÙĨØª ÙĨØ¯ÙĪ
ĠØµØ§Ø¯Ø± Ø§ØªÛĮ
Ø³ Ø±Ø§ÛĮ
ĠØ²ÛĮØ± Ø²ÙħÛĮÙĨÛĮ
ĠÙĨÙĪØ´ ÛĮØ¯ÙĨ
Ġ =
ĠØ± ÛĮÙĦ
Ú¯ÙĪ Ø§Ø±
ĠÙ¾ÛĮØ´ Ø±ÙĪ
ĠØªØ± Ø§Ø¨
ĠØ³Ø±ÛĮØ¹ ØªØ±
ĠØ±ÙĪ ÙħÛĮ
ĠÚ©ÙĨ Ø¬Ú©
ĠÙĪØ§Ø³ Ùĩ
ĠØ§Ø±Ø¯ÙĪ Ú¯Ø§Ùĩ
ĠÚ©Ø¯ ÙĪÙħ
on g
ĠØ§Ø·Ø±Ø§ÙģÛĮ Ø§ÙĨ
ĠØ§Ø± Ú¯Ø§ÙĨÛĮ
av e
Ú¯ÙĪÛĮ ÛĮÙħ
ĠØ¹ÙĤ Ø§ÛĮØ¯
ĠØ±Ø§ Ø³ØªÛĮ
ĠÙħØª ÙĤØ§Ø¹Ø¯
Ø³ Ø§Ø·
ĠØ± Ø§ÙĨØ¯
ĠÚ©ÙĪÙĦ Ø±
ĠÚ©ÙĪÙĩ Ø³ØªØ§ÙĨ
ĠØ§Ø´ Ø¹Ùĩ
ĠØ§Ø³Øª Ø§Ø±
ĠÚ©ÙĨØ¯ ÛĮ
ÙĦØ± Ø²Ùĩ
ĠØ±ÙĤ ÙħÛĮ
Ø³ ÙģØ±
Ø² ÛĮØª
M L
Ø± ÛĮØ±
ĠÙħØ² ÙħÙĨ
ÙĨ ÙĪØ¹
Ø§ÙĨ ÛĮØ¯
ĠÙĤ Øµ
ul t
un d
ĠØ´Ø¹ ÙĦÙĩ
ĠØ§Øµ Ø§ÙĦØª
ĠØªÙħ ÙĪÙħ
ĠØªØ§Ø«ÛĮØ± ÛĮ
Øª Ø§ÛĮÛĮ
ĠØ¨ÛĮÙĨ Ø§ÛĮÛĮ
ĠÙħØµ Ø§ÙĦØŃ
ĠÛ· Û´
Û¹Û µ
ĠØ¢Ø²ÙħØ§ÛĮØ´ Ú¯Ø§ÙĩÛĮ
ĠÙĨØ§Ø® Ø§ÙĦ
ĠØª Ø±ÙĪ
ĠÛ¸ Û´
ĠØ¬Ø§Ø¨ Ø²
ĠÛ¶ Û·
ĠÙĪ ÛĮÚ©ÛĮ
ĠØ§ÙĦ Ø¬Ø²
ĠÙĨØ§Ø®ÙĪØ¯ Ø¢Ú¯Ø§Ùĩ
Ø±Ø³ ÛĮÙħ
ĠÙĪØ§ÙĦÛĮ Ø¨Ø§ÙĦ
ĠØ§ÙĦ Ø¯ÛĮÙĨ
Ø®ÙĪØ±Ø¯ Ú¯ÛĮ
ĠÙĨØ§Ø® ÙĪØ´
ĠØªØ±ÛĮ ÙĦØ±
Ø§Ø¯ Ø§Ø±ÛĮ
ĠÙĨØ¸ Ø§Ø±ØªÛĮ
ĠÙĨ Ú©ÙĨÛĮÙħ
ĠÙĨØ¸Ø§ÙħÛĮ Ø§ÙĨ
ĠÚĨ Ø§ÙĤÛĮ
Ø³ Ø§Ø¨ÙĤÙĩ
ĠA nd
Ù¾ÙĦ ÙĪØ¯
ĠØ¯Ø³Øª Ø§ÙĨ
Ø³Ø§Ø² ÙĨØ¯
ĠÙħØ§Ùħ ÙĪØ±Ø§ÙĨ
ig n
ĠÙģØ±Ø§ Ø®ÙĪØ§ÙĨ
ĠØºØ°Ø§Ø® ÙĪØ±ÛĮ
ĠØ¨ Ú©ÙĨÛĮØ¯
ĠÛ±Û³Û¸ Ûµ
ĠØµÙģ ÙĪÛĮ
ĠØ® ÙħÛĮØ¯Ùĩ
ĠÙħØ² Ø§ØŃ
ĠØ¨Ø± ÛĮÙħ
ØªØ± Ø§ÙĨÙĩ
Ø± Ø§Ø¨
ĠØ¨Ø± ÙĪÛĮÙħ
ĠØ³ ÙģØª
Ø¯Ø± ØµØ¯
ĠÚ©ÙĪ ÛĮØ±
Ùħ Ùħ
ĠÙħØªØ± Ø¬Ùħ
F C
ĠØ¢Ø¯ ÙħÛĮ
ĠØªÙĪØ¦ÛĮ ØªØ±
ĠØ¯ÛĮØ§ÙģØ±Ø§ Ú¯Ùħ
ĠÙĨÙħØ§ÛĮ Ø´ÙĨØ§ÙħÙĩ
Ø¢ ÛĮØ§
ĠÙĪØ§Ø±ÛĮ Ø²
ĠØ§ ÙĩØ±
ĠÚ©Ø§Ø± Ú¯Ø±ÙĪÙĩ
ĠÚ©ÙĪÙĩ ÙĨ
ĠÙĤØ§ Ø¹Ø¯
ĠÙĨÛĮØ³Øª ÛĮÙħ
ĠÙħÙĩ ÛĮØ§
ĠÙĩ Ø§ÙĨ
ÙĦÙĪ Ø¨ÛĮ
ĠÙ¾ Ø´
ĠØ§ØŃ ÛĮØ§
ĠØ§Ø³ØªØ¹ ÙģØ§
ĠØ§Ø¬ØªÙħØ§ Ø¹
r am
ĠÚ© Ø±Ø§
ĠØ®Ø± Ø§Ø¨ÛĮ
ĠØ¢ÙĪØ± ÙĨØ¯
ĠÛ³Û¶ Û°
ĠÛ±Û³Û¹Û ¶
ĠØ§Ø³ Ø¯
ĠØ§ØŃ ÛĮØ§ÛĮ
ĠM i
Ø§ÙĨÛĮ ÙĪÙħ
Ø± ÙĤ
ĠØ³ ÙĨØ§
ĠØªÙĪØ±ÛĮ Ø³ØªÛĮ
ĠÚ¯Ø±ÙģØª Ø§Ø±
ĠÙĩØ´Øª Ú¯
ÙħØ± Øº
ĠÙ¾ÛĮÚ© Ø±
ĠÚĨ ÙĨÚ¯
Ø´Ø¯ ÙĨÛĮ
ĠØ¢Ùĩ Ø³ØªÙĩ
ĠÙħØ¹ Ø·
ĠÛ±Û¸ Û·
ĠØ§ÙĨØ¯Ø§Ø®Øª ÙĨ
ĠØ¢ÙģØ± ÛĮÙĨ
ĠÙħØ¯ ÙĦÛĮ
ĠÙĦÛĮ Ø³Ø§ÙĨØ³
ĠÙĩ Ø§Ø¯ÛĮ
ĠØ¯Ø® ØªØ±ÛĮ
ĠØ´Ú©ÙĨ Ø¬Ùĩ
ĠØ§ Ø´ØªÛĮ
Ø§Øª Ú©
ĠØ¯Ø³Øª Ú©Ø§Ø±ÛĮ
it ion
ÙĨØ§Ùħ ÙĨØ¯
ĠÙħØŃØ§Ú© ÙħÙĩ
ĠÙĤØ§Ø¦ Ùħ
Ø® ÙĪØ±Ø¯Ùĩ
ĠÚ¯ ÙħØ§ÙĨÙĩ
ĠØŃ Ø§Ø¬ÛĮ
ĠØ² Ø¹
ĠØ®ÛĮØ± ÛĮÙĩ
ĠÚ©ÙħÙĪÙĨÛĮ Ø³Øª
ĠÙĨÙħ ÛĮØ´Ùĩ
Ø§ÙĦ Ùģ
ĠÙ¾ÙĪØ´ Ø§Ú©
ĠÙħ ÙĪÛĮ
ĠÙħÙĨ Ø§Ø¸Ø±
ĠØªØ¨ Ø¹ÛĮ
ĠÙħØªÙĤ Ø§Ø¨ÙĦ
ÙĨØ§ Ù¾Ø°ÛĮØ±
ĠÙħØ´Ø§ÙĪØ± Ø§ÙĨ
r ess
ÙģØª Ú¯ÛĮ
ĠÛ±Û¹Û¹Û ¹
ÙĦÛĮ ÙĪÙĨ
ĠØ¨Ø²ÙĨ ÛĮÙħ
ĠØªØ§Ø«ÛĮØ± Ø§Øª
ĠØ® Ø§Ú©ÛĮ
ĠØ§Ø·ÙĦØ§ ÙĤ
ĠÙĪØ§ØŃ Ø¯ÛĮ
ĠÙħ ÙħØª
Ø¢ ÙĦØ§Øª
ĠØ¨ÙĨÙĪÛĮØ³ Ùħ
ĠÙĤ ØµØ±
ÛĮØ³ Ùħ
Ùĩ ÙħÛĮÙĨ
ĠÙĨÙħ ÛĮØª
ĠÙĦ ÙĪÙħÛĮ
ÙĪ Ø¬ÙĪ
ĠØ¢ Ù¾ÙĦÙĪØ¯
Øª Øµ
ÙĦ Ø§ÙĨÛĮ
ĠÙħ Ø¨Ùĩ
Ø³ ÙĨÚ¯
ĠÙħ Ø²Ùĩ
ĠÚ©ØªÛĮ Ø¨Ùĩ
ĠØ¨ ÚĨ
ĠÙĪÛĮØ± Ø§ÙĨ
ĠØ§Ù¾ ØªÛĮ
ĠÚ©Ø§Ø³Øª Ùĩ
ÙģÛĮ ÙĤ
ĠÙ¾ÚĺÙĪÙĩØ´ Ú¯Ø±
ĠØ¨Ø¹ Ø¶Ø§
Ø¹Ø§ Ø¹
ĠÙ¾ÛĮØ¯ Ø§ÛĮØ´
ĠÚ¯Ø± ÙħÛĮ
ĠÙĨØ§ Ø®ÙĪØ§Ø³ØªÙĩ
ĠÙĨØ¹ ÙħØª
ĠØ§Ø±ÙĪ ÙħÛĮÙĩ
ĠÙĩ Ø®
ĠÚ¯ Ø§
Ø±ÛĮ Ø´
ĠÛĮÚ© ØµØ¯
Ø±Ø§ Ø³Øª
ĠØ¨ Ù¾Ø°ÛĮØ±
ĠØª Ú¯Ø²
Ø§ÛĮ ÙĨØ¯Ùĩ
ĠÙĪØŃ Ø¯Øª
Ø§ÙĦ Ø¨ØªÙĩ
ĠØ®ÙĪ Ø§Ø±
ĠÙĨÛĮ ÙĪØ²
ĠÙĩÙĨØ¯ÙĪ Ø³ØªØ§ÙĨ
S I
ĠØ¢ÙĨ Ø·ÙĪØ±
ĠÙħØ± ÛĮÙħ
ĠÚ© Ø§Ø²
ĠØ¨ÙĦ ÙĪÙħ
ÙĪØ¦ ÙĦ
Ø° ÛĮØ¨
ĠØ· Ø§Ùĩ
ĠÙĤ ÙĪÙħ
ĠØ¬ÙĪ Ø§Ø¯
Ø¢ÙģØ± ÛĮÙĨÛĮ
ĠØ² ÛĮØªÙĪÙĨ
ĠÙħØ§ÛĮ Ùĩ
ÛĮÙĨ Ø²
Ø´ÙĨ Ùĩ
ĠÙħØŃÙģ Ø¸Ùĩ
ĠØ§Ø´ØªÛĮ Ø§ÙĤ
Ù¾ Ø§ÛĮØ§ÙĨ
ĠØ¯Ùħ ÙĪÚ©Ø±Ø§Ø³ÛĮ
ĠØ¨Ø¯ Ø§ÙģØ²Ø§Ø±
ĠÙģ Ø¨ÙĦØª
ĠØ§Ø± Ø´Ø§Ø¯
ÙĪÙĦÙĪ ÚĺÛĮÚ©
ĠØ¢ÙħØ§Ø± ÙĩØ§ÛĮ
Ø³ ÙĦØ§Ùħ
ĠØ²Ø¯ ÙĨØ¯
ĠÛ· Û¶
ÙĪ ÙģÛĮ
ĠÚ© Ø±Ú©
Ø§Ø¨ ÙĪÙĨ
ĠÙ¾ÛĮØ± Ø§Ùĩ
ĠÛĮ ÛĮ
ĠÙģ Ø§ÙĨ
ĠÙ¾Ø°ÛĮØ± Ø§ÛĮÛĮ
Ø® ÙĪÙĨ
ic s
ĠØ³Ø± Ø³
Ø§ ÙģØªÙĩ
ĠÙħÙĦ Ø§ÛĮÙħ
ĠØ¯ Ø¹Ø§
ĠØ¨Ø®Ø´ ÛĮØ¯ÙĨ
Ø² Ø§Ø¨
ĠÙģØ±ÙĪ ÙĨØ¯
ĠØ´Ú©Ø³Øª ÙĨ
ĠØªÛĮ ØªØ±
ĠÙĨÛĮ Ø§Ùħ
ÙģØ± Ø§Ø¯ÛĮ
ĠÙĪØ±Ø²Ø´ Ú©Ø§Ø±Ø§ÙĨ
Ø¢ Ø¯
ĠØ³Ø±Ù¾Ø± Ø³ØªÛĮ
ĠØ§Ø³ØªØ¹ ÙĦØ§Ùħ
ĠØ· Ø§ÙĤ
ĠØ§ÙģØª Ø®
ĠØ¢Ø±Ø§ÛĮ Ùĩ
ĠØ§ÙħÛĮØ¯ ÙĪØ§Ø±ÛĮ
ĠÙĪØŃ Ø´
Ø§ÙĨØ³ ÙĪÙĨ
ĠÙĨØ¯Ø§Ø´Øª Ùħ
ĠÙħØ³Ø§ ÙĪÛĮ
ÙĨÙħØ§ÛĮ ÙĨØ¯
ÙĨÛĮÙĨ Ú¯
Ø·ÙĪØ± Ùĩ
ĠØ¨Ø® ÙĪÙĨ
ĠÙĪÛĮØ¯Ø¦ ÙĪÛĮ
ÛĮ ÛĮ
Ú© ÙĪÙĨ
ÙħØ« ÙĦØ§
ĠØ§ÙĨ Ø³
ĠØ§ÙĪ Ø¨Ø±
ĠØ° ÛĮ
ĠÙĦÙĪ Ú¯ÙĪÛĮ
ĠØ¢Ø¨ÛĮ Ø§Ø±ÛĮ
ĠØ¬Ø§ÙĨ ÙĪØ±Ø§ÙĨ
ĠØ¯Ø± Ø²
ĠÙħØ±Øª ÙģØ¹
ĠF l
ĠØ¯ Ø²Ø¯
ĠÙħÙĪØ± Ø®
ÙĪ Ø¬ÛĮ
Ø¹ Ø§Ø¨
Ø¨Ø± ÛĮØ¯
ĠØªØ³Ø±ÛĮ Ø¹
Ø±Ø¯ Ø§Ø¯
ĠØ¨Ø±Ø³ ÛĮÙħ
ĠØªØ±Ùģ ÙĨØ¯
ÙĪØ¦ ÛĮØ¯
ĠÚ©Ø§Ø¨ ÛĮÙĨÙĩ
ÙħØµ Ø±Ùģ
ĠÙģ Ø§Ú©Ø³
ĠØ¨Ø§Ø² Ø¯Ùĩ
ĠØ§ÙĨØªÙĤ Ø§Ùħ
Ø®Ø§Ø± Ø¬Ùĩ
ĠÙ¾ Ø§ÙĩØ§ÛĮ
ĠÙħÙĪ ÙĩØ§
Ú¯ÛĮØ± Ùĩ
ĠÚ©Ø³ Ø±ÛĮ
ĠØ¨Ø´ Ø±ÛĮ
ĠØ¨Ø±Ø®ÙĪØ±Ø¯ Ø§Ø±ÛĮ
ĠØ¨Ø± Ø´Ùħ
ĠI I
ĠØ³Ø± Ø¹ØªÛĮ
ĠØªØŃÙĦÛĮÙĦ Ú¯Ø±Ø§ÙĨ
ĠÙĦØ§ÛĮ Ú©
ĠØ³Ø§Ø²ÙħØ§ÙĨ Ø¯ÙĩÛĮ
ĠÙĨØ§Ø± ÙĨØ¬ÛĮ
ĠØ¨ÙĨ Ø´ÛĮÙĨ
ĠÙĨØ§Ø® ÙĨ
ØªØ± ØªÛĮØ¨
ĠØ¹ Ø§Ø±
ÙħØ±Ø¨ Ø¹
ĠØ¯Ø± ÙĩÙħ
ĠÚ¯ Ø§ÙĨÙĩ
Ùĩ Ø¯
ĠÙĩÙħ Ø¯ÛĮÚ¯Ø±
ĠØ®Ø§Øª ÙħÙĩ
ĠØ¯Ø§ÙĨ ÙħØ§Ø±Ú©
ĠÚ¯Ø°Ø± Ø§ÙĨØ¯
ĠÙģØ±ÛĮ Ø§Ø¯
Ø¢ ÙĨØ¬
ĠØ¨Ú¯ÛĮØ± Ùħ
ĠÙĩØ® Ø§ÙħÙĨ
ĠØ´ ØµØª
ĠÚ¯ÙĦ Ø®Ø§ÙĨÙĩ
ĠÙħØ¤ ÙĦÙģ
ĠÙħØ¨ Ø§Ø¯ÙĦÙĩ
ĠÙ¾Ø±Øª ØºØ§ÙĦ
u al
ĠÚ©Ø± Ø§ÛĮÙĩ
ĠA PI
ĠØ¬ ÙĪÙĨ
ĠÙĦÙĪ Ú¯ÙĪ
ĠØ®Ø§Ùħ ÙĨÙĩ
ĠØ¯ÛĮÙĪØ§Ø± ÙĩØ§ÛĮ
ĠØ¨ Ø¬Ø§ÛĮ
ĠØ³Ø§ÙĦ ÙĩØ§
ĠØ¨ÙĦÙĪ Øº
ĠÙĦØº Øª
ĠØ§Øµ ÛĮÙĦ
ĠÙĪÛĮØª ÙĨØ§Ùħ
ĠÙĤ Ø±ÛĮØ¨
ĠØ± Ø§ÛĮØª
ĠØ³ÙĪ Ø§Ø¨ÙĤ
Ġ9 0
ĠØ§Ø¯ ÙĪØ§Ø±Ø¯
c l
ĠÙĪ Ø±ÛĮ
ÙĪÙĨØ¯ Ø§
S S
ĠÙħÙĨ ÙĤ
ĠØ¬Ø¹ ÙĦÛĮ
ĠÙĨ Ø§ÛĮ
ĠØ§Ø³Øª ÛĮÙĦ
ĠÙĩØ¯ ÙģÛĮ
ĠØ¬ÙĨØ³ÛĮ Øª
ĠØ«Ø§ÙĨ ÙĪÛĮÙĩ
ĠØ§ÙĪÙĦ ØªØ±Ø§
ĠØ¢Ùģ ÛĮØ³
ĠØ¢ Ø®
ĠØ¨ÙĦ Øº
ĠØ´ÙĪ Ø®ÛĮ
ĠØ´ Ø·Ø±
ĠÚĨ Ø§Ø¯Ø±
ĠØ§ÛĮØ± ÙĦÙĨØ¯
ĠØ¯Ø± Ú©ÙĨØ§Ø±
ĠØªÚ¯Ø² Ø§Ø³
ĠØ¬Ø§ÙĨ Ø¨Ùĩ
m an
ÙĨÛĮ Ùĩ
ĠÚ¯Ø± Ú¯
ĠØ¯ÙĨÛĮ Ø§ÛĮÛĮ
ĠÙĨØ´ ÛĮÙĨ
ĠS u
ĠØ¢ÙĨ Ú¯Ø§Ùĩ
ĠØ§Ø±ØªÙģØ§ Ø¹Ø§Øª
Ø¨ Ø¹ÛĮ
ĠØ§ÙĪØ± Ø§ÙĨÛĮÙĪÙħ
ĠÚ©Ø§Ø±Ø¢ÙģØ±ÛĮÙĨ Ø§ÙĨ
ĠØªÙĪØ± Ø¨ÙĪ
Ú©ÙĪ ÙĦÛĮ
ĠØ®ÙĪØ¯ ÛĮ
Û³Û ²
ĠØ§Ø° Ø¹Ø§ÙĨ
ĠÙģÛĮ ÙģØ§
Ø³ ÙĨØ¬ÛĮ
ÙĩØ§ÛĮ Ùħ
ĠÚ¯Ø±Ø¯ Ø¢ÙĪØ±ÛĮ
A C
ĠÚ¯ Ø§Ø±
ÛĮ Ø¹ÙĨÛĮ
ĠØ±ÙĨÚ¯ Ø§Ø±
ĠÙĩ Ùģ
ĠÛ· Û·
ÛĮØª ÙĪ
ĠØ§Ø¯ ÙĪÛĮÙĩ
Ø³ Ù¾
ĠG alaxy
ĠÙĩÛĮÚĨ Ú¯Ø§Ùĩ
ĠØ° ÛĮÙĦ
ĠÙĩØ¬ ÙĪÙħ
I n
ĠÙĦÛĮ Ø³ØªÛĮ
ĠØ®Ø³ Ø±ÙĪ
Ø³ ÙĨØ¬
!! !
ĠØ¯ÛĮ Ø²ÙĨÛĮ
ĠÛĮ Ø§ÙĩÙĪ
ĠØ¨ÛĮ Ø§Ø¯
Ø§Ù¾ ÛĮ
as e
ÛĮØ§ ÙģØª
ĠØ§ÙĤ ÙĦÛĮØª
an ce
ĠÙģØ±ÙħØ§ÙĨ Ø¯Ø§Ø±
Ø®ÙĪ Ø§Ø±
Ø±Ø§ Ø¶
ad e
ĠÙ¾ÛĮØ§Ùħ Ø¯ÙĩØ§ÛĮ
Ø§ÙĨÛĮ Ø§
ĠÙĤØ± Ø§Ø±Ùĩ
ĠÛ¶ Û²
ĠØ¯ÙĪ Ø²
ĠÚ©Ø§ÙĨØ¯ ÛĮØ¯
ĠØ¨Ø¨Ø± ÛĮÙħ
ĠÙģÙĦØ² Ø§Øª
ĠØ¢ÙĨ Ø²ÛĮÙħ
ĠØ¨Ø±Ø¯Ø§Ø± ÛĮØ¯
ĠØªØ¹ Ø¨ÛĮØ±
Ġ201 5
ĠÙħÙĤ Ø¨Ø±Ùĩ
Ú© Ø§Ø¨
ĠÚ¯Ø³Øª Ø±Ùĩ
ĠÙ¾ÙĪØ´ ÛĮØ¯ÙĨ
ĠØ¨ÙĪØ± Ø³ÛĮ
Ø±Ø§Ø¬ ÙĪÛĮÛĮ
ĠØªØ§ÙĦ Ø§Ø¨
ĠØ¨Ø±Ø¯ ÙĨØ¯
ĠÚ¯ ÚĨ
ĠØºÛĮØ±Ùħ ÙħÚ©ÙĨ
ĠØªØ²ÛĮ ÛĮÙĨ
Ø´ Ø§Ø±ÛĮ
ÚĨ Ø§ÙĦÙĩ
ĠÛ±Û¹Û¹Û ¸
ĠÛ¶ Û¸
ĠÙħÙĨ Ø³
ĠØ§Ø³ Ø·ÙĪØ±Ùĩ
ĠÙħÙĪØ±Ø¯ ÙĨÛĮØ§Ø²
ĠØŃØ³ Ø¨
A N
ĠØºÙĦ Ø¸Øª
Ø§ÛĮØ¯ Ø±
ĠÙħÙĨØªØ´Ø± Ø´Ø¯Ùĩ
a h
ĠÙħÛĮ Ú¯ÛĮØ±Ø¯
ĠØ¯Ø± Ø¹
ĠØ³ÛĮ ØªÛĮ
ĠÙħÙĩÙħ Ø§ÙĨÛĮ
ĠÙĤØ§ÙĨ Ø¹
ĠÙħØ²Ø§ÛĮ Ø§
Ø· ØŃ
ĠØ³ Ø§ÙĨØ³
ĠØ²ÛĮ Ø§Ø±Øª
Ø¨ ÛĮØ´
ĠØªÚ© Ø°ÛĮØ¨
Ø¨Ø® ØªÛĮ
ĠÚ©Ù¾ Ø³ÙĪÙĦ
Ø¯ Ø§Ø¯Ùĩ
Øª ÙĪÙĦ
ĠØ¬ Ø§Ø¯ÙĪ
ĠÙĤ ÙĪÙħÛĮ
ĠØ¨Ùĩ Ø´ØªÛĮ
ĠØªÙĪ Ùĩ
ĠÙ¾ÛĮØ´ Ø¨Ø±Ø¯
ĠØ§Ùĩ ÙħÛĮØªÛĮ
ĠØªØ§ Ø¦ÛĮØ¯
ĠØ® ÙĦØ§ÙĦ
ĠÙ¾Ø±ÙĪÙģ Ø³ÙĪØ±
ĠØ¯Ø§ÙĪØ·ÙĦ Ø¨Ø§ÙĨ
ĠA ir
ĠØ¢ÙģØ±ÛĮÙĤ Ø§ÛĮÛĮ
ĠØ¯ Ø§Ø´
y st
Ø« Ø±Ø§
ĠÙĨ ÛĮØª
Øµ Ùģ
ĠØ³Ø§ÙĦ Ú¯Ø±Ø¯
ĠÚ©Ø§ØºØ° ÛĮ
ĠØ³ÙĦ Ø·Ùĩ
ĠØ°ÙĩÙĨ Ùħ
Ø¶ Ùħ
Ùģ Ø§ÙĦ
ÙħØ¯ ÛĮØ±
ĠÙĩÙħ Ú¯Ø§Ùħ
Ø¦ ÛĮÙĨÛĮ
ow s
ĠÙģØ§ÙĨØª Ø²ÛĮ
ĠÛ¸ Û·
ĠØ¬Ø³ Ø¯
ĠÙĤÙĪØ§ Ø¹Ø¯
p ort
ĠØŃ Ø±Ùħ
ĠØ¹ Ø±ÛĮØ¶
Ø§ÙĦÛĮ Ø³ØªÛĮ
ĠÙĨØ§Ùĩ Ø§Ø±
ĠØ¢ Ø¬Ø±
ĠØ¯ ÙĤØ§ÛĮ
ĠÙħØ¹ Ø§ÛĮØ¨
ĠØ³ÙĪ Ø²ÛĮ
ĠØ¯ÛĮØª Ø§
Ø´Ùĩ Ø±ÛĮ
Ú©Ø´ ÙĨØ¯
ĠØ¹ Ø¬
ĠÚ©ÙĨ Ú¯
ĠÙĪÙģ Ø§Ø¯Ø§Ø±
ĠÛ¶ Û¶
ĠØ§ÙĪÙĨ ÙĩØ§
ĠÙħÙĩØ§Ø¬Ø± Ø§ÙĨ
ĠØ²Ùħ Ø³ØªØ§ÙĨÛĮ
ĠØ§Ø¨Øª Ú©Ø§Ø±
ĠØ±ÛĮ Ø®Øª
ĠÙħØ§ÛĮ Ø¹Ø§Øª
Ø¯Ø§ÙĨØ³Øª ÙĨØ¯
ĠM an
ĠÙĨ Ø¨Ø§
Ø¢ ÙĩÙĨÚ¯
ĠØªÙģ ÙĨÚ¯
ĠØ¨Ø§ ÙħØ¯Ø§Ø¯
Û³Û ¶
Øµ ÛĮÙĦ
ĠØ± ÙĩØ§ÛĮÛĮ
ĠØ² Ø¨
ĠØ¨Ø±Ø®ÙĪØ±Ø¯Ø§Ø± ÙĨØ¯
Ø®ÙĪØ§Ø³Øª Ùħ
Ø¨ Ø³ØªÙĩ
ĠÙģÛĮÙĦÙħ ÙĨØ§ÙħÙĩ
ĠØ®ÛĮ Ø§ÙĦÛĮ
ĠØ³ÙĦÛĮ ÙħØ§ÙĨ
âĢĮâĢĮ âĢĮ
ĠØ§Ø³ Ù¾Ø±
ĠØ§ÙĪÙĨ Ø¬Ø§
ĠÙħØ±Øª Ú©Ø¨
ĠÙĩØ±ÙħØ² Ú¯Ø§ÙĨ
ÙħØ§ÙĨ Øª
ĠÚ© ÙĪÛĮ
Ø´ÙĨ Ø§Ø®ØªÛĮ
ĠÙĨ Úĺ
ĠØ´Ø¯ Ú¯Ø§ÙĨ
ĠØ³Ø±ÙĪØ± ÙĩØ§ÛĮ
ĠØ§ØŃØªÛĮ Ø§Ø·
ĠÚ© ÛĮØ§
Ġ5 00
Ù¾ Ø§ÙĦ
ĠØ® Ø±Ø³
ĠØ§ØŃ Ø²Ø§Ø¨
ĠÙģÙĦØ³Ø· ÛĮÙĨ
ĠØ¨Ø³ Ú©Øª
ĠÙģØ§ÛĮ Ø¯Ùĩ
ĠÙħÙĨØŃ ÙĨÛĮ
ÙħØŃ ÙħØ¯
ĠØ¹ÙĦ ÙĦ
ĠÙĨÙĪØ§Ø² ÙĨØ¯Ùĩ
ĠÙĩØ§ÙĦÛĮ ÙĪÙĪØ¯
ĠÙ¾Ø± Ø´
ĠØ³Ø±ÚĨ Ø´ÙħÙĩ
ĠÙħØ¹ØªØ± Ø¶Ø§ÙĨ
ĠØ³ÙĪØ¯ Ø§ÙĨ
ĠØªØ³ Ø®ÛĮØ±
ĠÙĤØ¯Ø±ØªÙħÙĨØ¯ ÛĮ
Ùģ Ø§ÙĦØª
ĠØ§ÛĮÙĦ Ø§ÙĨ
ĠÛĮØ§Ø¯ Ùħ
ĠØ¨ Ú©Ø±
ĠÙģ Ø¬Ø±
ĠØ³ÙĨØ³ÙĪØ± ÙĩØ§ÛĮ
ĠÙģÛĮÙĦ Ø³
Ø®Ø± ÛĮØ¯
ĠØªÙĨÚ¯ Ùĩ
ĠØªØ¨Ø¹ ÛĮØ¯
ĠÚ© Ø¨Ø§Ø¨
Ø¯ÛĮÙĨ Ú¯ÛĮ
ĠØªØµ ÙħÛĮÙħÛĮ
ĠØ¯Ø§Ø±ÙĨØ¯ Ú¯Ø§ÙĨ
) ØĽ
ĠØº Ø±ÙĪØ¨
Ø§Ø±Ø§ÙĨ ØªÛĮ
ĠØ¢Ùģ ÙĦØ§ÛĮÙĨ
ĠÙħØ¹ Ø¯ÙĪØ¯
ĠØ± Ø¨
om m
Ø§ÙģØ² Ø§ÛĮØ¯
ĠØ¨Ø§ Ø´ÙĨ
ĠÛ¸ Û²
ĠØµØ¯ Ø§ÛĮÛĮ
ĠÛ· Û¸
ot e
Ù ©
ĠØ³ÙĪ Øº
ĠØª Ø§ÛĮØ±
ĠØ¨Ø§ ÙĩØ§Ø´
ĠØ¹Ø± ÙĤ
ĠÙħØ§Ø¯Ø± ÛĮØ¯
ĠØ¨Ø¨ÛĮÙĨ Ùħ
ĠØ¬Ø¹ ÙģØ±
ĠØŃÙħØ§ÛĮ ØªÛĮ
ĠÙĤ ÙĪØ§ÛĮ
ĠØ±ÙĪÛĮØ¯ Ø§Ø¯ÙĩØ§
ĠÙĨÙĤ Ø¯ÛĮÙĨÚ¯ÛĮ
ĠØ±Ùħ Ø¶Ø§ÙĨ
ĠØªØ¶ Ø¹ÛĮÙģ
ĠÙĨ Ø§ÙĩÙħ
Ø± Ø¹Ùĩ
ĠÚĺÙĪØ±ÙĨ Ø§ÙĦ
Ø§Ùħ ÛĮÚ©ÛĮ
ĠØ¨ÛĮØ§ÙĨ Ú¯Ø±
E T
ĠÚ¯ ÙĪØ³Ùģ
ÙĤ Ø§ÙĦ
ĠÙ¾ÙĨ Ø¬Ùĩ
Ù ¡
ĠØ®ÙĪ Ø´Ùĩ
ĠØ¯Ø± ÙĪØ³
ĠØ±ÙĪØ³Øª Ø§ÙĩØ§
M S
Ù¾ ÙĪØ³Øª
ĠL TE
ĠÙħØ¹Ø§ÛĮ ÙĨÙĩ
Ø§Ø¨ ÛĮØ³
Ø§ÙĦØ¯ ÙĪÙĦÙĩ
Ġ3 2
ĠØ¹ÙħØ± Ø§ÙĨÛĮ
ĠØ§Ú© Ø«Ø±Ø§
ĠØ§Ø±Ø¯ ÙĨ
ĠØ¨ Ù¾
ĠØ¯Ø§Ø±ÛĮ ÙĪØ´
ĠØ¢ÙĨØ¬ ÙĦØ³
ĠØ±ÛĮ ÙĦÛĮ
ĠÙĦÛĮ Ø²
ĠÙħØ¹ÙĦ ÙħØ§ÙĨ
ĠØ§Øµ ÙĨ
ĠØªÙĤØ¯ ÛĮÙħ
Ø¨Ø±Ø¯ Ø§Ø±
y pe
ĠÙĦØ° ÛĮ
ĠØ®ÙĦÛĮ ÙģÙĩ
ĠÙħÙĨ ÚĨ
ĠØ¹Ø±ÙĪ Ø³
ĠÙħØ± ÙħØª
ĠØ§Øµ ÙĪÙĦØ§
ĠÙģ Ú©
ĠØ§Ø³Øª ÙĪÙĨ
ĠÙ¾ ÛĮØ§
ĠØŃ Ø¨Ø§Ø¨
ĠÙħØª Øµ
Ù¾ ÛĮØ´Ùĩ
ĠÙħØªØ®ØµØµ ÛĮÙĨ
ĠÚ©Ø±ÙĪÙĨ Ø§ÛĮÛĮ
ĠÙħÙĪ ØªÙĪ
ĠÙħØ®Øª ØµØ±
ĠØ¬ÙĨ Ø§ÛĮØª
ÙĪÙĩ ÛĮØ¯
ĠØ§Ø¹Øª ØµØ§Ø¨
ĠÛ±Û´ Û°Û°
Ùģ Ø§ÙĨ
ÛĮØ± Øª
ĠÛĮ Ø§ÙĨÚ¯
ĠØ§ØªÙģØ§ÙĤ Ø§
ĠØŃ ÙĪÙĦ
ÙĪØ± Ùĩ
Ú¯ Ø±Ø§ÙģÛĮ
ĠÙħØº ÙĪÙĦ
ĠÙĩ Ø§Ø¨
ĠØ³ Ú©ØªÙĩ
ÙĪÙĩ Ø§ÙĨ
ĠØ¹ ÛĮØ³ÛĮ
ĠÙĨ Ø¯ÛĮØ¯Ùĩ
ĠÙ¾ÛĮØ±Ø§Ùĩ ÙĨ
ĠÙ¾ÛĮØ´ ÛĮÙĨÙĩ
ĠØ¨ÛĮØ§Ùħ ÙĪØ²
Ø§ Ø§
ĠØ´Ø§ Ú¯Ø±Ø¯Ø§ÙĨ
ĠØ¨Ø§Ø±Ø³ÙĦ ÙĪÙĨØ§
ĠÙħÙĪ Ø²
ĠØ§ ÙĪÙĨØ§
ÙħØ§ÛĮ ÛĮØ¯
ĠÙħÙĪ Ø²ÛĮ
ĠÛ±Û¸ Û¶
ar y
ĠÙħØ¯Ø§Ø® ÙĦÙĩ
ĠØ³Ø± Ø³Ø¨
ĠÙĨÙĪØ¬ ÙĪØ§ÙĨÛĮ
ĠM I
ĠØ´ÛĮ Ø¹ÛĮØ§ÙĨ
Ø¨ÛĮÙĨ Ùħ
ĠØ³ÙģØ± Ùĩ
ĠØ²ÙĨ Ø¨ÙĪØ±
ĠÙħÙĪ Ø§Ø¯ÛĮ
Øº Ø§ÙĦÛĮ
ĠÙģØ¹ Ø§ÙĦÛĮ
ĠØ³ÙĪ ÙĤ
ĠÛ±Û³Ûµ Û·
ØªÛĮ Ø´ÙĨ
ĠØ´ÙĦÙĪ Ø§Ø±
ĠÙĨ ØªÙĪØ§ÙĨØ¯
ĠØ§Ø³Øª ÙĪØ§Ø±
Ú¯ÙģØª ÙĨØ¯
ĠØªØ¨Ø¹ÛĮ Ø¶
ÛĮÙħ Ùĩ
ĠÙĦ Ø§Ø±ÛĮ
ĠØ§ÙĤ ÙĦÛĮÙħ
ĠÙĨØ§ Ø´ÙĨØ§Ø³
ĠØ§ØŃ Ú©Ø§Ùħ
ĠØ³Ùĩ ÙĪÙĦØª
Ø´Ú© Ø¯Ùĩ
ĠÙħØ¨ÙĦ ÙħØ§ÙĨ
ĠØ®ÙĪÙĨ Ø±ÛĮØ²ÛĮ
Ø¹ ÙĪØ¯ÛĮ
Û³Û ·
ĠØ¨ ÙĪØ³ÛĮÙĦÙĩ
Ø° Ø¨
ĠÙħØ® Ø§Ø²ÙĨ
ĠÙħØ±Øª Ø¶ÛĮ
u c
ĠØ§ÙĦÙĤØ§ Ø¹Ø¯Ùĩ
ĠÙģÙĤ Ø¯Ø§ÙĨ
Ùģ ÙĦÛĮÚ©Ø³
ĠÙģØ¶Ø§ÙĨÙĪØ±Ø¯ Ø§ÙĨ
ĠØ¨Ø§Ø²ÙĨØ´ Ø³ØªÙĩ
ĠØ¯Ø§ÙĪØ± Ø§ÙĨ
ĠÙħØ¹Ø· ÙĪÙģ
ĠÙħ Ø§ÛĮÙĨ
ĠÙĩØ¯Ùģ ÙħÙĨØ¯
ĠØº Ø²Ùĩ
ĠÙĩÙħ Ú¯Ø§ÙĨ
ĠØ§Ùģ ÙĤ
ĠÚ¯ÙģØª Ø§Ø±
ĠÙħØ§Ø¬ Ø±Ø§Ø¬ÙĪÛĮÛĮ
ĠÙĪÛĮØ± ÙĪØ³ÛĮ
ĠØ¨ ØªÙĨ
ĠØ¨Ø®Ø´ÛĮ Ø¯Ùĩ
ĠØ®Ø§Ø± ÙĤ
ĠÙģÙĩÙħ ÛĮØ¯
ĠØ¨Ø± ÙĨØ²
ĠØªØ± ÙħÛĮÙĨ
at or
ĠØ¢ÙĨÙĩØ§ Ø³Øª
ĠØ®ÛĮ Ø§ÙĨØª
Ø³ØªØ± ÙĪÙĦ
ĠØ® ÛĮØ³
ĠØ³Ø§Ø®ØªØ§Ø± ÙĩØ§ÛĮ
ĠÙħÙĨ Ùħ
of t
Ø¯ Ø§Ø¯ÛĮ
ÛĮ Ø§Ø¨ÙĨØ¯
ĠØ´ ÛĮÙĦ
ĠØ· ÙĨ
ĠØ§ÙĨØŃØµ Ø§Ø±
ĠØªÙĤØ±ÛĮ Ø¨ÛĮ
ÚĨ ÙĪÙĨ
ĠØ¯ÙĪ Ø§Ø²Ø¯ÙĩÙħ
ĠØ¢ÙĤØ§ÛĮ Ø§ÙĨ
ĠØ³Ø§ Ø¹Ø§ØªÛĮ
ĠØ³ Ø¦
ĠØ§ØªÙĩØ§Ùħ Ø§Øª
ĠØ¨Ø±Ø³Ø§ÙĨ ÛĮØ¯
ĠØ¹ ÛĮØ¨
ĠÙħØ±Ø¯ Ø§ÙĨÙĩ
Ġ2 1
ĠØ¯Ø±Ø¯ Ø³Øª
ĠØ§Ø¹Ø· Ø§ÛĮ
ĠÙĤ Ø§Ø³Ùħ
ĠØ¯ÛĮ Ø²
ĠÙ¾Ø§ÙĨ Ø²Ø¯Ùĩ
ĠÚ¯Ø± ÛĮÙĨ
Ø¯Ø§Ø± ÙĨØ¯
Øª ÙĤ
Ø¢ Ø²
ĠØªØ±ÙĪØ±ÛĮ Ø³Øª
ĠÙħØ³ Ùħ
ĠØ¯Ø§Ø¦ ÙħØ§
ĠØªØ±Ø´ ØŃ
ĠÙĨ Ø¯Ø±
ĠØ¹Ø±ÙĪ Ø³ÛĮ
Øµ Ø¨
ÙĤ ÛĮÙĨ
ĠØ¨Ø± Ø§ÙĨÚ¯ÛĮØ²
ĠØ³Ø±ÙĨØ´ÛĮÙĨ Ø§ÙĨ
ĠØ¯ Ø§ÛĮÙĨ
Ø· Ø¦Ùĩ
ĠØ² Ø¯Ùħ
ĠØ¢Ø³ ÙģØ§ÙĦØª
ic h
Ġ( Â«
ĠØ¨Ø§ÙĦØ§ Ø³Øª
Ø³ Ø§Ø±
ĠÙĨÙĪ Ø¢ÙĪØ±
ĠÙħØ² Ø±Ø¹Ùĩ
ØªØ§Ø±ÛĮ Ø®
ĠØ¬ÙĦ Ø§ÙĦ
ĠÙħØŃÙħØ¯ Ø¹ÙĦÛĮ
ĠÙħØ¯ÛĮ ØªØ±Ø§ÙĨÙĩ
ĠÙĨÚ¯Ø± ÙģØª
Ú©Øª Ø§Ø¨
Ù¾Ø²Ø´ Ú©ÛĮ
ĠØ±ÙĨÚ¯Ø§Ø± ÙĨÚ¯
ĠØ¬ Ø±Ø§ÛĮ
ĠØŃÙĪ Ø§ÙĦÛĮ
ĠØ± ÙĤÛĮ
ĠØŃ ÙĪÙħÙĩ
ĠÚ¯ Ø±Ø§
ĠÚ© ÙĪÙĦÙĩ
Ø§Ú© ÙĪ
ĠÙģØ± ÙĤÙĩ
ĠÛ´ Û³
ĠØ· Ø¹
er v
r on
ĠÛĮ Ø§Ø³
ĠÙģ Ø³ØªÛĮ
ter n
ĠÚ©Ø§Ø± Ø´Ø§ÙĨ
ĠÙĪØ§Ø±Ø¯ Ø§ØªÛĮ
Ú©Ø± Ùĩ
ĠÙħÚ¯Ø§Ø¨ Ø§ÛĮØª
ĠØ§Ù¾ØªÛĮ Ú©Ø§ÙĦ
. )
ĠÚ© Ø§ØªÙĪ
ĠØ¬ÙħØ¹ÛĮ ØªÛĮ
ĠØ¯Ø³Øª Ø´
ĠØ¯Ú©ØªØ± Ø§ÛĮ
ĠÙģÙĦØ³ ÙģÛĮ
ĠØ¨Ø³Ú©Øª Ø¨Ø§ÙĦ
ĠØµÙĦÛĮ Ø¨ÛĮ
ĠÚ¯ Ø§Ø±Ø§ÙĨØªÛĮ
ĠØªÙĪ ÙħØ§Ø³
ĠÚ©ÙĪ Ø¦
ĠÚ¯ÛĮ Ø¬
ĠØªØ¨ ØµØ±Ùĩ
ĠØªØ¹Ø¯ ÛĮÙĦ
ĠØ±Ø¯ ÙħÛĮ
ĠÚĨ ÛĮØ¯
ĠR T
Ø¢Ùħ Ù¾Ø±
ĠØ¯Ùĩ Ú©Ø¯Ùĩ
ĠÙĨØ¬ Ùģ
ĠØ§ÙģØ±Ø§ Ø·ÛĮ
ĠØ´Ø·Ø± ÙĨØ¬
ĠØ¯ Ø¨
Ú¯Ø± Ø§ÛĮØ§ÙĨ
ĠØ¢ÙħÙĪ Ø®Øª
ĠÚĨØ§Ø± ÙĦØ²
ĠØ¢ÙĨ ÛĮ
ĠÚ¯ÛĮØª Ø§Ø±
ĠÙĩÛĮÚĨ Ú¯ÙĪÙĨÙĩ
ĠÙ¾ÙħÙ¾ Ø¦ÙĪ
Ú© Ø´ÙĨ
Ø¨Ø± Ø§ÙĨÚ¯ÛĮØ²
ĠÙħØ¸ ÙĨÙĪÙĨ
ĠØ® Ø¬
ĠØ² Ø§ÙĨÙĪ
ĠÚĨ ÙħÙĨ
ĠC omp
Ġ ex
ĠÙĪ ÙĦÙĪ
ĠÙħØ¹ ÙĦÙĤ
ĠÙĨØ§Ù¾ Ø¯ÛĮØ¯
ĠÙħØŃØ§Ø³Ø¨ Ø§ØªÛĮ
ĠØ±ÙĪØ´ ÙĨÛĮ
Ø¨ Ø¯ÛĮ
ĠÙ¾Ø±Ú© Ø§Ø±
Ġc ont
ĠÚ© Ø«
Ø§Ùĩ Ø¯ÛĮ
ĠØªØ§ÛĮ ÙĪØ§ÙĨ
ĠÙĦÙĪÙħÛĮ Ø§
ĠÚĨ Ú¯
ĠØªØ± Ø®ÛĮØµ
Ø® ÙĦ
ĠØ¯ Ø§Ú©
ĠØ¨Ùĩ Ø±Ø§Ùħ
Ø§Ø¯ ÙĪØ±
ĠÙħØ³ÙĦ Ø·
ĠÙģÙĩØ± Ø³ØªÛĮ
ĠPl ay
Ø¯ ÙĨØ¯Ùĩ
ĠÚ© Ø±ÙĪØ²
ĠØ¨Ø§ Ú©ÙĪ
ĠÙ¾Ø§Ú© Ø³Ø§Ø²ÛĮ
ĠØ§Ø³ ÛĮØ±
ĠØ¢Ø±Ø² ÙĪ
Ùħ ÙĪØ³
ÛĮÙħ Ø§ÙĨ
en c
ĠØ³ÛĮÙĦÛĮÚ© ÙĪÙĨ
ĠH e
Ø¶Ø§ÛĮ ØªÛĮ
Ø¨ÙĨÛĮ Ø§ÙĨ
ĠÙĤØ± Ø¹Ùĩ
ĠØ¨Ø²ÙĨ Ùħ
ĠØ¢Ø±Ø² ÙĪÛĮ
ĠØ³ Ú©Ø§ÙĨ
ÙħØ§ ÙĤ
ĠØµ Ø¯Ø§Ùħ
ĠØ³Ø± ÙģÙĩ
ĠØ³Ø±ÛĮØ¹ Ø§
ĠØ¬ Ø±Ø§ØŃ
ĠØ¬Ùħ Ø´ÛĮØ¯
ĠØ¨Ø±Ø¯ Ø§Ø±Ø¯
ĠØ§ÛĮ Ø§ÙĦØªÛĮ
ĠÙħØ¬ ÛĮØ¯
ĠØ¢Ø± ÙħØ§ÙĨ
ĠÙħØŃØ§Ùģ Ø¸Ùĩ
ÙĨØ§ Ø¹
ic ation
ĠÚ©ÙĦÛĮ Ø¯ÙĩØ§ÛĮ
ĠØ´Ú© ÙĪÙĩ
p h
ĠÙĨÙĪ ØªÛĮ
ĠÙ¾Ø³ Ø±Ø§ÙĨ
ĠÙħØ§Ùĩ Ø±
ĠØ§Ø¯ Ø§Ø±Ø§Øª
ĠØ¢Ù¾ Ø´ÙĨ
ĠÙħØŃ Ø¨Øª
ĠØ¯ÛĮØª Ø§Ø¨ÛĮØ³
ĠØ¨ÙħØ§ÙĨ ÛĮØ¯
ĠØ¨ ØªØ§
ĠÙĨÙĤ Ø§Ø´
ÙĨÚ¯ Ø§Ùħ
Ù¾ Ú©
Ø§ ÙĪØ±Øª
ĠÙ¾Ø§Ø³ Ø®ÛĮ
ĠÙĩÙħØ¬ ÙĨØ³
ĠÙĤØ² Ø§ÙĤ
ĠØ³Ø§ÙĦÛĮ Ø§ÙĨ
Û² Û´
Ø´ Ø±Ú©Øª
ĠÙĨ Ø§ØªÙĪ
ĠØ¨Ø§Ø² ÙĨÚ¯Ø±ÛĮ
ØŁ }
ĠÙĩ ÙĦÛĮ
ĠÙħØª Ú©ÛĮ
ÚĨÛĮ Ø§ÙĨ
ÙĨ Ø§Ú©ÛĮ
ĠØ¯Ø± Ø¨ÛĮ
âĢı âĢĮ
Ġ '
ĠØªØ§ÙĨ Ú©
ĠÙħØ¹Ùħ Ø§Ø±
ĠØ¬Ø± Ø¬
Ú©Ø§Ø± Ú¯ÛĮØ±ÛĮ
ĠØ¬ÙĨÚ¯ ÙĨØ¯Ùĩ
ĠØ´Ø±Ú© Ø§ÛĮ
ĠØ± ÛĮÚ©
e v
ĠÚ©Ø§ÙĨ Ø§Ø¯
S P
Ø§Ø± Ø²Ø´
ĠØªÙĦÙģ Ø¸
ĠÛĮ ÙĪØ³Ùģ
ĠÙĪØ¶ Ø¹ÛĮØªÛĮ
ĠØ¯ÙģØªØ± ÚĨÙĩ
ĠØ¨ÙĪØ¦ ÛĮÙĨÚ¯
ĠØ¨ÙĪØ¯ ÛĮØ¯
ĠÛ´ Û±
ĠÙĤØ· Ø¨ÛĮ
Ø¨ Ø³ØªÚ¯ÛĮ
ĠÙħØŃØ± ÙħØ§ÙĨÙĩ
ĠØ±ÙħØ² Ú¯Ø°Ø§Ø±ÛĮ
ĠÙģØ³ØªÛĮ ÙĪØ§ÙĦ
ĠØ®ÙĦ ÙĪØª
ĠØ¹Ø±ÙĪ Ø³Ú©
ĠÚ¯Ø± Ø§Ùħ
Ù¾ ÛĮØ±
an c
ĠÙħØ§ÙĨØ¯ Ú¯Ø§Ø±ÛĮ
ÙĪØ¯ ÛĮÙĨ
ĠØ² ØºØ§ÙĦ
ĠÙĤ ÙĦÛĮ
ĠØ¨ Ø¨Ø®Ø´
ĠØ¨Ùĩ ØªÙĪÙĨ
ĠÚ¯Ø± Ø§ÛĮÛĮ
ĠØªÙĨÛĮ Ø³
ĠØ¨Ø± ÙĩÙħ
Ø±Ø³ Ùĩ
ĠØ¨ÙĨØ¯Ø± Ø¹Ø¨Ø§Ø³
ĠØ¨Ø§ ÙĩÙĪØ´
ĠÛĮ Ø§Ø¨ÛĮ
ĠÙģ ÙĪÙĨØª
ÙĩÛĮ ÚĨ
ĠØ¢ÙĦ Ø§ÛĮÙĨØ¯Ùĩ
ĠØ§Ø±Ú© Ø³ØªØ±
ĠØ¹ Ú©Ø³ÛĮ
ĠC ont
ĠØ¢Ø¨Ø§Ø¯ Ø§ÙĨ
ĠÙħÙĨ Ø²
ÙĤ Ø§ÛĮÛĮ
ĠÙħØ§Ùħ Ø§ÙĨ
ĠØ³ Ú©ÙĪ
Ġ "
ĠâĢ¦ )
ĠÙģ ÛĮØ´
ĠÙģ ÙĦÙĪ
ĠØ¢ÙĨØª ÙĪÙĨÛĮ
ĠÚ©Ùħ Ù¾Ø±Ø³
ĠØ§ÙĦÛĮ Ø§Ùģ
ow n
Ø§Ø®ØªÛĮ Ø§Ø±
ĠÙĩÙĨØ± Ù¾ÛĮØ´Ùĩ
ĠÙħØ· ÙĦÙĪØ¨ÛĮ
ĠØªØ¨ Ø±ÛĮÚ©
ĠÛ±Û¹Û¹Û ·
ĠØ±ÛĮØ§ Ø¶
Ø§ÛĮ Ø³Øª
ĠÙĪ Ùĩ
ĠÙ¾ÛĮØ± ÙĪØ§ÙĨ
ĠØºÛĮØ± ÙĨØ¸Ø§ÙħÛĮ
ĠL G
ĠØ³Ø±Ø¹Øª Ùĩ
ĠØ§Ø± Ø«
ĠØ³ÙĪ Ø§Ø¯
ØªØ±ÛĮ Ø³
ĠÙħÙĩ Ø¯
ĠÙħÙĨÙģ Ø¬Ø±
ĠÙ¾Ø±Ø³ ÛĮØ¯
ĠØ§Ø´ØªØ¨ Ø§ÙĩÛĮ
ĠØ¢ÙĪØ± ÛĮØ¯
o y
ĠØ§ÙĨ Ø²
ĠÙĦØ§Ø² ÙħÙĩ
ĠØ¶Ø® ÛĮÙħ
Ø¨ Ú©Ø³
ĠÙĩ Ø§ÙĪ
ĠÛĮ ÙĦ
ĠØ±ÙĪ Øª
ĠØ¯Ø±Øµ ÙĪØ±ØªÛĮ
E R
ÙĪÛĮØ± ÙĪØ³
ĠØŃ Ø´Ø±
ĠÙ¾Ø§ ØªØ±
ĠØ§Ùģ Ú©Øª
ĠÙħØ¬ Ø§ÙĪØ±
ĠØ´Ø§ ØºÙĦ
ĠÙħÙħ ÙĦÙĪ
ĠĠ ĠĠ
ĠÙħ ÙĪØ±ÛĮ
Ø¨ Ø³Øª
ĠØªÚ© Ø«ÛĮØ±
ĠØ¨Ø§ Ø¨ÙĦ
ĠØ§ÙĦ Ø²Ø§ÙħÛĮ
ĠØ´ ÙĪÚ©
Ø³ÛĮ Ø§
ĠØ¨ÛĮ Ø§Ø¨Ø§ÙĨ
Ø¯Ø§ÙĨ Ø§ÙĨ
Ø§Ø· Ùĩ
ĠÙħØ·Ø¨ÙĪØ¹ Ø§Øª
ĠØ§ ÛĮÙħÛĮ
ĠØ¨Ø§Ø´ Ú©ÙĪÙĩ
ĠHD R
ĠØ¹Ø¶ ÙĦØ§ÙĨÛĮ
ĠØ¨Ø³Ø§Ø² ÙĨØ¯
ĠØ¬ ÙĪØ±ÛĮ
ĠÚ©Ø§Ø±ÙģØ± ÙħØ§ÛĮ
ĠÙĨÛĮØ§Ùħ Ø¯Ùĩ
ĠØ§Ù¾ÙĦÛĮÚ© ÛĮØ´ÙĨÛĮ
ĠØ§ØµØ·ÙĦØ§ØŃ Ø§
ĠØ´Ø§Ùĩ ÛĮÙĨ
ĠØ§Ù¾Ø±Ø§ØªÙĪØ± ÙĩØ§ÛĮ
ĠØ¢ ÛĮØ±
ĠØªÙĪ Ø·Ø¦Ùĩ
1 5
ĠØ¨ ÙĪØ³
ĠÙĦØ°ÛĮ Ø°
at t
ĠØ¨Ø§ÙĪØ± ÙĨØ¯
ĠÛ±Û³Û¹Û ´
ĠØ´Ø§ÛĮ Ø§ÙĨ
Û² Û²
Û³Û ±
ĠA m
le t
Ø³ Ø§ÛĮÛĮ
ĠØ±Ø³ ÙĪØ¨
c o
ĠÙĤÛĮ Ø§Ø³
ĠØ´ ÙĪØ´
ĠØ§ÙĨ Ø§Ø±
Ø§Ú©Ø³ ÛĮØ¯
ĠØ³ÙĨØ¯ Ø±Ùħ
ĠÙĩÙĪØ§ Ø´ÙĨØ§Ø³ÛĮ
ĠØ¨ÙĩØªØ± Ùĩ
ĠÛ±Û¹Û¹Û ´
ĠØ¯ Úĺ
ĠÙĩÙħ ÙĪØ§Ø±
ĠØ¯ÙĪ ÙħÛĮ
ĠÛĮØ§Ø¯ ØªØ§ÙĨ
Øª ÙĪØ³
ĠÛ¹ Û°Û°
ÙĦ Ø²Ùħ
ĠØµØ¯Ùħ Ùĩ
ĠÙħØ·ÙĦ Ø¨ÛĮ
ĠÙ¾Ø±Ø¯ ÛĮØ³
ĠÙħØª Ø§ÙĦ
ĠÙĨØ¯Ø± Øª
ĠØ¢ Ø¦ÛĮÙĨ
Ø¬ Ø±Ø¨Ùĩ
ÙĪØ² Ùģ
ĠØ¨Ú¯Ø°Ø§Ø± ÛĮÙħ
ĠÛ³Û ¹
oo d
ĠÚ©Ø§ØªÙĪ ÙĦÛĮÚ©
ĠÙ¾ÛĮØ´ Ú¯Ø§Ùħ
ĠÙģØ±Ø³ ÙĪØ¯Ùĩ
ĠÙĩØ± ØªØ²
ĠÙ¾Ø± ÙĪÛĮØ²
s h
ĠØ§ØªÙģØ§ÙĤ Ø§ØªÛĮ
ĠÙħØ³Øª ÙĦØ²Ùħ
ĠØ³Ø± Ø´ÙĨØ§Ø³
ĠØ° Ø§ØªÛĮ
ĠØ¬ ÙĪÙĦØ§ÛĮ
ĠÙģØ±Ø§ Ø®ÙĪØ§ÙĨÛĮ
ĠÚ©Ø§Ø± Ú¯Ø±ÛĮ
ÛĮØ± Ø§
ĠØ¨Ø¯ Ø§ÙĨØ¯
Ġ10 80
ĠÙĩÙħ Ú¯Ø§ÙĨÛĮ
Ø§ØŃ Ø§Ùģ
ĠØ¬ÙĦÙĪ ØªØ±
ĠØ¹ÙĦÛĮØ± ØºÙħ
ĠØªØŃ Ø±Ú©
ĠÛ±Û¹Û¹Û ±
r i
Ú¯Ø± Ø§ÙħÛĮ
ĠØ¨ÛĮ Ú¯
ĠÛ±Û¹Û¹Û ¶
ĠØ¹Ø§Ø± Ø¶Ùĩ
ĠÚ©ÙĦ Ø³ØªØ±ÙĪÙĦ
ÙĪÙĩÛĮØ¯ Ø±Ø§Øª
ĠÙħØ¹ Ø§Ø¨Ø±
ĠØªØŃ Ø±ÛĮØ±
ĠÙħØµ Ø§Ø±Ùģ
Ø§ ÙĪØ±ÛĮ
ĠØ²Ø¹ ÙģØ±Ø§ÙĨ
ĠÚ©Ø±ÛĮ Ø³
ĠØ± Ø¯Ùħ
ÙĪÚ©Ø§Ø± ÙĩØ§
ĠÙģØ§Ú©ØªÙĪØ± ÙĩØ§ÛĮ
Ø· Ø§Ø±
Û¹Û ¸
Ùĩ Ø§ÙĦ
Ú© Ø§Ø³
ĠÙĦÛĮ ÙħÙĪ
ĠØ´ÙħØ§Ø± Ø´
ĠØ¨Ø§Ø²Ø± Ú¯Ø§ÙĨ
ĠØ¢ ÙĦÙĪ
ĠØ¯Ø± Ø´Øª
ĠÚ©Ø´Ø§ÙĪØ± Ø²Ø§ÙĨ
ĠÙ¾Ø§Ø±Ø§Ùħ ØªØ±
ĠØ§ÙĦ ØªØŃ
ĠØªØ£Ø«ÛĮØ± Ø§Øª
ĠØ§Ø³ØªØ§Ø¯ Ø§ÙĨ
Ø¬ ÙħØ§ÙĨ
ĠØ§ØŃ Ø§Ø·Ùĩ
ÙĶ )
ĠÙħØ¹ Ø¬
ĠÙħØ¬ Ø§ÙĪØ±Øª
ĠØ¢ÙĦ ÙĨ
ĠØªÙĪØ± Ø¨
ĠØµ ÙĪØª
ĠÚ©Ø§ÙħÙ¾ Ø§ÛĮÙĦ
ĠÙĦ Ø§ÛĮÙĨ
ĠÙ¾Ø±ÙĪ Úĺ
ĠÚ¯ÛĮØª Ø³
Ø¯Ø§Ø± ÙĨØ¯Ùĩ
ĠÙĨÙĪ ÛĮØ¯
ĠØ³Ú© ÙĪÛĮ
ĠÙ¾ Ø§ÙĨØ¯
Ø¨Ø± ÙĨØ§ÙħÙĩ
ĠØªØ± Ø§ÙĨØ³
F A
ĠÚ¯ÛĮØ± Ø¨Ú©Ø³
ĠD is
ĠØªÙĪÙĩ ÛĮÙĨ
ĠÚ©ÙĦÛĮ Ù¾
ĠÙĩØ±Ø¯ ÙĪ
Øª ÙĦÛĮ
ĠÙĦÛĮ Ø¨Ø±
ĠÙħØŃØªÙĪÛĮ Ø§Øª
Ùģ Ø§Ø±
Ø³ÛĮ ÙĦÛĮ
ĠÙħØ§ ÙĪØ³
Ùģ Ùģ
ĠÙĨÙħ Ø§ÛĮÛĮ
ĠØªÙĤ ÙĦØ¨
ĠØ¯Ø± ØµÙĪØ±Øª
ĠÙħÙĪØ¶ÙĪØ¹ Ø§ØªÛĮ
Ùł Ùł
ĠØ¢Ø¯ Ø§Ø¨
ĠØ§Ø´ØªØ± Ø§Ú©ÛĮ
B M
ĠØ £
ÛĮÚ© Ø§ÙĦ
ĠØ³ Ø§Ø±ÛĮ
Ø§Ø¯ Ùģ
C h
ĠW ar
ĠØ§ ÙĪØ±ÛĮ
ĠÙĦØ± Ø²Ùĩ
ĠØ¬ Ø¹Ùģ
ĠR ed
ÙĦØ§ Ø·
ĠØ¨Ø§Ø± ÙĨØ¯Ú¯ÛĮ
ĠÙħØª Ø§Ø¨
ĠÛ±Û¹Û¹Û ²
ĠÛ±Û¹Û¹Û µ
ĠÙĨØ§Ø± Ø¶Ø§ÛĮØªÛĮ
ĠÙĨØ´ Ø±ÛĮ
ĠØ¬ Ø§ÙĨÛĮ
ÙĪ ÙģØ±
ĠØ¬ÙĨ Ø±Ø§ÙĦ
ĠØ³ÙĤ Ø·
ĠØ´ÙĨØ§Ø³ Ùĩ
er t
ĠÙĤÛĮ Ø§Ùħ
ĠØ³Ø± ÙĨÚ¯
ĠØ§Ù¾ ÛĮØ²
ĠØªØ³ÙĦÛĮ ØŃØ§Øª
ĠÙħÛĮÙĦ Ø§ÙĨ
ĠØ¬Ø§Ø¯ ÙĪÛĮÛĮ
ĠÙĩ ÙĦØ§ÙĦ
ĠÙĨÙĪØªÛĮ ÙģÛĮÚ©
ĠÙħÙĦ Ø²Ùħ
ĠÙħØªØŃ ÙħÙĦ
ĠØ¢ÙĨ Ùģ
ĠÚĨÛĮØ² ÙĩØ§
Û¹Û ¶
ĠØ§ÙĨ ÙģØ±Ø§Ø¯ÛĮ
ĠØ¨Ø± ÛĮØ¯Ú¯ÛĮ
ĠØ§Ø³Ú©Ø± ÛĮÙĨ
ĠÙĪÛĮ ÙĦØ§
ÙģØ± Ø´
ĠÙ¾ÛĮØ± ÙĪ
ĠÙħØªØ¹ Ø§Ø¯ÙĦ
ĠØ±ÙĪ Ú©Ø´
ĠÙĩ ÙĪØ§ÙĨ
ĠÚ©ÛĮÙĩ Ø§ÙĨ
ĠØ¯ÙĪØ± Ú©Ø§Ø±ÛĮ
ĠÚ¯Ø±ÙĪ Ú¯Ø§ÙĨ
ĠØ³ ÙĨØ¬ÛĮ
Ø²ÙĨ ÛĮÙħ
ĠØ´Ùĩ Ø§Ø¯Øª
ĠÙħØ¬ Ø±
ĠM ot
ĠØ¹ÙĦØ§ÙĤ ÙħÙĨØ¯
ĠÙ¾ÛĮØ§ Ù¾ÛĮ
ĠÙ¾ÛĮ ØºØ§Ùħ
ĠØ¨Ø§ ÙĪØ¬ÙĪØ¯
ĠØ´ÙĩØ±ÙĪ ÙĨØ¯ÛĮ
ĠØ¨ Ø·Ø±ÛĮ
ĠÙ¾ÛĮØ´ÙĨÙĩØ§Ø¯ Ø§Øª
ĠØ¬Ø±Ø§ÛĮ Ùħ
Ø² ÙħØ§ÙĨÛĮ
f orm
ĠØ¨Ø§Ø²Ø§Ø± ÙĩØ§
ĠÚ©Ø§Ø³ Ùĩ
ĠÙģØ§Ø· ÙħÙĩ
ĠØµ ÛĮ
Ø±Ø³ ÙħÛĮ
ĠÙ¾Ø± ØªØ±Ùĩ
ĠÙħØ¹ Øµ
ĠØ§ÛĮØ± ÙĦØ§ÛĮÙĨ
ĠÙħØ¹ØªØ± Ø¶
ĠØ¹Ø² Øª
Ġ ap
ĠÙĨÛĮ ÙĦ
Ġ201 4
ĠÛ¹Û ³
ĠØªÙĪØ± Ø¨ÛĮÙĨ
Ø¯Ø§Ø´Øª ÙĨ
ĠÙħØ¨ ØŃØ«
ĠØ¬Ø§Ø¨ Ø¬Ø§
ĠØ¶ÙĦ Ø¹
ĠÚ¯Ø± Ø§ÙĨÛĮ
Ø¬ Ø§Ø²
ĠØ´Ùħ Ø´ÛĮØ±
ĠØ³Øª Ø§ÛĮØ´
Ø· Ùģ
ĠÙħÙĤ ØµØ±
ÙĤØ¯Ø± Øª
ĠÙĨ Ø¨Ø±
ĠÙģ ÙĤÙĩ
ĠÚ¯Ø²Ø§Ø±Ø´ Ø§Øª
ĠØ¬ÙĨØ§ ØŃ
ĠØ³ ÙĪØ³
ĠÚ©ÙĪ Ø¨Ø§
Ú©ÙĨÙĨØ¯ Ú¯ÛĮ
ĠÚ©ÙĪØ± ÙĪØ´
ĠØŃ Ø¨ÛĮ
ĠØ§Ø´ Ø¨Ø§Ø¹
ĠØŃØ¯Ø§Ú© Ø«Ø±ÛĮ
âĢĮ .
ĠØ¯ÛĮÙ¾ÙĦÙħØ§Øª ÛĮÚ©
ĠÙĨØ§Øª ÙĪØ§ÙĨÛĮ
ĠØ¨ÙĤØ§ÛĮ Ø§ÛĮ
ØŃ Ø§ØªÛĮ
ĠÚ¯Ø°Ø§Ø´Øª ÙĨØ¯
Ú¯Ø±ÙģØª ÙĨØ¯
ĠW i
ĠØ§Ø² Ø¨Ú©
ĠØ¶ ÙħØ§ÙĨØª
ĠÙģØ¶Ø§Ù¾ ÛĮÙħØ§
ĠÚ¯Ø° Ø±Ø§ÙĨ
ĠÚ©ÙĦ Ø±
ĠÙĦØ¨ ÙĨÛĮ
ÙĦÙĪ Ú©
ĠØ³Ùģ Ø§ÙĦ
Ø§ Ú¯ÙĪÙĨ
ĠØ§Ø±ÙĪ Ù¾Ø§ÛĮ
ĠØ¨ÙĦÙĪÙħ Ø¨Ø±Ú¯
a f
ĠÙ¾ÛĮØ´Ø± ÙĪÛĮ
ÙĨ Ø§Ø³
ĠØ³ÙĪØ± Ùĩ
ĠØ¨ Ú©ÙĨØ¯
ÛĮØ± Ø§ÙĨÛĮ
ĠÙĪØ± ÚĺÙĨ
ÙĨØª ÙĪ
ĠÙ¾Ø± Ø±ÙĨÚ¯
ĠÛĮ Ø§Ø¨ÙĨØ¯
ĠØ³ÙĩØ§Ùħ Ø¯Ø§Ø±Ø§ÙĨ
Ùħ Ø§Ø¯ÛĮ
ĠÙ¾Ø± Ø®
ĠÙħÙĤ ÙĪÙĦÙĩ
ĠÙĨÙĪØ³Ø§ÙĨ Ø§Øª
2 5
Ø§ Ø«Ø±
p s
Ú¯ÛĮØ± ÙĨØ¯Ùĩ
Ø³ ÛĮØ±ÛĮ
Ù¾ Ø§ÙĨ
ĠØŃØ° ÙģÛĮ
ĠØªØ§Ø¬ ÛĮÚ©
ĠÙĩØ´Øª Ø§Ø¯
ĠØ³Ø¤ Ø§ÙĦØ§Øª
ĠØ¨ØŃ Ø±ÛĮÙĨ
ĠØ¢ Ø¯Ø§Ùħ
ĠS D
ĠÙĨÙĪØ± Ù¾Ø±Ø¯Ø§Ø²ÛĮ
ĠØ®ÙĪØ±Ø¯ Ú¯ÛĮ
ĠÙĨØ§Ùħ Ø²
ĠÙħØº ÙĦ
ĠØµØ§Ø¯Ø± Ú©ÙĨÙĨØ¯Ùĩ
Ø¢Ø¨ Ø§Ø¯ÛĮ
ĠØ¨ÛĮ Ø§ÛĮÙĨØ¯
ĠÙ¾ÛĮ Ø´Øª
ĠÙħØ±Ø§ Ø³ÙħÛĮ
ĠØ§Ø¨Øª ÙĦØ§ÛĮ
ĠØ§ÙħØªÛĮØ§Ø² Ø§Øª
Ġ it
3 5
ĠÙħØ·Ø§ÙĦ Ø¨ÛĮ
ĠÙħØ¬ Ø§Ø±Ø³ØªØ§ÙĨ
ĠÙħØ§Ø² Ø§Ø¯
ĠØ¯Ùĩ ÙĦÛĮ
at h
ĠØ´Ø´ ÙħÛĮÙĨ
ĠØ¨Ø¹Ø¯ Ø´
Ø±Ø¨ ÙĨØ¯ÛĮ
ÙĨÙħ ÙĪØ¯
ĠØ¢ÙħÙĪ Ø®ØªÙĩ
ĠØ³ ÙĦØ¨
ĠØ¨Ø±ÙĨØ¯ ÙĩØ§
Ø²ÙĨ ÛĮØ¯
ĠØªØ±ÙħÛĮÙĨ Ø§ÙĦ
Øª Ø´
ĠÙħÙĩØ± Ø¨Ø§ÙĨ
ĠÚ©Ùĩ ÙĨÙĩ
ÙĪØ³Øª ÙĪÙĨ
ĠØ²Ø±Øª Ø´ØªÛĮ
ĠÙħÛĮØ®ÙĪ Ø§Ùħ
Ø§Ø¨ ÙĤØª
ĠÙħØ´Ø±ÙĪ Ø·Ùĩ
ĠÙĨØ§Ø®Ø§ÙĦ Øµ
Ùħ ÙĪÙĨÛĮ
ÙĪØ¦ ÙĨ
ĠØ¨Ø³ Ù¾Ø§Ø±
ĠÙĩ ÙĪÛĮ
ĠÚĨ ÙĦ
ĠÚ©Ø´ Ø´
or ld
ĠÙħÙģ ÛĮØ¯ÛĮ
ĠÚ©Ø± Ø§ÙĨÙĩ
ĠØ³Ø±Ø¯ Ø±Ø¯
ĠÙħ Ø¨Ø§ÙĦ
ĠØµ Ø±Ø¨
ĠÙħØ£Ùħ ÙĪØ±
ĠÚ©Ø« ÛĮÙģ
ĠØ§Ø¹ Ø±Ø§Ø¨
ĠÙħØ§Ø³ Ùĩ
ĠØ´Ø§Ø¹ Ø±Ø§ÙĨ
ĠÙ¾ÛĮ Ø§ÙĨÙĪ
Ø³ÛĮØ³ Ú©ÙĪ
ind ows
ĠØ®Ø¯ Ø§ØŃØ§Ùģ
ĠØ§Ø± Ú¯Ø§ÙĨ
ĠÚ¯Ø±ÙģØª Ú¯ÛĮ
ĠØ§ÙĨ ÙĤØ¯Ø±
ĠØ´Ø§Ùĩ Ú©Ø§Ø±
o ad
ĠA ut
ĠÙģØ¶Ø§Ù¾ÛĮÙħ Ø§ÛĮ
ĠÙģØ±Ø²ÙĨØ¯ ØªØ§ÙĨ
ĠÙģØ´Ø§Ø± ÙĩØ§ÛĮ
ĠÛ±Û³Û¹Û ²
ĠÙĨ Ø·
ĠØªØŃ ÙĦÛĮÙĦÛĮ
ĠØ¯Ø¨ÛĮØ± Ú©ÙĦ
ĠØ§ÛĮÙĨ ÙĤØ¯Ø±
ĠÚĨ ÙħØ¯Ø§ÙĨ
ĠØ§Ø³ Ú©ÙĪ
Ø§ÛĮÙħ Ø±
ĠÛ±Û³Û ¹Û°
ĠÙĦÙĩ Ø¬Ùĩ
ĠÙģØ±ÙĪ Ù¾Ø§Ø´ÛĮ
ĠÛ±Û¹Û² Û°
ĠØªÙĦØ§ Ø´ÛĮ
Ø· Ø±Ø§ØŃÛĮ
ĠØªØ§ÛĮ ÙĪØ§ÙĨÛĮ
Ġi P
yst em
Ùħ Ø§Ø±ÛĮ
ĠC O
ĠØ¯ Ù¾
ĠÙģ ÙĪØªÛĮ
ÙĪÛĮ ÛĮØ¯
Ø§Ùĩ ÛĮØ±
ĠØŃ Ø§Ø¯
ĠØ§ÙħÙĪØ± Ø®Ø§Ø±Ø¬Ùĩ
ĠØ¨Ø¹Ø¯ Ø§Ø²
ĠØ§Ø® ØªØ±
ĠØ§ÙĪÙ¾ ÙĪ
ĠÚĨÛĮØ¯ ÙħØ§ÙĨ
ĠÙħÙĪÙĤ Ø¹ÛĮØªÛĮ
Ø¨ Ø§Ùģ
on d
ĠØ¨Ø§ ÙĤÛĮÙħ
ĠÚ©Ø±ÛĮ Ø³Ùħ
ĠØ§Ø³Øª Ø±ÛĮ
ĠÙħÙĪÙĨØª Ø§Úĺ
Ø§ÙĤ Ø¶
ĠÚ¯ÙĦ Ø¯Ø§ÙĨ
Ø³ÙĦ Ø·
ĠÙĨÙħ ÛĮØ¯ÙĪÙĨ
ĠØ¨ÙĨ ÙģØ´
ĠØ´ Ú©ÛĮ
ÚĨ Ø±Ø§
ĠÙħØ·Ø§ÙĦØ¨ Ø§Øª
ØŃ Ø³
ĠØ¯ÛĮ ÙĪØ§ÙĨÙĩ
ĠØ³Ø§ÛĮØ± ÛĮÙĨ
ĠØ´ Ø§ØªÙĦ
ĠØŃ ÙħØ§Ø³
ĠØ§Ùħ Ø´Ø¨
Û³Û ¸
ĠØ¨Ø³ Ø²Ø§ÛĮÛĮ
Ø§Ø± Ø¶
ÙĩØ§ Ø¨ÛĮ
ĠØªØ¬Ø§Ø± Ø¨
ÙĪØ¯ Ø§
ĠØ¢Ø¨ Ø§Ø¯ÛĮ
ĠØ¢Ú¯Ø§Ùĩ Ø§ÙĨÙĩ
S O
ÙĪ Ø§Ø¨Ø·
Ø® Ø·
ĠØ±Ùħ Ø²Ø§Ø±
ol og
ĠØ± Ø¬ÛĮ
ĠS m
ĠØŃØ§ÙħÛĮ Ø§ÙĨ
Ú©ÙĨ Ø´ÛĮ
ĠØ¬Ø¯ÛĮØ¯ ØªØ±
ĠÙħÙĨ Ùĩ
ĠØ§ÙĨÚ¯Ø´Øª Ø§ÙĨ
ØªÛĮ ÙĪÙħ
Ø¨Ø§ÙĨ Ú©
ĠØ¬Ø§ÛĮ Ú¯Ø§ÙĩÛĮ
ĠO S
ĠØ° ÙĪÙĤ
ĠØ¢Øº ÙĪØ´
ĠÙħ ÙĪÙĨÛĮ
ĠØ§ÙĨØªÙĤØ§Ø¯ Ø§Øª
ĠØ§Ù¾ÛĮØ² ÙĪØ¯
ÙĨ ÙĪØ±
ĠØ§ Ø±ÛĮÚ©
ÙĪÛĮ ÙĪ
ĠÛ±Û¸ Û°
ĠÛ±Û¹Ûµ Û°
ĠÙĪÛĮØ¯Ø¦ ÙĪÙĩØ§ÛĮ
ĠØ§ ØªÛĮ
ĠØ´ Ø§ÙĦ
ĠÙħØª ÙĨØ§
ĠØ§ØµÙĨ Ø§Ùģ
ĠØŃØ´Ø± Ø§Øª
ĠÙħØ¯ÛĮ Ø§ØªÚ©
ĠØªÙĪ Ø§ÙĦÛĮ
Ø¬ Ø±ÛĮÙĩ
ÙĦ ÙĨØ¯ÛĮ
ĠÙĨÙĩ ÙģØªÙĩ
ĠØ³Ø§Ø² ÙĨØ¯
ĠÚ©ÙĨØªØ±ÙĦ Ø±
ĠØ¬Ùħ Ø§ÙĩÛĮØ±
ĠÙħÛĮ Ú¯Ùħ
Ø§Ø¶ Ø¹
Ø¢Ø¯ Ø±Ø³
ĠØ¨ Ø²Ø§Ø±
ĠÙĪ Ø§ÙĨØª
Û³Û ´
6 5
S A
ĠØ³Ø±Ø¯ Ø¨ÛĮØ±
Ġ7 0
ĠÛ³Ûµ Û°
ĠÙĤ ÙģÙĤ
Û¹Û ²
ĠØªØ± ÙĨØ¯
ĠØŃÙĪ Ø¶
ĠÙħØ· Ø§Ø¨ÙĤØª
ĠÙĤÙĦ ÙħØ¯Ø§Ø¯
) )
ĠÛµ Û±
Ø§ Ø¡
Ġ6 4
ĠÙĪÙģ Ø§Ø¯Ø§Ø±ÛĮ
ĠØ¹Ø° Ø±
ĠØ§ØªØµ Ø§ÙĦØ§Øª
Ġb e
ĠØ²Ø§ Ú¯Ø±
Ø¨ ÙĤ
ĠØ±Ùģ Ø§ÙĩÛĮ
ĠÙĨ ÙħØ§ÙĨØ¯Ùĩ
ĠØªØ¹ Ø§ÙħÙĦÛĮ
ĠÙĦ Ø§Ø±
ĠÙĩ ÛĮØ±
ĠØ§Ø±Ø²Ø´ ÙħÙĨØ¯ÛĮ
ĠÙħÙĪ Ø¹Ø¯
is h
Ú¯Ø± ÙĩØ§ÛĮ
ĠØºÛĮØ± Ø¹
ĠÙĩØ§Ø±ÙĪ Ø§Ø±Ø¯
ĠØ³ Ø§Ú©
ĠØ§Ø± Ø³
ĠÙĩÙĦ ÙĨØ¯ÛĮ
Ġ us
Ùħ ÙĪØ¯
ĠÙħØ³Øª ØŃ
Ø§ÛĮ ÙģÙĩ
ĠØº ÙĦØ§Øª
ĠØ¶ ÙĪØ§Ø¨Ø·
ĠØ¯Ùģ Ø¹Ùĩ
o ot
ĠØ¬ ÙĩØ±
ĠÙ¾Ø±Ø¯ Ø§Ø®ØªÛĮ
ĠØ³Ø§Ú©ÙĨ ÛĮÙĨ
ĠØ¢Ø° Ø±ÛĮ
Ġ9 9
Ġ an
ĠÙ¾ Ø§Ø³Øª
ĠØ¨Ø±Ø® Ø§Ø³Øª
ĠØ§Ø¨Ø²Ø§Ø± ÙĩØ§ÛĮÛĮ
ĠØ§Ø®ØªØµ Ø§Ø±
ĠØ³ÛĮ Ø§Ø±
ĠÚ©Ø±Ø¨ ÙĪÙĩÛĮØ¯Ø±Ø§Øª
ĠÛ´ Û¹
ĠÛĮØ§Ø¯ Ø¨ÙĪØ¯
ÛĮÚ©Ø§ Ú¯ÙĪ
ic al
ÙĨ ÙĩØ§ÛĮØª
Ø²Ø§ÛĮ ÙĨØ¯Ùĩ
ĠÙħÛĮÚ©Ø±ÙĪ ÙģÙĪÙĨ
ĠÙĪØ§ Ø¬Ø¯
ÛĮÙĨÚ¯ ØªÙĨ
Ø¨Ø§ Øº
ÙĪØ¨ Ø±ÛĮ
ĠÚ¯ÛĮÙħ Ø±ÙĩØ§
ĠÚ©Ø±ÛĮØ³Ùħ Ø³
ĠÙĩ ÙĪÙĨØ¯Ø§
ĠØ¨ÙĩØ¨ÙĪØ¯ ÛĮ
ĠØ´Ø®Øµ Ø§
Ø± Ø¹
p en
Ø¯ Ø§ÙĨÛĮ
ĠØ³Ø± Ø¨Ø§Ø²ÛĮ
ĠØ¬Ø¯ Ø§Ø³Ø§Ø²ÛĮ
ĠØ¨Ø§ÙĤÛĮÙħ Ø§ÙĨØ¯Ùĩ
ĠØ¯ÛĮ Ø³
ĠÙĩÛĮ Ø¬Ø§ÙĨÛĮ
ĠØ³ÛĮ Ø§
ĠØªØ¶ Ø§Ø¯
Ø§Ø®Øª ÙĨ
ĠÙĩÙħÚĨ ÛĮÙĨ
ĠØ³Ù¾ Ø§ÙĩÛĮ
T P
ĠØ¯Ø±Ø¯Ø³Øª Ø±Ø³
ĠØ§ÛĮÙĨ Ø§
ĠØ§Ø¨Ø±ÛĮ Ø´Ùħ
ĠØ·Ø¨ÙĤ Ø§Øª
Ùģ Ø´Ø§ÙĨ
ĠØ§ÙĦÚ©Ø³ Ø§ÙĨØ¯Ø±
ĠØ¢ÙĨ ÙĩØ§ÛĮÛĮ
ĠÙĤ Ø´Ùħ
ĠØ²ÙĨÚ¯ ÙĨÙĩ
ĠØ¨Ø®Ø´ ÛĮØ¯
ĠÙĤØ¯Ø± ØªÛĮ
ĠØ¨Ø® ÙĪØ±Ø¯
Ø§Ø± Úĺ
ĠØ¯Ø± Ø¯ÙĨ
ĠÙĪØ± Ø´Ú©
ĠÚ©Øª Ø¨
Ú¯ Ø§Ø³
1 3
ĠÙģ Ø²Ø§ÛĮÙĨØ¯Ùĩ
Ùħ Ø±ÛĮ
Ø£ Øª
ĠÙħÛĮØ¯ Ø§ÙĨÛĮ
ÚĨ ÙĨØ¯Ø§ÙĨ
ĠÙĨÛĮ Ø¬Ø±ÛĮÙĩ
ĠØ¨ÙĨÛĮØ§ÙĨ Ú¯Ø°Ø§Ø±
ĠØ§Ø± Ø³Ø§ÙĦÛĮ
ĠØ¨Ø¯ ÙĪ
oun t
ĠÙĪ Ø³Øª
ĠÙĩØ²Ø§Ø± Ùĩ
ĠÙĨÙĪØ± ÙĪØ²ÛĮ
ĠØ° Ø§Øª
ĠÚ¯ÙģØª Ú¯ÙĪÛĮ
ĠØªØ¯ Ø§Ø¨
ĠØ±ÙĪÛĮØ¯ Ø§Ø¯ÛĮ
Ø§ÙĨÚ¯ÛĮ Ø²ÛĮ
ĠØ¨Ø®ÙĪØ± ÛĮØ¯
ĠÙħØ³ÛĮØŃ ÛĮØª
ĠØ´ Ø§ÙħÙ¾
ĠÙģÛĮØ± ÙĪØ²
Ø²Ø¯ Ø§ÛĮÛĮ
il d
Ġ19 9
ĠØ§Ø³Øª Ø±ÛĮØª
ĠØ§Ø¹ÙĦØ§Ùħ ÛĮÙĩ
ĠØ®Ø¯Ùħ Ùĩ
Ġw ith
ĠØ§ Úĺ
ĠØ¢ ÛĮÙĩ
Ø±Ø§ Ú©
ĠØ§Ø¬ Ø³Ø§Ùħ
ĠØ§ÙĨ Ø³ÙĪÙĦ
F i
ĠÚ©ÙĨ Ø´
Ø® Ø¯Ùħ
ÛĮØª Ø§
Ø±ÙĪ Ø²ÛĮ
ĠÙħØ¹Ø§Ùģ ÛĮØª
ĠÙħØ¨Ùĩ Ùħ
ĠØ´ Ø¬Ø§
ĠØ¯ÙĪ Ú©
Ø§ÙĨØ¯ Ø§Ø±Ø§ÙĨ
ĠÙħØ¨Ø§Ø±Ø² Ø§Øª
ĠØ´ Ø¹Ø§Ø¹
ĠØ§Ø±Ø§ Ú©
ĠØ³ ÙħØ¹
ĠÙ¾Ø³ ÙĨØ¯
ĠÙĨÙħ ÛĮØ´
Ùĩ ÛĮØ¯
ĠØŃ Ø´
ĠÙħÙĨ ÛĮ
un g
ĠÛ±Û³Û¸ Û¸
ou d
ĠÛĮÚ© Ø³Ø§ÙĨÛĮ
ĠØ±ÙħØ²Ø§Ø± Ø²
ĠÚ© ÙĦÙĩ
ĠØªØµ Ø¯ÛĮ
ÙĪ ÚĨ
ĠØ³ÛĮ Ø²Ø¯Ùĩ
ĠÙģØ±Ùĩ Ø§Ø¯
ØªØ± Ø§Ú©
Ú¯ ÙĪØ±
ĠÙĤ Ø§ØªÙĦ
ĠØ¬Ø¹Ùģ Ø±ÛĮ
Ø±ÙĪ Ú©
ĠØ¹ÙĪ Ø§ÙĤØ¨
ĠØ§Ø· ÙĦØ³
ĠØ¹Øµ Ø¨
ĠØµØŃ ÙĨ
ĠØ¢ÙĦÙģ Ø§
ĠØ§ÙħÙ¾ Ø±Ø§
Ø¹Ø¯ Ø§Ø¯
ĠØµ ÙħÛĮÙħÛĮ
ĠÚĺÙĨØªÛĮ Ú©
ĠØºÛĮØ± Ø±Ø³ÙħÛĮ
ĠØ³ÙĪØ¡ Ø§Ø³ØªÙģØ§Ø¯Ùĩ
ĠØ´ ÛĮÚ©Ø§Ú¯ÙĪ
ĠØ· Ø§ÛĮÙģÙĩ
ĠØ´ÛĮ Ø·Ø§ÙĨ
Ø¸ Ø±Ùĩ
ĠÙħØ§ÙĦ Ú©Ø§ÙĨ
o ol
ĠØ¨ÛĮ Ø§
Ø®ÙĪ Ø§Ùħ
Ø¢ Ø´
ĠÚ©Ø§ÙĨØ§Ø¯ Ø§ÛĮÛĮ
Ø¢Ùħ Ø¯ÛĮ
Ġ( )
ĠØ®ÙĦØ§ ÙģÛĮ
y s
ĠD r
ĠØ¨Ùģ Ø±ÙĪØ´
ĠB r
ĠØ¯Ø§Ø´Øª ÙĨÛĮ
ĠØ§Ø®ØªÛĮ Ø§Ø±ØªØ§ÙĨ
ou nd
ĠØ¯Ø± ÙĩØ§ÛĮ
ĠØ¯Ø³Øª ÙħØ§ÙĦ
ĠÚ©ÙĪ Ù¾Ùĩ
ĠØ¯ÙĪØ¯ ÙħØ§ÙĨ
ĠØ² Ø±Ùĩ
ĠÚĨØ´ ÙħÛĮ
ÙħÙĨ Ø·
Ø²ÙĨ Ùħ
ĠÙ¾Ùĩ Ù¾
ĠØ®Ø¨Ø± ÙĩØ§
Ø§Ùģ ÙĤÛĮ
ĠÙħØ®Øª ÙĦ
ĠØ§ÙĪÙħ Ø¯Ùĩ
ĠAnd roid
Ø¦ ÙĦ
ĠØªØ¯Ø±ÛĮ Ø¬ÛĮ
ĠØ¯ÙĪ ÛĮØ¯ÙĨ
ĠØ¨Ø®ÙĪØ§Ùĩ ÙĨØ¯
ĠG r
ĠÙĨØ§Ùħ Ø²Ø¯ÛĮ
ĠÙĪ Ø§ÛĮØª
Ø³Øª ÛĮÙĨ
ĠÙĩÛĮÚĨ ÙĪÙĤØª
ĠÚ¯Ø±Ø¯ Ø§ÙĨ
ĠÙħØ´ØªØ± Ú©ÛĮ
Ø·Ø¨ÛĮ Ø¹ÛĮ
ĠØ± Ø¦Ø§ÙĦ
ĠØ§ÙĦÚ©ØªØ± ÙĪÙħ
e ed
ĠÚ¯Ø± Ø§ÙħÛĮ
ĠÙħØ³ØªÙĨØ¯ Ø§Øª
ĠØ§ÙĦØ¬Ø² Ø§ÛĮØ±
ĠØ§Ø³Øª Ø¹Ùħ
Ġ3 00
ĠØ¨Ø§ÙĪØ± ÙĩØ§ÛĮ
ĠØªÙĩØ§ Ø¬ÙħÛĮ
ĠÙĨ Ø±Ø³ÛĮØ¯
ĠØ¯Ø±Ø¢ÙħØ¯ Ø²Ø§ÛĮÛĮ
ĠØ¯ÙħÙĪÚ©Ø± Ø§ØªÛĮÚ©
ĠÙ¾Ø³ ÙĪÙĨØ¯
ÙĪØ±ÛĮ Ø§ÙĨ
Ø§Ø® ÙĦ
ĠØ¨ÛĮ Ú¯Ø§ÙĨÙĩ
ĠØµ ÙħØª
ÙĪØ´ Ø§Ø±Úĺ
ĠØªØ¨ Ø§Ø±
ĠN ew
Ø¨Ùĩ ØªØ±ÛĮÙĨ
ĠÙĨØµ ÛĮØ¨
ĠÙģØ±Ø¢ÛĮÙĨ Ø¯ÙĩØ§ÛĮ
ĠØ¨Ùĩ Øª
ĠØªØ£ ÙĦÛĮÙģ
ĠÙĩ Ø¶Ùħ
ĠØ®ÙĪ ÙĨØ¯ÙĨ
ĠÙħØ§Ùħ ÙĪØ±
ĠØ§Ø³ØªØ« ÙĨØ§ÛĮÛĮ
ĠÙĨ Ø¦
ĠØ³Ù¾ Ø±
Ø¨ ÙĪØ³
ĠØ¯ÛĮØ¯ ÛĮÙħ
ĠÙħØ·Ø¨ÙĪØ¹ Ø§ØªÛĮ
Ø® Ø§ÙĨÛĮ
ĠÙ¾ ÙĪØªÛĮÙĨ
ĠØ±Ø³ Ø§ÙĦÙĩ
ĠÙĪØ³ ÙĪØ³Ùĩ
ĠØ§ÙĨØŃ Ø±Ø§Ùģ
ĠÙģ ÙĪØ§
ĠØ¬Ø§ÙĨ ÙĪØ±
ÙĨÙĪ Ø§Ø®Øª
Ø§ ÙĪØ§
ĠÙĨØ± ÙħØ§ÙĦ
ĠÙħØ´ Ø±Ùģ
ĠØ´Ø³Øª Ø´ÙĪ
Ùģ Ø§Øª
ĠØª ÛĮÙĦ
ĠÚ©Ø§Ù¾ ÛĮØªØ§ÙĨ
ĠØ§ÙĦ Ú©
Ùĩ Ø±ÛĮ
Ú¯ Ø´Ø§ÛĮÛĮ
Ø§Ø¦ ÛĮÙĩ
ĠÙģÙĪÙĦ Ø§Ø¯ÛĮ
ĠÙħÙĨ Ø´Ø§
ĠÙħØ¹ÙĨ Ø§ÛĮÛĮ
ĠØµØ¯Ø§ ÙĩØ§ÛĮ
ĠÛ³ Û°Û°Û°
ĠÙĪØ² ÙĨÙĩ
ĠØ²ÙĨ Ø§ÙĨÛĮ
ĠÙĤØ± Ø¶
ĠÙģÙĩÙħ ÛĮØ¯Ùħ
ĠÙħØ³Øª ÙĤ
ØªÙħ Ø§Ùħ
Ø§ÙĦ Ø§ÙĨ
Ú©ÙĦ Ø§ÛĮ
ĠÛ±Û¸ Ûµ
ĠÛ±Û³ Û°
ĠÙģØ§ÙĦÙĪ ÙĪØ±
Ø³Øª ÙĤÛĮÙħ
ĠØ¯Ø± Ø§Ø®ØªÛĮØ§Ø±
ĠØ¨Ø±Ø§ÛĮ ÙĨ
ĠØªÙĪØ¶ÛĮØŃ Ø§ØªÛĮ
ĠÙģØ¹ ÙĦ
ĠØ§Ø³ØªØ« ÙĨØ§
ĠÙĩÙħØ¯ ÙĦÛĮ
ĠÙĨØ§ÙĤ Øµ
Ø±ÙĪ ÛĮÙħ
ĠØ§ÙĨØ³ÙĪÙĦ ÛĮÙĨ
ĠÙħÙĨØµ ÙĪØ±
i er
ĠÙħÙĪÙĦ Ú©ÙĪÙĦÛĮ
ÙĨÙĪ Ø§Ø²
ĠØ¯Ùģ Ø¹Ø§Øª
C l
ĠØªÙĩ ÙĪØ¹
ĠØ´ÛĮØ± Ø§Ø²ÛĮ
ĠØ§Ùĩ Ø¯Ø§ÛĮ
ĠÛ±Û¹Û¹Û ³
ĠÚ¯ÙĨØ¬ Ø§ÙĨØ¯Ùĩ
ĠØªØ³ Ø§ÙĪÛĮ
ĠÙħØ³ÛĮØŃÛĮ Ø§ÙĨ
ØŃ Ø§Ø¶Ø±
ĠÙĩÙħ Ø³Ø§ÛĮ
ĠØ§ØŃ ÙĪØ§ÙĦ
ÙĪ ØªØ±
Ġ13 9
ĠØ¢ÙĦ Ø§Øª
ĠR es
ĠÙĨÙĪØªÛĮÙģÛĮÚ© ÛĮØ´ÙĨ
ĠÙħÙĪ Ø§ÙĤØ¹ÛĮ
ĠØ±Ø³ ÙĪÙĦ
ĠÙĩ Ø§Øª
Ø§Ø³ ÛĮÙħ
ĠØµ Ø¹ÙĪØ¯ÛĮ
ĠØ¨Ø³ÛĮ Ø¬
ĠÚ© Ø§ÙĦØ¨
ĠÙĨØ´Ø±ÛĮ Ø§Øª
ĠÙĨÛĮ Ø§ÙĪØ±
Ùħ ØŃÛĮ
ĠØ±ÙĪ Ø¨Ø±
Ùħ Ø®
ĠÚĺ ÙĦ
ĠÛ±Û± Û°
ĠØ§ØµØ·ÙĦØ§ØŃ Ø§Øª
Ø² ÛĮØ±
ĠÙģ ØªÙĪ
ĠÙĨÙģØª Ú©Ø´
ĠØ§ÙĦ ÙħØ§Ø³
ĠÙĩÛĮØª ÙĦØ±
ÙĪÛĮ Ú©
Ú©Ø³ÛĮ ÙĪÙĨ
ĠØ¨ ØºÙĦ
ĠÚ¯Ø± ÙħØ§ÛĮØ´
ĠÙħÙĪÙĨÛĮ Ø®
ĠÙħÛĮ ÙĦÙĩ
c r
ĠÛ±Ûµ Û°Û°
ĠØ³Ø¯ ÛĮÙħ
Ø³ ÙĦÛĮ
ĠÙ¾ Ø§Ø²ÙĦ
ĠØ¹ÙĦ Ø§ÛĮÙĤ
ĠØ§ÛĮÙĨ Ú©
ĠØ§Ø³ Ø±Ø§Ø±
ĠÙħÙĨØ§Ø³Ø¨ Ø§Øª
ĠØ³ÛĮÙħ Ø§ÙĨ
ĠØ§ØªÙħ Ø³ÙģØ±
ÙĤ ÙĩØ±
Ø¬Ùħ Ø¹ÛĮØª
Øµ Ø±ÙģÙĩ
ĠÙħÙĨ Ø§Ø²ÙĦ
ĠØ¢ÙĦÛĮ Ø§Úĺ
ÛĮÙħ ÛĮØ±
ĠÙģ ÛĮØª
ĠØ¬ Ú©Ø³ÙĪÙĨ
ĠÙĨÙħØ§ÛĮ ÛĮÙħ
ĠØ® ÙĨØ¯
ĠÙĩÙĪØ´ ÛĮ
ĠG ear
ĠÚ¯Ø±Ø³ ÙĨÚ¯ÛĮ
ĠØ±Ø³ÛĮØ¯ ÛĮÙħ
ĠØ´Ø§Ø± Ù¾
ĠÙĨ Ø®ÙĪØ§ÙĩÛĮÙħ
ĠL e
ĠØ§Ø³Ùħ Ø´
ĠÙħØ¬ÙĦ Ø³ÛĮ
ĠØ¢ÙĦ Ø²
ĠØ¯Ø§Ø± ÙĨØ¯Ùĩ
ĠØ§Ø³Ú©Ø§Øª ÙĦÙĨØ¯
Ġw h
ĠÚ©ÙĨØªØ± ÙĦÛĮ
Ø¨ Ø§ÛĮØ¯
ĠÙĨÛĮ ÙģØª
ĠØªØµ ØŃÛĮØŃ
ĠØ³Ø±Ø³Ø¨ Ø²
ĠÙĨ Ú©Ø±Ø¯ÙĨØ¯
ĠÙħÙĨØ´ Ø£
ĠÙ¾Ø§ÛĮ Ø¨ÙĨØ¯
ĠÚ©Ø± ÛĮÙħÛĮ
ĠØ®ÙĪ Ø§Ø¨ÛĮ
Ġ2 2
Ø§Ùĩ ÛĮÙħÛĮ
ĠØµ ÙħÛĮÙħ
l t
ĠÙĨÙĪ Ù¾Ø§
ĠØ¨Ø± Ø§ÙĤ
ĠÙģ Ùĩ
ĠÚ©ÙĪÚĨÚ© ØªØ±ÛĮÙĨ
ĠÙģÛĮÙĦÛĮ Ù¾
ĠØªÙĪ Ø§ÙģÙĤÛĮ
ĠØ¢Ø³ Ø§ÛĮØ´
ĠÙħÛĮ Ú¯ÙĨ
ĠÛĮÚ© Ø³Ø§ÙĦ
ĠØ§ÛĮØ³ ÙĨØ§
ĠÙģØ±Ø§ÙħÙĪØ´ ÛĮ
ĠØ³ÙĪØ¦ Ø¯ÛĮ
ĠØ²Ùĩ Ø±Ø§
Ùħ ÙĦÛĮ
ĠØ¯Ø® ÛĮÙĦ
ĠÙħØ´Ø®Øµ Ø§
ÛĮØ± Ø§ÙĨ
ĠØ¨Ùĩ Ø²ÛĮØ³ØªÛĮ
ĠØ¶ Ø§ÛĮ
ĠÙħÙĨ ÛĮØ²
ĠØ¨ÛĮ Ø§Ø¨ÛĮØ¯
ĠØªÙĪØ±Ø¨ ÙĪØ´Ø§Ø±Úĺ
ĠÙĪ Ø±Ú©
ĠÙĪ ÙĨÛĮØ²
ĠØ´ÛĮ ÙĦÛĮ
Û¹Û ·
ĠØ¢Ø± Ø´ÛĮ
ĠØ¨ÙĦÙĨØ¯ ØªØ±ÛĮÙĨ
ĠØ´ÙĨ ÙĪØ§ÛĮÛĮ
ĠÙĦ Ø´Ú©
ĠØªÛĮÙħ Ø´
ĠØªÙħØ§ÛĮ ÙĦÛĮ
ĠØŃØ§ÙĦ Ø§Øª
ĠØ´Ø§ÙĨ Ú¯
ÙĨ Ø³Ø±
ĠØ®ÙĪØ´ ØŃØ§ÙĦÛĮ
Ø´ ÙħØ§
¹Û ¹
ĠØ¢ÙĩÙĨÚ¯ Ø³Ø§Ø²
ĠÚ© Ø§ÙĪØ±
ĠØ¨Ø§Ø² ÙĩÙħ
ĠÙ¾Ø§Ø± Ø§
ĠØ±Ø´Ø¯ ÛĮ
ĠÚ©Ø´ÙĪØ± Ø´
ĠØ¨Ø±Ø´Ùħ Ø±Ø¯
Ø§Øª ØŃ
i um
ĠØ² Ø±Ø§
Û² Û¸
ĠØ±ÙĪÛĮÚ©Ø±Ø¯ ÛĮ
Ù¾ Ø±Ø³ÛĮ
ĠÙħÙĪØªÙĪØ± Ø²
ĠØ§Ø³Ù¾ Ø±ÛĮ
ĠÛµ Û³
ĠØ§ÙĪØ± ÚĺØ§ÙĨØ³
ĠÙ¾ÛĮÚ© Ø±Ø¨ÙĨØ¯ÛĮ
ĠÙ¾ÙĦØ§ Ú¯ÛĮÙĨ
ĠØ¹ÙĦØ§ÙĤ ÙħÙĨØ¯Ø§ÙĨ
ĠÙħØ§Ø¨ ÙĤÛĮ
ĠÙħÛĮ Ø¯ÙĩÙĨØ¯
ĠÙħØªØ± ÙħØ±Ø¨Ø¹
ĠØ¬Ø³ ÙħØ§ÙĨÛĮ
ĠØŃ ÛĮØ±Øª
ĠÙĪØ§Ø´ ÛĮÙĨÚ¯ØªÙĨ
ĠØ¬ Ø§ÙĨØ³ÙĪÙĨ
ĠØ§Ø³ ÙĦÙĪ
ran s
ĠØ¨ÛĮÙĨØ¯Ø§Ø² ÛĮØ¯
ĠØ´ ÙĩØ§Ø¨
ĠØ¨ÙĨ Ø§Ø¯Ø±
ĠÙĨØ§Ø®ÙĪØ´ Ø§ÛĮÙĨØ¯
ÙĪÙĦ ØªÛĮ
ĠÙĨØ® ÙĦ
ĠÚ©Ø±ÛĮØ³Øª Ø§ÙĦ
ĠØªØ®ÙĦÙģ Ø§Øª
ĠÚ© ÙĨØ¯Ùĩ
ĠÙ¾ÚĺÙĪÙĩØ´ Ú¯Ø§Ùĩ
ĠÙģØµ ÙĪÙĦ
Ø¨ Ø±Ø§
ĠÙħÙĤ Øª
ĠØŃÙĦ Ø§ÙĦ
ĠÛ±Û³Û¹Û ³
D A
ĠØ® ÙģÛĮÙģ
ĠØ¨Ø§Ø² Ø¨ÛĮÙĨÛĮ
Ø§ÛĮØª Ø¯
ĠÙħØ´Ø§Ùĩ Ø¯
ol l
ĠÚ©Ø§Ùģ Ø¦ÛĮÙĨ
ĠØ®Ø¯Ø§ØŃØ§Ùģ Ø¸ÛĮ
ĠÙħØ³Øª Ø¹Ø¯
ĠØ§ÙĨ Ø´
ĠØ¯Ø³Øª Ø®ÙĪØ´
ĠÙħØ±Ú© Ø¨
ĠØ§Ø¹ØªØ¨Ø§Ø± Ø§Øª
Ùħ Ø§Ùħ
ĠØ¨Ø± ÙĪÙħ
ĠØ¨ÛĮ Ø³
ĠÛ±Û¹Û¸ Û¹
ĠÙħÛĮÚ©Ø±ÙĪ Ø¨
ĠØ´Ú¯ÙģØª ÛĮ
Ø²Ø¯ ÙĨ
ĠÛ²Ûµ Û¶
Ø§ÙģØª ÙĨØ¯
ĠÛ³Û ³Û
ĠØ³ØŃ Ø±
ĠØ¢ Ú©ÙĪ
ĠØªØ¹Ø§ÙħÙĦ Ø§Øª
ĠØ¢Ø³ÛĮ Ø§Ø¨
ĠÙĨÙħØ§ Ø¯ÙĩØ§ÛĮ
ĠØ§ÛĮØ¯ Ø¦
Ú© Ùģ
ĠÙģ Ø¯
ĠØ± Ø¨ÙĪØ¯
ĠÚ¯ÙĪ ÛĮÙĨØ¯
ĠØ§Ø³ÙģÙĨØ¯ ÙħØ§Ùĩ
ĠÚ© Ø¨ÛĮØ±
ĠØ±Ø§ Ø¯Ø§Ø±
ÛĮØ´ ÙĪÙĨ
ÙĪØ³ Ø§Ø²ÛĮ
ĠÙħÙĦ ØŃÙĤ
ĠØªÙĤÙĦ Ø¨ÛĮ
ĠÛĮ ÙĪØ±
ĠÙĦ ÙĪØ¯
ĠÙĨÛĮØ±ÙĪ ÙĩØ§
U I
ĠÚ© Ø§Ú©
ĠØ´Ø§ÛĮØ¹ Ø§ØªÛĮ
ĠØ´ Ø§Ù¾
ĠØ¯ÛĮ ÙĪ
ĠÚĺ ÙĨÙĪ
ĠØ§Ø³Ù¾ Ø±Ùħ
ĠØ§ÙĦ ÙħÙĦÙĦ
ĠÙĨ ÙĪØ±Ø¯
ĠØ§Ø®ØªÛĮØ§Ø± Ø§Øª
ĠÙħØ¹ ÙĤÙĪÙĦ
ĠØµØ¯ ÙĤ
ĠÙħÚ©Ø§ÙĨÛĮ Ø³Ùħ
ĠØ¯ÙĪ ÙĤ
O M
ĠÚ©ÙĨØªØ± Ø§Ø³Øª
Ø¯Ø±Ø§ Ú¯ÙĪÙĨ
ĠÙħØŃ ÙĪØ±ÛĮ
ĠØ§Øª Ú©Ø§
ĠØ§Ø³ØªØ§Ø±ØªØ§Ù¾ ÛĮ
Ġ as
ĠØ®Ø±ÛĮ Ø¯Ùĩ
ĠÚ¯ ÙĦÙĩ
ĠØ³Ø± Ø·Ø§ÙĨÛĮ
ĠHT ML
ĠØ¨ Ø§ÛĮØ±
ĠÙĨÙħÛĮØª ÙĪØ§ÙĨ
ĠÚ© ÙħØ§ÙĨ
ÙĦ ÛĮÙĨÚ¯
ĠÚĨ ÙĨ
ĠØ§Ø¬ Ø²Ø§
ĠØ¹Ø¨Ø§Ø± Ø§Øª
ĠØªÙĨ Ø§Ø³
Ø¢Ùħ ÙĪØ²ÛĮ
ĠØ§Ø¯ Ø¨
ĠâĢ ¬
ĠØ±ÙģØª ÛĮÙħ
Ø§Ø¯ Ø±ÛĮ
ĠØ§ÙĪÙĦ Ø¯
ĠÙĨØµ Ø±
ĠØ®ÙĦØ§ Øµ
ĠÚ¯Ø± Ú¯Ø§ÙĨ
ĠÙĪØ±Ø²Ø´ Ú©Ø§Ø±
ĠØ¯Ø®ØªØ± Ø´
ĠØ¨ÙĦÙĪ Ø§Ø±
ĠÙħØ±Ø¨ÛĮ Ø§ÙĨ
ĠÚ¯ÙĦ ÙĪØ¨
ĠÙĪ Ø§ØªÛĮ
Ġ ch
ĠÙħ ÙĨØ¯ÛĮ
ĠØ¹ Ø§Ø´
ĠÚ©ÙĪÙĩ ÛĮ
ĠØ§ØŃØª Ø³Ø§Ø¨
ĠB e
ĠØ¨ ÙĤ
ĠÚ¯ÙĪ Ø§Ø±Ø´
ĠÙħØŃÙĤÙĤ ÛĮÙĨ
ĠØ§ ÙħÛĮ
Ú©Ø§Ø± Ø§
ĠØ®ÙĪ Ø¨Ùĩ
ĠÙģ Ø³Øª
ØªÙĪØ§ÙĨ ÛĮ
ĠW ik
Ø¯ ÙĪÙħ
ĠÙħØ® ÙģÙģ
ĠØ§Ø´ÛĮ Ø§ÛĮ
5 00
ĠÙ¾ÛĮØ¯ Ø§Ø³Øª
ĠØª Ø®ÛĮÙĦÛĮ
ĠÙĪÛĮ ÙĪ
ĠÙ¾ÛĮØ± ÛĮ
ip edia
ĠØ¯Ø±ØµØ¯ Ø¯
ĠØ±Ø¬ ÙĪØ¹
ĠÙĤØ¶ Ø§Ø¦ÛĮÙĩ
ĠÙĨØ§ ÚĨÛĮØ²
Ø´ ÙĪÙħ
ÚĨ ÙĤØ¯Ø±
ĠØ· Ø±ÛĮ
ĠÙĪÛĮÙĨØ¯ ÙĪØ²ÛĮ
ĠØ¯Ø±Ø¨Ø± Ø§Ø¨Ø±
ĠØ¬ÙĪ Ø¬Ùĩ
ĠÙ¾Ø§Ø¯Ø´Ø§Ùĩ Ø§ÙĨ
ĠÙ¾ ÛĮÙĦ
ĠØ¢ØºØ§Ø² ÛĮÙĨ
ĠØ¨Ø± Ø±ÙĪÛĮ
ĠØ²Ø§Ø¯ Ú¯Ø§Ùĩ
ĠØŃÙģØ§ Ø¸
ÙĨ Ø®
Â» Â»
ĠØ¬ ÙĪÙĦÛĮ
ĠÙħØŃ ÙĪØ±ÛĮØª
ĠA c
ĠÙĦØ§ ØºØ±ÛĮ
ĠØŃÛĮ ÙĪØ§ÙĨÛĮ
ĠÙĤ Ø§Ø·Ø¹
ĠØ³ÙĦ Ø¬ÙĪ
ĠÙĩØ±Ú© Ø³ÛĮ
ĠÙģØ§ÛĮ Ø±Ùģ
ĠØ®Ø¯Ø§ÛĮ Ø§ÙĨ
Ø§Ø¯ Ø´
ĠØ¯Ùħ Ú©Ø±
Øª Ø¨Ø§Ø±
Ø±ÛĮÚ© Ø§ÛĮÛĮ
ĠØ§Ø³Ú©ÙĨØ¯ Ø±
ĠØ¨Ø± ÙĪØ¬
ĠØ´Ùħ Ø³
ĠØ¨ÛĮ Ø²ÛĮÙĨ
ĠÙ¾Ø± Ø³ÛĮØ¯Ùĩ
ĠÙĨÙĪÛĮØ³ Ø§ÙĨ
ĠØ§ØµÙģÙĩ Ø§ÙĨÛĮ
ĠÙ¾ Ø³ØªÙĩ
ĠØ¯ÙĪØ³Øª Ø´
ĠÙĨÙĪØ¢ÙĪØ± Ø§ÙĨÙĩ
ĠØ®ÙĪ Ø´ÛĮ
ĠÙħØ³ Ø§ÛĮÙĦ
ĠØ¢Ø³Øª ÛĮÙĨ
ĠØ® Øµ
ĠØ¨ÙĨØ² ÛĮÙĨÛĮ
Ø³ ÙĪØ±ÛĮ
ÙĪÙģ Ø§ÛĮÛĮ
ĠØªØ±ÛĮ ÙĦÛĮÙĪÙĨ
ĠSu per
ÙĪÙĤ ØªÛĮ
ĠÙĪØ² ÙĨÛĮ
ĠÙ¾Ø§Ø±ÙĦ ÙħØ§ÙĨÛĮ
ĠØ³ Ø§Øª
ĠÚ©ÙĨ Ø§Ø±ÛĮ
ĠØ´ÙĪ Ø§ÙĩØ¯ÛĮ
ĠØ³Ø±ÙħØ§ Ø®ÙĪØ±Ø¯Ú¯ÛĮ
ĠØªÙĦÙģÛĮ ÙĤ
ÚĨ ÙĨ
B A
ĠÚ©Ø§Ø± Ú¯ÛĮØ±ÛĮ
ĠÙ¾ ÙĪÛĮ
ĠØ¹ Ø§Ø¯Ø§Øª
ĠØªÙĪ Ø´
ĠÙģÛĮÙĦØ³ ÙĪÙģ
Ġ or
ÙħØ¯ Ø§Ø±Ø§ÙĨ
ĠØ³ÙĦÛĮ ÙħØ§ÙĨÛĮ
ĠØªÙħØ§Ø´Ø§ Ú¯Ø±Ø§ÙĨ
ĠÙħÚ©Ø§ÙĦ ÙħØ§Øª
ĠÚĨ Ø§Ø¨
Ø§Ùģ Ø±ÛĮ
ĠA RM
ĠØ¹ Ø§ÙħÙĩ
ĠÙħÙĨØ¹ Ú©Ø³
ĠÙĪØ§ Ú©ÙĨØ´ÛĮ
ĠØ§Ø³ØªØ§ÙĨØ¯ Ø§Ø±ÛĮ
ĠÙ¾ÙĨ Ø¨Ùĩ
ĠÙħØ¹ Ø¶ÙĦ
if t
ĠØ³Ø§ÙĤ Ùĩ
ÙĪØ´ Ø§Ù¾
ro w
Ùħ Ø¬
ĠØ´Ø¯ ÛĮØ¯Ø§
Úĺ Ø§ÙĨ
ĠÚ¯Ø± ÙĨØ¯
ĠØªØ´ Ú©ÙĦ
ĠØ§Ø³ÛĮ Ø¯ÙĩØ§ÛĮ
ĠØ³Ø§ÛĮ ØªÛĮ
ĠØ®ÙĪ Ø§Ø¬Ùĩ
ĠØ³Ø§Ø³ Ø§ÙĨÛĮØ§ÙĨ
Øª Ø£
ĠP ower
ĠÙħØª ÙĪÙĦÛĮ
Ø±ÙĪ ÙģÛĮ
Ø¨ÛĮ Ø¯Ùĩ
ĠÙģØ± Ø¶ÛĮ
ĠØ´ÙĪ ÙĨØ¯Ùĩ
ĠØ§ÙĨÙĤ Ø±Ø§Ø¶
on s
ĠÙħØ¬ÙĪØ² ÙĩØ§ÛĮ
ĠÙħØ± Ø¬
ĠÙĩÙģØª ÙħÛĮÙĨ
ĠØ¨ÙĪÛĮ ÚĺÙĩ
Ùħ ÛĮØª
ĠÙ¾ Ø§ÙĩØ§
ĠÙĤÙģÙĤ Ø§Ø²
ĠØ§ÙĨÚ¯ ÙĪØ±
ĠØ¬ÙħÙĩÙĪØ±ÛĮ Ø®ÙĪØ§Ùĩ
ĠØªØ¹Ø§ ÙĪÙĨ
ĠÚ©Ø§ÙħÙ¾ÛĮÙĪØªØ± ÙĩØ§
ĠÙħØ«ÙĦ Ø«
ĠØ¨Ú©Ø§Ø± Ú¯ÛĮØ±ÛĮ
ĠØ§Ø³ØªÛĮ ÙĪÙĨ
ĠÙ¾ Ø§Øª
Ø¨Ø± Ø§Ø¨Ø±
ĠÙĩØ± Ø§Øª
Ú¯Ø°Ø§Ø± ÛĮØ¯
ĠØ¨Ø±Ø³Ø§ÙĨ ÛĮÙħ
ĠÙĪÚ© Ø§ÙĦØª
ĠØ± Ø®Øª
Ø´ÙĨØ§Ø³ ÛĮÙħ
ĠÙĩ Ø§Ùģ
ĠÙĨÛĮØ§Ø² ÙĩØ§
ĠÙ¾Ø±Ú©Ø§Ø± Ø¨Ø±Ø¯
ĠÙħÙĪ Ø§Ø¶Ø¹
ĠÙ¾Ø¯ÛĮØ¯ Ø§Ø±
ÙħÛĮÙĦ Ø§Ø¯ÛĮ
ĠÙħØ§ÙĩÛĮ Ø§ÙĨÙĩ
ĠØ§ÙģØ² Ø§ÛĮØ´ÛĮ
Û² Û±
ĠØŃ ÙĦÛĮ
ĠØ´Ø± Ø·ÛĮ
ÙĤØ§ÛĮ Ø³Ùĩ
ÙħØŃ ÙĪØ±
ĠÚĨÚ¯ Ø§ÙĦÛĮ
ĠØ¯Ø¹ ÙĪØ§
ĠÙĪØ§Ø± Ø¯Ùĩ
Ù ¢
ĠØ¯ ÛĮÙħ
Ø§ÛĮ Ú©Ø³
ĠÚĨ Ø³
I P
ĠØ³ÙĪØ¯ ÙħÙĨØ¯
ĠØ§Ø± Ø¨Ø§Ø¨
ĠÙ £
ĠØŃØ¬ Ø§Ø¨
ĠÙħÛĮ Ø±Ùĩ
ĠÙĩÙħ ÙĪØ·
ĠØµ Ø±ÛĮØŃ
ĠÙ¾ÙĪØ´ Ø§ÙĨØ¯Ùĩ
ion s
ĠÚ© ÙĪÙĨ
ĠÙĩÙħÚ©Ø§Ø±Ø§ÙĨ Ø´
ĠØ§Ø¨ Ø±ÙĪ
! )
Ø² ÙĪÙĨ
ĠØ± Ø³ØªÙħ
ĠØ¯Ø§Ø´ Ø¨ÙĪØ±Ø¯
ĠØªÙĨ Ø¨ÛĮÙĩ
ĠØ³ÙĪØ§ÙĦ Ø§ØªÛĮ
ĠÙħÙĨÛĮØ² ÛĮÙħ
ĠÙĩÙħØ§ÙĨ Ú¯ÙĪÙĨÙĩ
Ùħ ÙĪØ²
ĠÙħÛĮ ØªÙĪØ§ÙĨÙĨØ¯
ĠØªÙĪØ±ÛĮ Ø³Øª
ĠØ§ÙĤ Ø¨Ø§ÙĦ
ĠÚ© ÙĪÙħ
ĠØª Ø°Ú©Ø±
ĠÚ¯ÙĦ Ø³
ĠØ¨Ø³Øª ÙĨÛĮ
ĠÙĨÙĪØ´Øª Ùħ
ÙĨØ¬ Ø±
Û² Û·
ĠIn t
ĠÙģØ±ÙĪØ´ Ú¯Ø§ÙĩÛĮ
ÙĪØ´ÙĨ Ø¨Ùĩ
Û¹Û ´
Ø®ÙĪØ¯ Ø±ÙĪ
ĠØ§ÛĮÙĨ Ø³Øª
ĠØ³Ø§ÙĦ Ø§Ø¯
ĠØ±Ø§Ùĩ Ú©Ø§Ø±ÛĮ
ĠÚ©Ø§ÙĨ ÙĨ
Ø³ÙĦØ· ÙĨÙĩ
ĠÙĦ ÙĤ
Ú© ÛĮÙĨÚ¯
Ø´Øª ÛĮÙĨ
ĠØ¢Ø³Ø§ÙĨ Ø³ÙĪØ±
ĠØ¨ÙĦÙĨØ¯ Ú¯ÙĪ
ĠØ§Ø´ Ø±Ø§Ùģ
Ú¯ ÙħÛĮ
Ø§ØŃ ÙħØ¯
ĠØŃÛĮ Ø«
ĠÚ©Ø§Ø¨ ÛĮÙĨØª
ĠÙĨ Ø´Øª
ĠM ar
ĠØªØ´Ú©ÛĮÙĦ Ø§Øª
ÙĤÛĮ ÙĤÛĮ
ĠÙħØ³Øª Ø«
or ce
ĠÙĤØ²Ø§ÙĤ Ø³ØªØ§ÙĨ
ĠÙħÙĪ Ú©ÙĪÙĦ
Ø£ ÙĦÙĩ
ĠÙħØ¤Ø³ Ø³Ø§Øª
ĠØ§Ø³ØªØ§Ø¯ÛĮ ÙĪÙħ
ĠØªØ±Ø§Ùģ ÛĮÚ©ÛĮ
ĠÚ¯ÙģØªÚ¯ÙĪ ÙĩØ§ÛĮ
ĠØ´ Ø¬
Ø¯ ÙĪØ´ÙĨØ¨Ùĩ
ĠØ¨Ùĩ Ø´ÙĪÙĨ
ĠÙ¾ÙĪ Ø³ØªØ±
ĠP re
ĠÚ©ÙĨ Ùģ
ĠØ®ÙĪ Ø´ÙĨ
ĠØ¢ÙĦÙĪÙħÛĮÙĨÛĮ ÙĪÙħÛĮ
ĠÚĨ Ùħ
ĠÙħØ¹ Ø§Ø´
ĠØ¯ÛĮØ² Ø§ÛĮÙĨ
ĠÚ©ÙĦØ§ÙĨ Ø´ÙĩØ±
ĠÚ© Ø§ÙĨØ³
ØªØ±ÛĮ ÙĪÙħ
Ø§Ø¯ÙĦ Ø§Øª
ĠØ³Ø±Ú© Ùĩ
ĠÙ¾Øª Ø§Ø³ÛĮÙħ
ĠØ³ÙĨ ÙĨØ¯
ĠÙħØ¹ Ø§Ø¯ÙĦÙĩ
er o
ĠÙĦØ§ÛĮ ÙĪ
O LED
ĠÙħÛĮ Ú©Ø±ÙĪØ³
ĠÙĦ Ø¦ÙĪÙĨ
ĠØ¯Ø³Øª ÙĪØ±ÛĮ
ĠØ²ÛĮØ³Øª Ú¯Ø§Ùĩ
ĠØ²Ùħ Ø±Ùĩ
ĠØ±ÙĪÛĮ Ø§ÛĮÛĮ
Ø§ØŃØª ÙħØ§ÙĦ
ĠÙħÛĮ Ú¯ÙģØª
ĠØ¨Ø§Ø± ÙĪØ±ÛĮ
ĠWik ipedia
ĠØ¹Ø¬ ÙĦÙĩ
C C
ĠC re
Ø¶ Øª
ĠÙħØ¨Ø§Ø± Ú©
ĠÛ±Û¶ Û°
ĠØ®ÙĪØ´ Ø§ÛĮÙĨØ¯
Ø« Ø§ÙĨÛĮÙĩ
ĠØ´Ú© ÙĪÙģØ§ÛĮÛĮ
Ø§ÙģØ²Ø§Ø± ÙĩØ§
ĠÙģÙĦÙĪØ± ÛĮØ¯Ø§
ØªÙĪÙĦ ÛĮØ¯
ĠÚ¯ÙĪØ³Ùģ ÙĨØ¯
ĠØ¢ÙĦØ² Ø§ÛĮÙħØ±
ĠÙħÛĮ Ø¯ÙĨ
Ø³ ÙĪÙħ
ĠÙĤ ÙħØ±
Ø§Ø¯Ùĩ Ø§ÛĮÛĮ
ØŃ ÙĦÛĮ
ĠÚ©Ø´ ÙĨØ¯Ùĩ
ĠØ¯ Ú©ÙĦ
Ø´ ÙĤ
ĠÙģØ§ÛĮØ±Ùģ Ø§Ú©Ø³
ĠÛ³Û ±Û
ĠÚ©ÙĦÛĮÙĨ ÛĮÚ©
ĠØ³Ø± ÙĩÙĨÚ¯
Ø±Ø¯ Ø§Ùħ
ĠÙ¾Ø§ ÙĪÙĦ
ĠÙħØ± Ø®ØµÛĮ
ĠØ±Ø§Ø³Øª Ø´
ĠØ§ÛĮ ÛĮ
Ġs h
Ø¨ ÙĦÙĩ
ĠØ¢ÙĨ ÚĨÙĨØ§ÙĨ
ĠÙħØ³Ø§ÙģØ± Ø¨Ø±ÛĮ
ĠÛĮÙĪÚ¯ Ø§
ĠØ¨ÙĦØ§Ú© ÚĨÛĮÙĨ
ĠÙģØ´ Ø±Ø¯ÙĨ
ĠÙħÛĮ Ø¯Ùħ
ĠØ¨Ø§ Ú©
ĠÛĮÚ© Ø³Ø±ÛĮ
ĠØ´Ø§ ØªØ±
ÛĮ ÙĪ
ĠÙĦÛĮÙĨÚ© Ø¯ÛĮÙĨ
ĠØ³Ø§Ø² ÙĩØ§ÛĮ
ĠÙħÙĤØ§ÙĪÙħ ØªÛĮ
ĠØ¢ Ø³Ùħ
ĠØ¢ÙĨ Ø§Øª
ĠØ¨ÛĮ Ø§ÙĨØ¯Ø§Ø²
ou s
ĠØ´Ø§Ùĩ ÙĨØ§ÙħÙĩ
ĠØ¢ Ú©Ø³
ÙħÛĮÙĦÛĮ ÙĪÙĨ
ĠØ¨ Ú¯Ø°Ø±
ĠØ±Ø§ Ø¨ÛĮÙĨ
ĠØ§Ø³Ùħ ÛĮØª
ĠÙĦ ÙĨØ¯
Ø§ÙĦÛĮ Ùĩ
ĠØ±Ø¶ Ø§ÛĮÛĮ
ĠÙħØ³ Ø£ÙĦÙĩ
ĠØ´ÛĮ Ø¡
Ø±Ø³ Ø§ÙĨÙĨØ¯
at ive
ĠØªØ³ Ú©ÛĮÙĨ
ĠØ¯Ø±Ø¯ÙĨ Ø§Ú©
ĠØªØ´ Ø±ÛĮÙģ
ĠØºÛĮØ±Ùħ Ø³ØªÙĤÛĮÙħ
ĠØ¨Ø´ÙĨØ§Ø³ ÛĮØ¯
1 4
Ø¸ ÙĩØ±
ĠØ¢Ø´ Ø§Ùħ
ĠØº ÙĪØ§
ĠÙħØµ Ø§Ùģ
ĠØ¯ Ø³Ø±
ĠØµ Ø§ÙĦØŃ
ĠÙģØ±ÙħØ§ÙĨØ¯Ùĩ Ø§ÙĨ
Ø³Øª ÙĨØ¯
Ù¾ ÙĨØ¯
ĠÙħØ§ÙĨ ÙĪØ±
ĠØ¨ÛĮÙħØ§Ø± Ø³ØªØ§ÙĨÛĮ
Û² Û¶
ĠÙģÙĪØ§ ØµÙĦ
o h
ĠØ´ Ø±Ùħ
Ø§ÛĮØ± Ø§ÙĨ
ĠÙħ Ú©ÙĦ
ĠØ¹ Ø§Ø²Ùħ
ĠÙĨÛĮ ÙĪ
ĠÙĨ ÙĪÙĩ
ĠØ±ÛĮØª Ùħ
ĠØ±Ø² ÙħÛĮ
Ø§Ø±Ø¯ Ø§Ø´Øª
ĠÙħØ²Ø§Ø± Ø¹
Úĺ ÙĨÛĮ
er n
ĠØ¢ Ø±Ú©
ĠP H
ĠØ¨Ø´ ÙĪÛĮÛĮØ¯
ĠÙħÙĩÙĨØ¯ Ø³ÛĮÙĨ
ĠØ¢Ø³ ÙħØ§ÙĨÛĮ
ĠØ¹Øµ Ø§Ø±Ùĩ
ĠØ¨Ø§ ÙĦÛĮ
ĠØ² Ø§Ùħ
ĠØµ Ø§Ø¨ÙĪÙĨ
Ú© ÙĪØ¨
ĠÙĤØ§Ø¹Ø¯ Ú¯ÛĮ
ĠØª Ø´ÙĨ
Ø¬ ÙĦ
ĠØ§ÙĤØª Ø¨Ø§Ø³
ĠØªØ¯ Ø¨ÛĮØ±
ĠÙħØ¹Ø¬ Ø²Ùĩ
Ùĩ Ø²ÛĮÙĨÙĩ
ĠØ¬ Ø§Ø±ÙĪ
ÙĪØ§ÙĨ Ø³ÛĮÙĪÙĨ
ĠØŃØ³Ú¯Ø± ÙĩØ§ÛĮ
ÙĦØ§ ÙĤÛĮ
ĠØ¨Ø® Ø´Ø¯
ĠÙħØ±Ø§ Ú©Ø´
ĠV R
ĠØ³ Ø§Ø¨
ĠÙħÛĮÙĦÛĮ ÙĪÙĨÛĮ
ĠÙĩÛĮÚĨ Ú©Ø³
ou ch
ĠØ´ÙĩØ±ÛĮÙĪØ± ÙħØ§Ùĩ
ĠÚ¯ Ø²ÛĮÙĨ
ĠÛ±Û´ Û°
ĠÙ¾ÙĦÛĮ ÙħØ±
ĠÙħÙĨØ· Ø¨ÙĤ
ĠØ§Ø±Ú¯Ø§ÙĨÛĮ Ú©
ob ile
ĠM icro
ÙĪÙĦ Ùģ
ĠØ±ÙĪ ÙħØ§ÙĨÛĮ
Ø§Ø±Ø¯ ÙĪ
ĠØ±Ø³ÛĮØ¯ Ùħ
ĠÙģ ÛĮØ¨
ĠØºÛĮØ±Ùħ Ø¬Ø§Ø²
ĠÙĦÙĨØ² ÙĩØ§ÛĮ
ĠØ¨Ùģ Ø±ÙĪ
ĠØ´Ø§ Ú¯Ø±Ø¯
ĠØ¯Ø§Ø±ÙĪ Ø®Ø§ÙĨÙĩ
ĠÙħÛĮ Ú©Ø±
ĠG l
ĠØª Ø¨ÛĮ
ĠÙģØ± Ø²
ĠØ³Ù¾ Ø±Ø¯
ĠÙħÙĪ Ø§Ø²
ĠØ±Ø³ ÙĪÙħ
ÙĤ ÛĮØ±
ĠÙ¾ Ø³ØªØ§ÙĨ
ĠØ®ÙĪØ¯Ø±ÙĪ ÙĩØ§ÛĮÛĮ
ĠØ³ Ø²Ø§Ø±
2 00
ÙĩØ§ÛĮ ÙħØ§ÙĨ
Ø¢ Ú¯Ø§ÙĩÛĮ
ĠØ¨Ùħ Ø¨Ø§Ø±Ø§ÙĨ
ĠØ³ Ø¹Ø¯ÛĮ
ĠÙģ ÙĪØ±Ø§
ĠÙĩØ± Ùħ
ĠÙħØ´Ø±ÙĪ Ø·
ĠØ³ÙĪØ¦ÛĮ ÚĨ
ĠØ¨Ø® Ø´ÙĨØ§ÙħÙĩ
ĠØ²ÛĮ Ø§Ø¯Ùĩ
ĠÚ¯ÙĦ Ø¯
ĠØªÙħØ§Ùħ Ø§
ĠØ±Ø¨Ø· ÛĮ
Ø§Ø± ÙĪÛĮÛĮ
ĠÙģØ± ÙĨ
ĠØ¨Ø§ Ø¬
ÙĪØ´ ÛĮØª
ĠØ³Ø± ÙĪØ¯
Ø¯Ø§Ø´Øª ÙĨÛĮ
ĠØ³ÙĨÙĨØ¯ Ø¬
ĠØ¨Ø± Ù¾Ø§ÛĮÙĩ
w are
ĠØ¢ÙĦ Ø±ÚĺÛĮ
ĠØ´Ø¹ Ø¨
ĠØ´Ø§ÙĨÚ¯ ÙĩØ§ÛĮ
ÙĪØ¯ ÙĪ
Ø±ÛĮ Ø²Ø¯
is e
ĠÚ©Ø§Ø± ØªÙĪÙĨ
Ø¨ÛĮ ÙĪØªÛĮÚ©
ĠÙħØ±Ú¯ Ø¨Ø§Ø±
Ø§ÙĨ Ø¬Ø§ÙħØ¯
ØŃ Øª
ÙĪØ§ Ø´
ĠØ¯Ø³Øª Ø¨ÙĨØ¯
ĠØ³ Ø§Ø±Ø§
Ġ |
ĠØ§Ø³ ÙħÛĮ
ear ch
ĠØ´ ÙħØ§ÛĮ
ÙĪØ· ÛĮ
ĠÙħÛĮ Ø´ÛĮ
Ø« Ø§Ø±
ØªØ±ÛĮÙĨ Ú¯
ĠØ¢Ø³ÛĮ Ø¨ÛĮ
ĠÙģØ±Ø²ÙĨØ¯ Ø´
ĠØ¬ Ùģ
ĠØ³Ø§ÙĨØª ÛĮÙħ
ĠÚ©ÙĪÙ¾Ø±Øª ÛĮÙĨ
ĠD es
Ú© ÙĦØ§
ĠÚ©ÙĨ Øª
ĠØŃÛĮ Ø·Ùĩ
ĠØ¯ÛĮØ¯ Ø§Ø±ÛĮ
1 00
ĠÙģØ± ÛĮØ¯ÙĪÙĨ
Ø§Ø¨ ÛĮÙħ
Ú© Ø§Ú©
ĠÙħÙĪØ¶ Ø¹ÛĮ
ĠØ§Ø³ Ú©Ø§ÙĨ
ĠÙħ ÙĨØ¯Ø§ÙĨ
ĠÚ©Ø§ÙĦ Ø§ÛĮÛĮ
ĠÙħØ¹ ÙĦÙĪ
ĠØ´Ú© ÙĪ
ation al
ĠØ§Ø¬ Ø¨Ø§Ø±
ĠØ´Ø§ÙĨ Ø²Ø¯ÙĩÙħ
ĠÙħØ¤Ø³ Ø³
ĠÙĤÙĨ Ø§Øª
ĠÙģÛĮÙĦ Ø¯
ĠØ¹Ú©Ø§Ø³ Ø§ÙĨ
Ġ201 3
Ø¨Ø® Ø§Ø±
ĠÙģÛĮÙĦØªØ± ÙĩØ§ÛĮ
ĠÙĨØ§Ùħ ÙĪ
ĠÙĪ Ú¯Ø±
ĠØ¨Ø® Ø§Ø±ÛĮ
ĠÙģÛĮÙĦÛĮ Ù¾ÛĮÙĨ
ĠØ¨ Ø¯ÙĩÙħ
ĠØ¨Ø±Ø§ÛĮ ÙħØ§ÙĨ
Ú¯Ø±Ø§ÛĮ Ø§ÙĨÙĩ
ĠØ§ ÙĪØ±Ø´
ĠØ¬ Ø§Ùĩ
ĠÙħÚ© Ø§Øª
ĠØ³Ø± Ø¨
Ø¨Ø± Ø±Ø³ÛĮ
Ø®ÙĪØ§Ø³Øª ÙĨØ¯
1 6
ĠØ¹ Ø§Ø¨Ø±
ĠØ¹Ø¶ ÙĦÙĩ
ĠØ§Ø± Ú¯
ĠØ§ÛĮ Ø²Ø¯
ĠÙĩ Ø§ÛĮØªØ§ÙĨ
ĠÙģ Ø§Ùħ
ĠØ´ÛĮØ± ÛĮ
ĠÙĪ Ø·ÙĨ
ĠØ¯Ø³Øª Ú©Ø´
âĢ Ń
ÙĤ Ø§ÙĨÛĮ
ĠÙĦØŃ ÙĨ
ĠØ³Ø§Ø®Øª ÙĨØ¯
ĠØ¨Ø§ÙĨÚ© Ø¯Ø§Ø±ÛĮ
ÙģÛĮÙĦ Ùħ
ĠØ®Ø³ Ø§Ø±Ø§Øª
Ù¾ÛĮÙĪÙĨØ¯ Ø¯
ĠÙ¾Ø§Ø³Ø® Ú¯ÙĪÛĮ
ĠÙĨÚĺ Ø§Ø¯ÛĮ
ĠØ§ÛĮØ¯ Ø²
ĠØ¯ÙĪÛĮ Ø³Øª
Ø§ÙĦ Ø³
ĠÚ©ÙĨØ¬Ú© Ø§ÙĪÛĮ
ĠØ¨Ø§Ø± Ú¯ÛĮØ±ÛĮ
ĠÙĨØª ÙģÙĦÛĮÚ©Ø³
ĠØ®Ø§ÙĦ ÙĤ
ĠØ¨Ø± ÙĨØ¯Ú¯Ø§ÙĨ
ĠØ§ÙĤ Ø³Ø§Ø·
ĠØ¯Ø±Ø¢ ÙĪØ±Ø¯Ùĩ
ĠØ¨Ø±Ø§ ÙĪÙĨ
b o
Ø²ÙĨØ¯ Ú¯ÛĮ
ĠØ² ÙĪØ§ÛĮ
ĠØ¯Ø±ÛĮØ§ÙģØª ÙĨØ¯
ĠÚ¯Ø±Ø¯Ùĩ ÙħØ§ÛĮÛĮ
ĠØ§Ø±Ø¯ Ø´ÛĮØ±
ĠØ¢Ø²Ø§Ø± Ø¯ÙĩÙĨØ¯Ùĩ
P ro
Ø® ÙĪÙĨÙĩ
ĠÙģ Ø§ÛĮÙĨ
b ox
Ù ¨
Ú©Øª Ø§ÙĨ
ĠÙĨÙĩ Ø¶Øª
am es
ĠÙĪ Ø§ÛĮØ±
ĠÙĨÛĮØ´ Ø§Ø¨ÙĪØ±
ĠÙħØ·Ø§ÙĦ Ø¹Ø§ØªÛĮ
ĠØ¯ ÛĮØ´
ĠØ§Ø³ ÙħØ§
ĠÚ¯ÙĪØ± Ø³ØªØ§ÙĨ
S h
ĠØ¯ÛĮ ÙģØ±Ø§ÙĨ
ĠÙ¾Ø§Ø¦ ÛĮÙĨ
ĠØºÛĮØ± Ø¯
ĠØ¬ Ø±ÛĮ
ĠÙ¾Ø§Ø³ Ù¾ÙĪØ±Øª
ÙĪÛĮÙĨ Øª
ĠÙħØ§Ú© Ø±ÙĪ
Ġth at
ĠÙĪØ§Úĺ Ú¯Ø§ÙĨ
ĠØ§Ø²Ø¨Ú© Ø³ØªØ§ÙĨ
ĠØ®ÙĪØ§Ø¨ ÛĮØ¯ÙĨ
ÙĪ ÙĨØ¯Ùĩ
ĠI BM
Ø§ÙĨØ¯ ÛĮØ´
ĠØ¨ÛĮ Ø²Ø§ÙĨ
Ø²ÙĨ Ø´
ĠApp le
ÙĪ Ø¸
ĠØ¯ Ø¨ÙĦÛĮ
ĠØ¨Ú¯ÛĮØ± Ùĩ
ĠÙħØ§Ø¯Ø± Ùħ
Ø§Ø¨Ùĩ Ø§Ø±
ĠÚ©ÙĪØ¯Ú© Ø§ÙĨÛĮ
Ø§ÛĮ Ø§ÛĮ
ĠØ±ÙĪ ÙĨØ¯ÛĮ
ĠØ¢ Ø¯Ø±
ĠS k
ĠÙ¾Ø±Ø¯Ø§Ø®Øª ÙĨ
Ù¾ÛĮÙħ Ø§ÛĮÛĮ
ĠØ²ÙĨØ¬ ÛĮØ±
am s
o ver
Ø³ ÙĨØª
ĠØ²ÛĮØ± ÛĮÙĨ
ĠW indows
ĠÙħØŃØª ÙħÙĦ
ĠÙĨØ§Øª ÙĪØ§ÙĨ
I N
Ø§Ùĩ Ùĩ
ĠØªÙĨØ¯ ÛĮØ³
ĠØ¯Ú¯Ø± Ú¯ÙĪÙĨ
Ø¶ Ø§Ø±
ÚĨ Ú¯ÛĮ
ĠÙħØ¬ ÙĦØ§Øª
Ø¯ ÛĮØ¯ÛĮ
ĠØ§Ø³Ù¾ Ø§ØªÛĮ
ĠØ®ÙĪØ¯Ùħ Ø®Øª
ĠØ¯Ø³Øª Ùħ
ĠØ¨ÙĨ Ø¸Ø±
ĠØ³Ø¨ Ú©ÛĮ
ĠØ¯ÙĪØ±Ø¨ÛĮÙĨ ÛĮ
ĠÙħÙĪÙĤ ØªÛĮ
ĠÙģÙĪÙĤ Ø§ÙĨÛĮ
ĠØºØ±ÛĮ Ø¨Ùĩ
ÙĤ Ø¯Ùħ
ĠØ¯ÙĦ Ø´
ĠØ´ Ø§Øª
ĠØ¨Ø± Ø¢ÙħØ¯
ÙħØª ÙĪÙĦØ¯
Ġ3 60
ĠÙħØŃØ¯ÙĪØ¯ÛĮ ØªÛĮ
ĠØ§Ø¨ Ø¯
ĠØ³ Ø§Ùģ
ĠØ§ÙĪØ±Ø´ ÙĦÛĮÙħ
ĠÚ¯ Ø±ÛĮØ²
ĠÙħØ§Ø± ÙĪÙĦ
ĠØ¯Ø±Ø®Ø´ Ø´
ĠÚ© Ø¬Ø§Ø³Øª
ĠØªØŃÙĦÛĮÙĦ Ú¯Ø±
Ùĩ ÙĪ
ĠØ¨ Ø´Ùħ
e le
ĠÚ©ÙĨ ÙĪØ§ÙĨØ³ÛĮÙĪÙĨ
ĠÙĨØ¬ ÙĪÙħÛĮ
ĠÙģ ÙĪØ¯
ĠØ§Ú¯Ø² ÛĮÙĨÙĪØ³
ĠÙĩÙħ Ø®ÙĪØ§ÙĨÛĮ
ĠØ¹ÙĦ Ø§ÛĮÙħ
ĠÙħØ´Ùĩ ÙĪØ¯
ĠÙĨÙģØ± Øª
ĠØ§ÙĨØª ØŃ
ĠØª ÙģØª
ĠØ¢Ø²ÙħØ§ÛĮØ´ Ø§Øª
ĠØ´ÙĦÙĪ ØºÛĮ
ÙĩØ± ØŃØ§ÙĦ
ĠÙĤØ¯ Ø³
ĠÛ±Û² Ûµ
ĠÙħ Ø³ØªØ±
ĠÙĨ Ø§Øµ
ĠÙħÛĮ Ø¯Ø§Ø¯
ĠØŃ ÙĪØ§
ĠÙħØ¹Øª Ø¯ÙĦ
ĠØ· Ø¨Ø§Ø·
ĠØ±Ø§ÛĮ Ø³
ĠÙ¾Ø±ÙĪ Ø§Ø²ÛĮ
ĠÙģØ±Ø³Øª Ø§Ø¯ÙĨ
ĠÙģÙĦ Ø¬
ĠØ±Ø¨Ø§Øª ÛĮÚ©
G B
ĠÚ©ÙĦÛĮ Ø´Ùĩ
ĠÙĨØ§ÙħÙĪ ÙģÙĤ
W C
ĠØªØ±Ú© ÙħÙĨØ³ØªØ§ÙĨ
Ú©ÙĦ ÛĮÙĨ
ÙĨØ´ Ø§ÙĨÛĮ
ĠÙ¾ÛĮØ´ ÛĮ
ĠÙħØ³ ÙĨ
ĠÙ¾ÛĮØ´ÙĨÙĩØ§ Ø¯ÙĩØ§ÛĮ
ĠÙģÙĪÙĦ Ø¯
ĠØ± ÙģØ³
ĠÙħÙĤ ÛĮÙħ
Ġy our
ĠÙĨØ§Ø§Ùħ ÛĮØ¯ÛĮ
ÙĦÙĨ Ø³Ø±
ĠÙĨØ§Ø´ Ø±
ĠÙĦØ¨Ø§Ø³ Ø´ÙĪÛĮÛĮ
Ø¨ÛĮ ØªÛĮ
ĠI M
ĠÛ±Û°Û¸ Û°
ĠØ¹ ÛĮÙĨÛĮ
ĠØ±ÙĪ Ø¨Ø§Øª
ĠÙĨØ§Ùħ ØŃØ¯ÙĪØ¯
ĠØ§Ø®ØªÛĮ Ø§Ø±ÛĮ
ĠÙħØ³ÙĦ Ùħ
ĠÙħÛĮ Ú©ÙĨÛĮ
ĠÙĪ Ø§Ú©
ĠØ± Ø´
ĠÙģØ±Ø§ Ú¯ÛĮØ±ÛĮ
ĠÙħÛĮ ÙħÙĪÙĨ
ĠÙħØ¨ Ø§Ø¯ÙĦØ§Øª
ĠN et
ĠØ±Ø§Ø¯ ÛĮÚ©Ø§ÙĦ
ĠØ·ÙĨ Ø§Ø¨
ĠØŃ Ø±Ø§Ø¬
ĠØº Ø§Ø±Øª
Ø§Ø³ ÙĪÙĨÛĮÚ©
ĠÚĨ Ø§Ø¨ÙĩØ§Ø±
ĠØ´ÙĨØ§Ø³ ÙĨØ§ÙħÙĩ
a i
ĠÙħØ³ØªÙĤ ÛĮÙħÛĮ
Ø±ÛĮ ÙģÛĮ
ÙħØ± Ø§ÙĨÛĮ
ĠÙĪÙĦ Ø§Ø¯
ĠØ§Ø² Ø§ÛĮÙĨ
ĠØ§Ù¾ Ø±Ø§
ĠØªØŃ ÙĤÛĮÙĤÛĮ
ĠØ±ÙĪØ§ÙĨ Ø´ÙĨØ§Ø³
ĠA T
ĠÙħÚ¯ Ø§ÙĪ
ĠØ±ÛĮ Ø§ÙĦÛĮ
ĠØ§ÙħØ§Ùħ Ø²Ø§Ø¯Ùĩ
ĠÙĨØ§ØµØ± Ø§ÙĦØ¯ÛĮÙĨ
ĠÛ±Û¸ Û´
ĠØ³ÙĪÛĮÛĮ ÚĨ
ĠØ³Ø§ÙĨØ³ ÙĪØ±
Ø§Ø³ ÛĮØ±
an n
ĠÛĮ ÙĪØª
ĠØ±ÙĪÛĮ Ø§
ĠÛ¹Û ±
ĠØ¨ ÙĦØ§Ú¯
Ø§Ø³ Ù¾
ĠØ¨Ø§Ø² ÙħØ§ÙĨØ¯
en g
ĠÚ©ÙĦØ§Ùĩ Ø¨Ø±Ø¯Ø§Ø±ÛĮ
ĠØ¨Ø± ÛĮØ¯
Ø§Ù¾ ÙĪ
ĠØ§Ø¸Ùĩ Ø§Ø±Ø¯Ø§Ø´Øª
ĠÙĪÚ¯Ø± ÙĨÙĩ
ĠÛĮÚ© ÙĨÙĪØ§Ø®Øª
Ø³ ÙĪØ§Ø±
ĠÚ© Ø¯ÙĨ
ĠØ®Ø· Ø±ÛĮ
ĠÛ±Û¹Û¸ Û´
ĠÙħÙĨØ¹ ÙĤØ¯
ĠÙħ ÙģØª
Ùģ ØµÙĦ
ĠØ§Ø³Ú©ÙĨ Ø±
ĠÙħÙĪ ØªÙĪØ±ÛĮ
ĠØ¨Ø§Ø² Ú¯ÙĪ
ĠÙģÙĦ Ø§Øª
ĠÙĩ Ø´
ĠØ§Ø³Øª Ø¹Ùģ
ĠÙ¾ÛĮÙħØ§ÙĨ Ú©Ø§Ø±
ĠÙĦ Ø§ÙĦÙĩ
ĠØ¨Ø§Ø² Ú¯Ø±Ø¯Ø¯
ĠØ¢Ø± Øª
ĠØŃØ§ÙĦÛĮ Ø³Øª
ĠÙĩÙĨØ¯ Ø³ÛĮ
Ġ are
ĠØ§ÙĦÛĮ Ø²
ĠØ´ Ø¬Ø§Ø¹
ĠØŃ Ø§ÙħØ¯
ĠØ¹Ø§Ø¯ÙĦ Ø§ÙĨÙĩ
ĠØ³ ÙĪØ±ÛĮ
ĠÛĮÙĩ ÙĪØ¯
ĠÚ©ÛĮÙģ Ø±ÛĮ
Ø¢Ø± Ø§ÙħÛĮ
ĠØ¨ Ú¯ÙĪÛĮÙĨØ¯
ĠC ort
ØŃ Ø¶
ĠØ² Ø§Ú©Ø±
ĠØ´ÙĪØ± Ø´ÛĮ
t r
ĠÙħØµ Ø±ÛĮ
Û³Û ¹
ĠØ§Ø³Ù¾Ø§ØªÛĮ ÙģØ§ÛĮ
Ã ©
ĠØªØ¹ ÙĦÛĮÙħ
re en
Ùĩ Ø§ÙĨ
ĠØª Ø·
ĠØªÙĪ Ú©ÙĨ
Ø® ØªØ±
ĠÚĨÙĩØ§Ø± Ø¯Ùĩ
ĠØ·Ø¨ Ø®
ĠØ² ÛĮÙħ
ĠØ²ÛĮØ¨Ø§ ØªØ±
ĠÛ±Û¹Û¸ Û¸
ĠØªØ¯Ø§Ø¨ ÛĮØ±
ÙĪØ´ÛĮØª Ø¯
ĠØ± ÙĩÙĨ
ĠÙħØ§Ø± Ø´
ĠÙ¾ÙĨ Ø§ÙĦØªÛĮ
ĠPl us
ĠÙĨØ§ ÙĪØ¨Ø±ÛĮ
ĠØ´ Ø§Ù¾ÙĪØ±
ĠÙĦ Ùģ
ĠÙ¾Ø¯Ø± Ùħ
Ù £
ĠØ¬Ùĩ Ø§Ø¯
ĠÚ¯Ø°Ø§Ø´Øª Ùħ
ĠØ¯Ø§ÛĮ Ø±Ú©Øª
Ø§ÙĦ ÛĮÙĨ
8 6
Ø³Øª Ú¯Ø§ÙĨ
ĠÚ©ÙĦØ§Ùħ ÛĮ
ĠÙħ ÙĦØ§Ú©
ĠG PS
ĠØ§ÙĨØªÙĤ Ø§Ø¯ÛĮ
Ø®ÙĪØ§ÙĨ ÙĨØ¯
ĠØ¯Ø± Ø®ØµÙĪØµ
Ùħ ÙĨÛĮ
ĠÙħÙĤ Ø§Ø·Ø¹
ĠÙħØŃØ±ÙĪÙħ ÛĮØª
ĠØ³Ø±Ø¯Ø± Ú¯ÙħÛĮ
ĠØ¨Ø§ ÙĤ
D C
ĠÙĩÙħ Ø¨Ø³ØªÚ¯ÛĮ
Ø¨ Ø¹Ø¯
ĠÙĪØ³ ÙĪØ§Ø³
ĠÛ±Û³Û¸ Û¹
ĠØ§ÛĮØ³Øª Ø§Ø¯
ĠØº Ùģ
Ø¨Ø±ÛĮ Ø¬
ĠØ§Ø¸ÙĩØ§Ø± ÙĨØ¸Ø±
v el
Ø§Ø³ Ø¯
ĠØ§ØŃ ÙħÙĤ
ĠÚ©ÛĮ Ø³Øª
ĠÚĨØ± ÙħÛĮ
ĠØ®ÙĪØ§Ùĩ ÛĮ
u ct
Ø¨ÙĪØ±Ú¯ ÛĮÙĨÛĮ
ĠØ±Ø§ Ø²ÛĮ
ĠÙĨØ¸ Ø§ÙģØª
ØĮ Â»
ĠØ±ÙĪ Ø§ÛĮØ§Øª
Ø¦ ÛĮØª
ĠÙĤØ´ ÙĨÚ¯
ĠØ³ Ø§Ú©Øª
ĠØ¯Ø§Ø± Ø§ÙĨ
ĠÚĺ Ø³Øª
ĠØºØ°Ø§ ÙĩØ§ÛĮÛĮ
Ø® ÙĦÙģ
ĠØ´Ø± Ø¨Øª
ĠÙ¾Ø±Ø³ Ø±
Ø° Ø±
ĠÙħØª Ø§ÙĨ
ÙĪØ³ Ø§Ø²
ĠÙħØªØŃ ÙĪÙĦ
Ġ )
t o
ĠÙħØŃ Ø±Ùħ
ĠØ·Ø±Ùģ Ùĩ
Û³Û ³
ĠØ§ÙĦØ²Ø§Ùħ Ø§Øª
ĠÙ¾ÛĮØ´Øª Ø§Ø²
ĠØ²Ø§Ú¯Ø± Ø³
Ú© Ø§Ùĩ
ĠÙĨÛĮ ÙĪØ²ÛĮ
ĠÙģØ± Ø§ÛĮÙĨØ¯ÛĮ
ĠØ¨Ø±Ú¯ Ø²ÛĮØ¯
Øµ Ø§Ùģ
ĠÙĨÛĮ ØªØ±ÙĪ
ĠÚ©Ø§Ø±ÙģØ±ÙħØ§ÛĮ Ø§ÙĨ
ĠØ¨Ø§ ÙĦÙĩ
Ø§ÙĦ ÙĪ
ÙĪØ§ÙĨ Ø§
ĠÚ©Ø³ Ø±
ĠØ¨Ø´ ÛĮØ¯
ÙĪ Ø§ÙĦÛĮ
ĠØ¹Ø¶ ÙĪÛĮ
ĠØ¨ÛĮØ´ ÛĮÙĨÙĩ
ĠF ree
ĠÙħØ¹Ø§ÙħÙĦ Ø§ØªÛĮ
ĠØ±Ø¯Ùħ ÙĪÙĨØ¯ÛĮ
ĠØ¨Ø§Ø´ ÛĮÙĨ
A P
Ø´ÙĨ Ø§Ø®Øª
ĠØ¬Ùħ Ø§ÙĦ
ĠØ§ÙĤ Ø´Ø§Ø±
ĠÛ±Û¹Û¸ Û¶
ĠÙĨØ§Ú© Ø§Ùħ
A S
ĠÙħÛĮ Ø±ÙĪØ¯
ĠØ§Ù¾Ø±Ø§ØªÙĪØ± ÙĩØ§
ÙĨ Ú¯Ø±
u x
ĠØ¨ ÙĤØ§
ĠØª Ø´ÛĮ
Ø¢ ÙħÛĮØ²ÛĮ
ĠØ¨ Ø®Øª
ĠÙĤØ¯Ø±ØªÙħÙĨØ¯ ØªØ±ÛĮÙĨ
ĠØ§ÙĦØªØŃ ØµÛĮÙĦ
ĠØª ÙĪÙĨÛĮ
ĠØ§Ø³ ÙĩØ§ÙĦ
ĠÙħØ® Ø±ÙĪ
ĠØ³ÛĮ Ø§Ø±Ú©
ĠØ®ÙĦØ§ ÙģØª
ĠÙĤ ÙĪØ³
ÙĪØ² ÙĪÙħ
ĠØ§Ø¬ ÙĨØ§Ø³
ĠØ§Ù¾ ÛĮØ¯
B C
Ġ2 3
ĠØ¢ÙħÙĪØ²Ø´ Ú¯Ø§Ùĩ
Ú¯ ÛĮÙħ
ĠØ³ÛĮ Ø§ÙĦ
ĠÙĨÙħØ§Ø¯ ÛĮÙĨ
ĠÚ© ÛĮÙĨÚ¯
ĠØ¢ ØªÙĨ
ÙħØ¹ ÙĨØ§ÛĮ
ĠØ¯ ÙĨØ¯
Ø§Ø¨ Ø¹ÛĮ
ÙħØŃÛĮ Ø·ÛĮ
ĠØ´Ùħ Ø¹
ĠØ¯ÛĮÙģØ±Ø§ÙĨ Ø³ÛĮÙĦ
ÙĪ Ø®ØªÙĩ
ÙĦ ÛĮÙĨÚ©
ĠØ§ÙĨ Ø³Øª
ĠÙħØŃØµÙĪÙĦØ§Øª Ø´
ĠØ¹ÙħÛĮ ÙĤÛĮ
ĠØ¨ÛĮØ²ÛĮÙĨ Ø³
ĠØ§Øµ ØºØ±
ĠÙĪÛĮØ¯ÛĮÙĪ ÙĩØ§
ĠØ¹ØµØ¨Ø§ÙĨÛĮ Øª
ÙģØ§ Ø¹ÛĮ
ĠØ¢ ÛĮÙĦ
ĠÚ©ÙĦ Ø§ÛĮÙĨ
Ġc l
ĠÙĩØ®Ø§ÙħÙĨ Ø´ÛĮ
Ùģ ÙĪØ±Øª
ĠÙħÛĮ Ú©
ĠØ¯ÛĮÙĪØ§Ø± ÙĩØ§
ĠØ¯Ø¨ÛĮØ± Ø®Ø§ÙĨÙĩ
ĠÙĦÙĪ Ø¦ÛĮ
Ø¨Ø¯ ÙĪÙĨ
ĠHD MI
ĠØŃ Ø¬Øª
ĠØ³ÙĪØ¯ Ø¢ÙĪØ±ÛĮ
ĠÙĩØ± ÚĨÙĤØ¯Ø±
ĠâĢ¦ ..
ĠÙħÙĨ Ø§Ø¸
ĠT ech
ĠØ¨ÙĦØº Ø§Ø±Ø³ØªØ§ÙĨ
ĠÙĦØ§Ùħ Ø¨ÙĪØ±Ú¯ÛĮÙĨÛĮ
ĠØ³Ø± Ø²ÙĨØ´
ĠØ´Ú©Ø³Øª Ú¯ÛĮ
ĠØ§Ø¨ÙĪ Ø§ÙĦ
ĠÙĩÛĮ Ù¾
ĠÛ±Û³Û¹Û ±
ĠÙĦ ÙĨÚ¯
ĠÙĦÙĪ Ø¦ÛĮØ³
ĠØ®ÙĪ ÙĨØ¯
ĠÙĨÙĪØ± ÙĪÙĨ
ÙħØ± Øª
ĠÙħØªØ±ÛĮ Ø§ÙĦ
pl ay
ĠØŃØ¯ÛĮ Ø«
ĠÙĨØ¨Ø§ Ø´Ùĩ
ĠØ³Ø± ÙĪØ¯Ùĩ
ĠÙħØµÙĪØ¨ Ø§Øª
ĠØ±ÙĪØ² Ø§ÙģØ²
ĠÙħØ±Øº ÙĪØ¨
ĠÚ¯ ÙĦÙģ
ĠØ±ÙĪÛĮ Øª
ĠÙħØŃÙĪØ± ÙĩØ§ÛĮ
ĠÚ©Ø§ÙĪØ´ Ú¯Ø±
ĠØ§Ø¯ÛĮ Ø§ÙĨ
Øµ ÙĦÛĮ
ĠØªÙħ ÙĩÛĮØ¯
ĠØŃÚ© ÙħØ±Ø§ÙĨÛĮ
1 8
ĠW h
ĠÚĺ Ø±Ùģ
Ø®ÙĪØ§ÙĨ ÛĮØ¯
ĠØ³Ú©Ø§ÙĨ Ø³
Ø· Ø§ÙĦ
ĠÙħØ·Ø§ÙĦ Ø¨Ùĩ
ĠÙĩÙħØ³Ø± ØªØ§ÙĨ
Ġ he
ĠØ´Ø³Øª ÙĨ
ĠÚ¯Ø´ Ø§ÛĮØ´
ĠØªØ§Ø¬ÛĮÚ© Ø³ØªØ§ÙĨ
ĠØ²ÙĨØ¯Ú¯ ÛĮÙħ
ĠØ²Ø§Ú©Ø± Ø¨Ø±Ú¯
ĠÙħÙĩÙħ ØªØ±
ĠÙĨÙĪØ´Øª Ø§Ø±
I C
ĠÙħØ³Ø§ Ø¹Ø¯
ĠØ¢Ø²Ø§Ø¯ Ø§ÙĨÙĩ
ĠÙģØ±ÛĮ ÙĦÙĨØ³Ø±
ĠØ±ÙĪÛĮ Ø§ÙĦ
ĠÚ©ÙĪÚĨ ÛĮÚ©
ĠÙħØ´Ø§ÙĩØ¯ Ø§Øª
ĠØµ Ø¨Ø§
ĠS M
ĠØ´ ÛĮÙĨ
ĠØªØ£Ø«ÛĮØ± ÛĮ
ĠÙ¾ÛĮØ± ÙħØ±Ø¯
Ġ3 5
ĠØ§ÙħØªÛĮ Ø§Ø²ÛĮ
ĠÙĨØ§Ú© Ø§Ø±
ĠØŃØ¨ÛĮ Ø¨
Ø§Ø³ ÙĨ
ĠØ§ÙĪÙĨ Ùħ
ÚĨ Ú©
ĠÚ©Ø§Ø± Ú¯Ø²Ø§Ø±
ĠØªØŃ ÙĤÛĮØ±
ĠÙĤØ¨ Ø§ÛĮÙĦ
ĠÙħØ² Ø¨ÙĪØ±
ĠØ³ÛĮØ§Ø³Øª ÙħØ¯Ø§Ø±
ĠÙĪØ¬ ÙĪÙĩ
ĠÙģ ÙĪÙħ
ĠØ² ÙĨØ§
ĠØ±ÙĪ ÙħÛĮØ²ÛĮ
ĠO n
Ø§Øª Ùĩ
ĠÙħØ³ÛĮØ±ÛĮ Ø§Ø¨ÛĮ
ĠØ³ Ø¹Ø¯
iv ers
ĠØ®Ø´Ùħ Ú¯ÛĮÙĨ
ĠØ®Ø§Øª ÙħÛĮ
ĠÙĪ Ø²Ø´
ĠÛ±Û¹Û ³Û°
ĠØ¶Ø±Ø¨ Ø§Øª
ĠØ±ÙĪÛĮ Ø§Ø±ÙĪÛĮÛĮ
ĠH P
ĠØ¹Ø´ Ø§ÛĮØ±
ĠØªØ®Ùħ Ú©
ĠÚ©ÛĮÙģ ÛĮØªÛĮ
ĠØ§Ø³Øª Ø±ÙĪ
ĠÙĦÛĮ ØªÛĮÙĪÙħ
Q L
ØµØ¯ Ø§
ĠÙħ ÙģØ±
ĠÙ¾ ÙĨØ¯
ĠÙ¾ ÙĪØ¯
ĠÚ©Ø§Ø± Ùħ
ĠÙģØ±ÙĪ Ø®Øª
ĠâĢ Ķ
ĠAM OLED
ĠØ±ÙĪÛĮ Ø´
Ú©ÙĪ Ù¾ÛĮ
ĠÙ¾Ø°ÛĮØ± Ø§ÛĮ
ĠÙĨ Ú¯Ø°
ĠØªØ¯ Ø§Ø®ÙĦ
ĠÙħØ¬ Ø§Ùĩ
ĠØ² Ø±ÛĮÙĨ
ĠØ§Ø¹ ÙħØ§ÙĤ
ĠØ§ØŃ ÙħØ±
ÛĮÙĨÚ¯ ÙĨ
Ġ al
ĠÙĨÛĮ Ø§ÙģØª
Ø§ÛĮÙĨØ¯ Ú¯ÛĮ
ĠÙ¾ Ø¯Ø±ÛĮ
ĠØ¹ ÛĮ
ĠÙĤØ§Ø¨ÙĦ ÙħÙĩ
ĠÙħÙĪØ³ Ø³
ĠÙħØªÙĪØ³ Ø·Ùĩ
b le
Ø« ÙĤ
ĠØ¹Ùģ ÙĪ
ĠØª Ø§Ø¨Ùĩ
Ø³ Ø±Ø¯
ĠØª Ø§Øª
Ø³ÛĮ ØªÙĩ
ÙĩØ± Ø§ÙĨÛĮ
ĠØ³ÛĮ Ø²Ø¯ÙĩÙħ
ÙģØ´ Ø§ÙĨÛĮ
ĠÙ¾ Ú©
ĠØªÙĪ ÙĩÙħ
ĠØŃÙĤ Ø§ÛĮÙĤ
Û¹Û ³
ĠØ§ÙĤÛĮØ§ÙĨ ÙĪØ³ÛĮ
ÚĨÙĩØ§Ø± Ø´ÙĨØ¨Ùĩ
Ġ2 7
ĠØ¢ØªØ´ ÙģØ´Ø§ÙĨ
ĠØ¢ÙģØ± ÛĮÙĨÛĮ
ĠØ§ ØªØ±ÛĮÙĪÙħ
ĠØ§ÙĨØª Ø²Ø§
ĠØ¹Ø°Ø± Ø®ÙĪØ§ÙĩÛĮ
ĠØ¯ Ø²Ø¯ÛĮ
ĠØ² Ø§Ø±
o om
ĠØ´ ÛĮÙħ
ĠÙĨØ§Ù¾ ÙĦ
ĠÙ¾Ø§ Ø´ÙĨÙĩ
ĠÙħØ³ØªØŃ Ú©Ùħ
h one
ĠM y
ĠØ§Ú©Ø³ ÙĦ
ĠØ§Øª ÙĪ
ĠØ´Ø§ÛĮ Ø§ÙĨÛĮ
ĠÙĦÛĮØ² Ø±ÛĮ
ĠÙĪ Ú©ÙĦØ§ÛĮ
ĠØ§ ÙĪÛĮÙĦ
ĠÙħÙĨ Ø¬
ĠÙ¾Ø± ÛĮÙĨØª
Ġ4 00
ĠØ¨Ø³ ÙĨØ¯Ùĩ
ĠÚ¯ Ùĩ
ÛĮ Ø¹
ĠØ±ÙĪ ØªØ±
Ø§ÙĦÛĮ Ùģ
ĠØºØ± Ø¨Ø§ÙĦ
ĠØ³ÙĪØ² ÙĨ
Ø§Ø¨ ÙĨ
ĠÙĦ Ú©
ĠÙħØ³ Ø§Ø¬
Ø§ ÙĪÙĦ
ĠØ¨ÛĮÚ© Ø§Ø±
ĠÙħÙħØª Ø§Ø²
ĠÙģ ÛĮØ¯
ĠÙģØ± Ø´ØªÙĩ
ĠØ²ÙĪØ¯ Ø±Ø³
ĠØ§Ø¯Ø¹ Ø§ÙĩØ§ÛĮ
Ø§Ø± ÙĪØ³
ĠØª Ø±Ùĩ
Ø¨ÛĮ Ø§ÙĨ
ĠÙħ ÙħÙĦ
ĠØªØ§ Ø¬Ø±
ĠØ±ÙĪØ´ ÙĩØ§ÛĮ
ĠÙ¾Ø¯Ø± Ø¨Ø²Ø±Ú¯
ĠØªØ¸Ø§Ùĩ Ø±
Ø§Ùħ Ø§ÙĨ
ĠØ¹ÙĨÙĪØ§ÙĨ ÛĮ
ĠØ§Ø«Ø± Ø¨Ø®Ø´ÛĮ
Ø¨Ø± ÛĮÙħ
ĠØ®ÙĪØ§Ø¨ Ú¯Ø§Ùĩ
ÙĨ ÙģØ³
Ġ9 8
ĠØ¨Ø§Ø± Ø§ÙĨÛĮ
ÙĤ Ø§Ø¨ÙĦ
ĠØ¨Ø¯ Ø±
ĠØ´Ùħ Ø±Ø¯Ùĩ
ĠÙħÙĪ Ø«Ø±ÛĮ
ĠØªØ¯Ø§ Ø¹ÛĮ
Ú¯ Ø³
s p
ĠÙĩ ÙĦÛĮÚ©
ĠÙħØ³ Ø§ÙģØ±ÛĮ
ĠØ¨ÛĮØ± ÙĪØª
ĠÙħØŃÚ© ÙĪÙħÛĮØª
ĠØ¯Ø§Ø± Ø§Ø³Øª
ĠÙ¾Ø´Øª ÙĪØ§ÙĨÙĩ
ĠØ¯ Ø§ÙĨÛĮ
ĠØ³Ø§ÙĨØªÛĮ Ú¯Ø±Ø§Ø¯
ĠÙħØ±Ø¯Ø§Ø¯ ÙħØ§Ùĩ
ĠØªÙĨ Ùĩ
ĠØ¯ÛĮ Ø§ÙĦÙĪÚ¯
ĠÙģØ¹Ø§ÙĦÛĮØª ÙĩØ§ÛĮ
ĠØ§ÙĦÛĮØ² Ø§Ø¨Øª
ĠØ¨Ø¯ ÙĦÛĮÙĦ
er e
ĠØ¬ Ø¨Ø±
Ø´ÙĨØ§Ø³ Ø¯
ĠÙģØ±Ø§ Øº
ĠØ¯Ú©ØªØ± Ø§
Ùħ Ø¨
ĠØ¨Ø´ Ø±ÛĮØª
ĠÙĨØ§Ø± Ø§Ø¶ÛĮ
ĠØ±ÙĪÛĮ Ø§ÛĮ
ĠS n
ĠÙĨØ² ÙĪÙĦÛĮ
ĠØ§ÙĨØªØŃ Ø§Ø±ÛĮ
Ø§Ø³ ÙħÛĮ
ØªÙĪÙĨ ÛĮÙĨ
ĠÙħØ§ ØªØ±ÛĮØ³
ĠÙħÙĨÚĨ Ø³ØªØ±
ÙĨ ÙģØ±
ĠÙħÙĤØ¯Ùħ Ø§Øª
o int
ĠØ® Ø§ÙħÙĩ
ĠÙ¾ÙĨØ§Ùĩ Ú¯Ø§Ùĩ
ĠØ¯ÙĪØ³ØªØ§ÙĨ Ø´
ØªÙĪÙĨ ÛĮÙħ
ĠÙĪØ§Ø³ Ø·
ĠØ³ÙĪØ®Øª Ú¯ÛĮ
ĠØ¨ Ú¯ÙĪ
ĠÙħÛĮ Ø¹Ø§ÙĨ
ĠÙħØ¯ Ø±
ĠÙħÛĮØªÙĪÙĨ ÛĮÙħ
ĠØ¢ Ø±Ø³
ĠÛĮ Ø§Ø±Ø§ÙĨ
ĠÙħØ¯ÛĮ ÙĪÙĨ
ĠØ³ÛĮÚ© ÙĦ
ĠG o
ĠÙĨØ´ Ø§Ø·
ĠØ°ÙĩÙĨ ÛĮØª
Ø¶ Ø§ØŃ
ĠÛµ Û¹
ÙĪØª ÙĪÙĨ
ĠÙĦÛĮ ÙĪØ±
ĠØ±Ø§ÛĮ Ø²ÙĨ
Ø§Ø± ÛĮÙħ
ĠÙ¾Ø§Ø±Ø§Ùħ ØªØ±ÙĩØ§ÛĮ
ĠØ¨Ùĩ Ø§Ø¦ÛĮ
ĠØ§ÛĮØ± ÙĪØ§ÙĨ
ĠÙ¾Ø± Ø§ÛĮØ¯
Ġ ÙĦØ§Ø³
ĠØ§Ø± Ø¬
ĠØ¯ÙĪØ± ØªØ±
ĠÙħØ¶ ÙħÙĪÙĨ
ÛĮ ÙĪÙĨ
ÙĪØ² ÛĮØª
ĠI PS
ĠØ³Ø§ÙĨØªÛĮÙħ ØªØ±
ĠØ¨Ø± Ú©ÙĨØ§Ø±
ĠÛ¶ Û³
Ø¹ ÙħÙĦ
ĠØ±ÛĮ Ø®ØªÙĨ
ĠØ³Ø®ÙĨ Ø±Ø§ÙĨ
ĠØ¯ÛĮ Ú©Øª
ÚĨØ±Ø® Ø¯
ĠØ¨ÛĮÙĩ ÙĪØ¯Ùĩ
ĠÙ¾Ø³ ÙħØ§ÙĨØ¯
ĠØ±ÙĪÙĨ Ø§ÙĦØ¯
ĠØ² ÙĪØ¯Ùĩ
ĠØ¨Ø±Ø§ÛĮ Ø§ÙĨ
ĠØ§ÛĮØ± Ø¨Ø§Ø³
ĠÚ©ÙĪØ±Øª Ø§ÙĨØ§
ĠØ§Ø´ Ø±Ùģ
Ġ ad
am p
ĠØª Ø§Ø¨ÙĦ
Ø¨ÙĪ Ø³Øª
ĠØ®ÙĪØ´ Ø¨Ø®ØªÛĮ
ĠÛĮÙĪÙĨ Ø§ÛĮØªØ¯
P l
ĠÙ¾Ø±Ø³Ø± Ø¹Øª
ĠØ´ÙĪ ÛĮÙĨØ¯Ùĩ
ĠÚ©ÙħÛĮ Ø§Ø¨
ĠÙĦØº Ø§Øª
ĠØ§ÙĨÙĤ Ø¨Ø§
ĠØ³ÛĮ Ø§Ø±Ø§Øª
ĠÚ¯ÙħØ±Ú© ÛĮ
ĠÚ¯Ø± ÙħØ§ÛĮÛĮ
ĠÙĨÛĮÙĪØ²ÛĮ ÙĦÙĨØ¯
ĠÙ¾ÙĦ Ø§ÙĨ
ĠØ®ÙĦ Ø¹
ĠØ¢Ø±Ø´ÛĮ ÙĪ
ĠÙ¾Ø± Ø¬ÙħØ¹ÛĮØª
ĠØ³Ùĩ ÙħÛĮ
I V
Ú¯ÛĮØ± Ùħ
ĠØ§ÙĤ Ø§ÙħØªÛĮ
ĠAl l
ĠÙĩ ÙĪÙĦÙĪ
ĠÙħØ´ØªØ±Ú© ÛĮÙĨ
ĠØ®Ø§Ø± Ø´
Ú© ÙĪØ¯
ÙĤ Ùģ
ĠÛ´ ÛµÛ°
ĠØ¨ ÙĪÚ¯
ĠÙ¾Ø±Ø¯Ø§Ø²Ø´ Ú¯Ø±
ĠØ¯ÙĪ ØªØ§
ĠØ¨ÛĮ ÚĺÙĨ
ĠÙħØ³ÙĪ Ø§Ú©
Ø´ Ø§ÛĮØ¯
ĠÙģØ±Ùħ ÙĪØ¯
ĠØ¯Ú¯Ø± Ú¯ÙĪÙĨÛĮ
ĠØ¢Ø¬ ÛĮÙĦ
Ø¢ ÙĦÙĪØ¯
Ø¯ÙĪÙĨ Ùħ
ĠÚ¯Ø± Ø§Ø¯
ĠG e
ĠØ¯ÙĨÛĮ Ø§Ø³Øª
it al
ĠØ¢ ØªÙĦ
ĠØ§ÛĮ Ø³Ø±
ĠÛ±Û¹Û· Û¹
ĠÙħØ³Ø§Ø¬ Ø¯
ĠØ¨ÙĨÛĮØ§Ø¯ ÛĮÙĨ
ĠØ¨Ø§ Ø·ÙĦ
ĠØªØ¨ÛĮ ÛĮÙĨ
ĠØ¨Ø± Ù¾Ø§ÛĮÛĮ
w ork
Û² Û³
ĠC ar
ÙĪÙĨ ÙĪ
ĠÙħØª Ø®ÙĦÙģ
ĠØ±Ø¨ÙĪØ¯ Ùĩ
ĠÙģØ± ÛĮØ¯
is s
ĠGT X
Ùģ ÛĮÙĨ
ĠØ° Ø±Øª
ĠØªÛĮ ØºÙĩ
ĠØ§Ú©Ø³ Ù¾ÙĦ
ÙĦÙĪ Ø¦
ĠØ´Ø§Ùħ Ú¯Ø§Ùĩ
Ø§Ùĩ Ø¯Ùĩ
ĠØ³Ø§ÙĦ ÙħÙĨØ¯Ø§ÙĨ
5 5
ĠÙĪÛĮØ± Ø¬ÛĮÙĨ
Ùģ ÙĪÙĦ
Ø¢ Ø¨ÛĮ
ĠØ¬Ùĩ Ø§Øª
ip t
ĠÙħØªØ§Ø¨ ÙĪÙĦÛĮ
ĠØ¹ Ø§Ø±ÛĮ
ĠÙĨ Ú©ÙĨ
ĠØ¬Ø± ÙħÛĮ
Ø¶ Ø§ÛĮÛĮ
ĠC PU
Ø±ÙģØª Ùħ
ĠØ¢ÙĦ Ø§ÛĮÙĨØ¯Ú¯ÛĮ
ĠØ¢Ø²Ø§Ø¯ Ø³Ø§Ø²ÛĮ
ĠÙģØ±Ø³Øª ÙĨØ¯Ùĩ
ĠÙĨØ§Ø¨ Ø§Ø±
Ø¬ÙĪ Ø§Ø¯
ĠØ¹Ø±ÙĪ ÙĤ
Ø§Ú© Ø§
ĠØ³Ø± Ø§ÙħÛĮÚ©
ĠÙĨØ´Ø¯ ÙĨØ¯
ÙĪ ÛĮÙĨÛĮ
ĠÙħÙĨ Ø§Ùģ
ĠØ¨Ú©Ø´ ÙĨØ¯
Ù ¥
ÙĪÙħ Ø¹Ùĩ
ĠØ¢ÙħØ§Ø± ÙĩØ§
ĠCort ex
ĠI C
ĠÙģØ±ÙĪØ¯ Ú¯Ø§ÙĩÛĮ
ĠÙħÙħÙĦ Ú©Øª
r ib
ĠØªÙĩØ§ Ø¬Ùħ
Ø® Ø¯Ø§
in i
ĠÙħØ§Ø¨ ÛĮÙĨ
ĠØ§Ø³ØªØ¹Ùģ Ø§ÛĮ
ĠÙĩÙĪØ§Ù¾ÛĮÙħ Ø§ÙĩØ§
Ú¯ÙĪ Ø¦Ùĩ
ĠØ§ÙģØªØ® Ø§Ø±ÛĮ
ĠÙĦ ÙĪØ±
ĠØ§Ø® Ø¨Ø§Ø±ÛĮ
ĠØ§ÙĤØª Ø¯Ø§Ø±
ĠØ§ÙĨØ¹ Ú©Ø§Ø³
ĠØ³Ø± Ø§ÙĨÙĩ
le x
ĠØ¯ Ø§ÛĮÛĮ
E C
ĠØ¯ÙĪ Ù¾
ĠÙħØ¬ÙħÙĪØ¹ Ø§
ĠÙģ ÙĪØ±Øª
ĠÙħØ¯ ÛĮØ§
ĠØªÙĪÙĤ Ø¹
Ø¢ÙĨ ÙĦØ§ÛĮÙĨ
ĠØ¨Ø§Ø²Ú¯Ø±Ø¯ Ø§ÙĨØ¯ÙĨ
ĠØ¬ÙĨØ¬ Ø§ÙĦÛĮ
ÚĨ ÙĪØ¨Ùĩ
ĠM ax
ĠÚ©Ø§ÙĨ ØªÛĮÙĨ
ÙĦØ· Ùģ
ĠØ¢Ø± Ø´
Ø±Ø³ ÙĪÙĨ
Ø§ÙĪ Ù¾Ú©
per ia
Ú¯ ÙĦÛĮ
ÙĪÙħ ÙĨØ¯
ĠØ¯ÙĤØ§ÛĮ ÙĤÛĮ
Ġ1 000
ĠØŃ ÛĮØ¯
ĠØ±ÙĪØ² Ø±Ø³Ø§ÙĨÛĮ
ĠÙħÙĨØµ ÙģØ§ÙĨÙĩ
ĠÙĨÙħ ÛĮØªÙĪÙĨ
Ġ2 8
ĠØ¬ÙĨØ³ÛĮ ØªÛĮ
Ùħ Ø¹ÙĨÛĮ
ĠW eb
ĠØ¨Ø¹Ø¯Ø§Ø² Ø¸ÙĩØ±
ĠÙħ ÙħØ§ÙĨ
ĠØ¯Ø±Ø®ÙĪØ§Ø³Øª ÛĮ
ĠO pen
ĠØ¢Ø³ ÙĪØ´ÛĮØªØ¯
ĠÛ±Û¹Û¸ Û·
ĠÚ¯ÛĮÙħ Ø²
ĠÛ¶ Û±
ĠÚ¯Ø°Ø± ÙĨØ§ÙħÙĩ
ĠØ§Ùģ Ø´Ø§ÛĮ
ĠØ³ÙĪÛĮ Ø§
Ġp l
Û¹Û ±
: Â»
er y
ĠÙģØ±ÙħØ§ÙĨØ±ÙĪ Ø§ÛĮÛĮ
Ø´ÙĨØ§Ø³ ÛĮØ¯
ĠØ¯ÙĪØ± Ø§ÙĨÛĮ
al e
f er
ĠÙĦ ÙĪØª
ĠØ³ÙĦ ÙħØ§ÙĨ
Ø§ÙģØ² Ø§ÛĮØ´
ĠÙģØ´ Ø§Ø±ÛĮ
ĠØ¨ Ø´ÙĪÙĨØ¯
ĠØ§Øª ÙĦØ§Ùģ
ĠÙħÛĮÙĦÛĮ ÙħØªØ±
ĠÚ©ÙħÙ¾Ø±Ø³ ÙĪØ±
ĠSm art
ĠÙħÙĨØ§ÙĤ Ø´Ùĩ
Ø±ÙģØª ÙĨØ¯
Ø¹ ÙĤ
Ø§Ø· ÙĦØ§
is ion
ĠÚĨØ§Ù¾ ÛĮ
ĠØ§ÙĦÚ©Ø³ Ø§
ĠØµ ÙĩÛĮ
ĠØªØ¹ Ø§Ø±ÛĮ
ÙĪØ§Ø³ Ø·Ùĩ
ĠÙģ ÙĪØ±Ø§ÙĨ
ĠÚ©Ø§Ùģ ÛĮÙĩ
ĠØ¢ Ø´ØªÛĮ
ĠÙĨÙĪ Ø¨Ùĩ
ĠÚ© Ø§ÙĨÛĮ
ĠØ·ÙĦ ÙĪØ¹
ĠÙĨØ´ ÛĮÙĨÛĮ
ĠØ¨Ø³ Ø·
ĠØ§ÙĨØ¨ÙĪÙĩ ÛĮ
ĠSt r
ĠÙħØµØ¯ ÙĤ
ĠÙħØ« Ø§ÙĦÛĮ
ĠØµØ±Ø¨ Ø³ØªØ§ÙĨ
ĠÚ¯Ø±ÛĮ Ø¨Ø§ÙĨ
ĠØªØµØ§Ø¯Ùģ Ø§Øª
ĠØªÛĮØ² Ø±
ĠØªÙĤ Ø§Ø·Ø¹
Øª ÙĪÙĨÛĮ
ĠØ¨ÙħØ§ÙĨ ÛĮÙħ
ĠØ¢ÙĪÛĮ Ø²Ø§ÙĨ
Û´ Ûµ
ĠÙħØ®ØµÙĪØµ ÛĮ
ĠÙ¾Ø§ÙĨ Ø²Ø¯ÙĩÙħ
ĠÙħØ³ Ø®Ø±Ùĩ
ĠØ±ÛĮ ÙĪ
ĠÙħ Ø²Ø¯
ĠÙĦ Ú¯
Ø§Ø³Øª Ø§Ø±
ĠÛ´ Û°Û°Û°
ĠÙħØ¹Øª Ø§Ø¯
ĠØ§Ø³ØªØ± Ø§ÙĦÛĮØ§ÛĮÛĮ
ĠÙħØ¨ Ø¯Ø§
ĠØ¨Ø¯ÙĨ Ø¨Ø§ÙĦ
ĠÚ©Ø§Ø±Ø¨Ø±Ø§ÙĨ Ø´
ĠÙħØŃØªÙĪØ§ ÙĩØ§ÛĮ
ĠÚ©Ø§Ø± Ø§
ĠØŃÙĪ Ø¶Ùĩ
ĠÙĨØ± ÙģØªÙĩ
ĠØ³Ø±Ø³ Ø®Øª
ĠÙģØª ÙĪØ´Ø§Ù¾
ĠØ¹ ÙĦÙģ
ĠØ®Ø± ÙħØ§
en er
ĠØ¬ÙĩØ± ÙħÛĮ
ĠØ§Ø³ Ø§Ø·
ĠÙĨØ§ÙħØ² Ø¯ÙĩØ§ÛĮ
ĠÙħØ¹Ø§Ø¯ÙĦ Ø§Øª
ĠØ§ÙĤ Ø³Ø§Ùħ
ĠM us
Ġi m
ÙħØ§Øª ÛĮÚ©
Ø§Ø± Ø¬
ĠØ¹ Ø³
ĠÚĨ ÛĮÚ©
R L
ĠØ¹ ÛĮØ§Ø±
ĠÙħ Ú¯Ùĩ
ĠØ§Ø«Ø± Ú¯Ø°Ø§Ø±
ĠÙħÙĦ Ú©ÛĮ
ĠØ¯Ø§ÙĪØ·ÙĦØ¨ Ø§ÙĨÙĩ
ĠØ§ÛĮÙĨ Ø¯
Ø¨Ø§ÙĦ Ø§
ĠØªØ³ÙĦÛĮ ØŃØ§ØªÛĮ
ĠÙĨÛĮØ§Ø² ÙħÙĨØ¯ÛĮ
ĠÙħØ¹ Ø§ÙĩØ¯Ùĩ
ĠÙĦÙĩ Ø³ØªØ§ÙĨÛĮ
ĠØ² ÙĪØ§ÙĦ
ĠØ¨ÙĨÚ¯ ÙĦ
s c
ĠÙĨØ® Ø¨
ĠØ¹ Ø§ÙĦ
ĠØ§Ø¯ Ø§ÛĮ
ĠØ®Ø· Ø§ÙĩØ§ÛĮ
ĠÙĪØ³ Ø·ÛĮ
m e
ĠØ± ÛĮØ¯
ĠÙ¾Ø§Ø³Ø® Ú¯ÙĪ
ĠÙĦØ§ÙĨ ÚĨØ±
ĠÙħØºÙĦ ÙĪØ¨
ĠØ¶Ø§ÛĮ Ø¹Ø§Øª
ĠÙħÛĮØ¹Ø§ÙĨ Ø§Øª
ĠÙ¾ Ø¯Ø§Ùģ
ĠÛ±Û¹Û¸ Ûµ
ĠÚ©Ø±Ø¨ ÙĦØ§
ĠØ§ÙģØ³Ø± Ø§ÙĨ
ĠÙĨÙĩ ÙĨÚ¯
ÙĦ Ø¯
Ù¾Ø± Ø³Øª
ĠÛ±Û¹Û¸ Û²
ĠÙħØ¨Ø§ÙĦ Øº
ĠØ³ÙĨØ§Ø±ÛĮ ÙĪ
ĠÙĨØ§Ùĩ ÙĨØ¬
ĠÙħØŃØ±Ú© Ùĩ
ĠN FC
ĠØ´Ø³Øª Ø´ÙĪÛĮ
ĠØ¯ÛĮÙ¾ÙĦ Ùħ
ĠØªØ§Ú© ØªÛĮÚ©
ĠÚĨ ØªØ±
ĠØµ ÙĪÙħØ¹Ùĩ
Ø¨Ø±Ø¯ ÙĨØ¯
ĠØ·Ø¨Ø§Ø· Ø¨Ø§ÛĮÛĮ
ĠÙĪØ® ÛĮÙħ
Ø§ÙĨØ¯ ÙĪ
ÙĪØ¨ ÛĮÙĦ
ĠØªÙĪØ§ÙģÙĤ ÙĨØ§ÙħÙĩ
ĠÛĮÚ©Ù¾Ø§Ø± ÚĨÚ¯ÛĮ
ĠØ® ÙĦÛĮÙĦ
ĠØ§ÙĪ ØµØ§Ùģ
ĠØ¨ÙĦ ÙĪØ±
ÙĨÙĪÛĮØ³ Ø§ÙĨ
ĠÙĨ Ú©Ø±Ø¯Ùħ
ĠÙ¾ ÙĦÙĪ
ÙĩØ§ Ø´ÙĪÙĨ
ĠØ¨Ø§Ø² ÙĪÛĮ
ĠØ±Ùĩ Ú¯ÛĮØ±ÛĮ
ĠØ¨Ø§Ø²Ú¯ Ø´ØªÙĩ
Ú¯ ÙĪØ³
ĠÙħÛĮÙĦÛĮ Ø§Ø±
ĠØªØ±Ø§ÙĨ Ø²ÛĮØ³Øª
Ø¢ Ø´ÙĨ
ĠØ³Ø§Ø² ÙĪÚ©Ø§Ø±
ĠÚ©Ø§Ùĩ Ø´ÛĮ
ĠØ¹ÙĦÙħÛĮ Ùĩ
ÙĪØ± Ø¯ÙĩØ§ÛĮ
ĠÚ©Ø§ÙħÙ¾ Ú©Øª
ĠØ¨Ú¯Ø° Ø±ÛĮÙħ
ĠÙĨ Ø§Ø¦
ĠÙĪØ§ØªØ³ Ø§Ù¾
ĠØ´ ÙĪÙĨ
ĠRT X
ĠÙģÙĦØ³Ø·ÛĮÙĨÛĮ Ø§ÙĨ
ĠÛĮ Ø®ÛĮ
ĠÚ©ÙħÛĮ Ú©
ĠÙ¾ÙĦØª ÙģØ±
ĠÙĨÛĮ Ú©ÙĪ
ĠÚ©Ø§Ø± Ú¯Ø²Ø§Ø±ÛĮ
ĠÙĦ Ø¬
Û¸ Û°
ĠØ±ÙĪØ²Ø§ÙģØ² ÙĪÙĨ
ÙĪØ±ÛĮ Ø§
ĠI m
ĠÙħ Ø§Ùģ
Ø§Øª ÛĮÙĨ
ØŃÛĮ ÛĮ
ĠÙĪØ§ ÚĺÙĨ
ĠÚ¯Ø°Ø± Ú¯Ø§Ùĩ
ĠÙĨØ§Ù¾ Ø§ÛĮØ¯
st r
ĠØ¯Ù¾ Ø§Ø±ØªÙħØ§ÙĨ
ĠØº ÙĦÛĮ
ĠÙĦÛĮ ØªÙĪ
ĠØ§ÙĦÚ©ØªØ±ÙĪÙħ ØºÙĨ
ĠØ± ÙģÛĮÙĤ
ĠÛĮ Ú¯Ø§ÙĨ
ĠØŃ ÙģØ±
Ø¨ Ø§ØªÛĮ
Ù¾Ø²Ø´ Ú©
ĠØ²ÙĪØ¯Ùĩ ÙĨÚ¯Ø§Ùħ
ĠF ull
ĠU I
ĠÙĨØ§ÙħØ´ Ø®Øµ
e i
ĠÙĪÙĦØ§Ø¯ ÛĮÙħÛĮØ±
ĠÙħØŃÙĦ Ø§Øª
ĠÛĮÙĦ Ø¯Ø§
Ø´ Ø§Øª
ĠØ¢Ø°Ø±Ø¨Ø§ÛĮØ¬ Ø§ÙĨÛĮ
ĠÙħÙħÙĨ ÙĪÙĨ
ĠØ¯Ø± Ø®ØªÛĮ
ĠÙĩØ± Ú¯Ø§Ùĩ
ĠI T
ĠØ®Ø±ÛĮ Ø¯ÙĩØ§ÛĮ
er a
ÙĨÙĪ Ø´ØªÙĩ
ĠÙħØ¹ ÛĮÙĨÛĮ
ic t
ĠØ¢ÙģØª Ø§Ø¨ÛĮ
P C
ĠØ¨ ÙĪÙĦÛĮ
âĢĮ âĢı
ĠØ§ØŃ Ø¶Ø§Ø±
Ú©Ø±Ø¯ ÙĨÛĮ
ĠÚ¯ÙĪ Ú¯Ø±Ø¯
ĠØ¢Ú©Ø³ ÙģÙĪØ±Ø¯
ĠÙĤÙĪØ§ÙĨ ÛĮÙĨÛĮ
ĠÙ¾ÛĮÙħ Ø§ÛĮØ´
ĠØ§ÙģØªØª Ø§ØŃÛĮÙĩ
ĠÙħÛĮ Ø´Ùħ
ĠÙĨ Ù¾Ø°ÛĮØ±
an k
ĠU lt
ØªØ± ÙĪÙĨ
ĠÙ¾Ø±Ø¯ Ø§Ø²ÛĮ
ĠÚ¯ÙĪ Ø§Ø±Ø´ÛĮ
ĠÙģÙĪØª Ø¨
ĠÛĮØ§Ø¯ Ú¯Ø§Ø±
ĠÙħØº Ø§ÛĮØ±
Ġ ÛĮÙĨ
ÙģØ±Ø³Øª Ø¯
ĠØ¨ Ø¨Ø®Ø´Ø¯
Ø§ÙĦ ØŃÛĮ
ĠS w
ĠÙĪÛĮÚ© ØªÙĪØ±ÛĮ
Ø¯ÛĮ Ø¯ÙĩØ§ÛĮ
ĠØŃÚ© ÛĮÙħ
ĠØªØ³ ÙĪÛĮÙĩ
ĠÙĩØ§ ÚĨ
ĠØ¨Ø¨ÙĨØ¯ ÛĮØ¯
ĠÙħØ¬Ø§Ùĩ Ø¯ÛĮÙĨ
Ûµ Û°Û°
ĠØ¬ÙĪØ§Ùĩ Ø±Ø§Øª
ĠÙħÛĮ Ø±Ø³Ø¯
Ø¯Ø±ÛĮ Ø¬
i el
ÙĨ ÙĪØ§
ĠØ±ÙĪØ² ÙĩØ§ÛĮÛĮ
ĠØ¨ÛĮÙĨØ¯Ø§Ø² Ø¯
ÙĪØ´ ÛĮØ¯
ĠØ§Ø³ØªØ® Ø¯Ø§ÙħÛĮ
ĠØ¯Ùħ Ø´ÙĤ
ĠÚ¯Ø³Øª Ø±Ø¯Ú¯ÛĮ
ĠÙ¾ÛĮØª Ø²Ø§
ĠØª ÙĤÛĮ
ĠÙĩÙħ Ø§ÛĮ
Ø±ÙĪ Ø³
ĠÙħØ´Øª ÙĤ
ĠØªÙħØ§Ø´Ø§ Ú¯Ø±
ĠØªÙĨØ§Ø³ ÙĦÛĮ
ÙĦØ§ ØŃÛĮ
ĠØ§ÙĨØ¯ ÙĪÙĩ
ÙħÛĮÙħ Ùĩ
ĠØ§Ø³Ú©ÙĨ Ø§Ø³
ĠÙħØ±ØŃ ÙĪÙħ
ĠØ±Ø® Ø¯Ø§Ø¯
Ùģ ÙĪÙĨÛĮ
ĠÙħÙĨØªÙĤØ¯ ÛĮÙĨ
ĠØ§ÛĮÙħÛĮ ÙĦÛĮ
ĠÙħØ³Ùħ ÙĪÙħÛĮØª
Ø§Ú© Ùħ
Ú©Ø³ ÙĦ
ĠÙħØ±Ú¯ Ø´
ĠØ§Ø¹ØªØ± Ø§Ø¶ÛĮ
ĠA p
ĠÚ©ÙĦÙħ Ø§ØªÛĮ
Ø¯ÙĪØ± Ø¨ÛĮÙĨ
c on
ĠØ´ ÙĪÙĤ
ĠØ§Øª Ø¨Ø§Ø¹
ĠE v
ĠÙĪÛĮÙĦÛĮØ§Ùħ Ø²
ĠÙĨ ÙĪÛĮ
ĠØ¢ ÙĪØ§Ø±
ĠÙ¾ ÙĪØ²
Ø§Ø³Øª ÛĮÙĨ
ĠÙĨÙĪØ´Øª Ø§Ø±ÛĮ
ĠÙĪ Ø±Ø§ÛĮ
ĠÚĨÙĩØ§Ø± ÚĨÙĪØ¨
ĠØ±Ø§ÛĮ ØŃÙĩ
ĠÙħØ² Ø¯Ø§
Ø®ÙĪØ§ÙĨ ÛĮÙħ
ĠØ¯Ø± Ø³ØªÙĩ
ĠÙĨÛĮØªØ±ÙĪ ÚĺÙĨ
ĠÚĨ Ø±ÙĪÚ©
ĠØ±Ø§ÛĮ Ø²ÙĨÛĮ
ĠØ´Ø§ÛĮ Ø³ØªÚ¯ÛĮ
ĠØ±Ø§ÙĩÚ©Ø§Ø± ÙĩØ§ÛĮÛĮ
ĠØµØ§Ø¯ÙĤ Ø§ÙĨÙĩ
2 4
f l
ĠÙĨ Ø§Ø¨Ø±
ĠØ§Ø³ØªØ¹Ùħ Ø§Ø±
ĠM WC
ĠØªØ±Ø§ Ú©ØªÙĪØ±
ĠØŃ Ø±ÛĮÙĤ
Ø¯Ø± ÙħØ§ÙĨÛĮ
ĠØªÙģØ±ÛĮØŃ Ø§Øª
ĠØ¨ÙģØ±ÙĪ Ø´Ø¯
Ø° Ùĩ
ĠÙ¾Ø³ Ø±ÛĮ
ĠØ§ÙĦÚ©ØªØ± ÙĪØ¯
ĠO r
ĠØ¯Ø± Ø¯ÙĩØ§ÛĮ
ĠØ¹Ø±ÙĪ ÙĤÛĮ
Ú© ÛĮÙħ
ĠØ± Ù¾
ĠÙħØ£Ùħ ÙĪØ±Ø§ÙĨ
ØŃ ØªÛĮ
ĠØ¬ÙĨØ¬ Ø§ÙĦ
ĠÙħØ²Ø§ØŃ Ùħ
ĠØ¯ÛĮØ´ Ø¨
Ø¨Ø± Ø¯Ùĩ
ĠØ¨Ø± Ø§Øª
ĠØ³Ù¾ Ùĩ
ĠÙĩØ´Øª ÙħÛĮÙĨ
ĠÙĩÙħÙĪØ· ÙĨØ§ÙĨ
ĠØªØ§Ø«ÛĮØ± Ú¯Ø°Ø§Ø±ÛĮ
ĠÙĨ Ú¯ÛĮØ±Ø¯
ĠÚ¯ Ø§ÙħÛĮ
ĠØ³Ø¹ Ø§Ø¯Øª
Ú©ÙĨ ØªØ±
ĠÙħØ¯ Ø¯
ĠÙħÙģ Ø§Ø¯
ĠØ¯ ÙĦÙģ
ĠÚ¯ Ø³
ĠÙĨÛĮ Ø§ÛĮØ¯
Ø§ÙģØª Ø§Ø¯Ùĩ
ĠÙ¾Ø±Øª ØºØ§ÙĦÛĮ
ĠØ³Ø§Ùģ Ø§Ø±ÛĮ
at er
ĠØ¬ ÙħØ§
ĠÙģØ± Ø¢ÙĪØ±ÛĮ
ĠØ±Ø£ Ø³
ĠÚ©Ø§Ø± ÙħØ²Ø¯
ÙĪØ§ÙĨ ÛĮØ§
ĠÚ©Ø§Ø± Ùĩ
ĠØ§Ø³ Ú©ÙĦØª
ÙĪÙħ Ø±
ĠH ome
ĠÙ¾Ø¯ Ø§ÙĦ
ĠÙĨÙħ Ø§Ø¯ÛĮ
ĠÛ±Û¹Û´ Û°
Ú©ÙĦ ÙĨ
ĠØªØ· Ø§Ø¨ÙĤ
ÙĨ ÛĮÙħ
ÙĦØ§ ÙĪÙĩ
ĠØ®ÙĪØ§Ø³Øª ÙĨØ¯
ĠÙħÙĪÙĦ ÙģÙĩ
ĠØ¨Ø§Ø¨ Ú©
ĠÙħØ¬ÙĦ ÙĦ
ĠM ark
ĠÙ¾ ÛĮÚ©Ø³ÙĦÛĮ
ĠØ¯ÛĮØ± ÛĮÙĨÙĩ
Ø´ Ø§Ø®
ĠÙģ Ø³ÛĮÙĦÛĮ
ĠØªØ§ Ú©Ø³
ĠÙĩ Ø§Ù¾
ĠÛĮ Ø¨ÙĪØ³Øª
ĠØ¬ Ø±Ø§Øª
Øº ÙĨÛĮ
Ø´Ø¯ Ú¯Ø§ÙĨ
ĠØº Ø²ÙĦ
Ġ2 6
ĠØ§ÙħØª ÙĨØ§Ø¹
Ø¯ ÛĮÙĨÚ¯
ĠØ®ÙĪØ¯ ÙĨÙħØ§ÛĮÛĮ
ĠØ¨Ø§Ø® Ø¨Ø±
ĠÚ©Ø§Ø± Ø®Ø§ÙĨ
ĠØ¢ÙĦ Øª
ĠØ¯ÛĮØ± ØªØ±
ĠØ§Ø¬ Ø³
ĠØ§Ø¯ Ùħ
ĠØ§Øª ÙĪÙħØ§
Ø¢ÙģØ± ÛĮÙĨ
ĠÙ¾Ø±Ø³Øª Ø§Ø±ÛĮ
ĠØµ ÙģØª
ĠÚ¯ÛĮ Ú¯
Ø³ Ø§Ø¯Ú¯ÛĮ
ĠA ss
ĠØ§Ø³ Ø§Ø±Øª
ĠØ¯ÙĪ ØªØ§ÛĮÛĮ
ĠØ³ÙĪ Ú¯
ÙĪÙĤ Ø¹
ud io
ĠØ¨Ø§Ø± Ø§Ú©
ĠÙģÙĦØ§ Ø´
ĠÙħØµ ÙĪÙĨ
ĠÙħØ¹ÙĦÙĪ ÙĦÛĮØª
ĠÙħØ®ØªØµ Ø§Øª
ĠS ec
ĠØ¯Ø§ÙĨ Ø´ÛĮ
ĠØ®Ø±Ø¯Ø§Ø¯ ÙħØ§Ùĩ
ĠÙģ ÙĤÛĮÙĩ
ĠØ§ÙĨØª ÙĩØ§ÛĮÛĮ
ĠÚĨÙĩØ§Ø± Ø¯ÙĩÙħ
ĠØ§Øº Ø±Ø§ÙĤ
1 7
ĠØ¬ÙĨ Ø§Ø¨
ĠÙĨÙģØ± Ø§Øª
ÙģÛĮÙĦ Ø¯
ĠÙħØ§Ø¯Ø± Ø¨Ø²Ø±Ú¯
ĠØ¹Ø° Ø§Ø¨
ĠØ´Ø¬Ø§ Ø¹Øª
Ġ4 5
ĠÙĦÙ¾ ØªØ§Ù¾
Ùħ ÙĩØ±
Ø² Ø¨ÛĮ
ĠÙĨ Ú¯Ø§Ø±ÛĮ
ĠÚ©Ùģ Ø§ÛĮØª
ĠÙ¾Ø±Øª ÙĤØ§ÙĦ
ĠÙĨ ØªÙĪØ§ÙĨÙĨØ¯
ĠÙħØªÙħØ§ÛĮ ÙĦ
ĠØªØ±Ø§Ø¨ Ø§ÛĮØª
ĠÙĩÙĦÛĮÚ© ÙĪÙ¾
ĠÙħØ¨ Ø§ÙĨÛĮ
ĠÛĮ ÙĪØ²
Ø· ÛĮÙĦ
ĠØ§ÛĮØ± Ù¾Ø§Ø¯
ĠÙģÛĮÙĦ ØªØ±ÛĮÙĨÚ¯
Ġp h
ÙĨ Ø´Ø¯Ùĩ
ĠÚ¯ ÙĪØ±ÛĮ
ĠØ¨ÙĪ Ø³ØªØ§ÙĨ
ĠØ¯ Ø´Ùħ
ĠØªØ§Ø¨ Ø¹Ùĩ
SM C
Ú© Ø¨ÛĮØ±
ÙĨÙĪÛĮØ³ Ùħ
ĠØ§ÙĪÙĦ Ø§
ĠÙĨÙĪ Ø§Ø®ØªÙĨ
ĠØºÛĮØ± ÙħØª
ĠØ¨Ø³Ø§Ø² ÛĮÙħ
ĠØºÛĮØ±Ø¯ ÙĪÙĦØªÛĮ
ĠÙĨØ® ÙĪØ¯
ĠÚ©ÙĦÛĮ Ø³
ĠØ¬ÛĮÙħ ÛĮÙĦ
ĠÙĪØ¨ Ú¯Ø§Ùĩ
ĠØ´ ÙĪÛĮ
ĠÙħÙĩ ÛĮ
ĠØ¢ÙĨ Ø§ÙĦÙĪÚ¯
ØµÙģ ØŃÙĩ
ĠÙĩÙĪØ§ÙĨ ÙĪØ±Ø¯ÛĮ
ĠØ¯Ø§Ø± ÙĪØ³Ø§Ø²ÛĮ
ĠØ±Ú© Ø§Ø¨
ĠØ§ÛĮÙĨ Ø¬ÙĪØ±ÛĮ
: }
ĠØ¨Ø² ÙĪØ¯ÛĮ
ĠÙħØ§ÛĮ Ú©Ø±ÙĪ
Ø§ÙĦ ÙħÙĦÚ©
ĠØ¨ÛĮ ÙĪÙĦÙĪÚĺÛĮÚ©ÛĮ
ĠØµÙģ ÙĪÛĮÙĩ
ĠØŃØ¬ ÛĮÙħ
ĠØ¸ Ø±Ø§ÙģØª
Ġc omp
ĠØ¨Ùĩ Ø±
ĠØ¢ ÙħÛĮØ²ÛĮ
ĠÙĤ Ø§Ùĩ
ĠØµØ¯ Ø§ÙĤØª
ĠØªÙĪØ± ÙĨØªÙĪ
Ø¹ÙĦ ÙĪÙħ
ĠÙĪÛĮ Ø¬Øª
ĠØ´Ø¬ Ø±ÛĮØ§ÙĨ
ĠØ¯Ø± ØŃ
ĠÛ±Û³Û¸ Û·
ĠÙĩØ±Ú© Ø³
ĠØ¹ Ø§Ø¬
ĠÚ©Ø§Ø± ÙĪÙĨ
Ġ >
ĠØ¶ ÙħÛĮÙħÙĩ
ĠØªØ´ Ú©
ĠØ§Ø³Ú© Ø§ÛĮÙ¾
ĠØªÚ©ÙĨ ÛĮÚ©ÛĮ
ĠØ§Ø³ÙħØ§ Ø¹ÛĮ
ĠÛ±Û¹Û´ Ûµ
ĠØ§ØªÙĪÙħØ§ Ø³ÛĮÙĪÙĨ
ÚĨ ÙĪ
ÙħØ¹ Ùħ
Ġ201 2
ĠØ§ØŃØªØ± Ø§ÙĤ
l and
ÙĤ Ø·
Ø« Ø§ÙĦ
ÙĨØ¸ Ùħ
I A
ĠÚ© Ø¨ÙĪØ¯
Ø±Ø§ Øº
ĠØ³Ù¾ Ø§Ø³
Û±Û ±Û
ĠÙħÙĨØµ Ø±Ùģ
ĠÙĨØªÙĪØ§ÙĨØ³Øª ÙĨØ¯
ĠÙ¾Ø±ÙĪÚĺ Ú©ØªÙĪØ±
ĠÚ©Ø§ÙĨØ³ Ù¾Øª
ØŃ Ø³ÙĨ
ĠØ² Ø§ÙĨ
ĠØ¹ Ø§ÙĤÙĦ
ĠØª ÙĩØ±Ø§ÙĨÛĮ
ĠÙĤ Ø§Ø·
ĠØ³ Ø¬
ĠÙĪØ§ØŃ Ø¯ÙĩØ§
ĠÙħÛĮÙĨ ÛĮÙħ
ĠÚ©Ùħ Ø¨Ø±ÛĮØ¬
ĠØ³ÛĮØ¯ ÙĨÛĮ
ap h
Ø¬ Ø§Ø¨
ĠØ¨Ø¹ ÙĦØ§ÙĪÙĩ
âĢİ âĢĮ
ĠØªØ£Ø³ÛĮØ³ Ø§Øª
as k
Ø´ ÙĪØ±
Ø®ÙĪ Ø§Ø¨ÛĮ
Ø²Ø¯ ÙĨØ¯
ĠØ¢Ø«Ø§Ø± Ø´
ĠØ§ÙĦ Ú©ÙĦÛĮ
ĠØ³Ùģ ÛĮÙĨÙĩ
ĠØºÛĮ Ø¨Øª
ĠØ§ Ú©Ø±
ĠÙĩ Ø§ÛĮÙħ
ĠØ· ÙĪÙĦÛĮ
ĠØ¹ Ø§Ø±Ùģ
ĠØ¬Ø§ ÙĩØ§ÛĮÛĮ
ĠØ¨Ø§ÛĮ Ø³Øª
ĠØ§ ÙĪØ±Øª
ĠÙĨØ§Ùħ Ø±
ĠØ´Ø§ÙĨ Ø²Ø¯Ùĩ
ĠÙĨØ§Ø± Ø³Ø§ÛĮÛĮ
ĠÚ¯Ø±Ø§ÙĨ Ø´
ett ings
ÙĪ Ø¬ÙĪÛĮ
ÙĨ ÙĪØ³
ĠØ¢Ø± ØªÙĪØ±
ĠÙĨÙħÛĮØ¯ÙĪÙĨ Ùħ
ĠØ±Ø³ Ø§ÙĦØª
ĠÚĨ Ø·ÙĪØ±ÛĮ
ĠÛ±Û¹Û· Ûµ
ĠØ§ÙĨØ¹ ÙĤØ§Ø¯
ĠØ¢Ø´ ÙĪØ¨
ĠÛ±Û¹Û¶ Û¸
ĠÙģÙĩÙħ ÛĮØ¯ÙĨ
Ù §
Ø´ Ú©ÙĨ
ĠÙħÙĨ Ø§Ø¨Ø¹ÛĮ
ĠØ¨ÛĮÙĨ Ø´
f t
ĠÛµ Û°Û°Û°
ĠØ¨Ø§ÙĦ Ø§Ø±
ĠÙĦ ÙĪØ³
ĠØªØ¨ Ø¹ÛĮØª
ĠØ§ÙħØ¶Ø§ Ø¡
Ø®ÙĪØ± Ùĩ
ĠÚ©Ø¯ÙĨ ÙĪÛĮØ³ÛĮ
ĠÙħ Ú©Ùĩ
ĠØ§Ùħ Ú¯Ø§
ĠÙĤØ· Ø¹ÛĮØª
ĠØªÛĮ ÙĪÙĨ
ĠÚ©Ø§ Ø¸Ùħ
em ent
ĠÙĦÙĪ ØŃ
ĠØ¬ Ú¯ÙĪØ§Ø±
ĠÙħØ¯ Ø§Ø±ÛĮ
ĠÙħØ¬ Ø§Ø±ÛĮ
ĠÙĤØ¨ Ø¶
Û² Û¹
ĠÙħÙħØ§ÙĨ Ø¹Øª
n ing
ĠÙħÙģ Ø§ØµÙĦ
Ġj s
ĠÙĦÛĮÙĪØ± Ù¾ÙĪÙĦ
ĠØ¬Ø¯ ÛĮØª
ĠÙĨØ¯Ø§Ø´Øª ÛĮÙħ
ĠÚ©ÙĪÙ¾Ø±ØªÛĮÙĨ ÙĪÛĮÛĮ
ĠÙĨØ®Ø¨ Ú¯Ø§ÙĨ
ĠÙĪØ¬ÙĪØ¯ ÛĮ
ĠÙĪØŃØ´Øª ÙĨØ§Ú©
ĠÙħØ³ØªØ« ÙĨÛĮ
Ùħ ÙĪØª
ÙĤØ¯ Ø±ÛĮ
ĠØ¢Ú©Ø§Ø¯ÙħÛĮ Ú©
ĠÙħÛĮÙĦÛĮØ§Ø± Ø¯ÙĩØ§
ĠÙħØ± ÙħÙĪØ²
ĠÙħØ¤ÙĦÙģ Ùĩ
ĠÙħØ´ ÙĪÙĤ
ĠÙħØ¨ Ø¯
ĠØ´ ØªØ±
ĠØ¬Ø¯ Ø§ÛĮ
ĠÙħØªØºÛĮØ± ÙĩØ§ÛĮ
ĠÛ±Û¹Û¶ Û¹
ĠØ²ÙĪØ§ÛĮ Ø§ÛĮ
ĠØ´Ø¹ Ø±ÛĮ
ĠØ¨ ÙĪØ±Ø¯
ØªÙĪÙĨ Ùħ
ĠÙĪÙĦ Ø²
ÚĨ ÙĩØ±
ĠÙĤ Ø±Ø§Ø¦
ĠÙ¾ÛĮØ´ Ùĩ
ĠÙ¾Ø³ ÙĪØ±Ø¯
ĠØµØ¯ Ø¯
ĠØ¨ÙĨØ´ÛĮÙĨ ÛĮØ¯
ĠØ±ÙĪØ² Ú¯Ø§Ø±ÛĮ
Ú©Ø±Ø¯ ÛĮØ¯
Ø¶Ø± ÙĪØ±ÛĮ
ĠØ±ÙģØªØ§Ø± ÙĩØ§
ĠAM G
ĠØ§ØªÛĮ ÙĦÙĨ
ĠØ¬Ø§ÙĨ ÙĪØ±ÛĮ
ĠØªØ¬Ø¯ÛĮØ¯ Ù¾Ø°ÛĮØ±
ĠÙ¾ ÙĨØª
ÙĦÛĮ Ø§ÙĨ
Û· Ûµ
ÙĪØ²ÛĮ Ø³ÛĮÙĪÙĨ
ĠØ§ÙĨÙĤØ¨Ø§ Ø¶
ĠP S
Ø² ÙĨØ¯Ùĩ
ĠØ±ÙĪÛĮ Ú©Ø±Ø¯ÙĩØ§ÛĮ
ĠØ¢Ø´Ø§Ùħ ÛĮØ¯ÙĨÛĮ
ĠØªÙĨ Ø§ÙĤØ¶
ĠÚ¯Ø±Ø¯ ÙĨØ¯
ĠØ±Ø¦ÛĮØ³ Ùĩ
ĠØ¨ÙĨØ¯ ÙĩØ§ÛĮ
ĠÙĩ ÙĪØ³
ĠØ§Ø¨ØªÙĦØ§ Ø¡
Ùģ Ú©Ø±Ø§ÙĨ
Ø§Ø±ÛĮ Ùĩ
ĠØ³Ùĩ Ø§ÙħÛĮ
ĠÙħØ±Øª Ø¨Ø§
ĠÛ±Û¹Û¶ Û·
ĠÙ¾Ø±Ø³Øª Ø§Ø±
ĠØ§ÙĨØ´ Ø¹Ø§Ø¨
ĠÚ©ÙĨÙģ Ø¯Ø±Ø§Ø³ÛĮÙĪÙĨ
ĠÙħÚ©ÙĦ Ùģ
Ø¯ ÛĮØ¯ÙĨ
ĠØ³ ÙħÛĮÙĨ
y t
ĠØ±ÛĮÙħ ÙĪØª
ĠÙĩ Ø±Ø§Ø³
ĠØ¨ Ú©ÙĨÛĮÙħ
ĠØªØ¶ ÙħÛĮÙĨÛĮ
ĠÙ¾ÛĮÚ© Ø§ÙĨ
ĠÙħØ®ÙģÛĮ Ø§ÙĨÙĩ
ĠÚ©Ø´Ø§ÙĪØ± Ø²
ĠØ±Ø§ÛĮ Ø§ÙĨ
ĠØ±Ø§ ÙĪÛĮ
Ø¹Ø¯ Ùħ
D F
ĠØ¬Ø²Ø¦ÛĮ Ø§ØªÛĮ
ĠÙģØ¹Ø§ÙĦÛĮ ØªÛĮ
Ø§Ø± Ú¯
ĠÙħÙĩÙħ Ùĩ
ĠØ¨Ø®ÙĪØ§ÙĨ Ø¯
ĠÚ©Ø§ÙĦØ¨ Ø¯
ĠØ¯Ø´Ùħ ÙĨÛĮ
B S
ĠØ²Ø¯ Ø§ÛĮÛĮ
ĠØµØ§Ø¯ ÙĤÛĮ
ĠØ§Ø³Ú© Ø§ÛĮ
ik e
ĠÙ¾ÛĮÙħ Ø§ÙĨÙĩ
Ø§Ùĩ Ø§Ùħ
ĠÙħÙĨØª Ø³Ø¨
Ø¨ ÙĨØ§ÛĮ
ĠÙħØ± Ø§Ø¯
ĠØ§Ø² ÙĨØ¸Ø±
ĠÛĮ ØŃÛĮÛĮ
ĠØ¬ÙĪ ÙĩØ±
ĠÛ±Û² Û°Û°
Ġs c
ĠØªØ§Ø¨ Ø¹ÛĮØª
ov e
ÚĨ ÛĮÙĨÛĮ
ĠØºØ§ÙģÙĦ Ú¯ÛĮØ±
re am
ĠÚ¯Ø±Ø§ÙĨ Ø´ÛĮ
er ver
ĠØ¢ÛĮ Ú©ÙĨ
ĠØ¨ ÙĪØ³ØªÙĪÙĨ
ĠÛ±Û¹Û· Û´
ĠÛ±Û³Û¸ Û¶
ĠÂ« (
ĠØ§Ùĩ Ø¯
ĠØ³Ø§ÙĨ ØŃÙĩ
ĠÛĮ ÙĤÛĮÙĨ
ĠÙ¾ÛĮ Ú¯ÛĮØ±
ĠØªØ¹Ø§Ø±ÛĮ Ùģ
Ú¯Ø± ÙĩØ§
ÙĦ ÙĪØª
Ù¾ Ø§Ø³
ÙĨØ´ Ø§ÙĩÛĮ
ĠØ§ÙĦ Ú©ØªØ±ÛĮ
ĠÛ±Û¹Û· Û²
Ø¨Ø§Ø² Ø§Ø±
ĠÚ¯ÙĨØ¬ ÛĮÙĨÙĩ
ĠÙĪØµ Ùģ
Ø³ØªØ± ÙĨ
ĠÙĨ Ø´ÙĨ
ĠØ² ÙĦ
ĠØ±ÙĪ Ø§ÛĮØªÛĮ
Øª ÙĦÙģ
ĠÚ©Ùħ Ø±ÙĨÚ¯
ĠT V
ĠÙģÛĮØ± ÙĪØ²Ùĩ
Ú¯ÙĪÛĮ ÛĮØ¯
t t
Øª Ø§Ùħ
ĠØ´Ø§Ùĩ Ø§ÙĨ
ĠÚ©Ø§ÙĨ ÙĪÙĨÛĮ
ĠØ¯Ø±ÛĮ Ø§ÙĨ
ĠØªÙĪÙħ ÙĪØ±
ĠÙģØ§Ùħ ÛĮÙĦ
ĠÚ¯ ÙĪÙĦ
ĠØ¨Ø§Ø² ÙħØ§ÙĨØ¯Ùĩ
ĠÙĩ Ù¾
ĠØ· Ø§ÙĤØª
ag on
ĠÚ©ÛĮÙĦÙĪ ÙĪØ§Øª
ĠØ®Ø¬ Ø§ÙĦØª
ĠØ§Ø³Ù¾ÛĮÚ©Ø± ÙĩØ§ÛĮ
P A
Úĺ ÙĪ
Ø³Ø§Ø² ÙħØ§ÙĨ
ĠÙĨÙĪØ´ Ø§Ø¨Ùĩ
ĠÙħØ§Ø±ÛĮ Ø§
ĠØ§Ù¾ÛĮØ¯ ÙħÛĮ
ĠÙħØ³ Ø·ØŃ
Ø§ÙĩÙħ ÛĮØª
ĠÙĩÙģ Ø¯ÙĩÙħ
Ġ Î
ĠØ¨Ø§ÙĦ Ø§Ø¯
ĠT SMC
ĠÚ© ÙĦØ§Ú©
ĠØ¨Ø³Ù¾Ø§Ø± ÛĮØ¯
ĠX peria
Ø¯ Ø§ÙĨÙĩ
ĠÙħØ¯ Ùģ
Ø² ÙĪÙħ
ĠØ´ Ø¨ÛĮ
t ect
ĠØ§Ùħ Ú©Ø§ÙĨÛĮ
ĠØ´ÙĨØ§Ø³ Ø§ÙĨ
ĠØŃØ´ Ø±Ùĩ
ĠØ¹ Ø§ÙĤ
ĠØ§Ùģ Ø´Ø§Ø±
ĠÙģØ±Ø§ ÙĪØ±Ø¯Ùĩ
Ú©ÙĪ Ùģ
ĠÙħÛĮØ´ ÙĦ
ĠØ´Ø§Ùĩ ÙĨØ´Ø§ÙĩÛĮ
ĠÚ©Ø§Ø±Ø®Ø§ÙĨ Ø¬Ø§Øª
ĠÙħØ¨Øª Ø¯ÛĮ
ĠÚĺÙĨ ÙĪÙħ
ĠÛ±Û¹Û· Û³
ĠÙĩÛĮÚĨ ÛĮ
Ø·ÙĦ ÙĪØ¨
ĠÚĨØ§ÙĦ Ø´ÛĮ
ĠÙģØ±ÛĮ Ø²Ø±
cr ipt
Ø¯ Ø±Ø¯
ĠØ¢ØªÙĦ Ø§ÙĨ
S E
ĠØ² Ø´Øª
ĠØ¬Ø§ÙĨ Ø´ÛĮÙĨÛĮ
ĠW e
ĠØ³ÛĮÙĦ Ø§Ø¨
ĠØ¯ Ø§ÛĮØ±
Ùģ Ø§ØµÙĦÙĩ
ĠÙ¾Ø§Ø±Ø³ÛĮ Ø§ÙĨ
ĠÙĦÛĮØªÙĪ Ú¯Ø±Ø§ÙģÛĮ
I T
ĠÙĪ ÙĪØ¯
ĠØªÙĪ Ø§Ø²ÙĨ
Ø§ØªÛĮ ÙĪ
ĠØ§ÙĦ Ø´
ĠØ®Ø¨Ø± Ùĩ
Ù¾Ø±Ø¯Ø§Ø² ÙĨØ¯Ùĩ
ĠØ²ÙħØ§ÙĨ Ùĩ
ĠÙĦØ§ ØºØ±
ĠØ¯ÛĮ Ø²ÙĦÛĮ
ĠØ±Ø¬ÛĮ Ø³ØªØ±ÛĮ
Ø§Ø±Ø¯ ÛĮ
ĠM ode
ĠÙĦØ· ÛĮÙģ
ĠÚ©Ø§ÙĨØ¯ ÛĮØ¯Ø§
ĠÛĮ Ø§ÙĨ
ĠÚ©Ùħ ÛĮØª
ĠÙħÙĦ ÙĤØ¨
ĠÙĨØ§Ø³ Ø§ÙĦÙħ
ĠØ§ÙĨÛĮÙħ Ùĩ
Øª Ø¹Ø¯Ø§Ø¯
ĠØ¬Ø§ ÙĪØ¯
rib ut
ĠØ¨ ÙĪÛĮØ±
ØŃ Ø§ÙĨ
ØªÙĨ ÙĩØ§ÛĮÛĮ
ĠÛ±Û¹Û¸ Û³
Ø§Ø±ÛĮ Ø§
ĠÙĩÙĨØ¯ Ø³Ùĩ
ĠÙ¾Ø§ÙĨ Ø§Ø³ÙĪÙĨÛĮÚ©
ĠÙħØ³Øª Ø¹Ùħ
Ø¯ ÙĪØ³Øª
Ø§Øª Ø§ÙĨ
ĠÙĦ Ø¹
ÛĮØ³ ÙĪÙĨ
ĠÙħØŃØ³ ÙĪØ³
ĠÛ±Û¹Û· Û¶
l es
ĠÙĦ Ø§ÙĨÙĩ
ĠØ¨Øª ÙĪÙĨÙĩ
ĠÚĨ Ø±ÛĮ
ĠÙħÙĨ Ø¨Ø¹ÛĮ
Ø´ Ø§ÙħÙĦ
ĠØ¨Ø§Ø²Ø§Ø± ÚĨÙĩ
ĠÚ¯Ø±Ø¯ ÛĮ
ĠØ¢ ÙĩÙĨÛĮ
ĠÙ¾ÛĮÙħØ§ÙĨ Ú©Ø§Ø±Ø§ÙĨ
ĠØ¨Ø± ÛĮØ¯Ùĩ
ĠÛ±Û¹Û· Û±
ĠÙĨÛĮ Ø§ÙĪØ±Ø¯
f in
ĠÙĨØ³ Ø§Ø¬ÛĮ
ĠÙĦÛĮ Ú©
ĠÙħÛĮÚ©Ø±ÙĪ Ø¨ÛĮ
ĠÙħÛĮ Ú¯Ø±
ÙĪØ±Ø¯Ùĩ Ø§
Ġ le
ĠØ³Ø¦ ÙĪÙĦ
ĠÙģØ± ÙħØ§ÛĮÛĮØ¯
ĠØ³ÙĪ Ø®ØªÙĩ
id er
ĠÚ©Ø´ Ùħ
ĠÙģÙĨØ§ ÙĪØ±
Ø®Ø§ÙĨ ÙĪØ§Ø±
ĠØ¯Ø§Ø± ÛĮÙĨ
ĠØ§Ùħ ÛĮØ±ÛĮ
ĠØ¯Ø§Ø¯ Ø±Ø³ÛĮ
ĠØ¨ ÙĪÙĨ
ĠÙĪ Ø§Ù¾
ĠØªØ¹Ø§ ÙĪÙĨÛĮ
ĠØª ÙģØ±
ĠÙĤ ÛĮØ±
ĠØ¨ÛĮ ÙĦÛĮ
Ø³ ÙĦØ§
ĠÙĨØ§Ø± Ú¯ÛĮÙĦ
ÙħÙĨØª Ø¸Ø±Ùĩ
ĠÙĦØŃØ¸ Ø§ØªÛĮ
ĠØ¨Ø§ Ø³
ĠØ§Ø³Øª ÙĪØ§ÙĨÙĩ
ĠÙĤØ¨Ø± Ø³
Ùħ Ø§ÙĩÛĮ
ĠØ³ ÙĩØ±
ĠÙĪÛĮ Ø²ÛĮØª
ØŃ Ø§Ùģ
ĠÙĦ Ø±ÛĮ
ĠÙ¾Ø±ÙĪ Ù¾
ĠØŃÚ© ÙħØª
ĠØ¢ØªØ´ ÙģØ´Ø§ÙĨÛĮ
ĠÙĪ Ø§ÙĦØ¯
ĠÙ¾ Ø§Ø¨
Ø§Ø³ ÙĪ
ĠÙĩÙĪØ§ Ø¦ÛĮ
ĠÙ¾Ø§Ø± ØªÛĮ
ĠÙĤØ¶ Ø§Ø¦ÛĮ
Ù¾ÙĪ Ø³ØªØ§ÙĨ
ĠÙħÛĮ Ú¯ÛĮØ±Ùĩ
ÙħÛĮ Ø²Ø§ÙĨ
on y
ĠÙħÛĮØ§ÙĨ Ø¬ÛĮ
av a
Ø® Ùħ
ĠØ§ÙĨÙģØ¬ Ø§Ø±ÛĮ
O N
ĠØ´ Ø§ÙĩÛĮ
Ú©ÙĦ Ùħ
ĠÙħØ® Ø§Ø±Ø¬
ĠØ¹ÙĦØ§Ø¦ ÙħÛĮ
ĠØ¨Øª Ø§ÛĮ
ĠÙĤØ¶Ø§ÛĮÛĮ Ùĩ
ĠØ§ÛĮÙĨ ÙĪ
ĠØ¨Ø± ÙģÛĮ
ĠÛ±Û³Û¸ Û´
Ø§Ø±ÛĮ Ø§ÙĨ
ĠÚ©ÙĦØ§ÛĮÙĨ Øª
6 8
i ence
ĠÙħ ÙĩØ±Ø§ÙĨ
Ø±ÛĮ Ø§
ĠÙĩØ§ÛĮ Ù¾Ø±
ĠØ¢ ÛĮÙĨØ¯
ĠÙħØ¹ Ø§ÙĦ
ĠØ³Ø· ÙĦ
ĠÙĤØ¯Ø±ØªÙħÙĨØ¯ ØªØ±
ĠØ¢Ø³ÙĪØ´ÛĮØªØ¯ Ù¾Ø±Ø³
ĠØ§Øµ Ø§Ø¨Øª
ĠÙħØµ Ø§Ø¯Ùģ
ĠÚ©ÙĦÛĮÙĨ ØªÙĪÙĨ
ĠØ¯ÛĮ Ú¯
ĠØ§Ø¯ ÙĪØ¨ÛĮ
ĠØ¨Ø° Ø±
ĠØ²Ø±Øª Ø´Øª
ĠÙĪØ²ÛĮØ± ÛĮ
Ø§ÙĨÚ¯ Ø´Øª
ĠÙ¾Ø¯Ø§Ùģ ÙĨØ¯
ĠÙħØµ ÙĦØŃ
ĠØ¨ÙĦÙĨØ¯ ØªØ±
ĠØ§ÙħÙ¾Ø±Ø§ Ø·ÙĪØ±ÛĮ
ĠÚĨ ÙĪ
ĠÙħØµ ÙħÙħ
ØŃ Ùħ
ĠC ol
ĠØ± Ú¯ÙĪÙĦ
ĠÛ¸ Û¹
ĠÙģØ±Ø§Øº Øª
ĠØ³Ø± Ù¾ÙĪØ´
ĠÚ¯Ø°Ø±Ø§ÙĨ Ø¯Ùĩ
ĠÙģ ÙĦÛĮ
ĠØªÙĪ Ø§ÙĦØª
ĠØ¨ÛĮ Ùģ
ĠÙĪÙĦÙĪ ÙĪ
ĠØŃÙģØ§Ø¸ ØªÛĮ
ĠÙħØ³Øª Ø·ÛĮÙĦ
ĠÛ· Û¹
ĠØ§Ø«Ø± Ú¯Ø°Ø§Ø±ÛĮ
ĠW orld
Ġ op
ĠØ¬ÙĨ Ø§ÛĮÛĮ
Ø®ÙĪØ± Ø¯ÙĩØ§ÛĮ
ĠØ¨Ø¨Ø®Ø´ ÛĮØ¯
ÙĪ Ú©Ø³
ĠÚ© Ø¯ÙĩØ§
ĠÚĺ Ø±
ĠÙħÚ¯Ø§ÙĪ Ø§Øª
ast er
ĠÙģÛĮ Ø§Øª
ĠØ¨ Ø´ÛĮÙĨ
ĠØ¨ÙĪØ¯ ÛĮ
ĠØºØ± ÙĪØ±
ĠØ±Ø³Ø§ÙĨØ¯ ÙĨØ¯
ĠÙħØ¯Ùģ ÙĪØ¹
3 2
us h
ĠÙ¾ ÙĪØ³
in s
ĠØ¯ÙĪØ³Øª Ø¯Ø§Ø±Ø§ÙĨ
ĠØ§Ø³Øª Ùħ
ĠÙħØ¯ ÛĮÙĨÙĩ
Ø®ÙĪ Ø§Ø¯
Ġc on
ĠÙħÙĨ Ø³ÙĪ
Ø¢ÛĮ ÛĮ
ĠØªØ±Ú© ÙħÙĨ
ĠÛ±Û¹Û¸ Û±
ĠØªØ¹ Ø§Ø±Ø¶
Ø¬ ÛĮØ¯
ĠØ¨ÙĪØª Ùĩ
ĠÙģ ØŃ
ĠÙ¾ÙĦØ§Ø³ ÙħØ§
ĠØ§ÙħÛĮØ± Ú©Ø¨ÛĮØ±
ĠÙĤØ§Ùĩ Ø±Ùĩ
ĠÙ¾ÛĮØ´ Ø§ÙĨÛĮ
ĠÚĨÙĩØ§Ø±Ùħ ØŃØ§ÙĦ
ĠÙħ ÙĪÙĦØ¯
ĠØ· Ø¨Ø±
ĠÙħØª ÙģÙĤ
ÙĪØ§ ÚĺÙĩ
ĠØªØ¨ Ø¹Ø§Øª
ĠC N
ĠØ³ÛĮØ§Ø³Øª ÙħØ¯Ø§Ø±Ø§ÙĨ
Ø³ÛĮÙĦ ÙĪØ§ÙĨÛĮØ§
ĠØ¨Øª ÙħÙĨ
Ø¯ Ø§ÙĦ
ĠÙĩØ¬ Ø¯ÙĩÙħ
ĠØªØ¬ Ø³Ùħ
ĠØ¨ÛĮØ²Ø§ÙĨ Ø³
ĠØ¨Ø§Ø² Ù¾Ø±Ø¯Ø§Ø®Øª
ĠØ¬Ùħ Ø¬ÙħÙĩ
in a
ĠÙĨØ§ Ú¯Ø²
ĠÙĩ Ø§ÙĦÙĩ
ĠØ§Ø³ØªØ¹Ø¯ Ø§Ø¯ÙĩØ§ÛĮ
ĠØ¯Ùĩ ÙħÛĮÙĨ
ĠØ®Ø±ÛĮØ¯ ÙĨ
ĠØ§Ú¯Ø² ÙĪØ²
ĠØ¯ Ø§Øª
ĠØ¹ Ø²Ùħ
ĠÙĨØ§Ø¨Ø§Ø± ÙĪØ±ÛĮ
Ø® Ø§ÙĦ
ĠØ³ÙĨ ØªØ±
ĠM ac
ĠØ±Ø§ÙĨØ¯ ÙħØ§ÙĨ
ĠØ³Ø± Ø§Ø²
ĠØ§Ø¨Ø± ÙĤÙĩØ±
ÙĦ Ø§Ø±ÙĨ
Ø¬ Ø§Ø±
ĠØ¬ ÙĪÙĨØ²
ĠØ¢ÙĨ Ú©Ø§Ø±Ø§
ĠÚ©Ø± Ø§ÛĮ
ĠØ§Ø³ ÛĮØ¯ÛĮ
Ú©ÙĦ ÛĮØ¯
ĠØªÙħ Ø³
ĠÛ· Û³
ĠÙħÙĪ Ùħ
Ø§Ø¦ Ùĩ
ĠÙĨÛĮÙħ Ø§
ĠÚ¯ÛĮÙħ Ø±
ĠÙģÙĪ ÙĦÛĮÚ©
ĠØ³ÙĪØº Ø§ØªÛĮ
ĠÙĪØ±Ø´Ú© Ø³ØªÚ¯ÛĮ
ĠØºÙĪØ§ ØµÛĮ
ÙĪØ§ Ú¯ÙĨ
i ent
Ø² Ø¨ÙĪØ±Ú¯
ĠÙħÛĮ Ø®ÙĪØ§ÙĩÛĮØ¯
ĠØ¢ÙħÛĮ Ø®ØªÙĩ
ÙħÛĮÙĨ Ú¯
ĠÙĨÙĩØ§ Ø¯ÙĩØ§
ĠØºØ±Ø¨Ø§ÙĦ Ú¯Ø±ÛĮ
Ø® ÙĪØ±Ø´
ĠÙ¡Ù £
ĠØ§ÙĦ Ø¨
ĠØºÛĮØ± ÙħÙĨØªØ¸Ø±Ùĩ
ĠÛ±Û· Û°
ĠÙĨØ¬ ÙģÛĮ
ĠØ± Ø¨ÛĮ
Ø¶ Ø¨Ø§Ø·
Â» ØĽ
ĠÙħØ¹Ùħ Ø§Ø±Ø§ÙĨ
ĠØ¢Ø´ ÙģØªÙĩ
ĠÙħÛĮØ®ÙĪ Ø§Ø¯
ĠBl ack
ĠÙģ ÙĨØ¯
ĠØªØ¨ Ø±ÛĮØ²ÛĮ
ĠØºÛĮØ± Ø¶Ø±ÙĪØ±ÛĮ
ĠØ¨Ø§Ø²Ø¯ÛĮØ¯ Ú©ÙĨÙĨØ¯Ùĩ
ĠØ§ÙĨØµ Ø±Ø§Ùģ
T C
ĠÙĪÙĤ Ùģ
ÙĩØ¯ Ùģ
ĠØ¨Ø± Ú¯Ø±Ø¯Ø¯
ÛĮÙĦ Ùĩ
ĠØªÙģÚ©Ø± Ø§Øª
ĠØ¯ÙĪÙĤ ÙĦÙĪ
Ú©ÙĨØ¯ Ú¯ÛĮ
ĠÛ¸ Û³
r es
ĠÙĪ Ø§ÛĮØ¯
ĠØ§Ø³Øª ÛĮÚ©Ø±
ĠÛ¶ Û¹
ĠÙħÙĦ ÙħÙĪØ³
ĠØ¸ Ø±ÙģÛĮ
ĠÙĨØ§Ø² ÙĦ
ĠØªØ¨ Ø®ÛĮØ±
ĠN ote
ĠØµÙĦÛĮ Ø¨
ĠA C
ĠØ±ØµØ¯ Ø®Ø§ÙĨÙĩ
Ġ up
ĠÙħØ³ Ø§ÙĦ
ĠØ´ Ø§Ú©ÛĮ
ĠÙħØª Ø¶
ĠR S
ĠÚĨ Ø§ÙĨÙĩ
ĠÙħÙĨ Ø´ÛĮ
ĠÙĨØ³ Ø¨
ĠÙħÚ©Øª ÙĪØ¨
ĠÙ¾ÙĦØªÙģØ± ÙħÛĮ
ĠØ´ÙĩØ± ÙĩØ§ÛĮÛĮ
ĠÙħØ§ÙĨ Ø¹ÛĮ
Øª Ø§Ú©
ĠØ³ ÛĮÙĨÛĮ
ĠÙĨÛĮÙħ Ú©Øª
ĠÚ©Ø§ Ø°Ø¨
ĠÚĨ Ø§Ø´
Øª ÙĪÛĮ
ĠÙĨØ§Ùħ Ø·ÙĦÙĪØ¨
ĠØ§Ø® Ø·Ø§Ø±
ÙĩÙĨÚ¯ Ø§Ùħ
ĠV iew
ĠØ±ÙĪØ¨Ø± ÙĪÛĮ
ÛĮÙħÛĮ ÙĪÙħ
ĠØ±ÙĨÚ¯ ÛĮÙĨ
ĠØ¯Ø¨ Ø³ØªØ§ÙĨ
olog y
ĠÚ¯Ø±Ùħ Ø³ÛĮØ±ÛĮ
ĠÛ±Û°Û µ
ĠÚ©Ø§ÙĨØ¯ÛĮØ¯ Ø§ÛĮ
ĠS ystem
Ø¨ÛĮÙĨ Ø§ÙĨÙĩ
ĠA R
ĠÙħØ§Ø¬Ø±Ø§ ÙĩØ§ÛĮ
ĠÙģ Ø³ÛĮÙĦ
ĠÙħØªØŃ Ø¯Ø§ÙĨ
ÛĮÙĨ Ø³ÙĪÙĨ
ĠØªÙĪ Ø¦ÛĮØª
ĠÙĪÛĮ ÙĪÙĪ
ĠÚ© ÙĪØ³Ùĩ
ÙĪ Úĺ
Ø§ÛĮ Ø±ÛĮ
Øµ ÛĮØ±
ĠC D
ĠÚ©ÙĪØ¯ ØªØ§ÛĮ
ÚĨ Ø´Ùħ
al k
ĠR A
ĠØ§Ú©Ø³Ù¾ÙĦ ÙĪØ±
Ġ ro
ĠØ§ÛĮÙĨ Ø¯ÛĮ
Ø§ÙĨØ¯ Ø§Ø±
ĠØ¯Ø§ Ú¯
ĠPh ot
ĠØªØ§Ø¨ÙĦ ÙĪÛĮ
ĠØ³Ø®ÙĨ Ø§ÙĨÛĮ
ĠØ¢ Ø±ÙĪ
Ø§Ø¯ ÙĦÛĮ
ĠÙħÙĨØŃ Ø±Ùģ
ĠØ¯ÙĪ Ø³
or g
ĠØ¢Ø´ ÙģØªÚ¯ÛĮ
ĠÚ© Ø§Ø¯
ĠØ´Ø§Ø±Úĺ Ø¯ÙĩÛĮ
ĠÙĨÛĮ ØªØ±
Ø§ÙĨØ¯ Ø§
ĠÚ¯ÙĦ Ø¯ÙĨ
it ch
ĠØ§Ú©Ø³ ÛĮØ¯Ø§ÙĨ
ĠØ¨Ø§Ø²ÙĨØ´ Ø³ØªÚ¯Ø§ÙĨ
ĠÙģØ±Ø§ÙĨÚ© ÙģÙĪØ±Øª
4 5
ĠÚ©Ø´ ÛĮØ´
ĠØªÙĪØ¶ÛĮ ØŃÛĮ
ĠÙħØ§ÙĩÛĮ Ú¯ÛĮØ±ÛĮ
ĠÙĩØ± Ø²
ĠÙħÙĨÙĪ ÚĨÙĩØ±
ĠØ¨Ø±Ùĩ Ùĩ
ĠÙĨ Ø±ÙĪØ¯
Ø§Ø³Øª Ø±
ĠÙħÛĮØ§ÙĨ Ø¨Ø±
ĠØ¨ Ø§ÛĮØª
ĠÙħØ¹ ÙħØ§
ĠØ§ÙĦ Ø¯
ĠM e
ĠÙ¾Ø³Øª Ø§ÙĨØ¯Ø§Ø±Ø§ÙĨ
ĠØ§ÙĩØ¯ Ø§ÙģÛĮ
ĠÙħØ§Ø¯ ÙĪÙĨ
ÙĪÙħ Ø¯
ĠÙħØ¹ Ø¶
ĠØ³Ø§Ø®Øª Ú¯ÛĮ
ĠÙħÙĩØ§ Ø¬ÙħØ§ÙĨ
ĠØ±Ø§ Ø¬Ø±
ĠÙĪÛĮ Ø²
ĠØ§ÙĪÙĦ ØªØ±
ĠÚ¯Ø²Ø§Ø± Ùĩ
ĠØ²Ø§Ø¦ Ø±Ø§ÙĨ
2 2
ĠÙĤ ÙĪØ±
ĠØ±ÙĪ Ø³Ø§ÛĮ
ĠÙĨÛĮ Ø§ÙģØªÙĩ
ĠÙĪ Ø¨ÛĮÙĨ
ĠØ°ÙĩÙĨ ØªØ§ÙĨ
ĠØ¨Ø± Ø§ÙĨ
ĠA D
ĠØ³ÛĮÙĨ Ú©
ĠØ±ÙħØ² Ú¯Ø´Ø§ÛĮÛĮ
T S
ĠØ´ Ø±Ø¨
ĠÚ©Ø§Ø± Ø²Ø§Ø±
ĠØ³Ø± ÙģØ³
ĠØ¹ÙħÙĦ Ú©Ø±Ø¯ÙĩØ§ÛĮ
ĠØ± ÙĨØ¯
Ø§Ø³Øª Ùĩ
ĠØªÙĤ Ø§Ø¨ÙĦ
et h
ĠØ§ÙĦØŃ Ø§ÙĤ
ĠÙģØ± Ø§Ùħ
Ø§Ú© Ø§ÙĨ
Û· Û°
ĠØ§ÙĨØµ Ø§Ø±ÛĮ
ĠØ§ÙĨØªØ²Ø§ Ø¹ÛĮ
R I
Ø³ Ø§Ø±ÛĮ
ÙĪÙĦ ÙĨ
ĠE m
ic a
ĠØŃØµ Ø§Ø±
ĠØ§ÛĮÙĨÙģ ÙĦÙĪØ¦
ĠØ¯ÛĮØ¯ ÛĮØ¯
ĠÚ©ÙĪÙĩÙĨ ÙĪØ±Ø¯ÛĮ
ĠÚ© Ø¬Ø§ÛĮ
ĠØ§Ø² Ø³ÙĪÛĮ
Ù¾Ø± Ø³ØªÛĮ
ĠØ¨Ø±Ø¬ Ø§ÛĮ
w ay
ĠÛĮ ÙĪØ±Ø´
ĠØ§Ùħ ÛĮØ¯ÛĮ
ÙĤØ§Ø¨ ÙĦÛĮØª
ĠØ¯ÛĮÙ¾ÙĦ ÙħØ§Ø³ÛĮ
ĠØ§Ø² Ø¢ÙĨØ¬
ĠÙĨÛĮ Ú©ÙĪÙĦ
ĠÙĦ Ú¯ÙĨ
ĠØ¯ÙĪ Ø®Øª
ĠÚ¯Ø± ÙħØ§ÛĮØ´ÛĮ
ĠÙĩÙĦ Ø¯ÛĮÙĨÚ¯
Ø§Ø´ ØªØ±Ø§Ú©
ĠÙħØªÙĨØ§ ÙĪØ¨
Ø§Ø± ÛĮÙĨ
Ø®Øª Ú¯ÛĮ
ĠÙĦ ÛĮØ¯
ĠØ®ØµÙĪØµ ÛĮØª
ĠÙĨØ§Ú¯Ø² ÛĮØ±
ĠØ¹ Ø²Ø§Ø¯
ĠÙħÙĤØµ ÙĪØ¯
ĠØŃÙĪØ§ Ø´ÛĮ
Ø§ÙĦ Ø³ÙĦØ·ÙĨÙĩ
ĠØ¨ ÙģØ±
ĠØ¨Ø§ ÙĤØ±
ĠØªØ¹ ÙħÛĮÙħ
ĠT ouch
ĠÙģÚ©Ø± Ø´
ĠÙĦÙĪ Ø¨ÛĮØ§
ĠÛ±Û¹Û· Û¸
ĠØŃ ÙĪÙĦÙĩ
ĠÚ¯ÙĦ Ù¾Ø§ÛĮ
ĠÙĨÛĮÚ© ÙĪÙĨ
ĠÙħØ® ØªØ±
ĠØ¨ ÙĪÙĤ
ĠÙĨ Ú¯ÛĮØ±ÛĮØ¯
Ú¯Ø±Ø¯ Ø§ÙĨØ¯
ĠØ¢ÙĦ Ø¨Ø±Øª
ĠØ§Ø³ØªÙĨ ÙģÙĪØ±Ø¯
ÙĪ Ú©ÛĮ
Ø´ÛĮ Ø¨
ĠØ§ÙĨØ¯ ÛĮ
ĠÙħÚ© Ø²ÛĮ
ĠÚ©Ø§ ØªØ±ÛĮÙĨ
ĠØ±ÙĪØ² Ø¨Ùĩ
ĠØ¨Ø§Ø² Ø±Ø³Ø§ÙĨ
ĠØªØŃ ÙĪÙĦÛĮ
ĠØºÙĦÛĮ Ø¸
S p
ĠØ¨ Ú¯Ø±Ø¯ÛĮØ¯
ÛĮØ¯ ÛĮÙħ
ĠØ§Ø¬ Ø§ÙĤ
ÙģØ± ÙĩÙĨÚ¯ÛĮ
ĠÙħÙĪÙĦ ØªÛĮ
Ø§ÙģØª Ø§Ø¯
ĠÙħÙĨØ³ Ø¬Ùħ
ĠØ¨Ø± Ú¯Ø±Ø¯Ø§ÙĨ
ĠØ¨Ø®Ø´ ÙĩØ§ÛĮ
ĠÙĨØ§Ø´ Ø±Ø§ÙĨ
ĠØ¯ ÙĦØ§
ĠÙĦ Ø«Ùĩ
ĠØ§ÙĪ ÛĮÙĨ
ĠØ§ØŃ Ø³Ø§ÙĨ
ĠØªÙĩ Ø¯ÛĮØ¯ÛĮ
Ġ8 00
Ø¢ÙĪØ± ÛĮØ¯
ĠÚ©Ø±ÙĪ Ø§Ø³ÛĮ
ĠÙ¾Ø±ÛĮÙĨ ØªØ±
ĠØª Ø¨Ø±
ĠØ³ ÛĮØª
ĠÙ¾Ùĩ ÙĦÙĪ
ĠØ¯Ø± Ø²ÙħÛĮÙĨÙĩ
ĠÙĪØ§ Ø¹
ĠÛ²Û´ Û°
ĠÚ©Ø±Ø¨ ÙĨÛĮ
ĠØ²ÙĨØ§ Ø´ÙĪÛĮÛĮ
ĠÙĩÙħ ØªØ§ÛĮ
ĠØ§Ú© Ø³ØªØ±
7 5
ĠØ§ÛĮÙĨ ØµÙĪØ±Øª
ĠÛ· Û±
ĠØŃØ§ÙħÙĦ Ú¯ÛĮ
ĠØ¨ ØµØ±Ùĩ
ĠÙĩÙħ Ø³ÙĪ
ØªÛĮ Ø³Ùħ
ĠÙħØ¹ Ø±ÙĪÙģÛĮ
ĠØ±ÙĪØŃØ§ÙĨÛĮ ÙĪÙĨ
ĠØ¯Ø§Ùħ Ø¯Ø§Ø±ÛĮ
Ù¾Ø§Ø± Ø§Øª
an s
Ø³ Ù¾Ø§Ø±
ĠØ§Ø² Ø¢ÙĨ
ĠØªØ±Ø§ Ø³
Ú©Ø§Ùĩ Ø´
ĠÙħÛĮ ÙĩÙĨ
ĠÙ¾Ø§ÙĨ ØµØ¯
ĠÛ° Û°Û°
Ø¢ÙħÙĪØ² Ø´
ĠØ¯Ø§Ùħ Ø§Ø¯
Ø®Ø¯Ùħ Ø§Øª
ĠØ§ÙĦÚ©ØªØ±ÛĮ Ø³ÛĮØªÙĩ
ĠØ¬ Ø³ÙĪØ±
if e
ĠØ´ Ú¯Ø±
ÙĪØ± ÛĮØ¯
ĠÙĩÙħ ÛĮÙĦ
ÛĮÚ© ÙĪ
ĠÙģØ±ÙħØ§ÙĨ Ø¯Ø§Ø±ÛĮ
ĠØ§Ø±Ú© Ø§ÙĨ
Ø¨ ÙĪÙĨ
ĠØ¨ÙĪØ¯ Ø§ÛĮÛĮ
ĠØ¨Ø´ ÛĮÙħ
ĠØ³Ø§ÙĨØ¯ ÙĪÛĮÚĨ
ĠÚ¯ÙĦÙĪ Ú©Ø²
ĠØ§ÙĨ Ø¶Ø¨Ø§Ø·
ĠØ¯ÛĮ ÙĦ
Ú©Ø³ Ø§ÙĦÛĮ
ĠÙĩÛĮÚĨ Ú©Ø¯Ø§Ùħ
ĠØ¬Ø± ÙĤÙĩ
ĠÙħÙģ ØµÙĦÛĮ
ÙħØ±Ø¯ Ø§ÙĨ
Ú¯ Ø§Ø²
ĠØªÙģ Ø§Ø³ÛĮØ±
ĠØ§ÙĨØª ØµØ§Ø¨
Ġc an
ÛĮ Ø§ÙĨ
ĠÚ¯ Ø§ÙĨ
ĠÙĪÙĩ ÙĦÙĩ
ØŃ Ø¯ÛĮ
ĠÚ¯ Ù¾
ĠØªÙĦÙģÛĮ ÙĤÛĮ
ĠØ³ ÙĪØ¯ÛĮ
ÙĪÙĨ ÙĨØª
ÙģØª ÙĨ
ĠÙħØ¹ Ø§ÙĨÛĮ
ĠÙĨØ´ ÛĮÙħÙĨ
ĠÙĨØ¨ÙĪØ¯ Ùħ
Ø§Ø±Ú© ØªÛĮ
Ġb y
ĠÙĨØ® ÙĪØ±Ø¯Ùĩ
ĠÛ· ÛµÛ°
ĠY ou
M A
s oft
ĠØªØ±Ø§ Ø´
ĠÚ¯ Ø§ÙĩØ§
ĠØ¨ÛĮÙħØ§Ø± Ø§ÙĨÛĮ
Ø±ÙģØª ÙĨ
ĠIn st
ĠÚĨØ§ÙĤ ÙĪ
ĠI FA
ĠÛ¸ Û±
Ø·Ø¨ Ø§ÙĤ
ĠÚĨØ§Ø´ ÙĨÛĮ
ĠØ¨ÙĨ Ø´
ĠÙħØ¤ Ø«Ø±ÛĮ
ĠØ¯Ø´ÙĪØ§Ø± ØªØ±
d r
ÙĪØ± Ùħ
Ø®Øª ÙĨØ¯
ĠØ§Ø³ØªÙģ Ø±Ø§Øº
ĠØ¯ ÛĮØ¯ÛĮ
ÙĨÛĮ Ùģ
ĠØ²ÛĮ ÙĪØ±
ro p
ĠØ¬ÙĪØ§ÙĨ Ùĩ
Ø¨ØŃ Ø«
ĠÙĨ Ù¾Ø§ÙĦ
ĠÙĤØ¯ ÙħÛĮ
ĠØ§Ùħ Ø«Ø§ÙĦ
ĠÙĩÙĪØ± ÙħÙĪÙĨÛĮ
ÙģØ± ÙĨÚ¯ÛĮ
ĠÙģØ±Ø¢ÛĮÙĨ Ø¯ÛĮ
ĠT ype
Ġt r
ĠØ§Ø±Ø¯ ÙĪÛĮ
ĠÚ©ÙĪÙ¾Ø±Øª ÛĮÙĨÙĪ
ĠØ¨ Ú©ÙĨÙĨØ¯
ĠØ§Ø³Ù¾ ÛĮÙĨ
ĠØ¢Ø³ ÙĪØ¯Ùĩ
Ø·Ø±Ùģ Ùĩ
ĠÛ±Û¹Û· Û·
ĠÙĦØ¨ÙĨÛĮ Ø§Øª
ĠØ§ Ø±ÛĮ
Ø¬ Ú©Øª
Ø¢ Øº
ØŃÙĦ Ø§ÙĦ
Ú¯Ø°Ø§Ø± ÛĮÙħ
ĠØ±Ø§Ùĩ Ù¾ÛĮÙħØ§ÛĮÛĮ
Ø¯Ø§Ø± Ø§ÛĮ
ĠØ² Ø§Ùĩ
ĠØ§ÛĮ Ø³ÙĦ
ĠÙħØªØ± Ø§Ú©Ùħ
ĠØ¯Ø±Ùħ ÙĤØ§ÛĮØ³Ùĩ
ĠØºÛĮ Ø§Ø¨
ĠØ³Ø± Ú¯
Ġ4 8
ĠÚ©Ø§ Ø¸ÙħÛĮ
A r
Ø¬ ÙĪØ´
ĠØ° ÙĨ
ĠØ§Ø±ÙĪ Ø§ØŃ
ĠØªØ® ÛĮÙĦ
ĠÙħØµØ¯ Ø§ÙĤ
ĠØ²Ø±Ø¯ ÚĨÙĪØ¨Ùĩ
ĠØ¨Ø± ÙĨØ¯ÛĮ
ĠØ®ÙĪ Ú©
ĠÙħØ¹ Ø±Ùģ
ĠÙħØ¹ØªØ¨Ø± ØªØ±ÛĮÙĨ
ĠØ¨Ø§Ø²Ú¯Ø±Ø¯ Ø§ÙĨØ¯
ĠÙħØ´ØªØ±ÛĮ Ø§ÙĨÛĮ
ĠÙ¾ÙĪØ´ Ø´ÛĮ
ĠÙ¾ÙĨÙĩ Ø§ÙĨÛĮ
ĠØª ÙĨØ¯Ø±
ĠØ¢ Ø±ÛĮØ²
ĠØ®Ø¨Ø± Ø¢ÙĨÙĦØ§ÛĮÙĨ
ĠÙĤØ±Ø§Ø±Ø¯ Ø§Ø¯ÙĩØ§
ĠØªÙģ ÙĦÛĮØ³
ĠØ¢ÛĮ Ø§Øª
ĠØ®Ø´ Ú©Ø³Ø§ÙĦÛĮ
Û±Û¹Û ¹Û
re ad
ĠÚ©Ùħ Ø¯
ĠÙħÚ¯Ø§Ø¨ ÛĮØª
Ø§Ø² Ø¯
Ø¨ÛĮ ÙĦÛĮ
ĠÙħØª Ø¨
ĠÙĪØŃ ÛĮØ¯
Ù¾ÙĪØ±Øª Ø§Úĺ
ÙĨ ÙģØ±Ùĩ
ĠØ¢ÙĨ Ú¯
ĠØ³ÙĪ ÙħÛĮ
ĠÙĩÙħØ§ÛĮ ÙĪÙĨ
ĠÙĨØ´ Ùĩ
ĠÙģÙĪØª Ø³Ø§ÙĦ
ĠÙħØ³Øª Ø¹Ø§Ø±
ĠM al
Ø¨Ø± Ø§ÛĮÙĨ
C P
ĠØŃ ÛĮØ¯Ø±
Ø¸Ùĩ ÙĪØ±
ĠØªÛĮØ± ÙĪØ¦ÛĮØ¯
ĠÙĨ Ø±Ø³Ø¯
ĠÙĨÙĩ ÙħÛĮÙĨ
ĠÙħØ§ÙĨ ØªÙĪ
ĠÙħÙĩØ± Ø¨Ø§ÙĨÛĮ
ĠØ§Øª Ø§ÙĤÛĮ
Ú©Ø´ Ø§ÙĨÛĮ
m in
ĠØ±Ø§Ùĩ Ø±ÙĪ
ĠØ³Ù¾Ø§ÙĩÛĮ Ø§ÙĨ
ĠÚ¯Ø± Ø¬ÛĮ
ĠØ¨Ø²Ø±Ú¯ ØªØ±ÛĮ
ĠØ¨ Ø§ÛĮÙĨ
ĠØ¨ÙĨÚ¯ÙĦ Ø§Ø¯Ø´
ĠØ ¦
ĠØ¨Ø§Ø² Ùħ
ĠØ§Ø¨Ø¹ Ø§Ø¯ÛĮ
Ø³Øª Ø§ÙĦ
ĠØ² ÙħØ²
ĠØ§Ø±ÙĪ Ù¾
ÙĪÙħ ÙĨ
ĠØ¨Ø§ÙĨ ÙĪÛĮ
ĠØŃÙĦ ÙĤ
ĠÛ±Û¹Û¶ Û´
ĠØ¨ Ú©ÙĨÙħ
ÙĪÙĨ ÛĮØ³Ùħ
Ġn ot
ĠÙĩ ÙĨØ¬
ØªÛĮ Ø³
ĠÙħØŃØµ ÙĪØ±
ĠM od
Ø¨Ø§Ø² Ø§ÙĨ
ĠØ¨Ø§Ø²ÙħØ§ÙĨØ¯ Ú¯Ø§ÙĨ
ĠÙħ ÚĺÙĩ
ĠØ¢Ø± Ø§ÙĨ
Ø´Ø§ Ø¡
ĠØªÙĪØ± ÙĨ
ĠØ³ÙĪØ² Ø´
ac cess
Ġ ÃĹ
ĠÙĤØ± Ùħ
ĠÙħØ¹ÙĦ ÙĪÙĦ
ĠØ¹ÙĤÙĦ Ø§ÙĨÛĮ
Ø§Ø¯ Ø§ÙħÙĩ
ÙĨÚ¯ Ø§Ø±Ø§ÙĨ
ĠØ¬ÙĪØ§ÙĨ Ø¨
ĠØ¯Ø§ÛĮÙĨ Ø§Ø³
ÙĪØ¯ÛĮÙĨ Ø§ÙħÛĮÚ©
ĠÛĮ Ø§ÙĦ
ĠØ§Ø´Ú© Ø§ÙĦØ§Øª
ÙĦØ§ ÙģÛĮ
ĠØ§ÛĮØ±Ø§Ø¯ Ø§Øª
Øª ØºÛĮÛĮØ±
ĠØ§Ø¬ Ø±Ø§Ùħ
ĠÙ¾ÙĦ Ú©
L S
ĠØ¢Ù¾ Ø§Ø±Øª
ĠØ¨ÛĮÙĦ Ø¨ÙĪØ±Ø¯
ĠØ¨ØªÙĪÙĨ ÛĮÙħ
ĠÙħÙĪ Ø¬ÛĮ
Ø§Ø³ ÙĦØ§Ùħ
ĠÙ¾ Ø§Ùģ
ĠØ§Ø¬Ø³ Ø§Ø¯
ĠÙħØŃ Ø¨ÙĪ
ĠØ¬ÙĨ Ø§Ø²Ùĩ
ĠØ¨ÙĦ Ø§Ø±ÙĪØ³
ĠØ¨ Ø´ÙħØ§Ø±
Ø³ØªØ± ÙĪÙĨ
Ø± ÛĮÙĨÛĮ
ĠØ§Ùħ Ø¯Ø§Ø¯ÛĮ
ĠØ³ÙĪØ³ÛĮ Ø§ÙĦÛĮØ³ØªÛĮ
Ġ( (
ĠÙħØªØ± ÙĪÛĮ
ĠØµØ¯Ø§ ÙĪØ³
ĠØ¢Ù¾ ÙĪÙĦÙĪ
ĠÙĨØ§ÙĩÙĨØ¬ Ø§Ø±ÛĮ
ĠÙĩØ± ÚĨÛĮØ²ÛĮ
ÙħØ§ÙĦ Ú©
ÙħØ± ÙĪØ±
Ġs p
ĠØ²Ø¨ Ø§ÙĨÙĩ
ĠÙĪ Ú©Ø§Ø±
ĠÙ¾ Ø§Ø¨Ø±
ĠÚĨÙĨØ¯ Ú¯Ø§ÙĨÙĩ
ĠÙĨØ¯ Ø§ÙĨ
ÙħØ¯ ÙĦ
ĠØ¨Ø§ÛĮØ± ÙĨ
ÛĮÙĨ Ú¯ÛĮ
ĠÙģÙĤ Ø±Ø§Øª
ĠF or
ĠØ§ÙĨ Ø·Ø¨Ø§ÙĤ
ĠØ³Ø± Ø§ÛĮØª
ĠØŃØ³ Ø±Øª
ĠØªÛĮÙħ ÙĪØ±
ĠØ³ÙĨ Ø§ÛĮ
ĠC omm
ĠØ²ÙħØ§ÙĨÛĮ Ú©Ùĩ
Ø¬Ø² ÛĮØ±Ùĩ
ĠÛ±Û±Û µ
ÙħØ¹ Ø§Ø¯ÙĦ
Ø§ ÙĪØª
Ø¨ ÙĪØ±ÛĮ
ĠØ¬ÙħØ§ Ø¹Øª
ĠÚ¯Ø± Ø§ÛĮ
ĠØ¢ÙħÙĪØ² Ùĩ
ĠØ¬ÙĪØ§Ùĩ Ø±
ĠÚĨÙĩØ§Ø± Ú¯Ø§ÙĨÙĩ
ĠÙĪØ³ Ø§ÛĮÙĦÛĮ
ÙĪ Ø§Ú©
ĠØªÙĨ Ú¯ÛĮ
ĠR ec
l ine
ĠØ¢ÙĨ ÙģÙĦ
ĠØ§ÙĪÙĦ Ø´
ĠÙħØ±Ø¯ Ú¯Ø§ÙĨ
ĠÙħÙĩ Ø±ÛĮÙĩ
ĠØ·Ø¨ Ø¹
ĠØ±Ø² ÛĮÙĨ
Ù¾ÙĦ ÙĨØª
Ø§ÙĨØ¯ ÛĮ
Ø§ÙĤ Ø±
ĠØ¸ ÙĦÙħ
ÙĨ ÙĪØ±Ø¯
ĠÙħ Ú¯Ø§ÙĩØ±Øª
Ø· ÙĪÙĦ
Ø§Ø±ÛĮ ÙĪÙħ
Ú©Ø± Ø¨ÙĨ
ĠØ´ÙħØ§ÛĮ ÙĦ
ĠÚ¯ Ø³ÙĦ
Ġ1 50
ĠÙħØ³Ø§ÙĦ ÙħØª
ĠØ±ÙĪ ØºÙĨÛĮ
ĠÙĪØ§ÛĮØ± ÙĦØ³
ĠØªØ´ Ø¨ÛĮÙĩ
ĠØ¬ ÙĪØ²Ùģ
ĠØªØ² Ø¦ÛĮÙĨÛĮ
ĠÙĤ Ø²ÙĦ
il ity
ĠØ¨ÙĨÙĪÛĮØ³ ÛĮÙħ
Ù¾Ø±ÙĪ Ø§Ø²
ĠÚ©ÛĮÙĩ Ø§ÙĨÛĮ
ĠØ§ ØªÛĮÙĪ
ĠÚ© ÙĪØ±ÛĮ
ÙĪØ¯ ÙĪØ±
ĠØªÙĦ Ø®ÛĮ
ĠU p
ĠÚ©Ø±ÙĪÙĨ Ø§ÛĮ
ĠØ¨Ø§Øª Ø¬Ø±Ø¨Ùĩ
ĠÙħØ±ÙĪ Ø§Ø±ÛĮØ¯
ĠØµ Ø§ÙĦØŃÛĮ
ĠÙĪØ§ Ø¬Ø¨
ĠÙħØ²Ø§ÛĮ Ø§ÛĮÛĮ
ĠÙħÙĪÙĦ Ø§ÙĨØ§
ĠØ¢Ø±Ø² ÙĪÙĩØ§ÛĮ
Ú¯ ÙĪØ´ÛĮ
ÙĪÙĦ Ø§Ø±
Ø¯ÛĮ Ø³
ĠØ¨Ø² ÙĪØ³
ÙĤ Ø§Ø³Ùħ
ĠÙ¾ Ø§Ø±Øª
ĠÙ¾ Ø´Ùħ
ĠØªØ´Ø®ÛĮØµ ÛĮ
ĠØ¢ÙģØ±ÛĮÙĨ Ø´
ĠÙĨÙħØ§ÛĮØ´ Ú¯Ø§ÙĩÛĮ
ĠÙ ¤
ÙĨ ÙĪÛĮ
ÙĪÙĨ ØªÙĪ
ĠØªØ²Ø¦ÛĮÙĨ Ø§Øª
n ect
ĠÙ¾ÙĨ Ø³ÛĮÙĦÙĪØ§ÙĨÛĮØ§
ĠØ¨Ùĩ Ø§ÛĮÛĮ
Ø¢ Ø®Ø±
ÙĪÙĦÛĮ ØªÛĮ
ĠÚ¯Ùħ Ø±Ø§Ùĩ
Ù ¤
ĠØ§Ø³Ø§Ø³ ÙĨØ§ÙħÙĩ
ĠÙħÛĮØª Ø³
ĠØ§ØªÛĮÙĪ Ù¾ÛĮ
ĠC am
Øª Ø¨
âĢĮ âĢİ
ĠØ¯ÙħØ§ ÙĪÙĨØ¯
ĠÙħÙĨØ¹ Ø·Ùģ
ĠÙĩÛĮØ¨Ø± ÛĮØ¯
Ø® Ø·Ø±
ĠØ¯Ø§Ø± ÚĨÛĮÙĨ
ĠÙĪÛĮ Ø§
ÙħØ¯ÛĮØ± ÛĮØª
ĠØªÚ© Ø§ÙħÙĦÛĮ
ØªØ±Ø³ ÛĮØ¯
ĠÙĩ ÙĪÛĮØ¬
Øº Ø§ÙĨÛĮ
ĠØ³Ø± ØªØ§ÙĨ
ÙģØ±Ø¯ ÛĮ
Ú¯Ø°Ø± Ø§ÙĨØ¯
ĠØ®ÙĪØ§ÙĩØ± Ø´
ĠÙ¾ Ø²
ĠÙģ Ø§Ø³Ø¯
ĠØ¨Ø³ Ø§
ĠØ¢ Ù¾Ø§Ø±Ø§Øª
B l
Ġ2 000
ĠØ±ÙĤÛĮ Ø¨ÛĮ
Ġ Ð
Ø± ÙĨÚ¯ÛĮ
Ø¯ Ø®ØªØ±
ÙĦÛĮ Ø³ÛĮ
ĠÚ¯ÙĪ Ø´ØªÛĮ
ĠØ§ÛĮÙĨÙģÙĦÙĪØ¦ ÙĨØ³Ø±
Ø§Ùħ ÙĪ
ĠØ§Ø³ Ø±Ø§ÛĮÛĮ
Ø¨Ø§Ø¨ Ø§
ĠØª Ø§ÙĨØ¯
ĠØ¨ØªÙĪÙĨ Ùħ
ĠÙħ ÙĨØ¯Ø±
ĠL a
ĠØ¯ÙĪ Ø¨Ø§Ø±
ĠI SO
ĠØ§ÙĦÙģ Ø¨Ø§ÛĮ
ĠØ§ÙĨØ¨ Ø§Ø´ØªÙĩ
Ġth is
ĠEn c
ĠÚ¯ ÙĦØ¨
Ø±Ø§ Ø¬ÛĮ
ĠØ¨ Ø¬Ø²
Ø³ ÙĨØ³
ĠØ¨Ø§ ÙģØªÙĩ
ĠØ· Ø§ÙĦØ¨
Ø¨ÙĪ ØªÛĮ
ĠØ¨Ø³ ÙĨØ¬
ĠØ±Ø¯ÛĮ Ø§Ø¨
ĠÙ¾Ø± ÛĮÙħÛĮÙĪÙħ
ĠØ¯ÛĮØª Ø§ÛĮ
ĠÙĨØ§Ùħ Ø¯Ø§Ø±
ĠS ur
ĠØ¹Ø¸ ÙħØª
ÙĨØ¯ ÙĪÙĤ
ĠØ¬ÙĪØ± Ø§Ø¨
ĠÙĨØ¸Ø±ÛĮ Ø§Øª
ĠØ´ ÛĮÙĨÚ¯ÙĨ
Ø§Ø¯ Ú¯Ø§ÙĨ
ĠØ¨Ø²Ø±Ú¯ Ø¯Ø§Ø´Øª
ag er
ĠÙĩÙħÙĪÙĨ Ø·ÙĪØ±
ĠÙ¾Ø± Ø¨Ø§Ø²
ĠÙĨØ²Ø¯ÛĮÚ© Ø§ÙĨ
ĠØ§ÙĦÚ©ØªØ± ÛĮÚ©
ĠÛĮØ¯ Ú©
ĠØ¢ÙĩÙĨÚ¯ Ø³Ø§Ø²ÛĮ
Ø§ÙĨØ¯Ø§Ø² ÙĩØ§ÛĮ
ĠÛĮÙĪØª ÙĪØ¨
ĠÙħÙĨØ§Ø¸ Ø±Ùĩ
ĠØ´ÙĩØ±ÛĮ Ø§Ø±
Ġm icro
G A
ØŃ Ø§ÙĤ
Ø¢ÙħØ¯ ÙĨØ¯
Û±Û¹Û ¸
I I
Ø´Øª ÙĨ
ĠÙģØ±Ø³ Ø§ÛĮØ´
Ú¯ÛĮÙĦ ÙĪÛĮÙĩ
ĠØ³ÙĪØº Ø§Øª
ĠØ§ÙĨØ¬Ø§Ùħ Ø´
ĠC ent
ĠÙĨØ§Ú© Ø§ÙħÛĮ
ĠÚ©Ø´Ùħ Ú©Ø´
ĠÙ¾ÙĪÙĦ Ø¯Ø§Ø±
ĠØ¨ÙĪÙħÛĮ Ø§ÙĨ
ĠØ§Ø¹ØªÙĤØ§Ø¯ Ø§Øª
Ø§Ø´ Ø§Ùĩ
ĠÙ¾Ø±Ø§ Ú©ÙĨØ¯Ú¯ÛĮ
Ø´Ø¯ Ùħ
ĠâĢ¦ Â»
ĠØ§Ø«Ø± Ø§ÙĨÚ¯Ø´Øª
F S
c k
ĠØ¹ ÙĪØ¯
Ú©ÙĨ Ø§Ø±ÛĮ
ĠØ¨ÛĮÙĨØ¯Ø§Ø² ÛĮÙħ
ĠMot o
ĠÙħØ´ Ø¹ÙĦ
Ú©Ùħ Ú©
ĠÙħØ²Ø§ÛĮ Ø¯Ùĩ
ĠØ§Ø³ØªÙĪØ¯ÛĮ ÙĪÛĮÛĮ
ĠÛ±Û°Û ²
ĠÚ©Ø±ÛĮØ³Øª ÛĮÙĨ
ĠÙĦÛĮØ¨Ø± Ø§ÙĦ
ĠØ²Ø§Ùĩ Ø¯Ø§ÙĨ
ÙĨ ÙħÛĮ
ĠØ§Ø¯ Ø±Ø§Ú©
ĠPH P
ĠØ³ÙĪÙħ Ø§ÙĦÛĮ
ĠØªÙĩØ¯ÛĮØ¯ Ø§Øª
ĠÙĨØª Ø§ÛĮ
ĠÙĨ Ø¯ÙĩÙĨØ¯
Ûµ Ûµ
Ú¯ÙģØª Ùħ
ĠØ¨ÙĪ Ú©Ø³
ĠØº ÙĪ
ÙĪØ±Ø¯Ùĩ ÛĮ
ÙĦØŃ Ø§Ø¸
ĠÚ© Ø§Ø´ØªÙĩ
ĠØ® ÙģØ§
ĠØŃØ¶ÙĪØ± Ø´
ĠØ±Ø² Ùħ
ĠÚĨÙĨØ¯ ØªØ§
ĠØ§Ø· ÙģØ§ÙĦ
ÙĨØ¯ Ú¯Ø§ÙĨÛĮ
ĠØŃ ØªÙħ
ĠØ§Ø²Ø¯ Ø³Øª
ĠÙħØ¹ÛĮ ÙĪØ¨
ĠÚ¯Ø²ÛĮÙĨ Ø´
ĠÙĪÛĮÚ©ØªÙĪØ±ÛĮ Ø§
ĠØ®ÛĮ Ø§Ø±
T A
ĠØ³ÛĮ Ùģ
ĠØ±Ø³ ÙĪØ§ÛĮÛĮ
ĠÙĨÙĪ ÙĤØ§
Ø¨ Ø§Ø¨ÛĮ
ÙħÛĮ Ú©
ÙħÛĮ ÙĪÙĩ
ĠØ±Ø§ÙĨ Ø¯Ùĩ
ĠÚ©Ø´Øª ÙĨØ¯
ĠØ¯ÛĮ Ùĩ
ÛĮ Ø§Ø¨
ĠÙħÙĨÙģ Ø¹Øª
ams ung
ĠØµ ÛĮØ¯
ĠØ¯ÛĮ Ø²ÙĦ
ĠØ±ÛĮ Ø²Ø±
ĠØ¬ØºØ±Ø§ÙģÛĮ Ø§ÛĮ
ĠEd ge
ĠØ§ÛĮÙĨ Ø·ÙĪØ±ÛĮ
ĠØ¯Ø±Ø¢ÙĪØ±Ø¯ ÙĨ
ĠØµÙĩÛĮ ÙĪÙĨÛĮ
V ID
ĠØ± Ù¾ÙĪØ±ØªØ§Úĺ
ĠÙĦ ÙĪÛĮÛĮ
ĠÚ©Ø´ ÙħÛĮØ±
ĠÙħÙĤ Ø¯
ÙĨØ¯Ø± Ø§ÙĨÛĮ
ĠÙĨ Ú©ÙĨÙħ
ĠÚ©Ø§ÙħÙ¾ ÙĪÙĨÙĨØª
ĠØº Ø¯Ùĩ
ĠW W
ĠØ¹Ø¨Ø¯ Ø§ÙĦØ¹
ĠÙĩØ¬ Ø¯Ùĩ
ĠÚĨÛĮÚ© Ø§Ø±
ĠÙħÛĮ ÙĩÙħØ§ÙĨ
Ø¹ÙĦØ§ ÙĤÙĩ
ĠØ¨ÙĪØ±Ø³ÛĮ Ùĩ
ĠØ¶ Ø¹ÛĮ
ĠØ¨ Ø´Ø¯Øª
ĠÙ¾Ø±Ø³ ÛĮØ¯ÙĨ
ĠØ¬Ø¹ ÙĦ
6 4
ĠØ¨Ø± ÙħÙĩ
ÙĪÙĨ ÛĮØ§
ĠØ³Ø± Ú¯ÛĮ
ĠÙĩØ± Ø¨Ø§Ø±
ĠØ³ÛĮ ØªØ±
ĠØ´Ú©Ø§Ø± ÚĨÛĮ
Ø³ ÛĮØ¯
Ø¨Ø± ÙĤÛĮ
ĠØµÙģ Ø§Øª
ĠÙħÙĪØ± Ú¯Ø§ÙĨ
ĠØ³ Ø§Ø¯Ø§Øª
ĠÙħØ³ Ø¤
Ø§ÙĨ Ø³ÛĮ
ĠÚ©Ùĩ Ú¯ÛĮÙĦÙĪÛĮÙĩ
ĠØ¢Ø¨ Ø²ÛĮ
ĠÚĺ Ø§Ú©
ĠÚ©Ùĩ Ú©Ø´Ø§ÙĨÛĮ
ĠØ§Ø± Ø§Ùħ
ĠØ¨ÙģØ±Ø³Øª Ø¯
ĠØ¯ÛĮ Ù¾
Ø§ÙĦ ÙĨ
ĠÛĮ Ø¹ÙĤ
ĠØªØ± ÙĨØ³
ĠØ¢Ø² Ø§Ø¯Ø±
ĠÚĺÙĨ Ø±Ø§ØªÙĪØ±
n er
ÙĪØ± Ø§ÛĮÛĮ
ĠØ¨Ø¯ÙĨ Ø´
ĠØ¹ÙĤ Ø§Ø¨
ĠØº Ø¯Ø¯
ĠØ¯Ø§ÙĨ Ø´ÙĨØ§ÙħÙĩ
ĠÙħÙĩ Ø§Ø±ØªÛĮ
ĠD ata
ĠÙĨ ÙģÛĮ
ĠØ¢ Ø±Ùĩ
ĠØ® Ø¯Ø§ÛĮÛĮ
ĠØ§ÛĮ Ø«Ø§Ø±
in ess
ĠÙĨØ´Ø¯ ÙĨÛĮ
ĠÚĨ Ø§ÙĦÙĩ
ĠÚ©ÙĨØ§Ø± Ø´
ĠW atch
ĠØ¯Ø§ ÙĪÙĪØ¯
Ú¯Ø±ÙģØª Ú¯ÛĮ
Ø¹ ÙĦØª
U S
ĠÙħØ¬ Ø±Ø¨
Ġ ÛĮØ±
ĠØ¬ Ø§Ø´
ĠÚ©Ø§Ø± ÙĪÙĦÛĮÙĨ
ĠØ³Ù¾ ÛĮØ¯
ĠÛ¸ Û²Û°
ĠØ§Ø´Ø®Ø§Øµ ÛĮ
Ø¨Ø± Ùħ
ĠÙħØª ÙģØ±
at ed
Ø§Ú©Ø³ ÛĮØ¯Ø§ÙĨ
ÙĪØ± Ø²
Ú©Ø´ ÙĪØ±
ĠÙĩ ØªÙĦÛĮ
ĠÙħÙĪØ¬ÙĪØ¯ ÛĮØª
ĠØ¹Ø« ÙħØ§ÙĨ
ĠÙĨÛĮ Ø§
ĠØªÙħ ÙĦÚ©
ĠÛ²Ûµ Û°Û°
Ø±ÙĪ Ø²Ùĩ
ĠØªØ® ÙħØ¯Ø§ÙĨ
Ú¯ Ø§Ø±Øª
Ø¬ ÙĪØ§ÙĨ
ĠØ¯ÙĦ ÙĨØ´ÛĮÙĨ
ÙĨ Ø§Øª
Ø¬ÛĮ Ø¨
ĠØ¬ÙĪÛĮ Ø§ÙĨ
Ø¨ Ø³ÛĮ
ØªÛĮ ÙĦ
ĠÚ©Ø§Ø³Øª ÛĮ
ÙģØ¹ Ø§ÙĨ
ØµØ¯ Ø§ÛĮ
ro l
ĠØªÙĪØ§ÙĨØ³Øª ÛĮÙħ
Ù ¦
ĠØ³ ÙĦÙģ
ĠÙĤØ§Ø¯Ø± ÙĨØ¯
ĠÛ±Û¹Û´ Û¸
ĠØ¨ÙģÙĩÙħ ÛĮØ¯
ĠÙĩ Ø§ÙħÙĪÙĨ
ĠØŃ Ø²Ø¨ÛĮ
ĠØ§Ø² Ùħ
ĠÙħØŃØ³ ÙĪØ³ÛĮ
ĠØ¹Ø±Ùģ Ø§ÙĨ
m a
ÙĤ Ø±Ø§Ø±
ÙĩØ§ Ùī
ĠÙĨØ§Ùħ ÙĨØ¸Ùħ
Û±Û¹Û ·
ĠØŃ Ø¨ÙĪØ¨
Ø·ÙĦØ¨ Ø¯
t on
ĠG ame
en se
ĠØ³Ø±Ø²ÙħÛĮÙĨ ÛĮ
Ø´ÛĮ Ø¯Ùĩ
ĠØ§Ù¾ ÙĪØ²ÛĮØ³ÛĮÙĪÙĨ
ĠØ¨Ø± Ø¢ÙħØ¯Ùĩ
ĠØªØ± ÙĤÛĮ
ÙĨØ¬ Ø§ÙĨÛĮ
ĠÙħÙĨØ´ ÙĪØ±
ĠØ³Ø±Ø§Ø² ÛĮØ±
ĠØ± ÙħØ§ÙĨÛĮ
Ø¸ Ø±ÛĮ
Ø§Ú© Ø§Ø±ÛĮ
ĠØ§Ú©Øª ÙģØ§
ĠZ en
ÙĤ Ø§Ø¯ÛĮ
ĠÙĨÙħ Ú©ÛĮ
Ø±Ø§ÙĨ ÛĮØ¯
ÙĦÛĮ Ø§
ĠØ§Ø±ÙħÙĨÛĮ Ø§ÙĨ
ĠØ¢ÙĨ Ø§
ĠØ§ÙĨ ÙĩØ§
ĠÙĨÙħ Ø±Ø§Øª
ĠØ¨Ø§ÙĪØ± ÙĨ
ĠÙħÙĤ Ø§ÙĦ
Ø³ÙĦ Ø±
ĠØ§Ø³ØªØ§ÙĨØ¯Ø§Ø± Ø¯ÙĩØ§
u k
Ùħ Ø±Ø§Øª
ĠÙħØ¹ Ø±ÙģØª
ĠÙ¾Ø±ÙĪØª Ø¦ÛĮÙĨÛĮ
ĠØ§Ø² Ø´ÙĪÙĨ
ĠØ¹ÙĦ ÙĪÛĮ
ĠÙ¾Ø§ÛĮ Ø¨ÙĨØ¯ÛĮ
ĠØ³ÛĮÙħ Ø§ÛĮ
ĠÙĤØ¨Ø± Ø³ØªØ§ÙĨ
I F
ĠÙĤ ÙĪØ§Ùħ
ĠØ§Ø¨ÙĪ Ø§ÙĦØŃ
L C
Ù¾ Ø±Ø³Ø¯
ĠØ³Ø±ÛĮ Ø§ÙĦÛĮ
at ure
ĠØ§ÙģØ²Ø§Ø± ÙĩØ§
ĠÙħØ§Ø³ Ø§ÚĨ
Ø´Ø¨ Ú©Ùĩ
ĠØ¨Ø® Ø±
ĠØ§Ø³ØªÛĮ Ø¶Ø§ØŃ
ĠÙ¾Ø±Ø·Ø±ÙģØ¯Ø§Ø± ØªØ±ÛĮÙĨ
ĠØ§Ø³ØªÙħ Ø±Ø§Ø±
ĠØ¢ Úĺ
Ø§Ø¯ Ùħ
ĠØ§Ø±Ø¯ Ú©
ĠÙħØªØ¹ Ø§Ø±Ùģ
ÙħÛĮ Ø¹
y cl
ĠØ¨ØªÙĪØ§ÙĨ Ùħ
ĠØ± Ú©ÙĨ
ĠØ§ÙĦ Ø¬
Û¶ Ûµ
ĠÙĨØ¯Ø§Ø± ÙĨ
ĠØ¨Ø§Ø® ØªØ±ÛĮ
ØªØµ ÙĪÛĮØ±
ĠØªØ´ÙĨ Ø¬
Ø¨ ÙĩØ§
ĠØ§ÙĨ ÛĮ
ĠØ³ Ø±ÙĪØ´
ØªÛĮ Ú©ÛĮ
ĠØ¯ÙĪ Ø³ØªÙħ
ĠØ®ÙĪØ§Ø³Øª Ùħ
ĠÛ±Û¹Û¶ Ûµ
ĠØ³ ÙĨØ¯ÛĮ
Ø³ÛĮ ÙĪ
ĠÙ¾ÛĮØ´ Ú¯ÛĮØ±Ø§ÙĨÙĩ
ĠØªÙĪÙĨ Ø³
ĠØµÙĨ Ùģ
ĠØ²ÛĮØ± Ø³
ĠØ¨Ø±Ú¯ Ø´ØªÙĩ
ÙħÛĮØ± Ø¯
ĠØªØ§ÛĮÛĮØ¯ ÛĮÙĩ
ĠØºÛĮØ±Ø¹ Ø§Ø¯ÛĮ
b y
ĠÙħ Ù¾
ĠØ´ÙĪÙĩØ± Ø´
ĠØ¯ÙĨØ¯Ø§ÙĨ Ù¾Ø²Ø´Ú©ÛĮ
ĠØ² Ø§ÛĮÛĮ
ĠØ´Ø± Ø§Ø¨
ĠÙħØ§Ø³Ø§ÚĨ ÙĪØ³Øª
ĠÚ© Ø§ÛĮ
ĠÙĪØµ ÙĪÙĦ
ĠÚ©Ø§Ø±ÙĦ ÙĪØ³
ĠØ¹ÙĦ Ø§ÙħÙĩ
ĠF ace
ĠØ²ÙħØ² ÙħÙĩ
Ø¯Ø± Ø³ØªÛĮ
ĠØ¯ÙĦ Øª
ĠÙĪØ± ÙĤÙĩ
ĠØ´Ú© Ø§ÛĮØ§Øª
Ø¢Ùħ Ù¾Ø±Ø³
ĠØ¨ Ø§ÙĨÛĮ
Ø±Ø§ Ø´
Ø§Øª ÛĮØª
p ress
ĠÛĮ Ø§Ø¨
ĠØ¹ÙħØ± Ø´
ĠÙģØ§Ø² ÙĩØ§ÛĮ
ĠØ¨ÙĪØ¯ÙĨ Ø´
6 3
ĠÛ±Û¹Û¶ Û³
ĠØ³ÙĪÙ¾ Ø±Ùħ
ĠÛµ Û±Û²
ĠØ±Ø§ÛĮ Ø§ÙĨØ´
ĠÚ©Ø§ÙĨ Øª
ĠÚ¯ÛĮÚ¯Ø§ÙĩØ±Øª Ø²ÛĮ
ĠØ²Ø§Ùħ Ø¨ÛĮ
ĠÙħØ¨Ø¯ Ø£
ĠÙĩÙħÛĮÙĦ ØªÙĪÙĨ
ĠØ« Ø§Ø¨ØªÛĮ
ĠØ¯ ÙĦÛĮ
ĠØ¯ ÙħØ§ÛĮÛĮ
Ø¯ÛĮØ¯ Ùħ
ĠÙħÙĪÙĤ Ø¹ÛĮ
ĠÙ ©
ÙĨØ¸ ÛĮØ±ÛĮ
O C
ĠÚ©ÙĨ ÛĮØ§
ĠØ§Ø´Ú© Ø§ÙĦÛĮ
ĠÙĩÙĪØ´ÛĮ Ø§Ø±ÛĮ
Ú©ÛĮÙĨ Ø²
ĠÙħÙĨ Ú¯
ĠØªÛĮ Øº
Ù¾ ÙĪÛĮÙĨØª
ĠÚĨØ§Ø¨ Ú©
ĠÙħØ¯ Ø§Ø¯
ĠÛ±Û¹Û¶ Û²
ĠØª ÛĮØªØ§ÙĨÛĮ
ĠÛ²Û°Û² Û²
ĠØŃØ§Ú© ÙħØ§ÙĨ
ĠØ´Ø±ÛĮ Ø¹Øª
ĠØ§ÛĮØ¯Ø¦ ÙĪÙĦÙĪÚĺÛĮ
ĠÙĨØªØ§ÛĮ Ø¬ÛĮ
ÙĨ Ø§Ø²
ĠØ³Ø± ÙĪÛĮØ³ÛĮ
ĠØ³ÛĮØ§Ùĩ ÚĨØ§ÙĦÙĩ
ĠÙ¾Ùĩ ÙĨØ§
ĠÚ© Ø¨ÙĪ
ĠS l
Ø§ÙĨ Ø±ÚĺÛĮ
ĠØ¨Ø± Ø³Ùĩ
Ø·ÙĦ Ø¨ÛĮ
Ú¯Ø²Ø§Ø± Ø´
w ard
ĠØ´ÙĩØ± Ø¶Ø§
ĠÙģØ§ÙĦ Ú©ÙĪÙĨ
ĠØ§ÙĩØ± Ùħ
N S
Ø³ Ø±ÙĪ
ĠÙĪ Ø«ÛĮ
ĠÙħØ¬ Ø±Ùħ
ĠÙħÛĮØ§Ø¯ ÛĮÙĨ
ĠØ¨ÙĪÚ¯ Ø§ØªÛĮ
ĠØ¯Ø± Ø§Ú¯ÙĪÙĨ
Ù¾ ØªÙĪ
ĠØ¨Ø± Ú©ÙĨØ§Ø±ÛĮ
ĠØ³Ø± ÙħØ§ÛĮ
ar g
ĠU s
ĠØ¨Ø±Ø¯Ø§Ø± ÙĨØ¯
Ø± Ø¦ÛĮØ³
ĠØ¨ÛĮ ÚĨ
Ø§ÙĨØª Ø®Ø§Ø¨
y l
ĠÙħØ± Ø¨Ø¹ÛĮ
Ø§ÙĨØ¯Ø§Ø² ÙĨØ¯
ĠÛ±Û¹Û¶ Û¶
ĠÙħÛĮÙĨ ÙĪÛĮØ³
v e
ĠD SL
ĠØŃØ¬ ÙħÛĮ
ĠØ®ÙĪÛĮ Ø´Ø§
ĠÙĦØ§Ø±ÛĮ Ø¬Ø§ÙĨÛĮ
Ø¬ Ø§Ø±ÛĮ
ĠØ´ÙĨ ÙĪÙĨØ¯Ùĩ
ĠÙĨØ§Ø± ÙĨØ¬
Ø¯ÙĪØ± Ùĩ
ĠÙĨ ÙĪØ±Ø¯ÙĩÛĮ
Ø¹ ØµØ±
ĠÙĩÙħØ±Ø§Ùĩ Ø§ÙĨ
ĠÚ©ÙĪØª ÙĪÙĦÙĩ
ĠÙħØªØ§Ø¨ÙĪÙĦÛĮ Ø³Ùħ
P D
ĠØ§ ÛĮÚ©
ÙĦ ØªÛĮ
ĠÙħØ¬ Ø°
ac he
ĠN e
ĠØ¨Ø§Øº ÚĨÙĩ
ĠÙĨ ØªÙĪØ§ÙĨÛĮØ¯
ĠØº Ø¶
ĠÙĨÙĪ Ø¸ÙĩÙĪØ±
ĠØªØ´ Ø¹Ø´
ĠÙĩØ§ ÙĪÚ©
ĠØ¨Ø®ÙĪÙĨ ÛĮØ¯
ĠØ¯Ø± Ø¯ÛĮ
ĠÚ©Ø±ÙĪÙĨØ§ ÙĪÛĮØ±ÙĪØ³
ĠÙĩÙĪ Ø§Ø¯Ø§Ø±
ĠÙħØ¬Øª Ø¨ÛĮ
ĠÙĨÚ¯ Ø§Ø´ØªÙĩ
ĠÙĨÙħØ§ÛĮØ§ÙĨ Ú¯Ø±
ĠØ± ÙģÛĮ
ĠØ±ÙĪ Ø³Ø±ÛĮ
ĠØ¯Ø§ÙĨ Ø§
ĠØ³ÙĪ Ø®ØªÛĮ
ĠÙĪÛĮ Ø³
ĠØ±ÙħØ§ÙĨ ØªÛĮÚ©
ĠØ´ÙĪ Ø§ÙĦÛĮÙĩ
ĠØ¯Ø±ØŃØ§ÙĦ ÛĮÚ©Ùĩ
Ø±Ø§ Ø¹
ĠÙħØ¹ÙĦ ÙĪÙĦØ§ÙĨ
ĠÙħÙĨØ¬ ÙħØ¯
Ùħ ØŃØµ
Ú¯ ÛĮØª
ĠØ±Ø® Ø¯
ĠØ³Ùĩ ÙĦ
Ø² Ø§Ø¯ÛĮ
ĠÚ©Ø³ Ø§ÛĮÛĮ
ĠØ®Ø±Ø§ Ø´
ÙħÙĨØ· ÙĤÙĩ
ĠØ¨Ø§ÙĪØ±ÙĨ Ú©Ø±Ø¯ÙĨÛĮ
V C
ĠÙĩÙģ Ø¯Ùĩ
ĠØ¹ Ø§ÙħÛĮ
ĠÚĨ Ø§Ø±Øª
ĠÙ¾Ø§Ú© Ø³ØªØ§ÙĨÛĮ
ĠÙĪÛĮÙĨØ¯ÙĪØ² ÙģÙĪÙĨ
m l
ĠØ§ÛĮØ³Øª Ø§Ø¯ÙĨ
ĠÛ±Û² Û·
ĠÙ¾Ø°ÛĮØ±ÙģØª ÙĨ
Ø§ÛĮ Ø¬Ø§Ø¯
ĠØ¨Ø§ Ø¯Ùħ
ĠØ¬ ÛĮÙħÛĮ
ĠØ³ ÙĪØ¨
ÙĩÙħ ÚĨÙĨÛĮÙĨ
ĠØ®ÙĪØ§ÙĨ ÛĮ
ÙĪØ±Ø¯ ÙĨ
ĠÚ©ÙĪ Ù¾Ø±
ÙĦÛĮÙħ ÙĪ
ĠØ¯Ø¨ÙĦÛĮ ÙĪ
ĠÚĨÙĨÛĮÙĨ ÛĮ
ĠÙĨÚ¯Ùĩ Ø¯Ø§Ø±ÙĨØ¯Ùĩ
ĠØ¬ ÛĮØ±
ĠÙ¾ÛĮ ÙĪÙĨÚ¯
ĠØ§ÙĨ Ø²ÙĦÛĮ
ĠØ¬Ùħ ÙĦ
ĠØ¨Ø§ÙĦ Ø´
ĠP er
ĠÙģØªØŃ Ø¹ÙĦÛĮ
ĠØ¯Ø§Ø¯ Ø³ØªØ§ÙĨÛĮ
ĠØ²ÙĪØ¬ ÛĮÙĨ
ĠØ®ÛĮ Ø²
ĠØ´Ùģ Ø§ÙĩÛĮ
ĠÙħØªØµ ÙĪØ±
ĠÙĩÙħØ³Ø§ÛĮ Ú¯Ø§ÙĨ
ĠØ· Ø¨Ø±ÛĮ
ÙĩÙĨ Ø±
ĠÙ¾ÙĦ ÛĮØ±
ĠØµØ¯Ø§ÙĪØ³ ÛĮÙħØ§
ĠØŃØ³Ø§Ø¨ Ø±Ø³ÛĮ
ĠO pt
Ù¾ÙĨØ¬ Ø±Ùĩ
ĠÚ¯ ÙĦÛĮÙħ
ĠÙħØ±Ø² ÙĩØ§
ĠÙ¾ÙĪÛĮ Ø§ÛĮÛĮ
ÙĨ Ø§ÙĨÛĮ
ÙĪÛĮ ÙĦÛĮ
ĠÙĨØ´ Ø³ØªÛĮ
O R
ĠØ¢ÙħØ±ÛĮÚ© Ø§Ø³Øª
A l
Ø¦ ÙĪØ±
ĠØªØ± ØªÛĮ
ĠØ´ÛĮ ÙģØª
ĠØ§ÛĮÙĨØ³ØªØ§ Ú¯Ø±Ø§ÙħÛĮ
Øª Ø¯Ø±ÛĮØ¬
ĠØ´ÙĩØ±ÛĮ Ùĩ
Ø³ÛĮ Ø§ÙĨ
Ø¢ÙĨ ÚĨÙĩ
ĠØ¨ Ø´Ø§Ø±
ĠØ³Ø§ ÙģØª
Û´ Û¸
ĠG PU
ĠØ§Ø´Øª ÙĩØ§
A D
ĠÙĨØ§Ø¯ Ø±ÛĮ
ĠÙĦÛĮ ÙģØª
ro up
Ø¨ ÛĮÙħ
ĠÛĮØ§Ø¯Ø¯Ø§Ø´Øª ÛĮ
Ġd o
ĠÙħØ§ÙĨØ¯ ÙĨØ¯
ĠØ¢Ø¯ Ø§Ù¾
ĠÙĪ ÙĪ
ĠØ®Ø·Ø± ÙĨØ§Ú©ÛĮ
Ø¨Ø¹ ÛĮÙĨ
ĠÙ¾ÙĦ ÙĨÚ¯
ĠIn d
Ø¬ ÙĨØ¯
ĠØŃ ÙħØ§
ĠØ¢Ùħ Ø³Øª
ĠÙģÙĪØª ÙĪÙĨ
ĠØ¹Ø§ÙĤ Ø¨Øª
L E
M D
ap t
ĠÙĩ Ø§ÛĮÙĦ
Ġ1 20
ĠØ®Ø§Ú© Ø³ØªØ±
ĠØ·ÙĦ Ø¨ÛĮ
ĠÙħÙĪØ± ÚĨÙĩ
ĠÚ¯Ùħ Ø´Ø¯Ùĩ
ĠØ¯ Ø§ÙħÙ¾
ĠØ§Ú© ØªÛĮÙĪ
ĠØ¨Ø´ ÙĤØ§Ø¨
ĠX S
ĠØ¨ÛĮØ¯ Ø§Ø±ÛĮ
ĠÚ©Ø±ÙĪÙħ ÙĪØ²ÙĪÙħ
ĠÙ¾Ø±ØªÙĪ ÙĩØ§ÛĮ
ĠÙ¾Ø§ÙĨØ¯ ÙħÛĮ
ĠØ·Ø§Ùĩ Ø±
ĠÙĨ Ø³Øª
ĠØ±Ø§Ùĩ ÙĪØ±
ĠØ¨Ø± ÙĨØª
ĠØ§Ø¨Ø± Ø§ÙĩÛĮÙħÛĮ
ÙĪØŃ Ø´
Ùħ ÙĪØ±
Ùģ Ú©Ø±ÛĮ
ĠÙĦÛĮ Ù¾
ĠØ¹Ø¨ Ø§Ø¯Øª
ĠØ±ØŃ ÙħØ§ÙĨÛĮ
ĠÙĦ Ø¨Ø§Ø³ÛĮ
Ø¬ ÙĨØ³
ĠØ³Ø§Ø² Ø§ÙĨ
ar i
ĠØ¹Ø¨Ø¯ Ø§ÙĦØŃ
ĠÚ¯ ÙĪÙĨ
ĠÙģ ÛĮÚ©
Û± Û°Û°
ĠÙĪØ§ ØªØ±
ĠØ´ÛĮ ÙģØªÙĩ
ĠØ¯ÙĨ ÛĮÙĦ
ĠÚ©Ø§Ø¨ ÙĪØ³
Ø§ Øº
ĠØ³ ÙĪØª
os e
ĠØªÛĮÙĦ ÙĪØ±
ÙħØ¹Ùħ ÙĪÙĦØ§
ĠÛĮ Ø²Ø¯ÛĮ
ĠÙ¾Ùĩ ÙĨÙĩ
ĠØ¯Ø±Ø¹ ÛĮÙĨ
ĠØªÙħÙĩÛĮØ¯ Ø§Øª
ĠØ¹ÙĦ ÙħØ§ÛĮ
ĠØ¢Ø´ÙĨ Ø§ÛĮØ§ÙĨ
Ġ7 20
ĠÙĪÙģ ÙĪØ±
ĠÙĪØ«ÛĮ ÙĤÙĩ
V R
ĠØ® Ø§Ø³Øª
ĠØ¨Ø§Ø²Ø±Ú¯Ø§ÙĨ Ø§ÙĨ
ĠC o
ĠÙħØŃÙħØ¯ Ø¬ÙĪØ§Ø¯
ĠÙħØ¯Ø§Ø± ÙĩØ§ÛĮ
ĠÛ±Û¹Û´ Û±
ĠØ¢ÙĦÙģ Ø§Ø¨Øª
ĠØŃØ¨ÙĪØ¨ Ø§Øª
ĠØ¨ Ù¾Ø°ÛĮØ±Ø¯
ĠØ§Ø¯ ÛĮØª
ĠØ§ÙĨØªØ®Ø§Ø¨ ÛĮÙĩ
ĠR X
Ù¾ÙĨØ¬ Ø´ÙĨØ¨Ùĩ
ØĮ ØĮ
ĠØ¨Ø§Ø² Ø¬ÙĪÛĮÛĮ
ĠØ§ÛĮÙħ Ù¾ÙĦÙĨØª
ĠÙ¾ÛĮØ§Ùħ Ú©ÛĮ
ĠØ¨Ø·ÙĪØ± ÛĮÚ©Ùĩ
ĠÚ©Ø±ÛĮØ³Øª ÙĪÙģØ±
ĠÙĨØ§Ùħ Ø¹ÙĦÙĪÙħ
ĠÛ±Û³Û¸ Û°
ĠØ´ Ú©ÙĨÙĨØ¯Ùĩ
ÙĨØ¸ Ø§Ùħ
ĠØ§ÙĦØ¹ ÙħÙĦ
ĠÙĨØ¬ ÙĪÙħ
ĠØ®ÙĪØ¯ÙħØ®Øª Ø§Ø±
ĠØ¹ Ø¨Ø±ÛĮ
Ġr es
ĠÚĨÛĮÙĨ Ø´
ÙĪØªØ± Ø§Ù¾ÛĮ
ÙĪØ±Øª Ø§ÙĨ
ÙĪÚ¯ Ø±Ø§Ùģ
ix el
: )
ĠÙħÛĮ Ú¯Ø±Ø¯Ø¯
ĠØ³ÛĮ Ø§ÙĩÛĮ
ĠÙĤØ·Ø¹ Ø§ØªÛĮ
ĠØºØ± Ø§ÙħØª
ĠEn g
ĠÚ¯ ÙĪØ§ÙĨ
ĠØ¨Ø§Ø²ÛĮ ÙĩØ§ÛĮ
Ġf rom
Ø³Øª ÙĨØª
ĠØ¨Ø§Ø² Ø®ÙĪØ±Ø¯ÙĩØ§ÛĮ
ĠÙĪØ± Ø²
ĠØ´ÙĪØ± ÙĪÙĦØª
ap p
ĠØºÙħ Ú¯ÛĮÙĨ
ĠØ§ÛĮØ± Ø¬
ĠÛĮÚ© Ø¨Ø§Ø±Ùĩ
ĠØ§Ø¬ Ø¯Ø§Ø¯
ub l
ĠÚ©ÙĨØ¬Ú© Ø§ÙĪ
ĠØ³ Ú©ÙĨÙĩ
ĠØ¯ÙĪ Ø¬Ø§ÙĨØ¨Ùĩ
ĠØ¨ÙĨ Ø§ÛĮÛĮ
ĠÚ©ÙĪØ¯ ØªØ§
ĠÙĨØ§Ø¸Ø± Ø§ÙĨ
ĠÙĨÛĮ Ú©ÛĮ
ĠÚ©ÙĨØ³ Ø±Ø³ÛĮ
ĠÙĪ ÙĦØ³
ĠDis play
ÙĪØ´ ÙĪ
ĠA s
ĠØ§ÛĮÙĨÚĨ ÙĨÛĮÙĨ
ĠiP hone
Ú¯ Ø§Ø±Ø¯
ĠÙħØ´Øª ÙħÙĦ
ĠØŃØµ ÙĪÙĦ
Ø¢ÙĨØ¬ ÙĦØ³
ĠØ´ Ø±Ùģ
ĠØ¨Ø± ÙĪÛĮ
ĠD DR
ĠØ¢ÙĨÙģ ÙĦÙĪ
ÙĪ ÙĪØ¯ÛĮ
ĠÚ©ÛĮ ÙĪ
ĠØ³ÙĪØ² Ø§ÙĨ
ĠØ³ÙĪØ¦ ÛĮØª
ĠØ·Ø¹ ÙħÙĩ
ĠØªÙĤ ÙĦÛĮÙĦ
ĠÙħÙĨØ¸ÙĪØ± Ùħ
ÙĤØ¨ ÙĦ
ĠÙ¾Ø§Ø¯ Ú¯Ø§ÙĨ
ĠU RL
ĠØ¬ ÙĨÛĮ
ĠÙħØ¯ÛĮ ØªÛĮØ´ÙĨ
ĠØ¨Ø±Ú¯Ø±Ø¯ Ø§ÙĨØ¯
A n
ĠN ot
ĠÙħÛĮØ´ÛĮ Ú¯Ø§ÙĨ
f ace
ÙĪØ±ÛĮ Ø³
ĠØ´Ø¯ÛĮØ¯ ØªØ±
ĠEd ition
ĠØ´ÛĮØ± Ø¯ÙĩÛĮ
Ø´Ú© ÙĦÛĮ
ĠÚĺ Ø¦ÙĪ
ĠØ¯ÙħÚ©Ø± Ø§Øª
ĠÙħØ´ Ø§Ø±Ú©ØªÛĮ
ĠÙĦØ· ÙħÙĩ
ĠØ§ ÙĦØ§Ø³
Ø§ÙĨ Ø¬Ø§Ùħ
ĠØ® Ø³Ø±
ĠØµØ¯ Ùģ
ĠØ²ÙĨØ¬ Ø¨ÛĮÙĦ
ØŃ Ø§Ùħ
ĠÙģ Ø§
ĠA t
ĠØªØ±Ú© Ø§ÙĨ
Ø¯Ø±ÛĮ Ø§ÛĮÛĮ
ĠØªØ§Ø¨ÙĦÙĪ ÙĩØ§ÛĮ
ÛĮÚ© Ø´ÙĨØ¨Ùĩ
ĠØ±ÛĮ ÙĪÛĮ
Ġ19 8
ĠØµ Ø¯ÛĮ
ĠØªØ¬ Ùħ
ÙĨØ´ ÛĮÙĨØ¯
ĠÙħÙĤØ· Ø¹ÛĮ
ĠÛ±Û³Ûµ Û¸
ĠØ¬ Ø±Ø§Ø¦
Û´ Û´
ĠØªÚ© Ø§Ù¾ÙĪ
Ø¨ÛĮØ´ ØªØ±
ĠØ¶Ø¹ÛĮ ÙģÛĮ
Ø§ÛĮ Ø³
ĠØª Ø§ÛĮÛĮ
ÙĪØ¨ ÛĮÙĨ
ĠÙĩÛĮ Ø£Øª
ĠØ¨Ø± ØŃ
ĠÚ©ØªØ§Ø¨ ÙĩØ§ÛĮ
ĠØ§ÙģØ³Ø± Ø¯Ùĩ
ĠØ¢ÙħØ³Øª Ø±Ø¯Ø§Ùħ
ĠØ¨Ùĩ Ø§
ĠÙĪØ± Ùħ
ĠÚ¯ÙĪ ÛĮÙĨØ¯Ùĩ
ÙħØ¹ ÙħÙĪÙĦ
ĠØ¬Ùĩ ÙĨÙħ
Ú©Ø³ ÙĪØª
ĠÙĩØ¯Ùģ Ø´
ĠÙ¾Ø±Ø® Ø§Ø´
ĠØ¹Ø²Ø§Ø¯ Ø§Ø±ÛĮ
ĠÛĮÚ© Ø¬Ø§
ĠØ³Ø± Ø¯Ùĩ
ĠÙħØ± ÙħØ±
ĠØªØ¹ Ø§ÙĦÛĮ
ĠØ§Ø±Øª Ú©Ø§Ø¨
ÙģØª Ø§ÙĨ
ĠÙĦ Ø§Ø¨ÛĮ
ĠÙĨØ± ÙħÛĮ
ĠØ§Ø³Ú© ÛĮØª
ÙģØ±Ø§ÙĨ Ø³ÛĮØ³Ú©ÙĪ
ĠØ¢ÛĮÙĦ ØªØ³
ØªØ± Ø´
ĠÛ¶ ÛµÛ°
ĠÙĨÙĩ Ø§Ø¯ÛĮ
ĠTech n
ĠÙĤØ±Ùħ Ø²ÛĮ
Ø¹ Ø§ÙĦ
ĠØªØ£Ø«ÛĮØ± Ú¯Ø°Ø§Ø±ÛĮ
ĠØ¢Ø¬ Ø±ÛĮ
ĠØ¯Ø± Ø³Ø§ÙĦ
Ø§Ø³Øª ÙĪØ±
ĠÙĪØ² Ø±Ø§ÛĮ
ĠÙħÛĮ ØªÙĪØ§ÙĨÛĮÙħ
ĠÙĦ Ú©Ø³ÙĪØ³
ĠØ§Ø± Ø¨Ø¹ÛĮÙĨ
ĠØ§Ø³ÙĦ Ø§ÛĮØ¯
ĠÙĪØµ ÛĮØª
Ùģ ÙĪ
ĠÙĤ Ø§Ø³ÙħÛĮ
ĠØ§ÙĨØªÙĤ Ø§ÙĦÛĮ
Ġ201 1
ĠÙ¾Ø±ÙĪØ§Ø² ÙĩØ§
a ir
ĠØ§Ø² ÛĮÙĨ
ØŃ Ø§Ø¨
ĠØ¨Ø±Ø§ Ùī
ĠÙħØ±Ú©Ø² ÛĮØª
Ú¯ÙĪÙĨ ÙĪÙħÛĮ
ĠÙ¾ÙĨØ§Ùĩ ÙĨØ¯Ú¯Ø§ÙĨ
ĠÚĨØ³Ø¨ ÙĨØ¯Ú¯ÛĮ
ĠØ¨Ø§ Ø§Ø±Ø²Ø´
ĠØ§ÙĦØª ÙĩØ§Ø¨ÛĮ
ĠÙ¾Ø§Ø±Ø§ Ú¯Ø±Ø§Ùģ
ĠØ¯ÛĮ Ø§Ø±
ĠÙ¾Ø±ÙĪ Ø³Øª
ĠÙĪÙĦÛĮ Ø¹ÙĩØ¯
ĠØªØ§ Ø³
ÛĮÙĦ Ø¯
ĠÙĦ Ø±Ø¯
ĠØ´Ø± Ø¹ÛĮ
ĠÚ©Ø§ÙħÙ¾ ÙĪØ²ÛĮØª
ĠÚ¯ÙĨØ¬ Ø§ÛĮØ´
ĠØ´Ø±ÛĮ Ø¹ØªÛĮ
Û±Û¹Û ¶
ĠØ¨Ø± ÛĮÙĨ
ÙĦÛĮ ÙĪ
Ġ2 9
ÙģØ³ Ú©ÛĮ
ÙĨÙĤ Øµ
ĠØ¯ÙĦÛĮÙĦ Ø´
ĠØ§Ú©ØªØ´ Ø§ÙģÛĮ
ĠØ¢ÙĨÙģ ÙĪÙĦØ§ÙĨ
ĠØ¢ Ø±ÙĪÙħ
ĠØ§ÙĦ Ø³
ĠÙħØ· ÙĩØ±ÛĮ
ĠØ¯Ø§Ø±ÙĪ ÙĩØ§ÛĮÛĮ
ĠØ³Ø±ÙĪØ± ÙĩØ§
5 3
Ġ6 00
ver y
ĠØ¨Ùĩ Ø³Ø§Ø²ÛĮ
ĠÙħÛĮ Ú©Ø³
ĠÙħÙĩ Ø±Ø¯Ø§Ø¯
ĠIn tern
ĠØ²Ø§Ø¦ Ø¯
ĠØ¯ ÙĪØ±Ø¯
ĠØ¸Ø±Ùģ Ø´ÙĪÛĮÛĮ
R O
e am
ØŃ Ú©
ĠÙĨÙĤ ÙĪØ´
ĠØ³ÙģØ§Ø±Ø´ Ø§Øª
ĠÙħØ« Ø§ÙĨÙĩ
ĠØ¢Ø´ ÙĪØ±
ĠØ¨Ø§Ø±Ø³ÙĦ ÙĪÙĨ
Ù¾Ø¯ ÛĮØ§
ĠØ¯Ø± Ø§Ù¾
ĠA I
Ġ200 8
v iew
Ø§ ÚĺÛĮ
ĠØªÙĪ ÙģÛĮÙĤ
ĠÚ©Ø± ÛĮÙĨ
ĠØ¯Ø±Ø®Ø´ Ø§ÙĨÛĮ
ĠØ®Ø±Ùħ Ø´ÙĩØ±
ĠÙģØ± Ø§Ùĩ
ĠØ§Ø³ Ú©ÙĪØ±
ĠÙħØŃØ§Ùģ ÙĦ
Ù¾ Ø§Ø²ÙĦ
ÙĪØ§ ÚĨ
ĠØ§ÙĨØ¨ Ø³Ø§Ø·
ĠÙħØ¹ Ø·Ø±
ĠØªØ± Ø¨ÛĮØªÛĮ
iz ation
ĠØ¹ Ø§ÛĮØ¯
ut ion
ĠÙħØ§ÚĺÙĪÙĦ Ø§Ø±
ĠUlt ra
Ø¹ ÛĮØ¯
ĠÙĩ Ø§ÛĮØ¯
ÙĪÙĦ Ø§Øª
ĠØ´Ø±Ú©Øª ÙĩØ§
ĠØ¯ÙĦ Ù¾Ø°ÛĮØ±
ÙħØ§Ø± Ú©ÛĮ
Ø±Ú© Ø´ÛĮ
ĠØ§Ø³ØªØ® ÙĪØ§ÙĨÛĮ
ĠÙĪÛĮØ¯Ø¦ÙĪ ÙĩØ§
ĠÙĦ ÙĪÛĮ
ĠÙģÙĤ Ø±Ùĩ
u ild
ĠØµ ÙģÛĮ
ĠØºÛĮØ± Ø·Ø¨ÛĮØ¹ÛĮ
ĠØ§ÙħÛĮØ¯ÙĪØ§Ø± ÙĨØ¯
ĠØ³ÙĪØ± Ø³
ĠØ§Ø³Ø§Ø· ÛĮØ±
ĠÙħØª ÙĩÙħØ§ÙĨ
ĠØ¬Ø§Ùħ Ø¹ÛĮ
ĠÛ¹Û ±Û
ĠØ¨ÙģÙĩÙħ ÛĮÙħ
ĠÙħÙĨ ØŃÙĦ
ĠØ®Ø¨Ø± Ú¯Ø§ÙĨ
ĠÙħØµÙĦØŃ Øª
ĠØ® Ø§ÙĦÙĩ
ĠØ¯ÛĮØ¯ Ú¯Ø§ÙĩÛĮ
ĠÙĨØ¯ Ø§Ø±ÛĮ
ĠØªØ§ Ø³Ùģ
Ø¨ÛĮ ØŃ
ÙĪØ±ÛĮ ØªÛĮ
ĠÙħØªÙģÙĤ ÛĮÙĨ
Ġ â
ĠØªÙĪ ÙħÙĨ
ĠÙĦÛĮ ÙĪÙĨ
ĠÚ¯ÙĦ Ø§Ø¨
Ġ2 50
ĠØ§ÛĮÙħ ÙĪØ¬ÛĮ
ĠÙ¾ÛĮÙĪÙĨØ¯ ÛĮ
ÙĪ Ø¨Ø±
ĠÙħ Ø¶Ø§
Ø´ÙĪ ÙĨØ¯Ùĩ
ĠØ³ÛĮØ§ ÙĪØ´
v ent
ĠÙħÙĨ Ú©Ø±
ĠÙģØ±Ø§ÙĨ Ø³ÛĮØ³
ĠØ¢ÙĨÙģÙĦ ÙĪØ§ÙĨ
Ġ ÚĺÛĮ
ĠØ§ÙģØªØ® Ø§Ø±Ø§Øª
* *
ĠØ³Ù¾ Ø±Ø¯ÙĨ
ÙĪØ¦ ÛĮÙĦ
7 7
ĠØ§ÙĨ ØŃÙĦØ§ÙĦ
ĠÙ¾ÚĺÙĪÙĩ Ø´Ú©Ø¯Ùĩ
ĠÙħØ¯Ø§Ø± Ø¨Ø³ØªÙĩ
ĠÙħØ¹ÛĮ Ø´ØªÛĮ
ĠÛĮ ÙĪØ³
ĠÙĩÙĪØ´ ÙĨÚ¯
ĠÙģØ±ÙĩÙĨÚ¯ Ø³ØªØ§ÙĨ
ĠÙĤØ±Ø§Ø±Ø¯Ø§Ø¯ ÙĨ
ĠØ§Ø³ÛĮ Ø³ØªÙĨØª
ĠÙ¾ÛĮØ´Ú¯Ø§Ùħ Ø§ÙĨ
ĠØ¹ÙħÛĮ ÙĤØ§
ĠÛ±Û³Ûµ Û°
us iness
ĠØ§Ø³Ú© ÙĦÙĩ
ĠØ²Ø§ÛĮ ÙĨØ¯Ùĩ
Ú©ÙĨ ÛĮÙĨ
ur n
ĠØ§Ø¨ÙĪØ§ÙĦØŃ Ø³ÙĨ
ĠÚ© Ø«ÛĮØ±
Ø¹ Ø¨ÛĮ
it t
ĠØ¨ÛĮØ§ÙĪØ± ÛĮÙħ
ĠØ§ÙģØ±Ø§ Ø·
ĠÙĩÙħ Ø³Ø§ÙĨ
ĠE l
ĠØ¨Ø§Ùħ Ø²Ùĩ
Ú© ÙħÛĮ
ĠÛĮ ÙĤÙĩ
ob al
ĠÙĪ Ø§ÙĦØª
ØªØ± ÙĨ
ĠØ§Ø¯Ø± Ø§Ø±ÛĮ
ĠÙ¾Ø´ ÛĮÙħØ§ÙĨ
ĠØ¹ ØªÛĮ
ĠØ§ÙĦ ÙĤ
at s
ĠØŃÙĤÛĮÙĤØª Ø§
Ù¾ÙĪØ´ ÛĮ
ĠÚĨØ³ Ø¨ÛĮØ¯Ùĩ
o le
ÙĪ Ú©Ø§Ø±ÛĮ
ĠÙ¾ÛĮÙĪØ³Øª ÙĨØ¯
yn c
Ø³ Ø§ÙģØª
Ø§Ø® Ø§ÙĨ
ĠÙħØ§Ø±ÛĮ ÙĪ
ĠÂ °
ĠØºÙĦØ§Ùħ Ø±Ø¶Ø§
ĠÙħ ÙģÙĤ
ĠÛĮ Ú¯Ø§ÙĨÙĩ
ĠØªØ¬ Ø¯ÛĮØ¯ÙĨ
ĠÛĮÙĩ ÙĪ
ĠÙĨØ§Ø³ Ø§Ø²
ĠÙħØ³ÙĦØŃ Ø§ÙĨÙĩ
ĠÙħØ¹ Ø§Ø±Ùģ
ĠÛ³Û ¹Û
ĠÙĨØ§Ø¨Ø± Ø§Ø¨Ø±ÛĮ
ĠØ¨Ùĩ Ø§Ø±ÛĮ
Ø³ÛĮ Ú©
ĠÙģØ± ØŃ
ĠØ´Ú© ÙħÛĮ
ĠØ¨Ø±ÙĪØ¬ Ø±Ø¯
ĠØ± Ø¬Ø¨
ĠØµØ¯Ùħ Ø§Øª
ĠØ¯ÙĪØ³ØªØ§ÙĨ ØªØ§ÙĨ
ĠÚ¯Ø´ÙĪØ¯ Ú¯ÛĮ
ĠÙħØ¶Ø§ Ø¹Ùģ
D P
ĠÙħ ÙĦÛĮØª
ĠØŃØ³ Ø§Ø¯Øª
ĠÙĦÙĨ Ú¯Ø±
ĠÙħØŃ ÙĪÙĦ
ĠØ§ÛĮØ± ÙĦÙĨØ¯ÛĮ
ĠØªØ§Ø¨ Ø¹ÛĮ
Ú©ÙĪØ± Ø¯ÙĩØ§ÛĮ
ØŃØ§Ùģ Ø¸Ùĩ
ĠØ¯Ø§Ø¯ Ø®ÙĪØ§Ø³Øª
ĠÚ©Ø±Ø¯ÙĨ Ø´
ĠØ±Ø¶ Ø§Ø´Ø§Ùĩ
ĠØªÙĨÚ¯ Ø§Øª
ĠØ±Ú¯ÙĪÙĦ Ø§ØªÙĪØ±ÛĮ
Ġ ;
ÙĪ Ø¦ÛĮ
Ø¢ Ú©ØªÙĪØ±
ÙĪÚ© Ø§
ĠØ¬Ø²ÛĮ ÛĮ
L A
Ø§ Ø¹ØªÛĮ
ĠÚ© ÙĦÛĮØª
ĠØµ Ø±Ø§ØŃØª
ĠÙĨØ¸ Ø§Ø±Ùĩ
Ø´Ùħ Ø§Ø±Ùĩ
al th
le ct
om b
ĠØ³ÙĨØ§Ø±ÛĮ ÙĪÛĮ
S C
ĠØ§Ø³Øª Ø§ÙĦÛĮÙĨ
ĠÙħÚ¯Ø§ÙĩØ±Øª Ø²
Ø±ÙĪ Ø¹
ĠØ§Ù¾ ÛĮÚ©
an ge
ĠØªØ¹ Ø±ÛĮÙģÛĮ
ĠÙĩÙĨØ± Ø³ØªØ§ÙĨ
ĠØ³ÙĪØ®Øª ÙĨ
ĠØ¨Ø± ÙĪØ³
ĠØ³ÙĦØ· Ø§ÙĨÛĮ
ĠÙģØ³ Ø®
ĠØ¹Ø¨Ø¯Ø§ÙĦ Ø±ØŃ
ĠØ´Ø¯ ÙĨÛĮ
ĠÙĨØ¸Ø± Ø´
ĠÙħÛĮ Ø°
Ú©ÙĨ Ú¯
ĠÙħØ¹ Ø§Ø¨Ø¯
ÚĨÙĩ Ø§Ø±Ùħ
ĠØªØ±Ø§ÙĨ Ø²ÛĮØª
ĠØ´Ùħ Ø´
Ø³ Ø§Ø³
ĠÙ¾ÛĮÙĪÙĨØ¯ ÙĩØ§ÛĮ
ĠÛ±Û³Û¶ Û°
Û±Û³Û ¸
6 7
ĠØ¢ÙĨØ§Øª ÙĪÙĦÛĮ
Ø¨ ÙĨØ¯Ø§ÙĨ
ĠØ± ÙĤÛĮÙĤ
ĠØ§ÙĪÙĨ ÙĪ
ĠØ¢ÙħÙĪ Ø®ØªÙĨ
iel d
ĠÚĨ Ø¬ÙĪØ±ÛĮ
ĠÙħÛĮÙĦÛĮ ÙħØªØ±ÛĮ
ÙģÙĤ Ø·
ĠÚ©ÛĮ Ù¾
ĠØ§Ø³ØªÙĤ Ø§ÙħØª
ĠÛ²Û² Û°
ĠØ³Ø±ÙĪ Ú©Ø§Ø±
F orce
ĠØºÛĮØ± Ø§ÙĨØª
ĠÙĨÙħØ§ Ø¦ÛĮØ¯
ĠMI T
ĠØ¨Ø± Øª
ĠØ§ÙĦÚ¯ ÙĪÛĮÛĮ
ĠÙĩØ§ÛĮ ÙħØ§ÙĨ
Û±Û³Û ¹Û
M P
Ø§Ùħ ÛĮØ¯
Ø³ÛĮ ÙĪØ³
ĠS ettings
ĠØµØŃ Ø¨ØªÛĮ
ĠÙģÙĨ ÙĪÙĨ
ĠØ§Ø± ÙĨ
ĠØ± ÙģØ±Ø´
Ø¨ÛĮ Ú©
ĠØ¢Ø¯ ÙħØ§
ĠÙħØ®Øª ØµØ±ÛĮ
ĠØ¯ÛĮØ¯ ÙĨØ¯
ĠSt ar
ĠØ§ÛĮÙĨ Ø¨Ø§Ø±
ĠØ¯ÙĪ Ø¨ÙĦ
ĠØ¬ÙĪ Ø§Ø¨ÛĮ
ĠØªØ¬Ø¯ÛĮØ¯ÙĨ Ø¸Ø±
Ø§ÛĮ ÙĨÛĮ
ĠÙĪ Ø¯Ø±
ĠØ¢ Ú©ÙĨÙĩ
ĠÚ©Ø´ Ø´ÛĮ
ĠØ±Ø§ Ø³ØªÙĩ
ÙĪÛĮ ØªÛĮ
ĠØ§ÙģØ²ÙĪØ¯ ÙĨÛĮ
Ù¾Ø´Øª ÛĮØ¨Ø§ÙĨÛĮ
vel op
ĠØ®Ø± Ú¯ÙĪØ´
Ù¾Ø±Ø³ ÛĮØ¯
ĠØ§ÙĪÙħ Ø¯Ùħ
ĠÙĪ Ø§Ø¯
ĠØ¯Ø± ÙħÛĮØ§ÙĨ
ĠØ§Ø³Ù¾ ÙĪØ±Øª
ĠØ¨Ø± Ø³Ùħ
ØªØ± ÙĨØ¯
Ø³ÛĮ ØªÛĮ
ÙħØ§ÛĮ Ø¯
ĠØ³ÙĨØ¬ ÛĮØ¯Ùĩ
ĠÙĨØ§Ù¾ÙĦ Ø¦ÙĪÙĨ
ĠÚ¯ÛĮÚ¯Ø§Ø¨ ÛĮØª
ØªØ£ Ø«ÛĮØ±
Øµ Ø§Ø¯
ØªÙĪØ§ÙĨ Ø³ØªÙħ
ĠØ³Ø· Ø±
ĠØ¨Ø´ ÙĪÛĮØ¯
ĠØ¢Ùħ ÙĦ
ĠÚ©Ø´ ÙĪÛĮÛĮ
ĠÙ¾Ø±Ø§ Ú¯
ĠÙħÛĮ Ø®ÙĪØ§ÙĩØ¯
ĠÙ¾ Ø´Ùĩ
ĠÚ©Ø±ÛĮ Ø³ØªÛĮ
ĠÙĩÙĪÛĮ ØªÛĮ
ĠÙħØ¹Ø¶ ÙĦØ§Øª
ĠØ¢Ø²Ø§Ø¯Ø± Ø§Ùĩ
ĠØ³ÙĨØª Ø²
ĠØ¢Ø³Øª Ø§Ø±Ø§
ĠØªØ´Ø±ÛĮÙģ Ø§Øª
ĠØ³Ø± Ø§ÙħÛĮÚ©ÛĮ
ÙĪØ¨ ÛĮØ´ÛĮ
ĠØ²ØŃ ÙħØ§Øª
ĠÚ©ÙĨØ³ ÙĪÙĦÛĮ
ĠÙħÙĨØ³ ÙĪØ¨
ĠÙĪ Ø§Ø²
Ø¯ÛĮ ÙĪ
Ġm an
ĠØ³ÙĨØ³ÙĪØ± ÙĩØ§
ĠÙħÛĮØªÙĪÙĨ Ùħ
Ġ z
ĠÙħ ÛĮÙĨÚ¯
ĠØ¨Ø±ÙĪ Ú©Ø³ÙĦ
ĠÙħÙĪÙģÙĤÛĮ ØªÛĮ
l in
ÙĪ Ø¢ÙħØ¯
ĠØ¯Ø§Ø± Ú©
ĠØªÙĦ Ú¯Ø±Ø§ÙħÛĮ
ĠÙ¾Ø§ÙĦ Ø³
ĠØ±ÙģØ³ ÙĨØ¬Ø§ÙĨÛĮ
ĠØ§ÛĮØ³ÙĦ ÙĨØ¯
y z
Ä ±
ÙĪ Ø®
ĠP en
ĠÙħØ¹ÛĮ Ø´Øª
ĠØ¨ÙģØ±Ø³Øª ÛĮØ¯
Ùħ ÛĮØ¯
ÚĨ Øª
ĠÙĩØ± Ø±ÙĪØ²
ĠØ§Ø± Ú¯ÙĪÙĨÙĪÙħÛĮ
ĠÙ¾ÙĪØ³ ÛĮØ¯Ú¯ÛĮ
ÙĤ Ø§ÙĤ
ĠÚ©ÙĨ Ø³ØªØ§ÙĨ
ĠØ¨ÛĮÙĨ ÙĨØ¯Ú¯Ø§ÙĨ
Ø®ÙĪØ§Ùĩ Ø§ÙĨ
ÙĦØ³ ÙĪÙĨ
ĠØªÙĦ Ú¯Ø±Ø§Ùģ
ĠÙħØŃÙħØ¯ ØŃØ³ÛĮÙĨ
ĠØ¨ÙĨÙĪÛĮØ³ Ø¯
ĠØ§ÙĦØ²Ø§Ùħ Ø§
ĠÚĨ Øº
ĠÙħØ¸ ÙģØ±
ĠØ±ÙĨ Ø³Ø§ÙĨØ³
T h
ĠÙħÙĨ ÙĪØ·
Ø´ ÙħÛĮ
ĠÙ¾ØªØ± Ø²Ø¨ÙĪØ±Ú¯
ĠÚĨØ±Ø® Ø´ÛĮ
ĠÙħØ¯Ø§ÙģØ¹ Ø§ÙĨ
ĠØ¯ÙĤØ§ÛĮ ÙĤ
ĠÚ© Ø¨Ø¯ÛĮ
Ø§Øª ÙħÛĮ
ĠØ´Ø§Ùĩ Ø¯Ø§ÙĨ
ĠÙ¾ÛĮÚ© Ø§Ù¾
ĠÙħØ®ØªØ± Ø¹
ĠØ¯Ø± ÛĮÚ©
ĠÚ©ÙĨ Ú©
ĠÙħÙĨØ¯Ø± Ø¬
ĠØ±ÛĮ Ø¨
ĠØµØ¯ Ø§ÙĩØ§
ĠÛ±Û¹Û¶ Û±
ĠØ§ÙĦÚ©ØªØ±ÙĪÙħØºÙĨ Ø§Ø·ÛĮØ³ÛĮ
Ø§ÛĮ Ø²ÛĮ
ĠØª Ø§ÙħÙĦ
Ø® Ø¨Ø±
ĠØ¨ÛĮ Ø§Ø¨Ø¯
ĠØªÙĨ Ø¨ÙĦÛĮ
Ú©ÛĮ Ø¯Ùĩ
ra in
ĠÙħÙĩÛĮ Ø¬
ÙĨ Ø¨Ø§Øª
ĠÚĨ Ø±Ø§ÛĮÛĮ
ĠØªØ± Ø´ÛĮ
Ø§Ø± ÙĨØ¯
Ø§Ø±Øª Ø§
ĠØ§Ø³Øª ÛĮÚ©
ĠÙĩÙĪ Ø§Ùģ
ĠØ³ÙĪØ¯ Ø¢ÙĪØ±
ĠÚ©ÛĮ Ø§ÙĨ
ĠØ¯Ø±Ø§Ø² ÙħØ¯Øª
ĠØ¯ÙĦÙģ ÛĮÙĨ
d e
ĠØ¨Ø± Ø²
ĠÙ¾ÛĮØ´ Ú©Ø³ÙĪØª
Ø¯Ø± Ùĩ
ĠÙ¾Ø± Ø§ÛĮÙħ
Ø§Ø· ÛĮØ³
ĠØ§ÙĦØŃ Ø§ÙĤÛĮ
ĠÙĨ ÛĮÙĨ
ĠÙģ ÙĪØ±ÛĮØª
ĠØªÙĪ ÙģØ§ÙĨ
ĠC r
ĠØ± Ø¹Ø¯
ĠØªÙħØ§ Ø´Ø§ÛĮÛĮ
ĠØ¨Ø±Ø²ÛĮ ÙĦÛĮ
ĠÙĨÛĮ Ø§ÙħØ¯
ĠØ´ÙĪØ± Ø§ÙĩØ§ÛĮ
ĠÙĦ Ø§ÙĨÚ¯
ÙħØ§ÙĨØ¯ ÙĨÛĮ
ĠÚ¯Ø±Ø³ ÙĨÙĩ
ĠØ§Ø³ ØŃØ§ÙĤ
ĠN o
ĠÛ±Û³Û¸ Û³
ĠÙħØ±Ø§Øª Ø¹
ĠÛ±Û¹Û³Û ¹
ĠØ¬ ÛĮÙĦ
ĠÙĤØ· Ø±Ø§Øª
ĠØ®ÙĦØ§ Ø¡
ĠØºÛĮØ±Ø§ÙĨØª ÙģØ§Ø¹ÛĮ
os s
ÙĨ ÙĪØ´
Ø²ÛĮ ØªÛĮ
ĠØªÙĨ Ø§
ĠC an
ĠØ¢Ø¯Ø§Ù¾ ØªÙĪØ±
Ø¨ Ø§ÙģÛĮ
Ø±Ø§ÛĮ Ø²
ĠÙħØ² ÛĮÙĨ
ĠÙģÙĦ Ú©
ĠØ¹Ø´ ÙĤÛĮ
ĠÛ±Û¹Ûµ Û¸
ĠRe act
ĠØ´ Ø³ØªÙĩ
Ø®ÛĮ Ø§ÙĦ
ĠØ§ÙĨÚ¯ÛĮ Ø²ÛĮ
ĠØ¯Ø® Ø§ÙĨÛĮ
ĠÛ±Û· Û¸
ĠB ack
ĠÚ¯Ø´ÙĪØ¯ Ùĩ
ĠÙĩ ÙĪØ¯
ĠÙģØ¶ ÙĦ
Ø±ÛĮ ÙĦ
ĠL eg
ÙĪÙħØªØ± ÛĮÚ©
Ġ at
Ø¨ Ø±ÙĪ
ĠÙħÛĮ Ø«
ÙĪØ² Ø§
ĠÙħÙģ Ø³Ø±
ĠØ¨Ø§Ø¯Ùħ Ø¬Ø§ÙĨ
ĠØ¯ ÙĨØ§
ĠØ§ÛĮÙĨ Ø´ØªÛĮÙĨ
ĠÙĨÛĮ Ú©ÙĦ
ĠÙħÙĪØ± Ø®Ø§ÙĨ
ĠÙħØŃÚ© ÙħÛĮ
Ø¸ Ø¨ÛĮ
ĠØ®Ø±Ø¯ Ø³Ø§ÙĦ
ÙĤ Ø³ÙħØª
ĠØ±ÙĪ Ø¨Ø§Ø²
ĠÙ¾Ø± ÙĤØ¯Ø±Øª
ĠØ¬Ø§Ø³ ÙĪØ³
ĠÙħØ¬Ø° ÙĪØ¨
ĠØª ÙĨØ¯ÛĮ
ĠÙ¾ÙĪØ´ Ú©
ĠV al
ÙĩØ§ Ø¦ÛĮ
ĠÚ©Ø§Ø± Ø§ÙĨ
ĠÚ©Ø§Ø± Ø¢ÛĮÛĮ
Ú¯ÛĮØ± Ø§ÙĨ
ĠÙ¢ Ùł
ĠØ¨ÙĤ Ø¹Ùĩ
ĠÙĩØ®Ø§ÙħÙĨ Ø´ÛĮØ§ÙĨ
ĠØ¨ÙĪÛĮØ± Ø§ØŃÙħØ¯
ĠÙģÙĨÙĦØ§ÙĨØ¯ ÛĮ
ĠØªØ§Ú©Ø³ ÛĮØ±Ø§ÙĨÛĮ
ĠØ¨Ø§ÙĦ Ú¯Ø±Ø¯
ul ar
E x
ÙĪ Ø¢
ĠØ± Ø¢Ú©ØªÙĪØ±
ĠØ§Øµ ØŃØ§Ø¨
ÙħØ±Ø¯ Ùħ
ĠØ±ÙĤÛĮ Ø¨Ø§ÙĨ
Ø¦ Ø±
ĠØ³Ø± ÙĨØ®
ĠØµØŃ Ø±Ø§ÛĮ
ĠØ¨ÛĮØ± Ø¬ÙĨØ¯
ĠØ¨Ø´ÙĨ ÙĪÛĮØ¯
ĠÙĩÙĦÛĮÚ©ÙĪÙ¾ ØªØ±
Ø§ Ú©Ùĩ
ĠØ¨Ø§ Ùĩ
ĠØ¢ÙĦØ¨ Ø§ÙĨÛĮ
Ø¹ Ø±
ĠÙ¾ ÙĪÛĮØ´
ØªØ± Ú©
Ø¯Ø§ÙĨ Ø³ØªÙħ
R P
ĠØ³Ø¨Ø² ÙĪØ§Ø±
3 3
ĠÙĩÙħ ÛĢ
Ø¨ÙĪØ¯ ÙĨØ¯
ĠØ±ÛĮ Ø³Øª
ĠØ³ÙĪØ² Ø§ÙĨØ¯ÙĨ
Ø§Ø¦ ÛĮÙĦ
ĠÚ©Øª Ø¨ÛĮ
ĠØ³ÙĪÙĨ ÙĪÚ¯Ø±Ø§ÙģÛĮ
R e
ÙĨ ÙĤÙĦ
Ú¯ÙĪ Ø§Ø±ÛĮ
ĠÙĤÙħ Ø§Ø±
ĠÙĤØ±Ø§Ø¦ Øª
ÙĪ Ù¾Ø±
ĠØ§ ÙĪØ¯
Ø®ÙĪ Ø§Ø±ÛĮ
ĠØ§ÙĨØªØ¸ Ø§Ø±ÛĮ
em ail
ĠØ§Ø¨ÙĪ Ø¸Ø¨ÛĮ
ire ct
ĠÙĨ Ú©ÙĨÙĩ
ĠK ey
ĠÛ±Û¹Û´ Û·
ĠØ³ ÙĪØ§ÙĨ
ĠÚ©Ø±Ø¯Ùĩ Ø§
ØºÛĮ Ø§ÙĨ
ĠT w
ĠÙħÙĦ Ø²ÙĪÙħ
ĠØ¢Ø± ØªØ±
ĠØº Ø²
ĠØ¬Øº Ø±Ø§Ùģ
ĠØ´ ÛĮØ±Ùĩ
Ø§ÙĤ Ø¨Ø§
ĠØ®ÙĪØ§Ùĩ Ø´
ĠDSL R
Ø² ÙĨØ§ÙĨ
ĠÙĨØ¯ Ø§Ø¯ÙĨ
ĠÙĪÛĮØ±Ø¬ÛĮÙĨ ÛĮØ§
ĠÙĪÙĦØ³ ÙĪØ§ÙĦÛĮ
ĠÚ¯ Ø¯
ĠÙ¾Ø± ÙĨØ³
ĠÚ©Ø§ ÙĪÙĩ
Ø±Ú© Ø§Ø±Ø§ÙĨ
ĠØ¬ Ø§Ú©
ĠØ¯ÛĮ ØªØ±
ĠØ¹Ùħ Ø¯ÛĮ
ĠØ¨Ø²Ø±Ú¯ Ø³Ø§ÙĦÛĮ
ĠØªØ¹ ØµØ¨
ĠF r
ĠÙĩ Ø§Ø¯
ĠÙħÙĪØ±Ø¯ Ø´
ÙĤØ¯ Ø³
ĠØ·Ø¨Ø± Ø³ØªØ§ÙĨ
ĠÙħØµØ¯ ÙĪÙħÛĮØª
ÛĮØ¯Ø± Ø¶Ø§
Ø¨ Ø§Ø¯ÛĮ
ĠÙħØ¬ Ø±Ø§ÛĮ
ĠÙĦØ±Ø²Ø´ Ú¯ÛĮØ±
ĠÚ¯ÙĦÙ¾Ø§ÛĮ Ú¯Ø§ÙĨ
ĠØ¯ÛĮ Ø§Ø¨ØªÛĮ
Û¶ Û·
ĠÙħØ§Ø± Ú©Ø³ÛĮ
ĠØ±ÙĪ ÙħÛĮØ§ÙĨ
ĠÙĨÙĤ Ø¯ÙĩØ§ÛĮ
ĠÙĨØ§ Ø¢Ø±Ø§ÙħÛĮ
ÙħØ¯ Ø§Ø±ÛĮ
ĠÙĨØµ ÛĮ
ĠÙģ Ø§ØªØŃ
ÙĨÙĩ Ø§Ø¯
ĠG ames
Ú©Ø´ Ø§ÙĨØ¯
ĠØ³ÙĪØ¯ Ø¯ÙĩÛĮ
ĠÙ¾ÙĦÛĮ ÙħØ±ÛĮ
ĠÙģØ±Ø§ÙĨ Ø³ÛĮØ³Ú©ÙĪ
Ø¢ÙĪØ± ÛĮÙħ
ÙģØ±ÙĪØ´ ÙĨØ¯
ĠØ¯ Ø´ØªÛĮ
ĠØ²ÛĮØ± Ø¯Ø±ÛĮØ§ÛĮÛĮ
en ch
ÙħØ± Ú¯
ĠÛ±Û¹Ûµ Û¶
ĠØ¯ÛĮØª Ø§Ø³ÙĨ
ĠÙģØ±Ø² ÙĨØ¯ÛĮ
ĠØ¨Ø²Ø±Ú¯ ÙĨÙħØ§ÛĮÛĮ
ĠØ³ÙģØ± ØªØ§ÙĨ
ĠØ³Ú© ÙĪÙĨ
ĠØ§ÙħØªØŃØ§ÙĨ Ø§Øª
ÙĪØ³ ÙĨ
ĠØªÙħ Ø±ÛĮÙĨÛĮ
ĠØ¨Ø§ÙĨ Ú©ÙĪÚ©
ĠU X
ĠØ± Ø¦ÛĮ
ĠÚ¯ ÙĪØª
ĠÙģØ± Ø§Ø¨ÙĪØ±
Øª ÛĮØ±
ĠÙħÙĨ Ø§Ø±Ùĩ
-- --
ĠØ¯Ø±ÛĮØ§ ÙģØªÙĩ
Øª Ø®ÛĮÙĦÛĮ
Ú© ÙĪØ´
ÙĪØ§ÙĨ Ø¯Ùĩ
Ø´Øª Ø§ÛĮÙĨ
ĠØªÙĪØ± ÛĮÙĨÚ¯
Ġh ave
ĠÙģÙĩ ÙħÛĮØ¯Ùĩ
y e
ĠØ· ÙĪØ³ÛĮ
et s
Ø§ÙĦ ÙħØ¹
ĠØ¬ Ø§ÙĦ
ĠØ±Ø¤ Ø³Ø§ÛĮ
Ã ¼
ÙĦØ§ÙĨ Ú©Ø§
Ø²Ø§Ø¯ Ú¯Ø§ÙĨ
ĠÙħÛĮ Ú¯ÙĪ
ĠSn ap
ØŃ Ø§ÙĦØª
ĠØµÙĪØ±ØªÛĮ Ú©Ùĩ
Ùħ ÙĪÙĨØ¯
an e
ĠÙĪÛĮÚ© ØªÙĪØ±
ÛĮÙĨ Ø§Ø³ÛĮÙĪÙĨ
ĠØ¢ÙĦ Ù¾
ĠÚ¯ÙĦ Ø²ÙĨÛĮ
Ø¢Ø² ÙħØ§ÛĮÛĮ
ĠÙĤ ÙĪ
Ø¬Ùħ Ø¹Ùĩ
ĠØ³Ø±ÙĨÚ¯ ÙĪÙĨ
ĠØ§Ø³Øª ÙĨØ¯
ÚĨ Ø±ÛĮ
ÚĨ Ú¯ÙĪÙĨÙĩ
ĠÙĦÛĮ ÙĦØ§
ĠA P
ĠD ig
ĠÙħØ§Ø² ÙĨØ¯Ø±Ø§ÙĨÛĮ
ĠØ§Ø³Øª ÙĪ
ĠÙģ Ø§ØŃ
ÙģØ±Ø§ÙĨ Ø³ÛĮ
ĠÚĨ Ø§Ú©
ĠÛĮØ§ ÙĤ
ĠÚ¯Ø± Ø§ÙĨØ¯
ĠÚ©ÙĪØ§ÙĨØª ÙĪÙħ
ĠÚ¯Ø§Ø±Ø¯ ÛĮÙĨ
Ø³ ÙĨØ¯
ĠÚ¯ Ø±Ø§ÙģÛĮ
ĠØ§ÙĨØ¯ Ø±
ĠÚ©Ø§Ø±Ø§Ú© ØªØ±ÙĩØ§ÛĮ
ĠØ® Ø§ÙĦØ¯
ĠØ§Ùģ ÙĪÙĦ
ĠØ§Ø´ Ø¹
ĠØ¨Ú¯ ÛĮÙħ
E N
ĠT rans
ĠÙĨÙħØ§ÛĮØ´Ú¯Ø± ÙĩØ§
ĠÚ©Ø§ÙĦØ§ ÙĩØ§ÛĮÛĮ
ĠØ±ØŃ ÙħØª
ĠØ³ÙĦØ¬ÙĪ ÙĤÛĮ
Ø« Ø¨Ø§Øª
Ø§Ø³ Ú©Ø±ÛĮÙ¾Øª
ĠØ¯ÙĪ Ø³Ø§ÙĦ
ĠØ¨Ø¯ÙĪÙĨ ÛĮØ¯
ĠÚ©ÙĦØ§ÙĨ ØªØ±ÛĮ
ĠØ¯Ø§Ø¯ ÛĮØ¯
ĠØªØ³ ÙħÙĩ
ĠÚ©ÙĦ Ø¨Ùĩ
ĠÚ©ÙĦÛĮ ÙĪÛĮ
ĠØ¨Ø±ÙĨØ¯ ÛĮÙĨÚ¯
ĠÙħØ±Ø¨ÛĮ Ú¯Ø±ÛĮ
Ø¯ Ùģ
ĠD C
Ø® Ø±Ø¯
ĠØªÙħ Ø¬ÛĮØ¯
Ø´Ø§Ø± Úĺ
ĠØªØ³ Ú©
ĠØ¢Ø²Ø§Ø¯ Ú¯Ø§ÙĨ
Ġ7 5
ĠÙħØªØ¹ Ø§ÙĤØ¨Ø§
ĠØ§ÙĦÙĩ Ùĩ
ĠÙħØ¯Ø±Ú© ÛĮ
D r
ÙĪØ² Ø§ÙĨ
ĠÛ±Û³Û¸ Û²
ĠÙħÛĮØªÙĪÙĨ ÛĮÙĨ
Ø§Ø±Ùħ ÙĪÙĨÛĮ
Ù¾ÛĮÙĪÙĨØ¯ ÙĨØ¯
ĠØ§ÛĮÙĨ Ø¬Ø§ÛĮ
ØŃØ¶ ÙĪØ±ÛĮ
ĠÙħÛĮÙĦ Ø±
Ù¾Ø°ÛĮØ± ÙĨØ¯
ĠØ³Ùħ ÙĪÙħ
ĠÙ¾ ÙĨÚ¯
ĠØ¬ Ø§ÛĮØ´
Ø±Ú© Ùĩ
ĠØ³ÛĮ ØµØ¯
ĠM P
all y
ĠÙħÛĮØ¯ ÛĮÙħ
A pp
ĠØ± Ø¨Ø¹
ĠØªÙĤ ØµÛĮØ±
ĠØ³Ø±Ø¯ ÛĮ
ĠÙĨ Ø§ÛĮÙĦ
ĠØ¨Ø§ Ø¯ÙĩØ§ÛĮ
ĠØ¯Ø±Ø¨Ø§Ø± ÛĢ
Ø¨ÙĪ ÙĦÛĮ
ĠA ct
Ø¬ÙĨ ÙĪØ¨ÛĮ
ĠÚ¯ÙĪÛĮ Ø§ÛĮ
Ø± Øº
Ø§Ùĩ Ø¨
ĠÙħÙĪ Ø´ÙĨ
ĠÙ¾Ø§Ø± ØªÛĮØ´ÙĨ
Ø®ÙĪØ± ÛĮØ¯
Ú©Ø§Ø± ÙĩØ§ÛĮ
ĠØ³ ÙħØ§
ĠÙĪÛĮØ±Ø§ÛĮØ´ Ú¯Ø±
ĠØ¨Ø±Ú¯Ø±Ø¯ ÛĮÙħ
ĠÚ© Ø¯ÛĮ
ĠÙĤ ÙĪØ·ÛĮ
ĠÚ©Ø± ÙĪÛĮ
Û¶ Û¸
ĠÙĪ Ø³ØªØ±ÙĨ
ĠÙħÛĮ Ø±Ùħ
ĠÙĪÛĮÚĺ ÙĨ
ĠØªÙĪÛĮÛĮ ØªÛĮ
ĠÙĩØ§ÙĪ Ø§ÛĮÛĮ
S T
ĠØ¯Ø³Øª Ø´ÙĪÛĮÛĮ
ĠÙĪÙĨ Ú©ÙĪ
ĠÙĩØ§Ùģ Ø¨Ú©
ĠØ¨ ÙħØ§ÙĦ
Ùħ Øº
ÙĦ ÙĪÙħ
Ú¯Ø± ÛĮØ¯
ĠÙħÙĪ Ùĩ
ĠØ´ÙĨØ§Ø®Øª ÙĨ
ĠØ¨ ÚĨØ±Ø®
ĠØµ ÙĪÙģÛĮ
ĠÙħØ¹Øª Ø¨Ø±ÛĮ
ĠÙĦÙĪÚ© ÛĮØ´ÙĨ
g ram
Ú© ÙĪØª
ÙĨÛĮ Ø¯Ùĩ
Ø¨Ø± Ø¯ÙĩØ§ÛĮ
Ù¾ÛĮ ÚĨÛĮ
ĠZ TE
ĠÛ±Û¹Û±Û ¸
ĠÙĨØ¨Ø§Ø´ ÛĮÙħ
ĠÙħØ¹Ø§Ø´ Ø±Øª
Ø¬ ÙĪÙĩØ§ÛĮ
ĠØ±ÙĪÛĮ Ø§ÙĩØ§ÛĮ
ĠØ²ÙħØ§ÙĨ Ø¨ÙĨØ¯ÛĮ
ĠØ¢Øª Ø´Ú©Ø¯Ùĩ
ĠØ¨Ø±ÙĨ ÙħÛĮ
ĠØ¢ÙĨØªÙĪÙĨÛĮ ÙĪ
ĠØ¯ÛĮØ³ Ù¾ÙĦÛĮ
ĠØ§Ø³Ø±Ø§ÛĮÛĮ ÙĦ
E G
ĠÙħ Ø§Ú©Ø³
ĠØ¯ ÙħÙĨ
ĠØ§Ø³Øª ÛĮÙħ
ĠØ§Ø¹ Ø¸ÙħÛĮ
ÙĪÙĨØª ÙĪØ³
m er
Ø´ Ø§ÙĨÛĮ
ĠØ¢ Ø®Ùĩ
Ġ201 0
ĠÙģØ³ ÙģØ±
ĠØ§ Ø´ÙĨ
Ù¾ Ø¯Ø±
ĠÚĨ ÛĮØ±Ùĩ
ĠØ§ÙħØ§ÙĨ Øª
ĠÙħÙĨØ§Ùģ Ø°
Ø¯ Ø§Ø³ØªØ§ÙĨ
ĠÙħÙĨ ÙģØ¬
ĠØ¢Øº Ø´ØªÙĩ
ĠØ¬Ø±Ø§Ø¦ Ùħ
M C
ĠØ¯ÙĪ ÚĨÙĨØ¯Ø§ÙĨ
ĠâĢ İ
ĠØªØµÙĪØ± Ø§Øª
ĠØ³ÙĪÚ¯ ÙĨØ¯
ĠØ¨ ÛĮÚ©Ø³
Ø¸Ø§Ùĩ Ø±
Ø± Ø´ØªÙĩ
ĠØµ Ø¨ÙĪØ±
ĠÙĦÛĮ Ú©ÙĨ
ĠÙħÙĩØ§Ø¬Ø± ØªÛĮ
ĠÙ¾Ø§Ø³ Ø§Ø±Ú¯
ĠØ§Ø±Ø² ÙĩØ§
ĠÙħÙĦØ§ØŃ Ø¸
ĠÙĨ Ú¯Ø±ÛĮ
ĠØŃ ÙħØ§Ø³ÛĮ
ĠØ¹Ùħ ÙĪ
ĠÙĪØ§ÙĦ ØªØ±
ĠÙĩ Ø§ÙĨØ³
ĠØ¬ÙĪ Ø§ÛĮØ²ÛĮ
ĠØ¨ÛĮØª Ú©ÙĪÛĮÙĨ
Ø®ÙĪØ±Ø´ ÛĮØ¯ÛĮ
ĠÙħÛĮØªØ³ ÙĪØ¨ÛĮØ´ÛĮ
ĠØ³ÙĨØ¯ Ø±ÙĪÙħ
ĠÙħØ±ÙĪØ±Ú¯Ø± ÙĩØ§ÛĮ
ĠUn ivers
ĠØ¢Ø±Ø§ Ø¡
ĠÙħÛĮÚ©Ø±ÙĪØ³ Ú©ÙĪÙ¾
Ø® ÙĪÙĨÛĮ
ĠØ§Ø¬Ø±Ø§ Ø³Øª
ÛĮÙĦ ÙĨ
Ø¢Ùħ ÙĪØ®ØªÙĩ
ĠÚ¯ÙĪØ±ÛĮ ÙĦØ§
ĠØ®ÙĪØ§ÙĨ Ø¯ÛĮØ¯
ĠÙĨÙĪØ§Ø² ÙĨØ¯Ú¯ÛĮ
ÙĤÛĮ ÙĤØª
Ø§Ø±Øª Ø¨Ø§Ø·
ĠÙĨÛĮØ± ÙĪÙħÙĨØ¯
ĠG u
Ø¯Ø§Ø¯ Ùħ
ag es
Ø¹ Ø§Ø´
ĠÙħÛĮ Ú©Ø±Ø¯ÙĨØ¯
Øµ ÙĨ
Ø§Ú© Ø±ÛĮ
ÙĨØ§Ùħ Ø¯
ĠØ¨ÛĮÙĩ ÙĪØ´ÛĮ
Ġ un
ĠÚ© ÙĪØ±ØªÛĮ
ĠM ag
ØªØ± Ú©ÛĮ
ĠØ°ÙĩÙĨ Ø´
ĠØ¬ÙĦØ¨ Ú©
ut e
B I
b ook
ĠÙģ Ø®Ø±
ĠØ¨Ø§Ø² ÙĨÙĪÛĮØ³ÛĮ
ĠÙĨÛĮØ± ÙĪÛĮÛĮ
ĠØ§ÙĦÙħ Ù¾ÛĮ
A d
Ø¹ Ø§ÙħÙĦÛĮ
ĠÙĪØ§Ú©Ø³ ÛĮÙĨØ§Ø³ÛĮÙĪÙĨ
ĠÙħÙĪ Ø³ØªØ§ÙĨ
Ø±ØŃ ÙĦÙĩ
ĠØ§ÙĨØ¨Ø§Ø± ÙĩØ§ÛĮ
S c
Ø§ ÙĪÙĦÛĮÙĨ
Ø± Ø¨Ø§
Ù¾ Úĺ
ĠÙħØ§Ùĩ Ø§ÙĨ
ĠØªØ¬ ÙĦÛĮÙĦ
ĠØªÙħØ§ Ø³ÛĮ
ĠÙħÛĮ Ø®ÙĪØ§Ø³Øª
Ø§ÙĤ ÙĦÛĮ
Ġm ac
ĠÙĪØ¨ÛĮÙĨ Ø§Ø±
Ú© Ø§ÛĮ
ĠÙĩÙħ Ø´
ĠØŃÚ© ÙħÛĮ
ĠÙ¾Ø°ÛĮØ± Ø¯
ĠÚ©ÙĨØ³ÙĪÙĦ Ú¯Ø±ÛĮ
ĠÙ¾ Ø§ÙĦØª
Ø´ÙĨ ÙĪÛĮÙħ
ĠØªÚ© Ø§ÙĦÛĮÙģ
ĠØ¨ÙĪÙĦÛĮ ÙĪÛĮ
ĠØ¨ Ø§Ø±Øª
ĠÙĪØ§Ø±Ø¯ Ú©ÙĨÙĨØ¯Ú¯Ø§ÙĨ
b l
ĠØ§ ÛĮØ´ÙĪÙĨ
ĠØ¨ Ú¯ÛĮØ±ÛĮ
ĠØ³ Ú©Ø³
ĠÙħÛĮ Ùĩ
ØŃ Ø±
ĠÙĨ Ø²Ø§
ĠÙģ ØªØ§
ĠØ² ÙĩØ±
ĠÚĨÛĮ Ø¯Ùĩ
ĠØ§ØªØ±ÛĮØ´ ÛĮ
ĠÙħÙĪØ²ÛĮ Ú©Ø§ÙĦ
ĠÙĨ Ø±Ø¯
ĠØ¨Ø± ÙĪÚ©
ĠÙĩØ± ÚĨÛĮ
ĠØ§ØŃØªÙħØ§ÙĦ Ø§Øª
ĠÚ©Ø§Ø¨ ÙĦÛĮ
Ø¹ Ø§ÙĦÛĮ
ĠØŃ Ø±Ø§Ø³Øª
ĠÙ¾ÛĮÚ© Ø±Ùĩ
ĠÚ¯ÙĦØ¨ ÙĪÙĦ
ĠØ´ ÙĪØª
ĠÚĨ ÙĨÚ¯ÛĮ
Ø¶ Ø¹Ùģ
ĠØªÙĩ Ø¯ÛĮØ¯ÙĩØ§ÛĮ
ĠØ¨ÛĮÙĦ Ø¯
ĠØ¨ÛĮØ§ÙħÙĪØ² ÛĮØ¯
ĠØ¨ Ú¯Ø°Ø±Ø¯
ĠÚ©Ø¯ Ú¯Ø°Ø§Ø±ÛĮ
ĠØŃÙĪ Ø§Ø³ØªØ§ÙĨ
ĠÛ³Û² Û°
T V
Ø§ Ø¬Ø±
Ùħ ÙĪØ²Ùĩ
ĠÙģØ± Ø®
ĠØ¨Ø§ÙĦ Ø¹Ú©Ø³
ĠÙĩÙĨØ¯ ÙĪØ§ÙĨÙĩ
ĠØ¯ÛĮØ± Ø¨Ø§Ø²
ĠØ¨ÙĨØ´ ÛĮÙĨØ¯
Ð °
ĠØ¯Ø±ÛĮ Øº
ĠØ¨Ø±Ø§Ø´ ÙĪÙĨ
ĠÙĪ Ø§ÛĮÙĨ
ĠØ§ÙĪ ØªÛĮØ³Ùħ
Ø²Ø¯ Ú¯ÛĮ
ĠØ´Ùĩ Ø¯Ø§ÛĮ
ĠØŃÚ© Ø§Ú©ÛĮ
ĠØ·Ø¨ÙĤ Ø§ØªÛĮ
ĠÙĩØ§Ø´ Ùħ
ĠPC I
ycl op
ĠØ§ÙĦ Ø³ÙĦØ§Ùħ
ĠÙħÙĪÙĦ ÙĪÛĮ
Ù¾ Ø§Ø´
Ù¾Ø± ÙĪØ±ÛĮ
ĠÙħÙĤØ§ÙĦ Ø§ØªÛĮ
ĠÛ· Û²Û°
ĠD u
ĠÙ¾ÙĩÙ¾ Ø§Ø¯ÙĩØ§
ĠÙĨÛĮØ§ÙĪØ± Ø¯Ùĩ
Ùħ Ø§ÙĩØ§
Ø§Ø¯ Ø±Ùĩ
ĠÙĨÛĮ ÙĪØªÙĪÙĨ
ĠM ate
ĠØ¯ÙĨØ¨Ø§ÙĦ Ø´
ĠØ³ÙģØ± ÙĩØ§
ĠØ³ÙĪÙ¾ Ø±Ø§Ø³
ĠØªÙĨ Ø¨ÙĦ
ĠÚ©ÙĪ ÙģÛĮ
ĠÙĨÙĪØ² Ø¯Ùĩ
Ø¢ ÙĨÛĮ
ĠI t
ØŃØ¯ Ø§ÙĤÙĦ
ĠØ§Ú©Ø³Ù¾ÙĦÙĪØ± Ø±
ĠØ¢ ÛĮØ²
ÙħØ§ÙĦ ÙĪ
ĠÙĨÙĩØ§Ø¯ ÛĮÙĨÙĩ
ØŃØ§ÙĦ Ø§
ĠÙ¾Ø±Ùĩ Ø²ÛĮÙĨÙĩ
Ġpro tect
ĠÙħÙĪØ³ØªØ§ÙĨ Ú¯
ĠÙĨØ³ Ø¨ÛĮØª
ĠÚ©ØªØ§Ø¨ Ø´
ĠÚ©ÙĪØ¯ Ú©ØªØ§ÙĨ
ĠØªÙĩ ÛĮ
ĠØµØŃ Ø±Ø§
ĠØ§ÙĨØ³Ø§ÙĨ ÙĩØ§
ĠÙ¾Ø§Ú© Øª
ĠÛ±Û· Ûµ
ĠØ§ØªÙĪØ¨ Ø§ÙĨ
ĠÙ¾ÙĩÙĦ ÙĪØ§ÙĨ
e k
ĠØ ¥
ĠÙħ ÙĦØ¨
ĠÚ©Ø´ ÛĮØ¯ÙĨØ¯
ĠØºÛĮØ± ÙħØ¹ÙħÙĪÙĦ
ĠØ³ÙģØ± ÙĨØ§ÙħÙĩ
ĠØ± ÛĮÙĨ
ĠØ· Ùĩ
ĠØ§Ùħ Ø±ÛĮÚ©Ø§ÛĮÛĮ
ĠÛ±Û³ Û°Û°
ĠÙ¾Ø±Ø³Øª Ø´
ĠÙħØ± Ø§Ø¯ÛĮ
ĠÙħØ³ÛĮØ± ÙĩØ§
ĠØ² ÙĩØ±Ùĩ
ĠÙħØª Ø§Ø«Ø±
ĠÚ¯ÙģØª ÙħØ§ÙĨ
Ú©Ø§Ø± Ø§ÙĨÙĩ
ĠÙĨÙħ ÛĮØ±
ĠØ¯ÙĪØ³Øª Ø§ÙĨÛĮ
ĠÙħØ²Ø§ØŃ ÙħØª
Ùħ ÙĪÙĨÙĩ
ĠÙ¾Ø³ Ø§Ø¨
ĠM obile
ĠØ®ÙĪÙĨ ÛĮÙĨ
ĠÙħÙĨÙĤ Ø±Ø¶
n et
ÛĮÙĨÚ¯ ØªÙĪÙĨ
ĠØ§Ú©ØªØ´Ø§Ùģ Ø§Øª
Ø§Ø± Ø§Ø¦Ùĩ
ĠØ¯ÙĪ Ø¨Ø±Ø§Ø¨Ø±
ĠÙħØª ÙģÚ©Ø±
ĠP DF
ĠÙĩÙĪ Ú©
ĠÙħØµØ¯ ÙĪÙħ
ĠØ²ÛĮÙĪØ± Ø¢ÙĦØ§Øª
ĠÙĨÙħ ÛĮØ¯
ĠÚ¯ Ø²ÛĮØ¯Ùĩ
ĠØ³Ø± Ø§ÛĮ
ĠÙħØ´Ùĩ ÙĪØ±ÛĮ
ĠØ¨ÙĨØ¯ Ø±ÛĮ
ÙĨØ³ Ø®Ùĩ
ĠØ¹Ø· Ùģ
p r
ÙĨ ØŃ
ĠÙ¾ Ø´ØªÙĩ
ĠÛĮ ÙĪØ¨ÛĮ
ĠÛĮØ§ Ø¦
ĠØ§Ø¬ ÙħØ§Ø¹
ĠF ire
Ø¢ÙĪØ± Ø¯ÙĩØ§ÛĮ
ĠÙĩ Ø±ÙĪ
ĠØ§ÛĮÙĨ Ùħ
ĠÙħØ± Ø¬Ø§ÙĨÛĮ
ĠÙģØ±Ø§Ø¨ÙĪØ± Ø³
ĠØ¨Ø§ Ø·Ø±ÛĮ
ĠØ§Ø³ Ù¾Ø§
ĠØ¢ÛĮ ÙĪ
ers on
ĠØµÙħÛĮÙħ Ø§ÙĨÙĩ
, Â»
ĠÙ¾Ø±Ø¯Ø§Ø®Øª ÛĮÙħ
ĠD o
ĠØ³Øª Ùħ
is m
ĠÙģØ±Ø§ÛĮÙĨØ¯ ÙĩØ§
ĠIn ter
ĠØ±Ø¤ ÛĮØ§
ĠÚ©Ø§Ø± Ø¢ÙħØ¯ÛĮ
ĠØ±ÙĪØ¨ Ø§Ùĩ
iz e
ĠØ¢ÙĦÙģ Ø±Ø¯
ĠÙĪ Ùħ
ĠÙħØªÙĨ ÙģØ±
ĠØ§Ø¬Ø±Ø§ ÙĩØ§ÛĮ
ĠØ¹ÙĪ Ø§Ùħ
ĠÚ©Ø§Ù¾ ÙĪØª
ĠÙĪØ¬ Ø¯Ø§ÙĨ
ĠØ¨Ø®Ø± ÙĨØ¯
ĠÙĨ Ø¦ÙĪ
Ø³Ø± Ø®
ĠÙħØ°Ø§Ú© Ø±Ø§ØªÛĮ
Ú© Ø¨ÙĪØªÛĮ
ĠØ¢ÙĦ Ø¨Ø±
ĠC SS
ĠØ§Ø¹Øª ÙĤØ§Ø¯ÛĮ
ĠÙĨÙĪØ§Ø² ÙĨØ¯Ú¯Ø§ÙĨ
ĠØ¨ÙĪØ³ ÙĨÛĮ
Ø¬ Ø¯ÛĮ
Ġ( ;
ĠÙħØ¹Øª ÙĤØ¯Ùħ
ĠØ¨Ú¯Ø°Ø§Ø± Ùħ
ĠØ§Ø± Ùĩ
Û¶ Û´
ĠH y
ĠÙħØ§Ø± Ú©Ø³
Ù¾ ØªÙĪÙĨ
ĠÙĦ ÛĮØ±
ĠÙĩØ± ØŃØ§ÙĦ
ĠÙħØ± Ø¬Ø§ÙĨ
ĠÚ¯ÙĦ Ø§ÛĮÙĩ
ĠÙĤØ¯Ùħ ØªÛĮ
ĠØ§Ø²Ø¯ ØŃØ§Ùħ
ĠØ®Ø§Ø³Øª Ú¯Ø§Ùĩ
Ø³Øª Ø§Ø±Ùĩ
ĠØªØ± Ø§Ø¨Ø±ÛĮ
ĠØ¨Ø§ Ø®ØªÙĩ
ĠÙĨÛĮØ³Øª ÙĨ
ĠÚĨÛĮØ² Ø§ÛĮÛĮ
ĠØ³Ø§ÛĮ Ø¨Ø±
ĠØ³Ù¾Ø§Ùĩ Ø§ÙĨ
Ø·Ø¨ ÙĤ
Ø´Ø§Ø® Ùĩ
ĠÙ¾Ø§Ø³Ø§Ø±Ú¯ Ø§Ø¯
ĠÙĨÛĮ Ø§ÛĮØ´
ÛĮÙĦ ÙĪ
ĠI s
ĠÛ±Û¹Û´ Û´
B O
Ø§Ø± Ø§ØªÛĮ
ĠØ® Ø´Øª
ĠØ¹ ÙĪØ§
ĠR em
Ø¬Ùħ Ø¹
Ġp r
ĠÙĨ Ø§Ùģ
Ø±ÛĮ ØªÛĮ
ĠØ² ÙĪØ±ÛĮ
ĠÙģÙĦ Ú©ÛĮ
Ø¨ÙĨØ¯ Ø¯
ÙģÙĩÙħ Ø¯
ĠØŃÛĮØ¯ Ø±ÛĮ
ĠÙĦ Ø§Ø¨
ĠØ¯Ùĩ ÙĤØ§ÙĨ
erv ice
ĠØ¢Ù¾Ø§Ø±Øª ÙħØ§ÙĨÛĮ
ĠØ± Ø¨Ø§
ĠØ±ÙĪ ØªÛĮÙĨ
Ø±Ø§Ùĩ Ø§
ĠÙħØ´Ø®Øµ Ø§ØªÛĮ
Ú© Ø§ÙĪÛĮ
ĠØ¯Ø±Ø§ÛĮ ÙĪØ±
9 5
Ú© Ø§Ù¾
ĠÚ©ÙĪÚĨ ÙĪÙĦÙĪ
ĠÚ¯Ø§ ÙĪØµ
Ø§Ø¯ ÛĮØ¯
ĠÚĨ Ø±Øª
ĠØªØµ ÙĨÛĮÙģ
ĠØ¯Ø§ÙĨ ÙħØ§Ø±Ú©ÛĮ
ĠÙħÙħÙĨÙĪØ¹ Ùĩ
ĠÛ±Û¹Ûµ Û¹
ĠØªÙĨØ¯ Ø±ÙĪ
Ú©ÙĨØªØ± ÙĦ
ĠØ¨Ø§Ø² ÙĪ
ĠÙģØ±Ø¢ ÛĮÙĨØ¯Ùĩ
Ù¾ ÛĮÚ©Ø±
ĠØ§ØµØ· ÙĦØ§ØŃÛĮ
ĠÚ©Ø§ÙħÙ¾Ø§ÛĮÙĦ Ø±
ĠØ¯ÙĪØ±Ø¯ Ø³Øª
Øº Ø±Ø¨ÛĮ
ĠH IV
ÙĨ Ø§ÛĮØª
Ú© Ø²ÛĮ
Ø¹ Ø§Ùħ
Ø§ÙĨÛĮ Ø§ÙĩÙĪ
Ø§ÙĦÛĮ ØªÛĮ
ĠÙħØ®Øª Ø§Ø±
ĠÙĨ Ú©Ø´ÛĮØ¯
ĠØ¯Ø³ØªÚ¯ÛĮØ± Ùĩ
Ø§ÙĨØ¯ ÛĮÙĨ
ĠØ§ØŃÙħÙĤ Ø§ÙĨÙĩ
à ¤
ÙĪ Ø§Ø¯Ùĩ
Ùħ ÙĪÙĤØ¹
ĠÙĩØ± Ø³Ø§ÙĦÙĩ
ĠÙħØ¬ Ø±Ø¯
Ø¹Ùĩ Ø¯ÛĮ
ĠØ¯ÛĮÙĨ Ø§Ø±
Ø§ÙĨÚ¯ ÙĦÛĮØ³ÛĮ
ĠØ³Ø¦ÙĪ Ø§ÙĦ
6 00
ĠÙĤØ± ÙĤÛĮ
ic es
ĠØ¨ÙĨÛĮØ§ÙĨ Ú¯Ø°Ø§Ø±Ø§ÙĨ
ĠDe v
ĠØ´Ø¯ÙĨ Ø´
ĠØ³Øª Ø¯
ĠØªÙĪØª Ø§ÙĦ
ĠØ³ ÙħÛĮØ±
ĠÙħÛĮ Ø±ÛĮ
ĠÙĤ ØŃ
ĠØ¹Ùħ ÙĪØ¯
ØªÙĪØ§ÙĨØ³Øª ÛĮÙħ
ĠØ¯ÛĮÙĨ Ø§ÙħÛĮÚ©
ĠØ¹Ø§Ø´ÙĤ Ø§ÙĨ
ĠÙħØ±ÛĮ Ø¶
ĠÚ¯ ÛĮÚ©
ĠØ³Ùģ ÛĮØ¯ÛĮ
ĠØ¬Ø³ØªØ¬ÙĪ Ú¯Ø±
ĠØ´Ú©ÙĪ ÙģÙĩ
g er
ĠØ¨ Ú¯Ùĩ
ĠÙģØ±Ø²ÙĨØ¯ Ø´Ø§ÙĨ
Ùĩ ÙĪØ§
ĠÛ±Û±Û ²
ĠØ³ÙĪØ¦ÛĮ Ø³ÛĮ
Ø§Ø´Øª ÙĨ
ĠØ¨Ø§Ø´ Ú¯Ø§ÙĩÛĮ
ĠÙĨØ¸Ø± Ø´Ø§ÙĨ
ĠØ²Ø¯ Ú¯ÛĮ
ĠØ¯Ø² Ø¯ÛĮØ¯Ùĩ
ĠÙĤØ§Ø¹Ø¯ ØªØ§
ĠÙħÙĨ ÙģØ±Ø¯
ĠÙħÙĪØ±Ø¯ Ø¨ØŃØ«
ĠØ³ÙĪÙ¾Ø±Ùħ Ø§Ø±Ú©Øª
Ú¯Ø° Ø´ØªÙĩ
ĠÙħØŃØª Ø§Ø·
ĠØ²Ø±ØªØ´ØªÛĮ Ø§ÙĨ
Ú© Ø§Ø±Ùĩ
ĠÙĩ Ø§Ø±ÙħÙĪÙĨÛĮ
ÙĪØ§ÙĨ Ø¯
ĠØ³ÙĤ ÙģÛĮ
ĠØºÙĦØ§Ùħ ØŃØ³ÛĮÙĨ
ĠØ¢Ø¨Ø± Ø³Ø§ÙĨÛĮ
ĠØ¹Ø§ÙħÛĮ Ø§ÙĨÙĩ
ĠØ¨ÛĮÚ©Ø³ Ø¨ÛĮ
ĠÙĨØ§Ø¨ ÛĮÙĨ
ĠÚ©Ø´Øª ÛĮØ±Ø§ÙĨÛĮ
ĠØ§ÙĨØ³ Ø¬Ø§Ùħ
ĠØ´ ÙĪØ±ÛĮ
Ø¬Ø§ Ø¬
ĠC all
ĠØ¯ÙĪØ±Ùĩ ÙħÛĮ
ĠÙħØ¨ Ø§Ø¯Ø§
ĠÙĪ ÙĦÙģ
Ø§Ùħ ÛĮØ±
Ø´ ØªØ±
ĠÙĨ ØªÙĪÙĨ
ÙĨØ§ Ø¬
ĠD ay
ÙĪ ÚĺÙĨ
ĠÙĨØª Ø§ÙĨÛĮØ§ÙĩÙĪ
ĠØŃØ± Ø§Ùħ
ĠÛ±Û¹Û´ Û¶
ĠØ§ÙĨØ³Øª ÛĮØªÙĪ
ĠEnc yclop
Ø§ÙĨÛĮ Ú©
ou ld
Ú©Ø¨ ÙĪØª
ĠØ³ØŃ Ø§Ø¨ÛĮ
ĠÙĩ ÙĦÙĪ
ĠÙ¾ Ùħ
Ø±ÛĮ Ø³
ĠÛµ ÛµÛ°
Ġ9 7
ÙĪÛĮ ÚĺÙĨ
ĠØ®ÛĮ Ø§Ùħ
ÙĤØ§ÙĨ ÙĪÙĨ
ĠÙħØ³ÙĪ ÙĪÙĦØ§ÙĨ
ĠÙħÙĨØ³ÙĪ Ø®
Ø´Øª Ø§ÙĨ
ĠØ¨ÛĮ ÙĪØªÛĮÚ©
ar m
Ġ12 8
ĠÛ±Û³Û· Û°
ÙĨ ÙĨ
ĠÙ¾Ø±Ø³ ÛĮØ¯Ùħ
ĠÛ±Û°Û ´
ØªÛĮ Ù¾
ĠÚ©ÙĦ Ø§Ø±
ĠT o
ĠÚĨØ§ÙĦ ÙĪØ³
ĠØ¨Ø± Ø§ÙħÙĪÙĨ
ĠØºÛĮØ± ØŃØ¶ÙĪØ±ÛĮ
Ø³Ø± ÙĪÛĮØ³
Ùĩ ØªÙĦ
ĠÙĨ ØªÛĮ
ĠØ¯ÙĪ Ø®ØªÙĩ
ĠØ´ÙĨ ÛĮØ¯Ùħ
our ce
] .
ÙĦ ÙĨØ³
ĠÚ¯ ÙĨÚ¯
Ø¦ ÙĪÙĦ
ĠÛĮØ§ Ø®ØªÙĩ
ĠÙħØ± ÙĪØ±ÛĮ
ĠØ³Ø±Ù¾ÙĪØ´ ÛĮØ¯Ùĩ
ĠÚ© Ø¨Ú©
le y
ĠÛ±Û¹Ûµ Û´
ĠÛ²Û³ Û°
R E
ĠØ³Ùĩ ÛĮÙħ
Ú¯Ø±Ø¯ Ø§ÙĨÛĮ
ĠÙĨÚ¯ Ø§Ø±Ùĩ
ĠÙħØ¯Ø± ÙĨÛĮ
Ú©Ø§Ø± Ú¯Ø±Ø¯Ø§ÙĨ
ĠØ³ÙħØ¹ Ú©
ĠØ¯Ø± ÙĩØ§
Ø· Ø§ÙĦØ¨
ĠØ¹Ø§Ø´ ÙĪØ±Ø§
ÙħØ± Ø²
Ġcont ribut
ĠÙĦ Ø®ØªÙĩ
ĠØ´Ø§Ùĩ Ø±ÙĪØ¯
Ø±Ø¯ Ø§Ø±ÛĮ
Ø¯Ø§Ø± ÛĮØ¯
ĠØªØ¬ÙĩÛĮØ² Ø§ØªÛĮ
ĠØ¨Ø®Ø´ Ø´
ĠÙ¾Ø´Øª Ú©Ø§Ø±
ĠØ¬ÙĦÙĪ Ù¾ÙĨØ¬Ø±Ùĩ
ĠØªÙħØ§ÛĮ ÙĦØ§Øª
ĠØ§ÙģØªØ§Ø¯ Ùħ
Ø¨ ÙĩØ±Ùĩ
ĠØ± Ú©ÙĪØ±Ø¯ÙĩØ§ÛĮ
ĠÛ¸Û¶ Ûµ
ĠÙĨÛĮØ³Øª ÛĮ
ĠÛ±Û¹Ûµ Û·
ĠÙħÙĨØ² ÙĦÙĩ
ĠÙħØ´ ÛĮ
ĠÚ©ÙĦØ§ ÚĺÙĨ
ĠØ§ÙĪØ¨ ÙĪÙĨØªÙĪ
ĠÙħØ¬Ø± ÙħØ§ÙĨ
ĠØ¨ÛĮØ§ÙĨØ¯Ø§Ø² ÛĮØ¯
Ø§ÙĨ Ø¨Ø§Ø±
ĠÙĨ Ø¬ÛĮØ¨
Ø§Ùģ Ø¹ÛĮ
ĠÙħØ±Ø¯ Ø§ÙĨÛĮ
ĠÚ© ÙĪØ²
ĠÙĦ Ø§ÙĩÛĮ
ĠØ¨Ø¹Ø¯ ØªØ±
ĠH u
ĠÙģÙĨØ§ÙĪØ± Ø§ÙĨÙĩ
ĠØ¯ÛĮ ÙĪÛĮØ³
ĠÙĪÛĮ ØªØ±ÛĮÙĨ
Ø¢Øº Ø§Ø²
ĠØ¯Ø§ÙħÙ¾ Ø²Ø´
ÙĪÚ¯ Ø§Ùħ
ĠÚĨÙĦ Ø³ÛĮ
ĠØ´Ø§ÙħÙ¾ ÙĪ
ĠÙĨØ§Ù¾Ø§ÛĮØ¯ Ø§Ø±
ĠÚ©ÙĪ ÙĦÛĮ
Ø±Ùħ Ø²
ĠØ¢ÙĪØ±Ø¯ Ùħ
ĠÙ¾ÙĦ ÙĨ
ĠØ³Ùħ ÙģÙĪÙĨÛĮ
ee k
ÙĤ ØªÛĮ
ĠØ¬ ÛĮØ³ÙĪÙĨ
ĠØ®ÙĪØ§ÙĨ ÙĨØ¯Ú¯ÛĮ
Ġ6 5
ĠØ²Ø¯ ÛĮÙħ
ĠÛ±Û¹Û´ Û³
ĠÚ©ÙħÙĪÙĨÛĮ Ø³ØªÛĮ
ĠS e
ur ity
Ø¯ Ø¨
ĠØ± Ø¨Ø§Ø·
ĠÙĤ ÙĪÚĨ
ĠØ§Øª Ø§ÙĨ
ĠØ±Ø§Ùĩ Ø¯Ø§Ø±ÛĮ
ĠØ®ÙģØ§ Ø´
ĠØ³Ø±Ú¯ÛĮ Ø¬Ùĩ
ĠØ±ÙĪØ² ÙĨÙĩ
ĠÛĮØ§Ø¯ ÙħØ§ÙĨ
ĠÙĦØ¨ ÙĨØ§ÙĨÛĮ
ĠØ¨Ø®ÙĪØ§ÙĨ ÙĨØ¯
ĠØ¨Ø§Ø²Ú¯ Ø´ØªÛĮ
ĠÚĨØ§Ø± ÙĦÛĮ
C o
ĠØ¨Ø§Ø²ÛĮÚ¯Ø± Ø§ÙĨÛĮ
ĠØ¨Ø±Ø§ÙĨÚ¯ÛĮ Ø®ØªÙĩ
ĠØªØµØ¯ÛĮ ÙĤ
ĠØ¨ Ø¹Ø«
ĠÛ±Û±Û ¸
ĠØ¨Ù¾ÙĪØ´ ÛĮØ¯
Ø§ÙĦ Ú©ØªØ±
Ø· Ø±ØŃ
Ø§Ø³Øª ÙĪÙĨ
ĠØ´Ø§Ø± ÙĦ
ĠØ·ÙĦ Ø¨Ø§ÙĨ
ĠØµØ§Ø¯ Ø±Ùĩ
ĠØ¢ÙĨØ¯ Ø±Ùĩ
enc y
ĠØ¯Ø§Ø± ÙģÙĪØ±
ĠÙħØ¬ Ø§Ø¨
Û´ Û·
ir st
ĠØ§Ø±Ø¯ÙĪ ØºØ§ÙĨ
ĠØ³ÛĮ ÙĦÛĮ
Ø³Ø§ÙĦ Ú¯ÛĮ
ĠØ¯ÙĩÛĮ Ø§Ø±ÛĮ
ĠÙħÙĪØ²ÛĮ ÙĦØ§
ĠEncyclop edia
ĠØªØŃ Ú©ÛĮÙħ
ĠØªÙĤ Ø§Ø±ÙĨ
ĠØ±Úĺ ÛĮÙħÛĮ
ĠÛ±Û³Û¸ Û±
ĠØ§ÙĪÙħØ¯ ÙĨ
ĠÙĪØ§Ù¾ Ø³ÛĮÙĨ
ĠÙĦ ÙĨÛĮÙĨ
ĠØ¯Ø±ÛĮØ§ Ø¦ÛĮ
ĠØ¬ÙĪ Ú©Ø±
ĠÛ±Û¹Ûµ Ûµ
ĠÙĨØ§Ø² ÙĨÛĮÙĨ
bo ard
ĠÙĪ ÙĨØ¯
ĠØ¨Ø§Ø² Ù¾Ø³
ĠÙħØµ Ø§Ø¯ÛĮ
ĠT ab
ĠØ¨Ø±ÙĨØ¯ Ø³Ø§Ø²ÛĮ
un ction
ĠØ¯Ø±Ø¬ Ø±ÛĮØ§ÙĨ
ĠØ¯Ø§Ø¯ Ú¯Ø§ÙĩÛĮ
Ø¨Ø±Ø¯ ÙĨ
ĠØ´Ùĩ Ø¯Ø§
ĠØ§Ø±Ø² ÙĨØ¯Ùĩ
ĠÙĪØ§Ø± ÙĨØ±
ide o
w ord
ĠØªÙĪÙ¾ Ø®Ø§ÙĨÙĩ
ĠØ§ÙĦÚ© Ø§ÙħÙ¾
ĠØ¢Ø±ÛĮØ² ÙĪÙĨØ§
ÛĮÙĨ Ø³
Ø±Ø¯ ÙĪØ³Øª
ĠÙĦØ§ Ú¯
ÙģØ±ÙĪ Ø´Ø¯
ĠÛ±Û¹Û´ Û²
ĠØ¨Ø®ÙĪØ± ÙĨØ¯
Ø² ÙħÛĮ
ĠØªØ¹ Ø²ÛĮØ±
ĠØ³ÙĪØ³ÛĮ Ø§ÙĦÛĮØ³Øª
ĠØ¬Ø§Ø±ÙĪ Ø¨Ø±ÙĤÛĮ
a e
ĠÙĦ Ø§Ø±Ø§
ĠÙĦ Ø¹Ø§Ø¨
ĠS QL
ØªØ§ Ø«ÛĮØ±
Ø§Ú© ÙĦ
Ø¹Ùħ ÙĦÛĮ
ĠØ±ØŃ ÛĮÙħÛĮ
ĠÙĨØ§ÙħØ± Ø¦ÛĮ
Ø³ Ø§Ø®ØªÙĩ
ĠØ¯Ø± Ø´
ĠØªÛĮØ± Ø§Úĺ
ĠØ¹Ø±Ùģ Ø§ÙĨÛĮ
Ø¯Ø§ÙĨØ´ Ú¯Ø§Ùĩ
ĠÙħÙĨÙģØ¬ Ø±Ùĩ
Ø¨ Ø§Ø±Ø¯
ĠØ§Ø³Øª ÙĪØ§ÛĮÛĮ
ØŃ ÛĮØ¯
ĠN ow
ĠØ§Ø¨ÙĪØ§ÙĦ ÙĤØ§Ø³Ùħ
ĠÙħÙĪ ÙĨØ¯Ùĩ
ĠÚ¯Ø±ÙģØª ÛĮØ¯
ĠÙħØº Ø±Ø¨
ĠØºØ±ÛĮ Ø¨ÛĮ
Ġ ab
ĠØ¨ÙĦÙĨØ¯ Ù¾Ø§ÛĮÙĩ
ĠÙĨÙĤØ§Ø· ÛĮ
ĠÛ±Û¹Ûµ Û³
ĠÚ©Ø§Øª Ø§ÙĦÙĪÚ¯
ĠØ¯ Ø³ÛĮ
ĠØ¬Ø¯Ø§ ÙĪÙĦ
Ø¢Ø± Ø§Ùħ
ĠØºÙģ ÙĦØª
ĠÙĩÙĨØ¯ Ø²
ĠØ¨Ø§ Ùģ
Ø±Ø§ Ú©Øª
ĠØ±ÙĪ Ù¾
ĠÙħØ« Ø§Ø¨Ùĩ
ĠÙģÙĪÙĦ Ø¯Ø±
ĠÙģÛĮÙĦÛĮ Ù¾Ø³
oh n
ĠØ¯Ø®Ø§ÙĨÛĮ Ø§Øª
ĠÙ¾Ø§Ú© ÛĮ
ĠÙĦØ´Ú© Ø±Ú©Ø´ÛĮ
ĠÙ¾ ÙĪÛĮØ§ÙĨ
Ø±ÛĮ Ø²ÙĨØ¯
ĠÙħØ´ Ø±ÙĤ
ĠØ§ÙĪ ÙĪØ±
ĠÙģØ±Ø§ Ú©Ø³ÛĮÙĪÙĨ
ĠØ§ØŃØ³Ø§Ø³ Ø§ØªÛĮ
ĠØ§ÙĨÚ¯ÛĮ Ø²Ø´ÛĮ
ĠØ³ÛĮÙĨÙħØ§ ÙĩØ§ÛĮ
ĠØ³Ùħ ØªÛĮ
ĠÙħÛĮ Ú¯ÛĮØ±ÙĨØ¯
Ø³ÛĮ Ùĩ
ĠÚ¯ÙĪ ÙĩØ±
ĠP ar
Ø¬ ÛĮÙħ
T r
Ġ3 4
ĠÙ¾ ÙĪÙĨ
ĠÛĮÚ© Ø¯Ø³Øª
Ø¨Ø§ÙĨ Ø§ÙĨ
ĠØ§Ø±Øª Ø¹Ø§Ø´
ĠÙĪÛĮÙĦ Ø³ÙĪÙĨ
ĠØ²ÙĨØ¯Ú¯ ÛĮØ´
ĠØ±ÙĪÙĨØ§ÙĦØ¯ ÙĪ
ØªØ± Ø§ÙĦ
ÙħÙĩ Ø¯ÛĮ
Ø¬ÙĪÛĮ Ø§ÙĨÙĩ
ĠS P
ĠÙĨØ² ÙĪÙĦ
Ø§Ø¨ÙĨ ÙģØ´
ĠØ¬ØºØ±Ø§Ùģ ÛĮØ§
3 00
ĠØ¯Ø± Ø§Ø¯Ø§ÙħÙĩ
ĠÚ©ÙĨ ÙģØ±Ø§ÙĨØ³ÛĮ
ĠÙĦÙģ Ø¸
ĠÙĦ Ø§ÙĦÛĮ
ĠØ¨Ø¯ÙĨ Ø³Ø§Ø²ÛĮ
ĠØ¶ÙĦ Ø¹ÛĮ
ĠØ§Ø³Øª Ø±Ø¯Ø§Ø¯
Ø§Ø² ØŃØ¯
ĠØŃÙħ ÛĮØ¯Ø±Ø¶Ø§
V M
Ġ9 5
ĠØ§Ø³Ùģ ÙĨØ¯ÛĮ
ĠØ¯ÙĪØ³Øª Ø¯Ø§Ø±
Ù¾ ÙĦØ§
ĠØ§Ø² ÙĦØŃØ§Ø¸
ĠÚ¯Ø° Ø§Ø±Ø¯
ĠÙĩÛĮ ÙĪÙĦØ§
ĠØ·Ø±ØŃ ÙĩØ§ÛĮ
Ø³ Ø®ØªÛĮ
ĠØ²ÛĮØ± Ø²ÙħÛĮÙĨ
ĠØª Ú©ÙĦÙħ
Ø§Ùĩ ÙĨÚ¯
Û¶ Û¶
ĠR O
ĠÙĤØ¶ Ø§Øª
Ø¨Ø§ ØºÙĩ
ĠØ§ÙĨØ³ Ø¯Ø§Ø¯
ĠÚ¯Ø±Ø§Ùħ Ø±
Ġph p
ĠØ±ÙĪ Ø§Ø¯ÛĮØ¯
ĠØ¨ÙħØ¨ Ø¦ÛĮ
ĠØ¯Ø±ÛĮØ§ÙĨ ÙĪØ±Ø¯ÛĮ
ĠÙħÙĦØ²ÙĪÙħ Ø§Øª
ĠØ§ÙĦ Øµ
ĠÙĨÙĪ Ø§Ø±ÙĩØ§ÛĮ
ĠÙĨÙĪ Ø§Ø¯Ú¯Ø§ÙĨ
ĠS ol
ĠV o
ĠÛĮØ¯ Ú©ÛĮ
ĠÙħÙĪØ§Ø² Ø§Øª
ÙħØ±Ø§Øª Ø¨
ĠØ® Ø§ÙĪØ±ÛĮ
ĠÚ©Ø§Ø± Ú©Ø±Ø¯ÙĩØ§ÛĮ
Ø§Øµ Ø±ÛĮ
ĠÙĩØ¯ Ø§ÛĮØ§ÛĮ
ĠØ§ÙĨØ¬ ÛĮÙĦ
ĠØ®Ø§ÙĨÙĪØ§Ø± ÙĩØ§ÛĮ
ĠØ§ÙĨØµ Ø§Ùģ
ĠØ§ ÙĪÛĮ
ĠØ¬ Ø§ÙħÙĩ
ÙĪÙĦ ÙĨØ²
ĠÚ¯Ø±ÙĪÙĩ ÙĩØ§ÛĮ
ĠØ¨Ø¯ÙĨ ØªØ§ÙĨ
ĠÙħØ¨Ø§Ø± Ú©Ùĩ
7 00
Ø´ Ø®Øµ
ĠÙĨ Ø°
Ú¯Ø±Ø¯ ÛĮÙħ
ĠÙħØ¨ ÙĨØ§
ĠØªÙħØ³ Ø®Ø±
ĠØ¨ÙħØ§ÙĦ ÛĮØ¯
ĠÚ¯Ø§ÙĪØµ ÙĨØ¯ÙĪÙĤ
ĠØªØ§ ÙĪÙĨ
ĠÙģØ± ÙħÛĮ
ĠÙħÙĨØµ ÙĪØ±ÛĮ
ĠÙĨ Ø¨ÙĪ
ĠØ³Ø®Øª Ú¯ÛĮØ±Ø§ÙĨÙĩ
Ġf l
ĠÙħÙĨØ§ÙĤ ØµÙĩ
Ġ all
ĠÙĨ Ø´ÛĮØ¨
ĠÙ ¥
ĠØ§Ø³ØªÙĪØ¯ÛĮ ÙĪÙĩØ§ÛĮ
ĠØ¬ÙĪØ´ Ú©Ø§Ø±ÛĮ
ĠÙħÛĮØ¯ÙĪÙĨ Ùħ
ĠInt el
ĠÙĨ Ø«Ø±
ĠØ³ Ø§ÛĮØ¯
ÙĪØ¯ Ø§Ø±
ĠØ¨Ø± Ø§Ø¯
ĠÙħØª ÙħØ§Ø¯ÛĮ
ĠMicro soft
ĠÚ¯ Ø´Ø§Ø¯
ÙĪØ±Ø¯ Ø§ÙĨ
ar a
Øµ ÛĮÙĦÛĮ
ĠØ´Ø¯ ÛĮ
ÙĦÙĪ ÙħÛĮ
ĠÚ©Ø³ ÙĦ
an a
Ø±ÛĮ Ø¯Ùĩ
ĠØ§Ú©Ø³ ÛĮÙĨÙĪØ³
Ġprotect ed
ĠÚ©ÙĨ Ú¯ÙĪ
ĠÙħÙĨ ÙģØ¹
ĠØ§Ùħ Ø§ÙħÛĮ
ÛĮÙĨÛĮ Ø§ÙĨ
Û¸ Ûµ
ĠØ¹Ø§ÙĤÙĦ Ø§ÙĨÙĩ
ĠÙħØ³ØªØ¹Ùħ Ø±Ùĩ
ĠÚ¯ÙĪØ¯ Ø§ÙĦ
ÙĪ Ø§ÙĤØ¹ÛĮ
ĠÙħØ¹ Ø¸Ùħ
ĠØ¨ÛĮ Ø³ÛĮÙħ
ĠÙ¾Ø§Ùģ Ø´Ø§Ø±ÛĮ
Ø´ Ø§Ù¾
ĠÙ¾Ø±ÙĪ ØªÙĪÙĨ
ĠÙħØµ Ø§Ø¯Ø±Ùĩ
ĠØ¬ÙĪ Ø§Ø²
ĠØ¬Ø§ ÙĪÛĮØ¯
ĠÙģØ±ÛĮÙħ ÙĪØ±Ú©
ĠØ§ÛĮØ± Ø§Ø¯ÛĮ
ĠØ¨ÛĮ ÙĪ
ĠÙĨØ¯ ÛĮØ¯
ĠØ¨ÙĨ Ø±
ĠÛ±Û¹Û´ Û¹
ĠØ¨Ø§Ú©ØªØ±ÛĮ Ø§ÛĮÛĮ
b r
ĠÙĤ Ø§Ùģ
ĠØ¨ÛĮ Ø§ÙģØªØ¯
ĠØ¢Ø¨ Ø¬Ú©Øª
Ø±Ø§Ø¦ ÛĮ
ĠØ´Ø§ÙĨ Ø³ÛĮ
ĠØ¨Ø±ØŃ Ø³Ø¨
ĠÛĮØ§ÙĤ ÙĪØª
ĠÙħØ§ ÙĪØ±Ø§
ĠF in
ĠÛ±Û³Û· Û¶
pl ication
ĠØ§ÛĮØ² ÙĪÚ¯Ø§Ùħ
ĠØ·Ø± ÙĤ
Ġcontribut ors
ÙĪÙģ Ø³Ú©ÛĮ
ĠØ§ØµØ· Ú©Ø§Ú©
ĠÚ¯ÙģØªÚ¯ÙĪ ÙĩØ§
Ø² Ø§Ø³
Ø¶ ÙĪ
ĠÙģØ± ÙĪØ±
ĠØ§ÙĤØªØµØ§Ø¯ Ø¯Ø§ÙĨ
ĠØ¯Ø¹ ÙĪØ§ÛĮ
ĠÚ©Ø¨ÙĪ ØªØ±
ĠÙĪ ÙģÙĤ
ĠÙĦ Ø±Ø²
ĠØ¯ÙĪ Ø¨ÙĦÙĩ
ĠT ur
ĠØ¢ ÙĦØ§
ĠØ¨ÙĨ ÙĪØ´ÛĮØ¯
ĠØ° ÙĪØ§ÙĦ
ĠÙĩÙĪØ´ ÛĮØ§Ø±
ĠØ¨Ø®ÙĪ Ø§Ùħ
ĠØ§Ø³Ø¨ ÙĤ
ĠØ¬ ÙĪÙĨÚ¯
ĠØ¨ÛĮ Ø¶ÛĮ
!! !!
ĠÙĩØ±ÛĮ Ø³
ĠØµÛĮ Ø§ÙĨØª
] ØĮ
Ø³Øª Ø§ÙĨÙĩ
ĠØ¯ÙĦ ÙĩØ±Ùĩ
Ø´Ø± ÙĤÛĮ
ĠØªØ§ÛĮÙĦ ÙĨØ¯ÛĮ
ĠÙĪÙĨÚ©ÙĪ ÙĪØ±
B ook
ĠÙĪ Ø¨Ø§
ĠÙħÛĮ Ø±Ø³Ùĩ
ĠØ¨ÛĮ Ø§Øª
ĠÚ©ÙĦ Ú©Ø³ÛĮÙĪÙĨ
ĠÙħØ§Ø¯Ø± Ø¨Ø±Ø¯
ĠØ¨Ø± Ú©Øª
ĠØ¨Ø® Ø±Ø¯
ĠÙĪ ÙĪÙĩØ§ÙĨ
ĠØ· ÙĪØ§ÛĮ
Ø³Ø§ÙĦ Ø§Ø±
ĠÛ±Û³Û· Û¹
ĠØ³ÙĪÙ¾Ø±Ø§Ø³ Ù¾Ø±Øª
ĠÙģ Ø§ÛĮØ±
ĠØ¢Ùħ ÙĪÙĨÛĮ
ĠØ³ÙĪ Ø§ÛĮÙ¾
ĠØ±ÙħØ² ÙĩØ§ÛĮ
ĠØ¨ØªÙĪÙĨ ÛĮØ¯
ĠÙĨÙħÛĮØ´ ÙĪØ¯
ĠØ¨Ø§ ÙģÛĮ
ĠØ²ÛĮØ± ÙĨÙĪÛĮØ³
ĠÙħÙĩÙħ Ø§Øª
on or
ĠÙħÙĨØ¸ÙĪØ± Ùĩ
Ø± ÙĪØ±
ÙĪÙĨ Ùħ
ĠØ¹ÙĨ Ú©Ø¨ÙĪØªÛĮ
ĠØ¨Ø±Ø§ÙĨÚ¯ÛĮ Ø®Øª
ĠØ± ÙĨØ¯Ùĩ
ĠØ± Ø§ÙĨØª
ĠÚ¯ ÙĪØ²ÙĨ
ir t
Ġ13 8
Ø§Ú© Ø¨Ø±
ĠØ§Ø³Ù¾ Ø§ÙĨ
ĠÙĨØ§Ø¯ ÙĦØ§
ĠØ¨Ø§Ø² Ø¢ÙģØ±ÛĮÙĨÛĮ
ĠØ¶ Ø§ÙħÙĨ
el f
ĠÙħÛĮØ² ÙĨÙĩ
ĠØªÛĮØªØ§ÙĨÛĮ ÙĪÙħ
Ùħ Ø´Ú©ÙĦ
ĠØª Ú©ÛĮ
ĠÙĤØ± Ø¨Ø§ÙĨ
ĠÙħØ³ Ø§ØŃØªÛĮ
ĠÙħÙħ ÙĪØ±ÛĮ
Ø§Ø¦ÛĮ Ø§ÙĨ
r ic
ĠØ§Ø¨ ÙĪÙħ
ĠC or
q ue
ĠØ¯ÙĪ ØŃÙĩ
ĠØªØ¬ ÙħÛĮØ¹
at es
ĠØ¨Ø³Øª Ú¯Ø§ÙĨ
ce pt
ĠØªÙĪ Ø´ÛĮ
ĠÙ¾ÙĦ Ø§Øª
ĠØ¯ÛĮØ¯Ø§Ø± ÙĩØ§ÛĮ
V iew
ĠØ¨Ø± ÛĮØªÛĮ
Ø³ÙĦ Ø·Ø§ÙĨ
ĠØ¢Ø´ ÙĪØ±ÛĮ
ĠØ±ØŃ ÛĮÙħ
ĠØ¯Ø± ÙĪÛĮØ´
ĠØ¨Ø§ ØºÛĮ
ĠØ® ÙĦÙģ
ĠØ³ÙĩØ± Ø§Ø¨
ĠØ§Ø±Ø§Ùħ ÙĨÙĩ
Ø¨ Ø§ÙĤØ±
ĠÙ¾Ø±Ø³Øª Ø§Ø±Ø§ÙĨ
ĠÙĩÙħØ¯ Ø±Ø¯ÛĮ
ĠØ§Ú©Ø³ØªØ± ÙĨØ§ÙĦ
E L
I M
ĠÙĩ ÙĪÙĨ
Ø²ÛĮ Ø²
ĠØ§ÙĦ Ø¢ÙĨ
ĠX R
ob e
ĠÙĨÚ¯ Ø§Ø±Ø§ÙĨ
y m
Ø¢Ùħ Ø±ÛĮÚ©Ø§ÛĮÛĮ
ub e
rom e
ĠØ³ÙĦØ¬ÙĪ ÙĤÛĮØ§ÙĨ
ĠØ§Ø¹ÙĦØ§Ùħ ÛĮ
ĠØ¹ÙĨ Ú©Ø¨ÙĪØª
ĠØ§ÙĦØ§Ø³ ÙĦØ§Ùħ
A L
ĠØ§Ø¨ Ø·Ø§ÙĦ
Ø³Ø§ÙĦ Ø§Ø±ÛĮ
ĠÙħÙĦ ÙĪØ¯ÛĮ
Ù¾Ø§Ø± Ú©
Ù¾ÙĪØ´ Ø§ÙĨ
ÙħÛĮÙĦÛĮ Ø§Ø±Ø¯
ĠØªÙĪØ§ÙĨÙħÙĨØ¯ Ø³Ø§Ø²ÛĮ
Øª ÙĨÙĩ
ĠÚ©Ø§Ø± ØªÛĮ
ĠE M
re d
ĠØ¢Ø´ÙĨ Ø§ÛĮ
Ø® Ø±ÙĪ
ĠØ§Ùģ ÙĦØ§Ø·
ĠÙħØ¬ Ø§ÙħØ¹
ĠÙħÙĪØ±Ø¯ Ø¹ÙĦØ§ÙĤÙĩ
Ù¾Ø±Ø¯ Ø§Ø²Ùħ
ĠØ¨Ø§Ø²Ø§Ø±ÛĮ Ø§Ø¨
ĠÙĨØ· ÙĨØ²
ĠÚ©ÙĨ Ø¬Ø¯
ĠÙĨ ÙĤÛĮ
ĠÛĮ ÙĪØ§ÙĨ
ĠØŃØ§ÙĦ Ùħ
ĠÙ¾Ø§Ø´ Ø§
ĠØ® ÙĦÙĪ
ĠÛĮØ§Ø¯ Ú¯Ø§Ø±ÛĮ
ĠO ut
ĠÙħÛĮ Ø®ÙĪØ§ÙĩÛĮÙħ
Ù¾Ø±Ø³ ÙĨØ¯
ĠÙħØŃÙģ ÙĪØ¸
ĠØ¨Ú¯ ÛĮØ¯
ĠÚĨÙĨÚ¯ Ø§ÙĦ
ĠØ¨Ø±ÛĮØªÛĮ Ø´
o on
ÙħÛĮ Ø³
Ø¨Ø± Ø®ÛĮ
Ø§Ú© Ø±Ø¯ÙĨ
Ø´ ÙĪÙĤ
ĠÚ©Ø§Ø± Ø§Ø¦
ĠØ§Ø¨ Ø¯ÛĮ
Ø¨Øª Ø§ÙĨ
ĠS amsung
un t
ĠÙħØµØ§Ø¯ÛĮ ÙĤ
ĠÚ¯ÛĮ ÙĦØ§Ø³
ĠØ§Ø¨Ø± ÙĩØ§
ĠØªØ±ØªÛĮ Ø¨ÛĮ
ĠØ§Ø³Øª ÛĮÙĨ
ĠØ¬ ÙĪØ²
Ø®ÙĪØ§ÙĨ Ø¯Ùĩ
ĠØªÙĪØ±ÛĮ Ø³Ùħ
ĠØ§Ø¹Ø¶Ø§ Ø¡
access ed
ĠØ§Ø±ÙĨ Ø³Øª
ÙĪØ± Ø³
ÙĪØ¹ ÙĦÛĮ
Ġm e
ĠÙģØ±ÛĮ ÙĦÙĨØ³
ĠØ±Ø³Ø§ÙĨ ÛĮØ¯
ĠØ§Ø³ ÙĤÙģ
ÙĪØ³ Ø§
ĠÚ©Ø¯ ÙĪ
ĠÚ©Ø§Ø´ Ø§ÙĨÛĮ
ĠÙħÛĮÚ©Ø± ÙĪÙĨ
ĠØ¹ÙĪØ§ Ø·Ùģ
ĠÙĩÙĨØ¯Ø² ÙģØ±ÛĮ
U n
ĠÚ©Ø§Øª Ø§ÙĦÛĮØ³Øª
ĠÙģØ§ÙĨ ÙĪØ³
ĠÚ¯ÛĮ ØªÛĮ
ĠÙĪØ§Ø± ÙĨ
ĠÙ¾Ø±Ø¨Ø§Ø² Ø¯ÛĮØ¯
Ú©ÙĦ Ø¦
ĠÙĨÙĪ Ø³ØªØ§ÙĦ
ĠÙĨØ´ Ø§Ø³ØªÙĩ
ĠØ¨Ø§Ø²Ú¯Ø±Ø¯ Ø§ÙĨØ¯Ùĩ
ĠÙħÛĮØ´ ÛĮÙħ
ĠÙĨ Ø§Ø³ÛĮÙĪÙĨ
Ø® Ø§ÙĦÛĮ
ĠÚ©Ø§Ø± ÙħÙĨØ¯ÛĮ
ĠÙ¾Ø§ÛĮÛĮ Ø²ÛĮ
Ú© Ø§Ø³Øª
ĠÙ¾ Ùģ
Ø§Ú© Ø§Ø±
ĠÙĨØ§ ÙģØ±
ĠL ive
ĠÙħØªØ¶ Ø§Ø¯
ĠØ²ÛĮØ±Ø³ Ø§Ø®ØªÛĮ
ĠÙĪÛĮØ± Ø§ÙĨÛĮ
ĠØ§Ø¯Ø¹ Ø§ÛĮÛĮ
ĠQ HD
ĠÙģ Ø§ÛĮÙĦÛĮ
ĠØ° ÛĮÙĨ
ĠØ®ÙĪØ§Ø³Øª ÛĮØ¯
Ú¯Ø°Ø± Ø§ÙĨÙĨØ¯
ĠÙ¾Ø§ÙĪØ± Ø¨Ø§ÙĨÚ©
ØªÙĪØ³ Ø¹Ùĩ
ĠÙ¾Ø±Ø® Ø·Ø±
ĠØ¬Ø±ÛĮ Ø§ÙĨÛĮ
ĠØ±Ø´ ÙĪÙĩ
ĠÚ© ØªØ§ÙĨ
ĠØ³Ø¨ ÙĤØª
ĠØ¨ÙĩØ¨ÙĪØ¯ ÙĩØ§ÛĮ
ĠØ³ÛĮÙĨ ÙħØ§ÙĩØ§
ÙĨÙĪ Ø§Ø²ÛĮ
ÛĮØ³ Ùĩ
ĠØ¨Ø®ÙĪ Ø§ÙĩÙħ
ĠØ¹Ø²ÛĮ Ø²Ùħ
ĠØ§Ø³Ú©Ø± ÙĪÙĦ
ÙĨ ÛĮØª
ĠÛĮ Ø§Ùħ
ĠÚ©Ø§Ø± Ø¢ÙħÙĪØ²ÛĮ
ĠÙģØ± Ø§Ø¨ÙĨÙģØ´
ĠÙħØ®Ø±ÙĪ Ø·ÛĮ
ĠÚ©Ø§Ø±Ø§Ø¦ ÛĮØ¨
ĠØ§Ø±Ø³ Ø·ÙĪ
ÙħÙĨ Ø³
ĠØ§ÙĤ ÙĦ
ĠÚ©Ø§Ùħ Ø¨ÙĪ
ĠT ime
ĠÚĺØ±Ùģ Ø§ÛĮ
ØŃ Ø«ÛĮ
ĠØ³Ø§Ø² Ø´
ĠÙħØ±Ú© Ø¨Ø§Øª
ĠÛ±Û¹Û³Û ¶
ĠØ¯Ø±Ø® ÙĪØ±Øª
ĠÙħÙĪØ±ÛĮ Ø³
ĠØ§Ø²Ø¢ÙĨØ¬ Ø§Ú©Ùĩ
ĠÚ© ÛĮÙĨÙĩ
ĠÚ¯Ø§Ø² ÙĪØ¦ÛĮÙĦ
ĠÙĩÙĪ Ø§Ø²ÛĮ
ĠÙħØ§ÛĮÙĨ Ø±
ĠØ¨Ø±Ø¢ÙħØ¯ Ú¯ÛĮ
ĠÙĨØ§Ø¨ ØºÙĩ
C L
ĠÙħÛĮ Ø¨ÛĮÙĨÛĮØ¯
Ø§ÙĨØ¯ ÙĨØ¯
ÙĪØª ÙĪÙ¾
ĠÙĩØ§Ùħ Ø¨ÙĪØ±Ú¯
ĠGe Force
g y
Ø¯ ÛĮØ±
ĠØ¬ Ø§Ø²
ĠÙĨÙĪ Ø§ÙĤ
Ú©ÙĪ Ø¨ÛĮ
ĠÛ±Û¹ Û°Û°
ĠÚ¯ ÛĮØ´Ùĩ
ĠØ¨Ø§Ø² ÙĨØ¯Ùĩ
ĠÙħÙĦ ÙĪØ§ÙĨ
ĠO b
ĠII I
G oogle
Ø® ÙĨØ¯ÛĮ
Ø®ÛĮ Ø²Ø¯
ĠÙħÛĮØª ÙĪÙĨÛĮ
ĠØ¨Ú¯Ø° Ø±Ø§ÙĨÛĮØ¯
ĠÙ¾ ÚĨ
ĠÚ¯ ÙĪØ±Ø¯
ĠÙĨÙħÛĮ Ø§Ø¯
ĠØ¬ÛĮ Ù¾
ĠÙģØ±Ø²ÙĨØ¯Ø§ÙĨ Ø´
ĠØ§Úĺ Ø¯ÙĩØ§
ĠÛĮØ¹ÙĤ ÙĪØ¨
Ø´ Ú©ÙĨÛĮ
ÙħÙĨØ¯ Ø§ÙĨÙĩ
ĠØ§ÙĪÙĨ Ø¬Ø§ÛĮÛĮ
ĠÚ©ÙĨØ³Ø±Ø³ÛĮ ÙĪÙħ
ÙĨÚ¯ Ùĩ
ĠØ³Øª ÙĪØ¯Ùĩ
ĠØ³ÛĮÙħ Ø±Øº
ĠÛ±Û¹Ûµ Û²
Ø§ÙħÚ©Ø§ÙĨ Ø§Øª
2 8
ĠÙĩÙħ ÛĮ
ĠØ¨Ø² ÙĨÙĩ
ĠØµÙĪØ±Øª Ø´
ĠØ§ÙĨØ¨ Ø§Ø´Øª
ĠØªØ§ Ø´Ø¯ÙĨÛĮ
ĠÚ©Ø± ÙħØ§ÙĨÛĮ
ĠÙħØ³ ÙĨØ¬Ø±
ĠØ¬ÙĦ Ø§ÙĦÛĮ
ĠÛ±Û¹ Û°
ĠØ§Ø³Ùģ ÙĨØ§Ø¬
2 3
ĠØ¬ÙĨÚ¯ Ø¬ÙĪÛĮØ§ÙĨ
ÙģÙĦ Ø¯
ĠØ¢Ø±ÛĮ Ø§
ĠÙħØ§Ø±Ø´ Ø§ÙĦ
Ġ qu
Ġ5 5
ĠØ§Ø´Ú© Ø§ÙĨÛĮ
Ġmac OS
ĠØ¨Ø±Ùĩ ÙĨÙĩ
ĠØ³Ø±Ø¯Ø± Ú¯Ùħ
ĠØŃ Øª
ĠÙĤØ±Ø§Ø± Ú¯Ø±ÙģØªÙĩ
ĠÙħØ§ÙĦ ØªÛĮ
ĠØ¨ÙĦÙĪ Ø·
ĠÙĨØ¨Ø±Ø¯ ÛĮ
ĠAut o
ĠÙģØ±ÙħÙĪØ¯ ÙĨØ¯
ĠØ§Ø³Øª Ú©Ùĩ
ĠØ¯ÙĪØ³ØªØ§ÙĨ Ùħ
ĠÙħÙĨØµ Ø¨
ĠÙħÙĨØ² ÙĪÛĮ
Ġ ac
ÙĦØ§ Ø´
ĠÛ±Û¸ Û°Û°
ĠØ¯Ø±Ø®ÙĪØ±Øª ÙĪØ¬Ùĩ
Ø¨ ÙĪÙħ
ĠØ³ÛĮ Ø¨Ø±ÛĮ
ĠÙĩÛĮØ¯Ø±ÙĪ ÚĺÙĨÛĮ
ØªÙĦÙģ ÙĨ
Ø§ Ú¯
ØªÙĪÙĨ ÙĨ
ou se
ĠÛ±Û³Ûµ Û¹
Ø§Ø±Øª Ø²
ĠÙĩÙĨÚ¯ ÙģØªÛĮ
Ġ7 00
ÙĨÙĪÛĮØ³ ÙĨØ¯
ĠØ®ÙĪØ´ØŃØ§ÙĦ Ùħ
Øª Ø§Ø±
Ú¯ ÙĨØ¬
ĠM et
ĠÚ©ÙĪÚĨ ÛĮÙĨÚ¯
ĠØ´ÛĮØ± ÙĩØ§ÛĮ
ĠØ¹ÙĨ Ø§ÛĮØª
ĠØ¨ÛĮ Ø§ÙĨÛĮ
ĠÙĤØ· Ø§Ø±ÙĩØ§ÛĮ
ĠA v
iv er
if y
Ġ200 9
ĠSE O
ĠØ³Ø±ÙĨÚ¯ ÙĪÙĨÛĮ
ĠÙĪ Ø±Ø³
ĠØ³ Ø§ÛĮÙĨ
ĠÙĨØ§Ùħ ØªØ¹
ĠØ¨Ø±Ú¯ Ø´ØªÛĮ
at ic
ĠØªØ³ ÙĦÛĮØª
ĠÙħØªØ¹ Ø¬Ø¨
ĠÙĨØ¨Ø± Ø¯ÙĩØ§ÛĮ
ĠØ²Ø±Ø§ Ø¹ÛĮ
ĠEn ter
ĠÙ¾ ÛĮÙĨÚ¯
ĠÙĤ ÙģØ³
ÙĪÙĩ ÙĪØ§ÛĮ
ĠÚ©ÙĪØ¯Ú© Ø§ÙĨÙĩ
un ch
ĠØ¯Ø±Ø¨Ø± Ú¯ÛĮØ±ÙĨØ¯Ùĩ
ĠÙĨØ³ ÛĮÙħ
ĠØ®Ø¨Ø± ÙĩØ§ÛĮÛĮ
ĠÙĨÙģ ÙĩÙħ
ĠØªÚ©ÙĨÛĮÚ© Ø§ÙĦ
ĠØ¨Ø§Ø² Ø·Ø±Ø§ØŃÛĮ
ĠØ¨Øª ÙĨÛĮ
per t
Ø³ÛĮ Øª
ĠØ²ÛĮØ¨ Ø§Ø³Øª
ur es
ĠÙĩÙħØ³ Ø±Ùħ
ĠÙĪÚ© ÙĦØ§
O T
ĠØ· Ø±Ø¯
ĠØ§Ùħ ÛĮÙĨÛĮ
ĠØ§ÙĤØª Ø¨Ø§Ø³ÛĮ
ĠÛ±Û¶ Û°Û°
ĠØ¨Ø§Ø²ÛĮÚ©ÙĨ ÛĮ
ĠÛ±Û³Û· Ûµ
ĠØ¨Ù¾Ø°ÛĮØ± ÛĮÙħ
ĠØ§ÙĨ Ø¬Ùħ
ĠÙħÙĪ ÙĨØ¯
ĠÚ©Ø± ÙĨÙĦ
ĠÙħÙĨ Ø§Ø²
ĠÙħØ§Ùĩ Ú¯ÛĮ
ĠØ§Ø¹Øª ÙħØ§Ø¯ÛĮ
Ø¢ÙĪØ±Ø¯ ÙĨØ¯
ĠØ§Ø·Ø±Ø§Ùģ Ø´
ĠØ¬Ø³ÙĪØ± Ø§ÙĨÙĩ
ĠØ±ÙĪÙ¾ ÛĮÙĩ
Ø³Øª ÛĮÙħ
ĠÛĮ ÙĤ
Ø§Ùĩ Ø±
ĠØ¬ÙĨ ÙĪÙĨ
ĠP ixel
ĠÙ¾ÙĨØ§Ùĩ ÙĨØ¯Ùĩ
ĠØ¨Ù¾Ø°ÛĮØ± ÛĮØ¯
ĠØ± Ø§ÙĨØ¯ÙĨ
ĠØ¨Ø§ ÙĩØ§Ø´ÙĪÙĨ
ĠÙĤØ§ÙĦÛĮ Ø¨Ø§Ùģ
ĠÙĤÙĪØ± Ø¨Ø§ØºÙĩ
ĠÙģ Ú©Ø³
Ú©ÙĪ Ø´Ø¯
ĠÙħØ§ÙĩÛĮ Ø§ÙĨ
ĠÙģØ±ÙħØ§ÙĨØ±ÙĪ Ø§ÛĮ
ĠÙ¾ Ø®ØªÙĨ
ĠÛĮ ÙĪØ´
ĠÙħØ³Ø¦ ÙĪÙĦÛĮØªÛĮ
ĠÙħØ° Ø§Ø¨
ĠÙĤÙĦ Ø§Ø¨
ĠØ±Ø®Ø¯ Ø§Ø¯ÙĩØ§ÛĮ
a u
ĠÙħÛĮÙĦ Ú¯Ø±Ø¯
if ication
ÙĪØ¯ÙĨ Ø³ÛĮ
ĠØ¨ Ú©ÙĨÙĩ
ĠØ® ÙģÙĩ
Øº Ø±Ø¨
ÙĤÛĮ ÙĤÙĩ
Ø§ÙĪØ± Ùĩ
Ø®ÙĪØ± ÛĮÙħ
ĠÛ±Û³Û· Û¸
ĠØ«Ø±ÙĪØªÙħÙĨØ¯ ØªØ±ÛĮÙĨ
ĠÙĨ Ø¨Ø§Øª
ĠÚ©Ø§ÙĦ ÛĮÙĨ
ĠØ¨Ø³ØªØ± ÙĩØ§ÛĮ
ĠØ§ÛĮØ² ÙĪ
ĠØ¨ÛĮ Ø§Ø¨ÙĨØ¯
ĠÙĨØ³ Ø®
ĠØ¯Ø®ØªØ± Ø§ÙĨÙĩ
ĠÚ©Ùģ Ù¾ÙĪØ´
ĠÚ© ÙĪÛĮÙĦ
ÙĦØª ÙĪÙĨ
ĠØ¢ÙĪØ± ÛĮÙħ
ĠÚ©Øª Ú©
ĠÙģØ±Ø³ ÙĪØ¯Ú¯ÛĮ
ĠÙħØ¹Øµ ÙĪÙħ
ĠØŃÙĪØ¶ ÚĨÙĩ
ĠØ¨Ø§ÙĦØ§Ø¯ Ø³ØªÛĮ
ĠØ±Ø§ Ø¬Ø¨
Ø®ÙĪØ§Ùĩ Ø§ÙĨÙĩ
ĠØ´ÛĮ Ø·Ø§ÙĨÛĮ
ĠÙĨÛĮÙħ Ú©Ø±Ùĩ
ĠØ¨ÙĦÙĨØ¯ Ú¯ÙĪÛĮ
Ø³ÙĦ Ø§ÙĨ
ĠØ²ÙĪØ±ÛĮ Ø®
Ùĩ ÙģØªÙĩ
ĠÙĩØ± Ø¬
ĠÙħØ¬ Ø§ÙĦØ³
ĠØªÙĪØ³ Ø¹
ĠØ§Ø³ÙħØ§Ø¹ÛĮ ÙĦÛĮ
Ø® ÛĮÙħ
ĠØ§Ùĩ ØªÙħØ§Ùħ
ĠØ¨Ø¨Ø± Ùħ
l ess
Ø· ÙĨÛĮ
ĠÙĪØ§ÙĨ Ú¯
ĠØ³ÛĮØªØ± ÙĪØ¦ÙĨ
ĠÙħÛĮÚ¯Ø± ÙĨ
Ù¾ ØªÛĮ
ĠÙħÛĮ Ø§ÙħÛĮ
Ø¦ ÙĪØ¯
ĠØ¨Ø±Ú¯Ø±Ø¯ ÛĮØ¯
ĠÛ±Û¹Û±Û ·
ĠØ¹ÙĨ Ø¨ÛĮÙĩ
ĠØ±Ø§ÙĩÚ©Ø§Ø± ÙĩØ§
ĠØ¯Ø§ÙĨØ³Øª ÙĨØ¯
Ù¾Ø±Ø¯Ø§Ø®Øª ÙĨØ¯
ĠÚ©Ø§Ø±Ú¯Ø²Ø§Ø± Ø§ÙĨ
ĠØ¨ Ø·ÙĨ
ĠØª Ø§ÛĮØªØ§ÙĨ
Ø¹ Ø§Ø¯ÙĦ
ĠÛ±Û°Û ·
Ø· ÛĮØ±
ĠØ¹Ùħ Ùĩ
ĠÙħÙĨØª ÙĩØ§
ĠW ear
ĠÙ ¨
ĠØªØ±Ø§ÙĨØ³ ÙģØ±
ĠÙĨ Ø§ÛĮØª
ĠÙĩ ÛĮÙħ
ĠØ¢ ÙĪØ§
ĠØ¬ÙĩØ§ÙĨÛĮ Ø§ÙĨ
ĠÛĮÙĪ ÙĪÙĨØªÙĪØ³
ĠØ§ØªØ§ÙĤ Ú©
ĠÙĨØ²Ø§ Ø¹
r aph
Ø§ Ø¹ÛĮ
ĠØªÙĤØ³ÛĮÙħ Ø§Øª
ĠÙ¾Ø§ÙĨ ÙĪØ±
ĠØ§ØªÙĪØ¨ÙĪØ³ Ø±Ø§ÙĨÛĮ
ĠÙĨØ±ÙĪ ÚĺÛĮ
ĠØ¯ ÙĪØ±Øª
ĠØ´Ø§Ø®Øµ Ùĩ
ĠÂ« Â»
ĠÚ©Ùħ ÛĮÙĨÙĩ
ĠØµØ§Ø¯Ø± Ú©ÙĨÙĨØ¯Ú¯Ø§ÙĨ
ĠiP ad
ĠÙħÙĦØ¨ ÙĪØ±ÙĨ
ĠÙĩ Ø§Ø¨ÙĦ
ĠX Z
ĠØµØ¨ØŃ Ú¯Ø§ÙĩÛĮ
ĠÙĩÙħØ³Ø± Ø§ÙĨ
aw ei
ĠÙ¾ÙĨØª Ø§Ú¯ÙĪÙĨ
ÙĨ ÙĪØª
ĠØ³ ÙħÙĨØ¯
ĠÙĤ Ø±Ø§
ĠØ³Ø± Ú¯Ø°Ø´Øª
ĠØ¨Ø§Ø² Ø±Ø³
ĠÙħØ®Øª ÙĦØ·
ĠS U
ĠM on
ĠØ§Ø³Ù¾ Ùħ
ĠÙħØ´Øº ÙĦÙĩ
Ú©ÙĦØ§ Ø³ÛĮ
ĠÙħØµ ÙĪØ±
ĠØ¨Ø§Ø± ÙĪÙĨ
ĠØ¨ÙĦ Ø±
ĠØ§Ø³ Ø±Ø¹
ĠÛ²Û°Û µ
ĠØ§ÙĪÚ©Ø± Ø§ÛĮÙĨÛĮ
Ú¯Ø± Ø¯Ùĩ
ĠÙĩÙĪÙĦ ÙĪÙĦÙĨØ²
Cl oud
ĠØ·ÙĪØ§ÛĮ Ùģ
ĠÙĨ Ø±Ø³
ĠØ¬ ÙĪÙĨÛĮ
ĠØ§Ø¯ ÙĪØ§Øª
ĠÙĨØ§ Ø¬Ø§
ĠÙ¾ÛĮØ´Ø±ÙģØª ÛĮ
Ø¶Ø± Ø±
ĠÚ©Ø§Ø±ÙĪÙĦÛĮÙĨ Ø§ÛĮ
ĠØ¯Ø± Ø¬Ø§Øª
Ø¬Ùĩ Øª
ut y
Ø´ Ø´
ĠØ´ ÙģÛĮ
ĠØ¢Ùħ Ø§ØªÙĪØ±
ĠÙħØ¯Ø§Ø± Ú©ÛĮ
ĠSp ace
ĠØ¢Ú©ÙĪ Ø§Ø±ÛĮÙĪÙħ
Ø¢ÙħÙ¾Ø±Ø³ Ø§Ø¹ØªÛĮ
ĠØ¨ ÙĪÙĨØ¯
ĠØ±Ø§Ùĩ Ø¨Ø±ÛĮ
Ø§Ø¯Ø± Ø§ÙĨ
ĠØªÙĪÙĦÛĮØ¯ Ø´Ø¯Ùĩ
ĠÚ©ÙĨÙĨØ¯ Ú¯ÛĮ
ĠÙģÛĮÙĦÙħ Ø³Ø§Ø²
ĠÙĦÛĮ ÙĦÛĮ
ĠØ¢Ø± ØªØ²
ĠÚ©ÙĦÛĮ Ø§Øª
ĠØ± Ø´ÛĮØ¯
ĠØ§Ø±Øª ÙĪØ¯ÙĨØ³ÛĮ
ĠÙģØ±Ø¯ Ø§ÛĮ
ĠØ§ÛĮÙĨØ¯ Ú©Ø³
ĠØ¢ÙĨÙģÙĪÙĦØ§ÙĨ Ø²Ø§
l oad
Ø§ÙĨ Ø³Ø§ÙĨ
Ø±ÛĮ Ø¨Ø§
ĠÚĨ Ø§ÙĨ
ĠØ¯ÙĪØ± Ø§ÙģØªØ§Ø¯Ùĩ
' t
ĠØ± Ø¬Ø§ÛĮÛĮ
ĠØ¨Ø±Ø¯Ø§Ø± ÛĮÙħ
ĠÚ¯ ÛĮÙĨÙĩ
ÙħØ§ Ø³Ø¨
ar s
ĠÛ²Û· Û°
ĠÚ©ÙĪ Ø¦ÛĮÙĨ
ĠØ®Ø· ÙĪØ±
ĠØ®ÙĪØ§Ø± Ø²Ùħ
ĠØªØ¹Ø²ÛĮØ± Ø§Øª
ĠÙħØ¬ Ø§ÙĨÛĮ
ĠØ³Ø®Øª Ùĩ
ĠØ¯Ø³ØªÙĪØ± ÙĩØ§ÛĮ
ĠØ¹ÙĪØ§Ø± Ø¶ÛĮ
ĠØ§Ú©ÙĪ Ø§Ø¯ÙĪØ±
ĠÙħÙģÙĤ ÙĪØ¯
ĠÙħØ´Ø§Ùĩ ÛĮØ±
Ø§ÙĨØª Ø²
Ġw e
Ġ3 8
ĠÙĨØ§Ú©Ø§Ø± Ø¢ÙħØ¯
p le
r ing
Ð ¾
ĠØŃ Ø±Ø§Ø¬ÛĮ
ĠØ³Ùģ Ø§ÙĦÛĮ
ĠØ¢ÛĮ ÛĮÙĨÙĩ
ĠØ«Ø±ÙĪØª ÙħÙĨØ¯Ø§ÙĨ
ĠÚ¯Ø±ÛĮ Ø®Øª
ĠÙħ Ø§ÙĦØª
ĠR NA
ĠÙħØ®Ø§Ø· Ø±Ùĩ
ĠÙĨØ± Ú¯Ø³
Ø³ Ø³
ĠÙ¾Ø§Ø± Ú¯ÛĮ
ĠÙĨØµ ÛĮØ±
ĠÙ¾ÛĮØ§Ùħ Ø¯
ĠØªÙ¾ ÙĨØ¯Ùĩ
ĠØ¢ ÙĩÙĨÚ¯ÛĮ
ĠØ¬ÙĦ Ú¯Ùĩ
ĠØ¬ÛĮ ÙĪÙĩ
ĠÙĨØ¯Ø§Ø¯ ÙĨØ¯
ÙĪØ± Ø§ÙĨÛĮ
ĠØ¨ÛĮ Ø§Ø¨Ø§ÙĨÛĮ
Ù¾Ø± Ø¯Ùĩ
ĠÙĨÚ¯Ø§Ùĩ Ø´
ÙĨØ³ Ø¨Øª
ĠØ¨ÙĪ Ø§Ø³
ĠÙħØªØºÛĮØ± ÙĩØ§
ĠÛ¹Ûµ Û°
Ø§ Ø«
ĠØ³Ø± Ú¯Ø±Ø¯Ø§ÙĨ
Ġm y
O L
ĠØŃ Ø§ØªÙħÛĮ
ĠÙ §
ĠÙħØ¬Ø± ÙħØ§ÙĨÙĩ
ĠØªØµÙħÛĮÙħ Ø§ØªÛĮ
ĠÙĨÚ¯Ø° Ø§Ø´ØªÙĩ
yz en
ĠÙĩ Ø§ÛĮÙĨ
ĠÙ¾Ø± Ø³ÛĮ
ĠØ§ÙĨØªÙĤ Ø§ÙĦØ§Øª
ĠÙħÛĮØ®ÙĪ Ø§ÛĮÙħ
ĠÙĩÙ¾ Ø§ØªÛĮØª
Ø´ Ú©ÙĨØ¯
ĠØ¢Ùĩ Ú©
ĠØ§Ø· Ø§Ø¹Øª
ÙĦÙĪ Ù¾
ĠÙģØ¹Ø§ÙĦÛĮØª Ø´
d ate
Ø§ÙĦ ØŃÙĩ
ĠØ¯Ø§Ø± ÙĪÛĮÙĨ
ĠÚ©ÙĪ Ú©ÛĮ
ĠÙĤÙĦÙħ Ø±ÙĪÛĮ
ĠØ¯Ø³Øª ØªØ§ÙĨ
Ú©Ø§Ø± ÙĩØ§
ĠØ¢ÛĮ Ù¾
Ġ %
ÙĪ ÙĦÛĮÚ©
Ø¯ ÙĪØ´
ĠØ¨Ø± Ø§ØŃØªÛĮ
ĠØ¶Ùħ ÙĨÛĮ
ĠØ·Ø±ÛĮ ÙĤÛĮ
ĠØ¨ ÙĪØ²
ĠØ¯ ÙħÛĮ
ĠÙĨÙħ ÛĮØ¯Ø§ÙĨ
Û² Û°Û°
ĠØ¢Ø®Ø± Ø´
H S
ÙĪ Ú©ÙĪ
ĠØ¯ÙĦ ÚĨØ³Ø¨
uc k
ÙĪÙĨ ÛĮÙħ
ÙħØ§ Ø¬
ĠØ§Ù¾ ÛĮ
ĠÚ©Ø§Ø±ÛĮ Ú©Ø§Øª
ĠØ§Ø³ØªØ¹ ÙħØ§ÙĦ
ĠÙĤØŃ Ø·ÛĮ
ĠL ight
ĠÙ¾Ø§ÙĨ Ú©
ĠØ®ÙĪØ¯ Ù¾Ø±Ø¯Ø§Ø²
ĠÙħÙĪ ÙħÛĮ
ĠÙħØ¹ Ø´ÙĪÙĤ
Ø§Ù¾ ÛĮØ´
ĠÙħÙģ Ø§ÙĩÛĮÙħÛĮ
ĠØ¯Ø²Ø¯ Ø§ÙĨ
ĠØªØ²ÛĮÛĮÙĨ Ø§Øª
ĠNet work
ÙĤ ÙĨØ¯
ĠØ§Ø¹ Ø²Ø§ÙħÛĮ
ĠM T
.. .
ĠØ¹Ø²ÛĮ Ø²ÛĮ
ĠØ³ÙĪÙ¾ Ø§Ù¾
ĠØ¨ÙĨ Ø§ÙĩØ§
ĠÙĨÙĩ Ø§ÙĦ
ĠÙħØ³Ø§ÙģØª ÛĮ
ĠCl oud
ĠØ³ÙĦØ¨ Ø±ÛĮØªÛĮ
ÙĨ ØªÛĮØ¬Ùĩ
ÙĨ Ø¨Ø±Ú¯
ĠÙģ Ø§Ø´ÛĮ
Ø±Ø³ Ø§Ø²
ĠÙĪÛĮ ÙĪÙĦÙĨ
ĠØ¨Ø§Ø² Ú©Ø±Ø¯ÙĨ
ĠR AM
ĠØ¯Ø§ÛĮØ±Ú©Øª ÙĪØ±ÛĮ
ĠØ®ÙĪ Ø²Ùĩ
ĠÙĩØ± Øª
ĠÚ©ÙĦÛĮØ³ Ø§ÙĩØ§ÛĮ
ÛĮÙĦ Øª
ĠØ³Ø±Ú© Ø§Ø±
ĠÙĩÙħØ³Ø§ÛĮ Ú¯ÛĮ
ĠØ¯ÙĪ Ø²ÛĮ
ĠÚ©ÙĪ ÙģÙĩ
Ø·ÙĪØ± Ú©ÙĦÛĮ
Ø§Ø¦ Ø¨
ĠØªØŃØª Ø§ÙĨÛĮ
ĠØ±ÙĪØ³ØªØ§ÛĮÛĮ Ø§ÙĨ
Ú¯ ÙħØ§
ĠÚ©ÙĨ Ø³ÙĦ
ĠØ´ÙĩØ± Ø§Ùħ
ĠÚ©Ø§Ùħ Ø±ÙĪÙĨ
ĠØ¨Ø±Ø® ÙĪØ±Ø¯ÙĩØ§ÛĮ
ĠÙħÙĦØ§ØŃØ¸ Ø§Øª
ĠØ¨ Ø¬ÙĨ
Ú¯ Ø§ÙĦ
ĠØ¹ÙĦ ÙħØ§
Û±Û¹Û µ
ĠÙģÙĪ Ø¬ÛĮ
ĠÙĤØ§Ø¬ Ø§Ø±ÛĮÙĩ
ĠØ¢ ÙĦØ§Ø³
ĠØ¨ÛĮ Ú¯Ø§ÙĨ
ro ss
ĠÙħØ³ØªÙħ Ø±ÛĮ
2 7
Ø§ ÙģØ±
ĠÙģ Ø§ØµÙĦ
ĠÙĩÙħ ØªØ§
ĠØ²ÛĮØ± Ú©
Øª Ùģ
ÙĩØ§ÛĮ ÙĪ
ĠØ¢Ùħ ÙĪØ²ÛĮ
ĠØªÙĪØ¬Ùĩ Ø§Øª
ĠØ§Ø³ØªÙģ Ø§ÙĨ
Ù¾ Ø§Ú©
Ú©ÙĨ ÙĪÙĦÙĪÚĺÛĮ
ĠØ¬Ø¯ Ø§ÙĦ
ĠÚ¯ÙģØª Ú¯ÙĪÛĮÛĮ
ĠØ¶ ÛĮØ§
ĠØ¬Ø² ÙĪÙĩ
ĠÙĪØ¸ Ø§ÛĮ
ĠØ§ÙĨØ¬ ÛĮØ±
ĠÙģØ±Ø²ÙĨØ¯Ø§ÙĨ Ø´Ø§ÙĨ
ĠÙĨÛĮÚ© ÙĦØ§Ø³
end s
ĠÛ±Û³Û² Û°
ĠÛĮÙĪÙĨÛĮ ÙĪØ±
ĠØ§Ø³Ù¾ Ø±Ø³
Ø²ÛĮÙħ Øª
ĠÚ©Ø§Ø± Ø¢Ú¯Ø§Ùĩ
ĠP ay
Ú¯Ø°Ø§Ø± Ùħ
Ġh t
ĠÛ±Û¹Û±Û ¹
ĠØ®ÙĪØ§Ø¨ÛĮ Ø¯Ùĩ
Ø«ÙĤ ÛĮÙĦ
Ø¯ÛĮ Ú¯Ùĩ
ĠØ¶ ÙħÛĮØ±
Ø³ Ú¯ÛĮ
ĠÙħØ¯ÛĮØ± ÛĮ
ĠÙĨØ§Ù¾Ø°ÛĮØ± ÛĮ
A A
E E
âĢ Ķ
Ø¸ Ø§Ø±
ĠØ· Ø§ÙĦØ¨ÛĮ
ĠÚ©ÙĦ ÙĪØ¯
ĠØ´ÙĨ ÙĪØ¯
ĠØ¨Ø§ÙĤ Ø±ÛĮ
Ø§ ÚĺÙĩ
ĠØ³ÛĮØ³ØªÙħ Ø§ØªÛĮÚ©
ĠØ§Ø¬ØªÙħØ§ Ø¹Ø§Øª
ĠØ³ÛĮØ§Ø³Øª ÛĮ
ÙĦ Ø§ÛĮÙĩ
ĠØ® Ø§Ø²ÙĨ
ĠØ´Ø±ÙĪ Ø·
ĠØ§ØµÙĦØ§ ØŃÛĮ
ĠØ¢Ø±ÛĮ Ø§ÛĮÛĮ
Øµ ØŃ
ĠØ¬ ÛĮÚ©
ĠØ§Ø®ØªØ±Ø§ Ø¹Ø§Øª
ĠØªØ±Ø´ ØŃØ§Øª
ĠÙĨÙ¾Ø°ÛĮØ± ÙģØª
ĠØ¹ÙĨ Ø§ØµØ±ÛĮ
ĠÚ©Ø± Ø²ÛĮ
ĠØ¨Ø§ÙĨ ÙĪ
ĠÚ©Ø§ Ø¬
ĠÙģÛĮØ²ÛĮÚ© Ø¯Ø§ÙĨ
ĠPh one
ĠØªØ±Ø§ÙĨØ²ÛĮØ³Øª ÙĪØ±
ĠØºÙĪ Ø·Ùĩ
Ø² ÙĪ
Ú©Ø§Ø± Ø±ÙģØªÙĩ
ĠØ¯ÙħØ§ ÙĩØ§ÛĮ
Ú¯ÛĮØ± ÙĨ
ĠÙ¾ÙĪØ´ ÛĮ
ĠØ¬Ø§ÙĪØ§ Ø§Ø³Ú©Ø±ÛĮÙ¾Øª
ĠØ±ÙĨØ¯Ø± ÙĩØ§ÛĮ
ĠÙģØ±ÙĩÙĨÚ¯ÛĮ Ø§ÙĨ
+ +
u z
ĠØ¢ÛĮ Ù¾Ø§Ø¯
ĠØ§ÙĪ Ø³ØªØ§
ĠØ±ÙĤØ§Ø¨Øª ÙĩØ§ÛĮ
ĠÙĦØ§ Ø§ÙĤÙĦ
Ù¾ Ø³Ø±
ĠØ§Ø¨ÙĪ Ø§ÙĦÙģ
ĠÛ±Û±Û ´
ĠØ®Ø¯ Ø´Ùĩ
ĠØ¢ÙħÛĮ Ø²Ø´
ĠØ§Ø³ØªØ±ÛĮ ÙĪ
Ø¨ Ø²
ĠÙĩ Ø±Ø§
ÚĨ ÙĨÚ¯
ĠS T
ĠS ch
ĠØ¬ÙĩØ§ÙĨ Ú¯ÛĮØ±ÛĮ
ĠE C
ĠÙħÛĮØ®ÙĪ Ø§ÛĮ
ĠÛ±Û¹Û³Û ³
ĠÙħØ§Ú© Ø³ÛĮÙħ
ĠAr t
ĠØ¢ÙĨÙģÙĦÙĪØ§ÙĨ Ø²Ø§
Ø§Ùħ Ø²
ĠØ§Ø¹ØªØ¨Ø§Ø± Ø³ÙĨØ¬ÛĮ
ĠØ§Ø¯ÛĮ Ø¨
r en
ĠÙħØ° Ø§ÙĩØ¨
it or
ĠØ§ÙĨØ¯ÛĮØ´ ÛĮØ¯Ùĩ
ĠØªØ´ÛĮ ÛĮØ¹
ĠØªÛĮÙĪÙĨ ÛĮÙĨÚ¯
Ø¨ ÚĨÙĩ
ĠØ³Ø¤ Ø§ÙĦÛĮ
ĠÙģÙĦÙĪØ± Ø§ÙĨØ³
ĠØ¨Ùĩ ÙħÙĪÙĨ
ĠÚ©Ùĩ Ú©ÛĮ
Ø¶ ÙĪÛĮ
ĠC M
ĠÛ±Û¹Û³Û ¸
ĠØ¨ÙĪØ§Ø³ Ø·Ùĩ
Ø« Ø¨Øª
Ø§ÙĨØ¯ ÛĮØ´ÛĮ
ĠØ¹Ø¨ ÙĪØ±ÛĮ
ĠÙģÙĪØ± Ø³
Ø§ÙĨØ¯ÛĮÙĨ Ø§ÙĪÛĮ
ĠØª ÛĮÙĨ
ĠØ§Ø± Øº
ĠÙ¾Ø±Ø³ Ø´ÛĮ
ĠØ«Ø§ÙĨ ÙĪÛĮ
Ø¶ ÙħÙĨ
ÛĮÙĨÛĮ ØªÛĮ
ĠÙħÙĪØªÙĪØ± ÙĩØ§
ĠØ¢Ø±Ø³ ÙĨØ§ÙĦ
ÙĪÚ¯Ø±Ø§Ùģ ÛĮÚ©
Ùħ ÙĪØ±Ø¯
ÙĪØ± Ø§ÛĮ
ĠÛ±Ûµ Ûµ
ĠÛ±Û°Û ¶
ĠDes ign
ĠØ§Ø³Øª ÙĪÙĨÛĮ
ĠØ¢Ùħ ÛĮÙĨÙĩ
ĠØ´ÙĪ Ø®
Ùĩ Ùĩ
ĠØ§Ø³Øª Ø§Øª
ĠØ²Ø± ÙĤ
Ø¨ ÙĨØ²
ĠØŃ ÙĪØ²
ĠA b
ĠÙħÚ©Ø²ÛĮ Ú©ÛĮ
Ø® Ø±Ø§Ø´
ØŃ Ø¯ÙĪØ¯ÛĮ
Ø§Ú© ØªÛĮÙĪ
Ø±Ùĩ ÛĮØ²
ĠØ§Ú© ØªÛĮ
ĠØ¯ÛĮÚ©Øª Ø§ØªÙĪØ±ÛĮ
p ro
ĠÙĨ Ø±ÙģØª
ĠØ¯ÙħÙĨ ÙĪØ´
ĠÙĪ Ø±Ø§Ø«
ÙĨØ§ Ù¾Ø°ÛĮØ±ÛĮ
ĠØªØµÙĪÛĮØ± Ø³Ø§Ø²ÛĮ
ĠÙħØ§ÛĮ ÙĦÛĮ
ĠÛĮØ§Ø²Ø¯Ùĩ ÙħÛĮÙĨ
ĠØ¨ Ø³Ø±
ĠØª Ø¨Øª
s on
Ø±Ø§ Ø·
ĠÙĨÛĮØ² Ùĩ
ĠØ§Ø¯ ÙĪØ§Ø±
Û· Û·
ĠØ§Ùĩ ÙĦÛĮ
ĠØ¨Ø± Ø¯Ùħ
ĠØ³Ø§ÙĦ Ø§Ø±
ĠØ¹Ùħ ÙĪÛĮ
Ġ[ [
ĠWW DC
Ø§ÙĨ Ø¬
ĠÚ© ÙĪØ²Ùĩ
ĠÙħÛĮ Ø±ÙģØª
ÛĮØ§ Ø·ÛĮ
ĠÙĨÙħÛĮ Ú©ÙĨÙĩ
ĠÙģØ±Ø¯ Ø±ÛĮÚ©
ĠÙħØ³Ø§ÙģØ± Ø§ÙĨÛĮ
ĠØ¨Ø§Øº Ø§Øª
ĠØªØ¯Ø§Ø± Ú©Ø§Øª
a us
Ú¯ Ø±ÙĪ
ĠØ²ÛĮØ± Ø¨ÙĨ
ĠÙĨØ§Øª ÙħØ§Ùħ
ĠÛĮÙĪÚ¯ Ø³ÙĦØ§
ĠØ·Ø§Ùĩ Ø±ÛĮ
ĠØ±Ø¦ÛĮ Ø³ÛĮ
r or
Ùħ Ø§Ø¯Ø±
ĠÚ©ÙĦÛĮ Ø¯ÙĩØ§
ØªÙĤ Ø±ÛĮØ¨Ø§
ĠØ± Ø¦
ĠØ¨Ø±Ø§ÛĮ Øª
ĠØ¨Ø§Ø² Ø¯Ø§Ø±ÙĨØ¯Ùĩ
en n
ĠØ¯Ø±Ø¢ ÛĮØ¯
id ge
ĠJ ava
ĠØ®ÙĪØ¯Ùħ ÙĪ
ĠØ¹Ø¯ Ø³ÛĮ
ÙħØŃ ÙħØ¯ÛĮ
ĠØºÛĮØ±ÙħØª ÙħØ±Ú©Ø²
ĠÙĪ Ø±Ø§
Ø¬Ùĩ Ø§ÙĨ
ĠÚ¯ÙģØª Ø§Ø±ÛĮ
ĠÚ©ÙĦ Ø§Ø±Ú©
ĠØ¯Ø² ÙģÙĪÙĦ
ĠØ²Ùħ Ø§Ùħ
ĠØ§Ø³Ú© Ø§ÙĨØ¯ÛĮÙĨØ§ÙĪÛĮ
ĠØªÙģØ± Ø¬
ĠÙĦ ÙĪÙħ
ĠØ¬ÙĨ Ø§ÛĮØ§Øª
ĠØ´Ø¹ Ø§Ø±ÙĩØ§ÛĮ
ĠØ¨Ø´ Ø±Ø¯ÙĪØ³Øª
Ø±Øª Ø¨Ùĩ
ĠÙħØªØ£ Ø«Ø±
ĠØ¨ Ù¾Ø²
ĠØ±Ø§Ø¯ÛĮ Ø§ØªÙĪØ±
ĠØ§Ø² Øª
ĠÚ¯ ÙĪØ³
ĠØ¨Ø¯ Ø¨Ø®ØªÛĮ
ĠÙħØ¬ ÛĮÚ©
ĠÛ±Û³Ûµ Û¶
ĠØ¬Ø± Ø«ÙĤÛĮÙĦ
ĠØ¯ÛĮØªØ± ÙĪÛĮØª
ĠØ¬ ÙĪÛĮØ§
ĠÙĤØ³ Ùħ
Ġ3 3
le d
ĠØŃ ÙĦØ¨
ĠÙĦ ÙĪØ¨
ĠÙħØ¹ Ø¯ÙĪØ¯ÛĮ
ĠØ§Ø® ÙĦØ§ÙĦ
ĠØ¨Ø±Ú¯ Ø²
ĠØ¹ÙĦÛĮ Ø²Ø§Ø¯Ùĩ
et er
Ø§ Ø´Ø§ÙĨ
ÙĨ ÛĮØ±
Øª Ø±Ø¯
ĠØ³ Ø§Ø·Ø¹
ĠØ³ÛĮÙĦÛĮÚ© ÙĪÙĨÛĮ
ĠØ§Ø¨ÙĩØ§Ùħ Ø§Øª
ĠØ³ÙħÛĮÙĨ Ø§Ø±
b ack
ĠØ¨Ùĩ Ø²Ø§Ø¯
ĠÚ¯ ÙĦÛĮÚ©
ĠA g
ĠÙħØ³Øª Ø§Ø¬Ø±
ĠØ¹Ø´ Ø§ÛĮØ±ÛĮ
ĠÙĨ Ú¯ÛĮÙĨ
ÙģØ± ÙĩÙĨÚ¯
Ø§Ù¾ ÙĦ
ĠØ§Ø® ÙĪØ§ÙĨ
ĠÙ¾Ø§Ø³ Ø§Úĺ
ĠMal i
ĠÙĨÙģØ± ÛĮÙĨ
ĠDe ad
ĠO ff
ĠØ§Ø³ÙĨ Ø§Ø¯ÛĮ
if ic
ĠØ¹Ø· Ø³Ùĩ
ÙĨ Ø´Ø±
Ø§Ùħ Ú©
ĠÙħØ¯ ÙģÙĪÙĨ
ĠØ³ÙĪ Ú©Øª
Ø§ÛĮÙĨ Ú©Ùĩ
ĠÙĦØ§ Ø¬
ĠØ§Ø´Ú© Ø§ÙĨÛĮØ§ÙĨ
ĠØ¨Ø¯ÛĮ Ø¹
ĠÙĨ Ú¯ÙģØªÙĩ
ĠH el
ĠØ´Ø§Ø± ÙĪÙĨ
ĠØªØ±Ø¯ ÛĮØ¯ÛĮ
ĠØ²ÙĪÙħ Ø¬ÛĮ
ĠØ¨Ø´ Ú©ÙĨØ¯
Û´ Û²
ĠÙ¾Ø¯Ø± Ø§ÙĨ
ĠØ¨Ø§ÙĪØ± ÙĩØ§
ÙĨ Ú©ØªÙĩ
ĠØ¢ ÛĮØ¯ÛĮ
ĠØ§Ø³Øª Ùĩ
ĠØªØ± ÙĨ
ĠØ¨Ø§Ø± ÙĩØ§ÛĮ
Û¸ Û¸
ĠÙĩÙĨØ±ÙħÙĨØ¯ Ø§ÙĨÛĮ
Ø±Ø§ ÙĪØª
ĠØ· ÛĮØ¨
ĠC he
ĠØ§ÙħÛĮØ± ØŃØ³ÛĮÙĨ
ĠÙħØªØ±ÙĪ Ú©Ùĩ
ĠØ´Ú©ÙĪ ÙģØ§
ĠÙ¾Ø±ÙĪØ³Øª Ø§Øª
ĠØ¬ Ø§Ø±
ÙģØ± Ø§Ø²
ĠÙĤØ± Ø¶Ùĩ
ĠÛ¸ ÛµÛ°
ĠÙĨØ²Ø¯ÛĮÚ© ØªØ±
ĠØ±Ø§ Ø³ÙĦ
ÙĦÛĮ ØªØ±
ĠÙģØ± Ø¹
Ø§ÙħÙ¾ ÙĪØ±
ĠØ®Ø±Ø§ Ø³Ø§ÙĨÛĮ
ĠØ¢Ø´Ú©Ø§Ø± Ø§
ĠØ¨Ø´ÙĨØ§Ø³ ÛĮÙħ
Ø¶ ÛĮÙĩ
ĠÙħØ®Ø§Ø¨ Ø±Ùĩ
ĠØ¨Ø±Ùĩ Ø§ÙĨ
ĠÙ¾Ø§ØªØ± ÛĮÚ©
ĠØ§Ø³ØªØ±ÙĪ ÚĺÙĨ
ĠØ¹ ÙĨØ§ÙĨ
ĠØ±ÙĪØ´ÙĨ ÙģÚ©Ø±Ø§ÙĨ
ĠÛ±Û´ Ûµ
ĠRe al
ĠØµØ¯ Ø±Ø§Ø¹
ĠØ®ÙĪØ±Ø¯ ÙĨØ¯
ĠØ²Ø±Ùĩ ÛĮ
ĠØªÙĪØ±Ø¨ÙĪØ´Ø§Ø±Úĺ Ø±
ĠØ§Ø¬Ø²Ø§ Ø¡
ĠÚ©Ø§ÙĨØªÛĮÙĨ Ø±
Ø¨Ø§ Ø®
ent s
Ø¬ÛĮÙĨ Ø§ÙĦ
Ú¯Ø°Ø§Ø´Øª ÙĨØ¯
ĠØ§Ø³Ù¾Ø§ÙĨ Ø³Ø±
Ú©Ø± ÛĮÙħ
ĠÙĪÛĮØ± Ø§ÙĨÙĩ
ĠÛ²Û¸ Û°
ĠØ§ÙĪÙ¾ ÙĨ
ĠØ§ÛĮÙĨ Ø³
ĠØµ Ø§ÙģÛĮ
ĠÚ©ÙĪ Ù¾
Ø±Ø¨ Ø·
ĠÙĪÙĦÛĮ Ú©ÙĨ
O D
ĠÙĪ Ú¯Ø§Ø³
ĠØ¢ÙģØ± ÙĪØ¯
âĢĮ ÙĶ
ĠÙħÛĮ Ø²Ø¯
ĠØ¹ Ø²ÙĦ
ĠÙĦ Ø¦ÙĪ
ĠØªÙĨ Ø²ÙĦ
ĠØ§Ø¯ Ø§
ĠÛ±Û¶ Ûµ
ĠÙħØªÙĤ Ø§Ø±ÙĨ
ĠÚ©Ø±Ø§ÛĮ Ø³ÙĦØ±
Ø³Ø§ÙĦ Ø§ÙĨ
ĠC ode
ĠÙĩÙħØª Ø§ÛĮØ§ÙĨ
ĠØ±ÙħØ²Ø§Ø±Ø² ÙĩØ§
ØŃ ÙħØ¯
Ú©Ø± Ø¯ÙĩØ§
ĠØ±Ø§ÛĮØª ÙĦ
ĠØª Ø§ÙĦØ´
ĠÙħÙĪ ØµÙĦ
Ø¢ ÙĤØ§ÛĮ
ĠÙħÛĮØªÙĪÙĨ ÙĨ
ĠØ§ÙĨØ² ÙĪØ§
ĠÙħØªÙģØ± ÙĤÙĩ
ĠØªØŃ Ø±ÛĮÙģ
ĠÙ¾ÙĦÛĮ Ø³ÛĮ
Ú¯Ø§ ÙĪØ§
ĠÙ¾ Ø§Ø´ÛĮ
ĠB ro
ĠÙħØŃÙħØ¯ Ø¨Ø§ÙĤØ±
b it
Ùĩ ÙģØª
Ø³ Ú©Ùĩ
ĠÙ¾ Ø±ÛĮØ²
ĠØ§Ø³ Ø¯ÛĮ
ĠÙħØ§Ø¯Ø± Ø²Ø§Ø¯ÛĮ
ĠØ¯Ø±Ùĩ ÙħÛĮÙĨ
ĠÛ±Û¹Û³Û ·
ĠØ¨Ø± Ø¢ÙĪØ±Ø¯ÙĩØ§ÛĮ
ĠÚĨ ÛĮÙĦ
Ø¨Ø§ ØªØ±ÛĮ
ĠÙĦÛĮ ØªÙĪØ§ÙĨÛĮ
ĠÙħØªÙĪØ³ ÙĦ
ĠÛ±Û³Û· Û·
att le
ĠÙĨ ÙĪÙĨ
ĠÙħØ¹Ø§ ÙĪÛĮÙĩ
ĠÚ¯Ø°Ø§Ø´Øª ÛĮÙħ
ĠÛ³Û¶ Ûµ
ĠØ¨Ø° Ø§Ø±ÛĮØ¯
ĠÙĩÛĮ Ø³Øª
Ø§Ø³ÛĮ Ø§
ĠØ¹ÙĦØ§ Ø¡
ĠØªÚ©ÙĨ ÙĪÙĦÙĪÚĺÛĮÚ©
ĠØ¯Ø±ÛĮ Ø§ÙĩØ§
Ġw ill
ÙĪ ÙĤÙĩ
ĠØ¯ Ø§Ø¯ÛĮ
ĠØª ØªØ±
ĠØªÙĪØ³ ÙĦ
ĠØ±Ø®Øª Ø®ÙĪØ§Ø¨
ĠÙ¾Ø§Ø¨Ø± Ø¬Ø§
Ø±ÙĪ Ø¨ÛĮ
ĠØµ Ø±Ø¹
ĠÚ©Ø± Ø§ÙĨ
ĠØ¯ÛĮÚ¯Ø± Ø´
ĠÚ©Ø§Ø±ÛĮ Ø²
ĠØ¢ÙĨØª Ø§ÙĦÛĮØ§
ĠØ¯ÙħÚ©Ø± Ø§ØªÛĮÚ©
ĠØµÙĩÛĮÙĪÙĨÛĮ Ø³ØªÛĮ
ĠØ¯ÙĦ ØªØ§
ĠØ§Ø³ØªÚ©Ùĩ ÙĦÙħ
Ù¾ Ø´ØªÛĮ
ĠØ¹ Ø¯Ø³
ĠØ¨ÙĪØ¯ Ø§
ĠÙ¾Ø´ ÛĮÙħ
ĠÚ©ÙĨØ¯ ØªØ±
ĠØªØ±ÛĮ ÙĦ
Ø·ÙĦ Ø¨Ø§ÙĨ
ĠÙħÛĮÙĩ ÙħØ§ÙĨØ§ÙĨ
Ä ģ
Ø¯ ÙĤØª
ĠØ¨ Ø´ÛĮ
Ú¯ ÙĪØ±ÛĮ
ĠÙħØŃ Ø§ÙĦ
Ø§ÙĨØ¯ Ø±Øª
ĠØ§ÙĪ ÙĩØ§ÛĮÙĪ
Ø¢ ÙģØª
ĠØ§ÙĦÚ¯ÙĪØ±ÛĮØª ÙħÛĮ
ĠØ§Ø³ØªØ§ÛĮÙĦ ÙĪØ³
ĠÙ¾ Ø§Ùħ
Øµ Ø¯ÛĮ
ĠÙĪØ§Ø± Ø«
ĠÙ¾Ø±ÛĮ ÙĪØ¯
ÙĪØ³ Ú©
d u
ar ge
ĠH ot
ĠÚ©ÙĦØ§Ùĩ Ú©
ĠÛ±Û±Û ·
ĠØ±Ø§Ùħ Ø³Ø±
ĠØ¨Ùĩ Ø±ÙĪØ²
ĠØªØ± Ø§Ùħ
ĠÛ²Û°Û ¶
ĠR yzen
ĠÙĤ ÙĨØ¯Ùĩ
ĠØ¨ÛĮ Ø²ÙĨ
ĠØ¢Ú© ÙĪØ±Ø¯
r is
ĠØ® ÛĮÙĦ
ĠØ§Ùħ ÙĪØ²
ĠØ¨Ø±Ø® Ø·
Ø¬Ø§ÛĮ Ø¨
ĠØ¯Ø±Ùħ ÙĤØ§Ø¨ÙĦ
ĠØ¨Ø§ÛĮ Ú¯Ø§ÙĨÛĮ
ĠPro ject
Ù¾ÙĨ Ø§Ùĩ
ĠØ®ÙĪÙĨØ¯ Ùħ
a j
ĠØ² ØŃÙĦ
ĠÚ©Ø§Øª Ø§ÙĦÛĮØ²
c ul
Øª Ø¬Ø±Ø¨Ùĩ
Ø´ ÙĨÛĮ
ĠÙģ ÙĦØ§Ø³
Ġi f
ĠÙĪ Ø¬Ø¯
ĠÚĨ Ø§ÙĨÚ¯
ĠÙħØªØ¹ Ø§ÙĤØ¨
Ú¯Ø±ÙģØª Ùħ
ĠÛ²Û¶ Û°
ĠØ¯Ø¹Ø§ ÙĪÛĮ
ĠÙħØ§Ø± Ù¾ÛĮÚĨ
7 2
ĠØ®Ø± Ø§Ø¨Ùĩ
ĠØ±Ø® ÙĨÙĩ
ÙħØ® Ø§Ø·
ÙĪØ² ÛĮØ±ÛĮ
ĠØ³Ø±ÛĮ ÙĦØ§ÙĨÚ©Ø§
at ter
ĠØ¢ÙĦÛĮ Ø³
ĠÙĨØ¸Ø± ØªÙĪÙĨ
Ø§Ø¦ ÙĤÙĩ
ĠØªØ¹Ø¯ Ø¯
ĠÙħÙĪÙĨ ÙĪ
ĠØ¨Ø¯Ùĩ Ú©Ø§Ø±
ĠÙ¾ÛĮØ´ ÙģØ±Ø¶
ĠÙħØ§ÛĮ ÙĨÛĮÙĨÚ¯
ĠØ®ÙĪØ´ÙĨ ÙĪÛĮØ³ÛĮ
ĠØ´ÛĮ Ø¹ÛĮ
ĠÙħØ³Ùħ ÙĪÙħ
ĠØ§ÙĦ Ú©ÛĮ
ÙħÙĦ Ø±
ĠØ¨ÚĨ Ú¯ÛĮ
Ú¯ Ø´Ø§
ÙĦÛĮ Ø³Øª
ĠÚ©Ø± Øª
ĠØªÙĨ Ú©Ø§Ø¨
ĠØŃØ¯ Ø§ÙĤÙĦÛĮ
ĠÙĦØº Ø²Ø´
ĠÙģØ§Ú©Ø³ Ú©Ø§ÙĨ
ĠØ®ÙĪÛĮØ´Ø§ ÙĪÙĨØ¯
ĠÙĨØ¨ÙĪ Øº
ĠÙħÛĮ Ø²ÙĨØ¯
ĠØ§Ø® Ø±
ĠØ¨ ÙĪÛĮÛĮ
ĠØ· ØºÛĮØ§ÙĨ
ĠÛĮØ§Ø¯ Ø´
ĠØ§ÙĨØªØ¸Ø§Ø± Ø´
ĠÙħØ¶ Ø§ÙħÛĮÙĨ
Ø§ØŃØªÙħØ§ÙĦ Ø§
ĠØ§ÙĤÛĮØ§ÙĨÙĪØ³ÛĮ Ùĩ
ĠÚĨ Ø§
ĠÛ±Û´ Û´Û°
ĠHT TP
ĠÛ±Û³Û¶ Û·
ĠØµÙĦÛĮØ¨ÛĮ ÙĪÙĨ
Q u
Ùħ Ø±Ø§
ĠÚĨ Ø±Ú©
ĠÙĨÛĮ ÙĪÙħ
ĠØ±ÙĪØ§ÙĨ Ø´ÙĨØ§Ø³Ø§ÙĨ
oc al
ĠÙħÙĨÙĩ ØªÙĨ
ĠØ¯ÙĦ ÙħÙĩ
ĠÛ²Û°Û ³Û°
ĠÙĩØ§Ø´ ÙĪÙĨ
Ù¾Úĺ ÙĪÙĩ
ĠØ± Ú¯Ùĩ
ĠØ¨ÛĮ Ø§ÙĨØ¯Ø§Ø²Ø¯
ĠØ° Ø§ØªØ§
ĠØ¬Ø§Ø¯ÙĪ Ú¯Ø±
Ø§ÛĮ Ú©
ĠØ±Ø§ Ú©ØªÙĪØ±
ĠÙĦ ÙĪÙĦ
ĠÚ©Ùħ Ø±ÛĮ
ĠØ¨ØŃØ« ÛĮ
ĠÙģØ±Ú© Ø§ÙĨØ³ÛĮ
ĠÙģØ±Ùĩ Ø§Ø¯ÛĮ
ĠÚĨ Ú©Ø´
Ø¦ ÙĪÙħ
Ø±Ø³ Ø§ÙĨÙĩ
ĠØ§Ù¾ Ø±Ø§ÛĮ
ĠØ¬ÙĨØ¨ Ø´ÛĮ
Ø§Ùĩ ÙĦ
ĠØ§Ø³ØªØ§ÙĨØ¯Ø§Ø±Ø¯ ÛĮ
ĠØ§ÙĦÚ¯ÙĪ ÙĩØ§
ĠØ´ÙĨÛĮØ¯ Ø§Ø±ÛĮ
ĠÙĪØ¸Ø§ÛĮ ÙģÛĮ
ĠØ¯ÙĪ Øº
ĠØªØ¨ÙĦÛĮ ØºÛĮ
ust om
ĠÙ¡Ù£ Ù©
ĠØªØ±Ø§ Úĺ
ĠÙ ¦
Ġ9 6
ĠÙĤØ´ ÙĤØ§ÛĮÛĮ
ĠØªØŃØ±ÛĮØ± ÛĮÙĩ
ĠØ¨Ø§Ø± Ø¨Ø±ÛĮ
Ġt ime
ĠØ§ÛĮØ³Øª Ø§Ø¯Ú¯ÛĮ
ĠÛĮÙĪÙĨ Ø§ÙĨÛĮØ§ÙĨ
ĠØ´Ø§Ø¯ Ø§Ø¨ÛĮ
ĠÚ¯ÙģØªÙĨÛĮ Ø³Øª
ĠÛ±Û³Û´ Û°
ĠÙħØªØ¨ ÙĪØ¹
Ùħ Ø§Ø±Øª
Ú© Ø±Ø§Ø³ÛĮ
Ø¬ ÛĮÙĨÛĮ
ĠÙĩØ± ÚĨÛĮØ²
ĠØ¢Ø¨ ÙĩØ§ÛĮ
ĠØ§ÙĤ ØµÛĮ
re ak
ĠÚ© Ø³Øª
ĠØ¨Ø± Ú©ÙĦÛĮ
ĠÙ¾Ø± ÙĪØ±
ĠC le
ĠØ±ÙĪÙĨØ¯ ÙĩØ§ÛĮ
ff ect
ĠØ± Ø§ÙĦÛĮ
ĠÙħØ±Ø§ ØŃÙĦÛĮ
Û´ Û¶
ĠÙħØ³Øª ÙĤÙĦÛĮ
ĠÙħØªØŃ Ø¯Ø§ÙĨØ´
ĠØ¨ÙĪÛĮ Ø§ÛĮÛĮ
ĠCO VID
ĠØ²ÛĮØ±Ø¨ÙĨ Ø§ÛĮÛĮ
ĠØ¢ÙĨ Ø§ÙĦÛĮØªÛĮ
ĠÙĦ ÙħÛĮÙĨ
ĠØ¹ÙħÙĦ Ú¯Ø±
ĠØ¨ÙģÙĩÙħ Ø¯
ĠØ¢ÙĦØ§Ø³ Ú©Ø§
ĠÚ© Ø§ÛĮØ±
ĠÙĦÙĪ Ø§ÛĮ
ĠØ¨Ø±Ø¬ Ø³ØªÚ¯ÛĮ
ĠÚ©ÙĨ Ø¬
ag ement
ĠÙħÛĮÙĨ Ø§
Ø§ÙĨØ¯Ø±Øª Ø§ÙĦ
ĠÙĩ Ø§Ø±Øª
ĠÚ¯ÙĦ Ø§Ø¨ÛĮ
ĠØ³Ø§Ùħ ÙĪØ¦ÙĦ
ÚĨ Ø³
ĠØ§ÛĮ Ùĩ
ĠÚ¯ÙĪØ´ Ø²Ø¯
ĠÙħØ¨ Ø§Ø¯ÛĮ
ĠØ§ÙģØª Ø§Ø¯Ú¯ÛĮ
ĠÙħØ¹Øª ÙħØ¯
ĠMus ic
ĠÙħÛĮ Ø¨ÛĮÙĨÛĮÙħ
ĠÙħÙĪ ÙĩØ§ÛĮØªØ§ÙĨ
ĠÙ¾ÙĪ ÚĨ
ĠÛ±Û¹Û² Û¹
ĠÙĩÙħØ¬ ÙĪØ§Ø±
ĠØ§Ø±Ú¯Ø§ÙĨÛĮ Ø³Ùħ
ĠØ¯ÙĪÙ¾ Ø§ÙħÛĮÙĨ
ĠØ´ ÙĦØ§ÙĤ
Ø¨Ø§ÙĨ ÙĪ
Ġ3 1
ĠÚ©ÙĦÛĮØ¯ ÙĪØ§ÚĺÙĩ
V D
ĠÚ©Ø´ÙĪØ± Ø´Ø§ÙĨ
ĠØ´ÙĪ Ú©Ùĩ
ĠØ¬ÛĮ Øº
ĠØ§ÙĪ Ø³
ĠÙħØªÙĪ ÙģÛĮ
ĠÙģÛĮÙĦØªØ± ÙĩØ§
ĠØ¬ÙħÙĦ Ø§ØªÛĮ
4 8
Ø§ÙĨØ¯ Ø§Ø®Øª
Ú©ÛĮ Ø§ÙĨ
ĠØ¢Ø¨ Ú¯Ø±Ùħ
Ġb l
ĠÙĪÙģ Ø§Øª
ĠØ±Ø³ÙĪØ¨ Ø§Øª
ÙħØŃØµ ÙĪÙĦ
ĠÚ¯ Ø§Øª
ĠÙĨØ´ ÙĨÛĮØ¯Ùĩ
ĠÙ¾ÙĪ Ú©ÛĮ
ĠØªÙ¾ Ø³ÛĮ
ĠÙĩÚ©Ø± ÙĩØ§ÛĮ
c he
ĠB ar
ĠÙĪ Ø§ÙĨÛĮ
Ù¾ Ø³Øª
ĠØ§Ø¯ ÙħÛĮÙĨ
ĠC R
ĠÛ¸ Û³Ûµ
ĠÙ¾ÙĪØ´ Ø§ÙĨØ¯ÙĨ
ĠÚ¯Ø°Ø´Øª ÙĨ
ÙĦ ÙĪØ±
ĠÙħ Ø§ÛĮØ±
ĠÙĨ ÙĪÙĦØ§ÙĨ
ĠØ´ Ø±Ø§Ú©Øª
ĠØ¹Ø± Ø¶ÛĮ
ĠØ´Ø§ÙħÙĦ ÙĪ
ĠÙĨÙģ ÛĮØ³
ĠØ¢Ùģ Ø±ÛĮØ¯Ùĩ
Ø§Ú©Øª ÙĪØ³
ĠØªÙĪØ±ÙĨ ÙħÙĨØª
Ø¨ Ø´
ĠØªÙĪØ§ÙĨ Ø¨Ø®Ø´ÛĮ
ĠØ§ÙĪØ± Ú©
ĠÙĨ Ú¯Ø°Ø§Ø±ÛĮØ¯
ÚĨ Ø§ÛĮ
ĠÙĨÛĮ ÙĦÙĪ
ĠØ· ÙĪÛĮÙĦ
ĠØ±Ø§Ùĩ Ø´
Ø¯Ùħ ÙĨ
ĠØªØ´ Ø§Ø¨Ùĩ
ĠØ§ÙĦÚ©ØªØ± ÙĪÙĨÛĮ
ĠØ§ÙĪØ± Ø§Ú©ÙĦ
ÙĪØ¬ Ø±Ø³ÛĮ
ĠØ¨ÙģØ±ÙĪØ´ ÛĮØ¯
ĠÙĨÚ¯ Ø§Ø´Øª
Ø§Ø·ÙĦØ§ Ø¹Ø§Øª
ĠØªÙĪØ´ÛĮ Ø¨Ø§
ĠÙħ Ø§ÙģÛĮ
Ø¹ ÛĮÙĨ
ĠØ¯ÙĦ Ø§ÙĦØª
ÙģØ§Ø± Ø³
F l
ÙĪ Ú¯ÙĪÛĮ
ĠÙĤ ÙĪÙĦÛĮ
ĠÙĨÙĪØ´Øª ÙĨØ¯
ĠÙħØ§ÙĨØ¯ ÙĨÛĮ
ĠÚ©Ø§Ø±Ú¯Ø±Ø¯Ø§ÙĨ Ø§ÙĨ
ĠØª Ø´ÙĨÙĩ
ĠÙ¾ÛĮØ´ Ø®ÙĪØ§ÙĨ
ĠÛ±Û¹Ûµ Û±
Ø¨ÙĪÙĦ Ø§ÙĨØ³
Ú© ÙĪÛĮ
ĠÙģØ¹Ø§ÙĦ Ø§ÙĨÙĩ
ĠÙĨÙĪØ± Ø§ÙĨÛĮ
ĠØ¹ÙĨ ØµØ±ÛĮ
ĠÙĪØ® Ø§ÙħØª
Ø¯ ÙĪÙĦØª
ĠÚ¯ ÛĮØ¨
Ø§Ø² Ø§Ø¯Ùĩ
Ø¨Ø§ Ø´ÛĮ
ĠÙĪØ± Ø´ÙĪ
ĠØ±Ùĩ Ø³Ù¾Ø§Ø±
ĠØ§ÙĤØªØµØ§Ø¯ Ø¯Ø§ÙĨØ§ÙĨ
ĠØ¬Ø³ Ø§Ø±Øª
ĠØ¨ Ù¾ÛĮÙĪÙĨØ¯Ø¯
ĠÚ©ÙĨ Ø§ÛĮÙĩ
ĠØ±ÙĪ Ø¨ÛĮ
ĠØ§Ø³ Ø§ÙĨØ³
ĠØ³Ø§ ÙĪÙĩ
Û· Û¶
Ù¾Ø± ØªÛĮ
ĠÙĦØ² ÙĪÙħÛĮ
Ø¨Ø§ Ú©ÙĪ
Ø§ØŃ Ø³Ø§Ø³
ĠÛ±Û³Ûµ Û´
ĠÛ±Û¹Û³Û µ
ĠÙĩØ§ÙĪÚ© ÛĮÙĨÚ¯
ĠÙĤØ±ÙĤÛĮ Ø²Ø³ØªØ§ÙĨ
F T
ĠØ´ ÙģØ§
ĠP ass
ĠØ³ÙĪÛĮ Ùĩ
ĠØªØŃØ±ÛĮÙħ ÙĩØ§
ĠØ§Ø¨ÙĪØ§ÙĦÙģ Ø¶ÙĦ
ÙĪØ¨ Ú©Ø±
ation s
ĠØ´ÙĩØ±Ú© Ø±Ø¯
ĠØ¨Ø±ÙĨ Ø§Ø±Ø¯
ĠÙĦØ§ÛĮØª ÙĨÛĮÙĨÚ¯
ĠØ¨ÙģØ±ÙĪØ´ ÙĨØ¯
ÙĪØ± ÙĨØ¯
ĠØ¹ Ø²ÛĮÙħØª
ĠÚ©Ø§Ø± Ø¯
Ø¨Ø± Ú¯Ø±
ĠR un
il es
ĠØ±ÛĮØ´ ØªØ±
ĠØ¨Ø´Ø±Ø¯ÙĪØ³Øª Ø§ÙĨÙĩ
ÙĨ Ùģ
Ø§Ø´ ÙĪÙĨ
ĠØŃÙħÙĦ Ø§ØªÛĮ
ĠÙ¾ÙĨØ§Ùĩ ÙĨØ¯Ú¯ÛĮ
ĠÙ¾Ø±Ùģ ÙĪØ±
ĠØ¹Ø³ÙĦ ÙĪÛĮÙĩ
ĠØ³ÛĮ Ø§ØªÙĦ
Ú¯ÙĪ Ø´Øª
ĠØ¨ÙĦ ÙĪØ±ÛĮ
ĠS erver
ĠÙĨØ§Ø¨ ÛĮÙĨØ§
ĠÙĤÛĮ ÚĨÛĮ
ĠØ§Ø³ØªØ« ÙĨØ§ÛĮ
Ù¾ Ø§Ø±ÛĮ
ĠØ® ÙĪØ±ÛĮ
ĠØ®ÙĪØ§ÙĨ Ø¯Ùħ
ĠÙħÛĮÚ©Ø±ÙĪ ÙģÙĨ
r it
Ø± Ø§Ø¯
Ùĩ ÙĦ
ĠØ¯ ÙĪØ¯ÛĮ
ĠØ´ Ø±ÛĮØ§ÙĨ
ĠÙħØµ Ø§ÙĦØŃÙĩ
ĠP ol
ĠÙħÛĮØ² Ø§ÙĨÛĮ
ĠÛĮØ§Ø¦ Ø³Ú¯ÛĮ
ĠÙĦØ§ÙĩÛĮ Ø¬Ø§ÙĨ
ÙĪØ± Ùģ
ĠÙĨÛĮ Ø³
ir d
ĠÙ¾Ø§ÙĨ ÙĦ
7 1
ĠØ¨Ø² ÙĨÛĮ
ĠØ¨ÙĨ Øª
ĠÚ©Ø§ÙĨ Ú©Ø³
ĠÚ©ÛĮÙĦÙĪ Ú¯Ø±ÙħÛĮ
ĠÚ¯ ÙħÙĨ
Ø· ÙĨÛĮÙĩ
ĠAd d
ĠØ§ÛĮØ± Ø¨
ĠØ¨Ø§Ø² Ø®ÙĪØ§ÙĨÛĮ
ÙĪÙĨØ¯ Ú¯Ø§ÙĨ
ĠÙħÙĨØª Ø¸Ø±ÛĮ
ĠÙħØ² Ø§Ø¬
Ø³Ø§ÛĮ ØªÛĮ
ĠÚ©Ø±ÙĪ Ø¨ÛĮ
ĠØ´ÙĪØ´ ØªØ±
ĠÙħØ³ÛĮØ±ÛĮ Ø§Ø¨
ĠÙ¾Ø± ÙħØµØ±Ùģ
ĠC C
anc ed
ĠÙģÛĮØ´ ÛĮÙĨÚ¯
ĠÙħØ¬ Ø±ÛĮØ§ÙĨ
Ø¯Ø± Ø¢ÙħØ¯
ÙħØ¯ ÛĮØ±Ùĩ
ĠL ab
ĠÛĮÙĪÙĨ Ú¯
ĠÙħØ¹ÛĮ Ø§Ø±ÙĩØ§
ĠÙģØ³ ÙģØ§Øª
ĠÙ¾Ø§ÙĪØ± Ù¾ÙĪÛĮÙĨØª
ĠØ¨Ø§ÙĦØ§Ø± Ø¯Ùĩ
ÙĨ Ø§ÙħÛĮ
Ùħ ÙĪØ³ÛĮ
Ø§ÛĮ Ø¹ÛĮ
ĠÚ©Ø§Ø± Ø³Ø§Ø²
ĠØ¨Ø±Ø§ Ø«Ø±
ry pt
ĠAn al
ĠØ¢Ø® Ø±ÛĮ
ĠÛĮÙĪÚ¯Ø³ÙĦØ§ ÙĪÛĮ
ĠØ± ÚĺÙĩ
ĠÚ¯ ÙĨÙĪ
Ø· Ø±Ø¨
ĠÙĨØ§Ùħ ÙħÚ©ÙĨ
Ø§Øª ÙĨ
ĠØ¢Ø¨ ÙĨØ¨Ø§Øª
ÙĪÙģ ÛĮÙĩ
Û±Û³Û µ
ĠÙĨÛĮ ÙĪØ¬Ø±Ø³ÛĮ
ĠØ±ÙĤ Ø¨
av el
ĠÙģÙĦÙĪ ÛĮØ¯
ĠØ§Ø³ÙĦÙĪ Ø§Ú©ÛĮ
ĠÙħÙĪ Ú©ÙĦ
ĠÙĩÙĨÚ¯ ÙģØª
ĠÙħÛĮØ² ÙĪ
Ø¢Ùħ Ø±ÛĮÚ©Ø§
ĠØ±ÛĮØ§Ø¶ ÛĮØ¯Ø§ÙĨ
ĠØ§ÙĪØ±ÛĮ ÙĪ
ĠØ³ÛĮ Ú¯Ø§Ø±ÛĮ
ĠÙĦØ¬ Ø³ØªÛĮÚ©
ĠÚĺØ± ÙħÙĨ
ĠØ¯Ø± Ú¯
ĠØ¢ Ú¯
ÛĮØ± ÙĪØ³
ĠÚ©Ø± ÛĮØ¯
tr l
ĠØ¹ Ø¬Ø§ÛĮØ¨
ĠØ¯ÙĦ ØªØ§ÙĨ
ap e
ĠÛ±Û³Û¶ Û¸
ĠØ¨ÙĪÙĦ ØªÙĪÙĨ
y th
Ø§ÙĦ Ø§ÙħÙ¾ÙĪØ±
Ø§Ùħ Ø±ÙĪØ²
ĠØº Ø´Ø§ÛĮ
ĠØ° Ø§Ø¦ÙĤÙĩ
ĠâĢ¦ ØĮ
Ø±Ø¨ ÙĪÙĦØª
ĠØ§ÛĮÙĦ ÛĮÙĨ
Û±Û¹Û ´
ĠØ¨Ø±Ø®Ø§Ø³Øª Ùĩ
ĠØ²ÛĮÙħ Ø¨Ø§Ø¨
ĠÙĨÙĪØ§ÙĤ Øµ
ĠØªØ±Ø§Úĺ Ø¯ÛĮ
m m
Ø³ Ø·ØŃ
ĠØ¯ Ø§ÙħÛĮ
ĠÙĨ Ø´ØªÛĮ
ĠÙ¾Ø§ÛĮ ÙĦÙĪØª
ĠØ³ÛĮØ§Ø³Øª Ú¯Ø°Ø§Ø±ÛĮ
ĠÚ©Ø§ÙĦÛĮÙģØ± ÙĨÛĮ
ĠÙĨØ¦ Ø§ÙĨØ¯Ø±ØªØ§ÙĦ
ĠØ¨ÛĮÚĨ Ø§Ø±Ùĩ
ĠØ³ ÛĮÙħÛĮ
Ø¯ÛĮ Ø¯ÙĩØ§
Ø´Ø± ÙĤ
ĠÙħØ¯Øª ÙĩØ§
ĠÚ©Ø§Ø±Øª ÙĪÙĨÛĮ
et ing
ĠØ³ÛĮÙħ ÙĪÙĨ
ĠÚĺ ÙĨÛĮ
ĠØ¹ÙĦÛĮ Ø§
ĠØ±ÙģØªØ§Ø± ÙĩØ§ÛĮÛĮ
ĠÙĤØ§Ø· Ø¹ÛĮØª
ĠØ¯ Ø§Ú©Ø±
ĠØ§ÛĮØ± Ø¨Ø§Ø¯
Ú©ÙĪ Ø²ÛĮ
ĠØ¯Ø§ÛĮ ÙħÙĦØ±
Ø¯ Ø³ØªÙĩ
ĠÙĨÙĪ Ø§Ø¨
ĠØºÛĮØ± Øª
ĠÙģØ´Ø§Ø± Ø®ÙĪÙĨ
ĠÙħØ¹Øµ ÙĪÙħÙĩ
ÙħØŃ Ø¶
6 6
ĠÙħ ÚĨÛĮ
ĠØ³ ÙģÛĮ
ĠØ®Ø· Ø§ÛĮÛĮ
ĠÚ¯Ø²Ø§Ø±Ø´ Ú¯Ø±
ĠÙĦÛĮ ÙĪ
ĠÙĦ Ø§Ùĩ
ĠØ³Øª ÙĪØ¯
ĠØ®ÙĦ Ø£
ĠÙĨØ§Ú© Ø§ÙģÛĮ
Ú©Ùģ Ø§ÛĮÛĮ
ĠÙħ Ù¾Ø³
ĠØª ÙĦÙĪ
ĠØ° ÛĮØ±
ĠÙħØ±Ø§ ØºÙĩ
ĠB M
ĠØ¨Ø± Ø§Ø²
ĠØ¬ Ø§ÙĩØ§
ĠÙĤ Ø§ÙĦ
Ø§Ø³ Ø¨ÛĮ
ĠÙħÙĩØ§ Ø¨Ø§Ø¯
ĠÙħØ§Ú© Ø§Ø±
ĠØ¨ÙģØ± ÙħØ§ÛĮÛĮØ¯
5 1
Ø² ÙĪÙĦ
ÚĨ ÙĦ
ĠØ³Ø±ÛĮ Ø¹ÛĮ
ĠÚĨÙĩØ§Ø± Ø±Ø§Ùĩ
ĠÙħØªØ± Ø§Úĺ
ĠØ¨ÙĨÛĮ Ø§ÙħÛĮÙĨ
ĠAd v
ĠØªØ±ÙģÙĨØ¯ ÙĩØ§ÛĮ
ĠÙĨØ§ Ú¯ÙĪØ§Ø±
ĠÙģÙĪØªØ¨ Ø§ÙĦÛĮØ³Øª
ÙĨ Ø¹
Ø¨Ø± Ø³Ø§Ø¹Øª
Ø¢ÙĪØ±Ø¯ ÙĨ
ĠÚ©Ø±Ø¨ÙĨ Ø§Øª
ĠØ¯ÛĮÚ©Øª Ø§ØªÙĪØ±
Ø¢Ø®Ø± ÛĮÙĨ
ĠØ³ Ø§Ù¾
ĠØ§Ø´ ÙħÛĮØª
er m
ĠØ²Ø¨Ø§ÙĨ ÙĩØ§ÛĮ
ĠÛ¹Û ¹Û
ĠØ§Ú©Ø³ Ø³ÙĪØ±ÛĮ
ĠÙ¾Ø§ÙĦ Ø§ÛĮØ´ÛĮ
ĠØ¯Ø§Ú¯ ÙĦØ§Ø³
ĠØ³ Ø§ÙħÛĮ
Ø§Ø¨ ÛĮÙĨ
ĠØ§Ø³ ÙĦØ§Øª
ĠÙĨÙħÛĮ Ú©ÙĨØ¯
ĠØ¨Ø§ÙĦ Ú©ÙĨ
ĠÙħØ±ÙĪØ±Ú¯Ø± ÙĩØ§
ĠØ¨ÛĮØ¯ Ú¯ÙĦ
ĠÙĩØ§ Ùī
ĠØ³Ø²Ø§Ø± ÛĮÙĨ
ĠØ§Ø³ØªÙĪ Ø§Ø±Øª
O P
ĠÚĨ Ú©ÛĮØ¯Ùĩ
Ø¨ÛĮÙĨ Ùĩ
ĠØªØ¬ Ø³ÙħÛĮ
ĠØµÙģ Ø±Ø§
ĠØ§ÙĨØªÙĤ Ø§Ø¯ÙĩØ§ÛĮ
ĠK n
ell o
ĠØ¹ÙĨØ§ ÙĪÛĮÙĨÛĮ
ĠÙĤØ± Ø¢ÙĨÛĮ
ĠØ¨Ú© Ø§ÙĩØ¯
ĠÙĤÙĨØ¯Ùĩ Ø§Ø±
ĠÙħÛĮ Ø®ÙĪØ±Ø¯
Û· Û¸
ĠØ·Ø¨ Ø¹Ø§
ĠÙħØ¹Ø§ÙĪÙĨ Ø§ÙĨ
im es
ĠØ§ÛĮØ² ÙĪÙĦÙĩ
Ġ ar
ĠØ³ Ø²Ø§ÛĮÛĮ
ĠØ§Ø³ Ú©ÙĦ
ĠØ¯Ø§ ÙĪÙĨ
ÙħØ« Ø§ÙĦ
ĠÚĨØ´ÙħØ§ÙĨ Ø´
ĠØµØ¯Ø±Ø§Ø¹ Ø¸Ùħ
ĠØ¯Ø± Ø¶ÙħÙĨ
ĠÙħÙĪ Ø§Ø¸
ĠÛĮØ§Ø¯ ØªÙĪÙĨ
ĠÙħÚ¯ Ø³
ĠØ§ÙģØªØ§Ø¯ ÙĨØ¯
ĠØ®Ø§ÙħÙĪØ´ ÛĮ
ĠØ³ÙĪØ³ Ú©
ĠGl obal
ĠØ§ÙĦØªØŃØµÛĮÙĦ Ø§ÙĨ
ĠØ¸ Ø§ÙĦ
ĠÙĪØ§ Ø¬
ĠQu ick
ĠÙĩÙħ ØªÛĮ
ĠØµ ØŃÛĮ
ĠØ³Ø§ÙĦ ÙħÙĨØ¯
ĠØ¯ÛĮ Ø¨Ø§
ĠÂ« ØĮÂ»
Ø·ÙĨ Ø·ÙĨÛĮÙĩ
ĠÙģÛĮÙĦÙħ Ø³Ø§Ø²ÛĮ
ĠØ´ÙĪØ± Ø§ÙĩØ§
ĠØ§ÙĨÚ¯ Ø§Ø±ÛĮ
ĠG en
ĠÙ¾Ø±Ø³ Ø´ÙĨØ§ÙħÙĩ
ĠØ§Ø³Ù¾ ÛĮØ±
ĠØ±ÙĪØ§ÙĨ Ø´ÙĨØ§Ø®ØªÛĮ
ØªØŃ ÙĦÛĮÙĦ
ĠÙģ ÙħÛĮÙĨÛĮ
ĠÚĨ Ú©Ø§Ø±
Ø§Ø¯ÛĮ Ø§ÙĨ
Ø§Ùģ Ø³
ĠÙĤØ±Ø§Ø± Ú¯Ø§Ùĩ
ĠØ¨ÛĮ ÙĪÙħØªØ±ÛĮÚ©
ĠØµØ¯ Ø§ÛĮØ´
ot t
ĠØ§ÛĮØ² ÙĪØªÙĪÙ¾
ĠØ§ÙĦØ¬Ø² ÛĮØ±Ùĩ
ĠØ³Ø§ÙĦ Ø§Ø±ÛĮ
ÙĪØ² Ø±
Ø¨Ø§ÙĦ Ø§ÛĮ
ĠÙĩØ´Ø¯ Ø§Ø±ÙĩØ§ÛĮ
Ø¢Ø´ÙĨ Ø§
ĠØªØ§ÙĨØ¯ Ø±Ø¨ÙĪÙĦØª
ĠØ²ÛĮÙħØ¨Ø§Ø¨ ÙĪÙĩ
ĠØ°ÛĮØ± Ø¨Ø·
ĠØ§ÛĮÙĨ ØŃØ§ÙĦ
Ø³ÛĮ Ø§Ùĩ
ĠØ§Ø± Ø¶ÛĮ
ÙĪØª Ø§ÛĮÙ¾
ĠÙħÚ© Ø«
ĠÙĨØ§ÙĨ ÙĪÙħØªØ±
ĠÙħØ§Ø±Ú© ÙĪØ³
7 3
ĠØ±ÙĪÛĮ Ø§ÙĨ
ĠÚ¯Ø° Ø±Ø§
Ø§Ø® ÙĦØ§ÙĤÛĮ
Ø¯ÛĮØ¯ ÙĨØ¯
ĠÙ¾Ø§Ø±Ú© ÛĮÙĨØ³ÙĪÙĨ
ĠØ§Ø° ÙĩØ§ÙĨ
Ø§Ø§ Ø§Ø§
ĠØ¬ ÙĪØ§Ø±
ĠØ§Ø¹Øª Ø¯Ø§ÙĦ
ĠÙĨØªÛĮ Ø¬
ĠÙĪ Øª
Ø¬ Ø±ÛĮ
Ø²Ø§Ø± Ø¯
ÙħÙĦ ÛĮÙĨ
ĠÙĦØ¨ Ø®ÙĨØ¯ÛĮ
7 6
Ø§Ø®Øª Ú¯Ø§ÙĨ
ĠÙĩÙĪØ´ÙħÙĨØ¯ Ø³Ø§Ø²ÛĮ
ĠØ¯Ùħ Ú©Ø±Ø§Ø³ÛĮ
Ø³Ù¾ Ø§Ø±ÛĮ
ĠØ¨Ùĩ Ø§Ø¡
ĠØ§Ø«Ø± Ø¨Ø®Ø´
ĠØ¨Ø§ÙģØª ÛĮ
ĠÙħØ± Ø¯ÙĩØ§
Ġ ob
ÛĮØ¯ ÙĪ
ĠØ¯ÛĮÙĨ Ø§ÙħÛĮÚ©ÛĮ
ĠÙħØ´Ø±ÙĪ Ø¹ÛĮØª
ĠØªØ·Ø¨ÛĮ ÙĤÛĮ
ĠØ¢ÙĦÙĪ Ø¦Ùĩ
r al
Ø§ Ø¹Ùĩ
ĠØ¨ ÚĨÛĮÙĨ
ĠØ®ÙĪØ¯ Ú©ÙģØ§ÛĮÛĮ
ĠØ³Ø§ÙĨ ØªØ§
ock er
ĠMan ager
ĠØ¨Ù¾Ø² ÛĮØ¯
A I
ĠØŃ Ø§ØµÙĦÙĩ
ĠØ³Ø§Ø² ÙĩØ§
ĠØ´Ø¨ Ø§Ùĩ
ÙģÛĮ Ø²ÛĮÚ©
ĠØ§ÛĮØ¬Ø§Ø¯ Ø´Ø¯Ùĩ
ĠÙħØ¹ÛĮ Ø§Ø±ÛĮ
ĠØ§Ø¨ÙĦØ§Øº ÛĮÙĩ
ÙĪÙħ ÙĨØª
ĠÚ©Ø´ ÙģÛĮ
ĠÙĨØ³ ÙĦÛĮ
ĠÙĨØ´ Ø³ØªÙħ
ĠØ¨ÙĦ ÚĺÛĮÚ©ÛĮ
ĠØ±Ø² ÛĮØ¯ÙĨØª
ĠÙħÛĮ Ø®ÙĪØ§Ø³ØªÙħ
Ú©Øª ÙĪÙĨ
ĠØ®Ø±ÛĮØ¯ ÛĮ
ĠÙĪØ§ÙĦ Ø§
ĠÚ©ÙĪØ§ÙĦ Ø§ÙĦØ§ÙħÙ¾ÙĪØ±
ĠÙ¾ ØªÙĪ
ĠØ¹Ùħ Ø§Ø¯
ĠM ess
ro ll
re t
ĠØ·ÛĮÙģ ÛĮ
ĠØ§Ø³ØªÙĨ Ø¨Ø§Ø·
ĠÙĦÛĮÙĨ Ú©ÙĦÙĨ
âĢĮâĢĮâĢĮâĢĮ âĢĮâĢĮâĢĮâĢĮ
ĠØ³ ÙģØªÙĩ
ĠSp ort
ĠÙħØŃØ± Ø§Ø¨
ĠØ¨Ù¾Ø°ÛĮØ± ÙĨØ¯
ÙĪ Ø§ÙĤØ¹
[...]
