{"<s>":0,"<pad>":1,"</s>":2,"<unk>":3,"<mask>":4,"<|endoftext|>":5,"<|startoftext|>":6,"<nl>":7,"<hs>":8,"<sep>":9,"<cls>":10,"!":11,"\"":12,"#":13,"$":14,"%":15,"&":16,"'":17,"(":18,")":19,"*":20,"+":21,",":22,"-":23,".":24,"/":25,"0":26,"1":27,"2":28,"3":29,"4":30,"5":31,"6":32,"7":33,"8":34,"9":35,":":36,";":37,"<":38,"=":39,">":40,"?":41,"@":42,"A":43,"B":44,"C":45,"D":46,"E":47,"F":48,"G":49,"H":50,"I":51,"J":52,"K":53,"L":54,"M":55,"N":56,"O":57,"P":58,"Q":59,"R":60,"S":61,"T":62,"U":63,"V":64,"W":65,"X":66,"Y":67,"Z":68,"[":69,"\\":70,"]":71,"^":72,"_":73,"`":74,"a":75,"b":76,"c":77,"d":78,"e":79,"f":80,"g":81,"h":82,"i":83,"j":84,"k":85,"l":86,"m":87,"n":88,"o":89,"p":90,"q":91,"r":92,"s":93,"t":94,"u":95,"v":96,"w":97,"x":98,"y":99,"z":100,"{":101,"|":102,"}":103,"~":104,"¡":105,"¢":106,"£":107,"¤":108,"¥":109,"¦":110,"§":111,"¨":112,"©":113,"ª":114,"«":115,"¬":116,"®":117,"¯":118,"°":119,"±":120,"²":121,"³":122,"´":123,"µ":124,"¶":125,"·":126,"¸":127,"¹":128,"º":129,"»":130,"¼":131,"½":132,"¾":133,"¿":134,"À":135,"Á":136,"Â":137,"Ã":138,"Ä":139,"Å":140,"Æ":141,"Ç":142,"È":143,"É":144,"Ê":145,"Ë":146,"Ì":147,"Í":148,"Î":149,"Ï":150,"Ð":151,"Ñ":152,"Ò":153,"Ó":154,"Ô":155,"Õ":156,"Ö":157,"×":158,"Ø":159,"Ù":160,"Ú":161,"Û":162,"Ü":163,"Ý":164,"Þ":165,"ß":166,"à":167,"á":168,"â":169,"ã":170,"ä":171,"å":172,"æ":173,"ç":174,"è":175,"é":176,"ê":177,"ë":178,"ì":179,"í":180,"î":181,"ï":182,"ð":183,"ñ":184,"ò":185,"ó":186,"ô":187,"õ":188,"ö":189,"÷":190,"ø":191,"ù":192,"ú":193,"û":194,"ü":195,"ý":196,"þ":197,"ÿ":198,"Ā":199,"ā":200,"Ă":201,"ă":202,"Ą":203,"ą":204,"Ć":205,"ć":206,"Ĉ":207,"ĉ":208,"Ċ":209,"ċ":210,"Č":211,"č":212,"Ď":213,"ď":214,"Đ":215,"đ":216,"Ē":217,"ē":218,"Ĕ":219,"ĕ":220,"Ė":221,"ė":222,"Ę":223,"ę":224,"Ě":225,"ě":226,"Ĝ":227,"ĝ":228,"Ğ":229,"ğ":230,"Ġ":231,"ġ":232,"Ģ":233,"ģ":234,"Ĥ":235,"ĥ":236,"Ħ":237,"ħ":238,"Ĩ":239,"ĩ":240,"Ī":241,"ī":242,"Ĭ":243,"ĭ":244,"Į":245,"į":246,"İ":247,"ı":248,"Ĳ":249,"ĳ":250,"Ĵ":251,"ĵ":252,"Ķ":253,"ķ":254,"ĸ":255,"Ĺ":256,"ĺ":257,"Ļ":258,"ļ":259,"Ľ":260,"ľ":261,"Ŀ":262,"ŀ":263,"Ł":264,"ł":265,"Ń":266,"ĠØ":267,"Ø§":268,"ÛĮ":269,"Ø±":270,"ÙĨ":271,"Ùĩ":272,"ÙĪ":273,"Ùħ":274,"Ø¯":275,"Øª":276,"ĠØ§":277,"Ú©":278,"ĠØ¨":279,"ÙĦ":280,"Ø³":281,"ĠÙħ":282,"ĠØ¯":283,"âĢ":284,"âĢĮ":285,"Ø²":286,"Ø´":287,"Ø§ÙĨ":288,"Ø§ÛĮ":289,"ĠÚ©":290,"Ø¨":291,"Ùģ":292,"ĠÙĪ":293,"Ø§Ø±":294,"Ú¯":295,"Ø³Øª":296,"ÛĮÙĨ":297,"ĠØ¯Ø±":298,"ÙĤ":299,"ĠØª":300,"ĠØ±":301,"ĠÙĨ":302,"ĠØ¨Ùĩ":303,"ÙĨØ¯":304,"ØĮ":305,"ĠØ´":306,"Ø¹":307,"Ù¾":308,"ĠØ³":309,"ĠÙħÛĮ":310,"ÙĪØ¯":311,"ĠØ§Ø²":312,"ĠÙĩ":313,"ĠØ¨Ø§":314,"Ø¯Ùĩ":315,"Ø®":316,"ĠØ¢":317,"ÙĪØ±":318,"Ø¬":319,"ĠØ®":320,"ĠÙ¾":321,"ÛĮØ¯":322,"ĠÚ©Ùĩ":323,"Ø§ÙĦ":324,"ÙĩØ§ÛĮ":325,"ĠØ§ÛĮÙĨ":326,"ĠØ¨Ø±":327,"Ø§Ùħ":328,"ĠØ§Ø³Øª":329,"ĠØ±Ø§":330,"ØŃ":331,"ÛĮØ±":332,"Øµ":333,"ĠÚ¯":334,"ÚĨ":335,"ĠÛĮ":336,"ĠÙģ":337,"Ø·":338,"ĠØ¬":339,"Ø§Ø¯":340,"Ø§Ùĩ":341,"ÙĦÛĮ":342,"Ø±Ø¯":343,"ØªØ±":344,"ĠØŃ":345,"ÙĪÙĨ":346,"Ø§Øª":347,"ĠÛ":348,"ĠÙĤ":349,"ÙĩØ§":350,"ĠØ¹":351,"ÛĮÙħ":352,"Ø§Ø¨":353,"ĠÙĩÙħ":354,"ĠØ²":355,"ÙģØª":356,"Ø§Ø²":357,"ĠØ¢ÙĨ":358,"Ø±ÛĮ":359,"ÙĪÙĦ":360,"ÙĪÛĮ":361,"ÙĪØ§ÙĨ":362,"Ø´Øª":363,"Ø³ÛĮ":364,"ĠÚĨ":365,"ĠØ¨Ø±Ø§ÛĮ":366,"ĠÛĮÚ©":367,"Ø±ÙĪ":368,"Ø§Ø±ÛĮ":369,"Ø¶":370,"ÙĦØ§":371,"ÙħØ§":372,"ØªÛĮ":373,"Ø±Ø§":374,"ÛĮØ´":375,"Ø§ÙĨÛĮ":376,"ĠØ®ÙĪØ¯":377,"Ú¯Ø±":378,"ĠÚ©ÙĨ":379,"ĠØ§ÙĨ":380,"ĠØ±ÙĪ":381,"Û°":382,"Ø°":383,"ĠØ¯Ø§Ø±":384,"Ø§Ø¯Ùĩ":385,"ÛĮØª":386,"ĠØµ":387,"Ú©ÙĨ":388,"Ø¸":389,"ĠØ¨ÙĪØ¯":390,"ĠÙĨÛĮ":391,"ĠÚ©Ø§Ø±":392,"ĠÙħÙĪ":393,"Ø®Øª":394,"ĠÚ©Ø±Ø¯":395,"ĠØ·":396,"ĠÙħÙĨ":397,"ÙħÛĮ":398,"ĠØªØ§":399,"Øº":400,"ĠØ´Ø¯Ùĩ":401,"ÙħØ§ÙĨ":402,"ĠØ´Ø¯":403,"Ø«":404,"Ø±Ú©":405,"Ø§ÛĮÛĮ":406,"Ø§Ø³":407,"ĠÙħØŃ":408,"Ø¦":409,"Ø²ÛĮ":410,"±Û":411,"ĠØªÙĪ":412,"Úĺ":413,"Ø§Ø´Øª":414,"ĠØ³Ø§ÙĦ":415,"ØªÙĪØ§ÙĨ":416,"Ø²Ø§Ø±":417,"ĠØ¯ÛĮ":418,"ĠØ®ÙĪ":419,"ÛĮÙĦ":420,"ĠÛĮØ§":421,"ĠÙĦ":422,"Ú¯ÛĮ":423,"Ø´Ø¯":424,"Ú¯Ø§Ùĩ":425,"ĠØ¯ÙĪ":426,"ÙĨÛĮ":427,"Ġ(":428,"ĠØ§Ùħ":429,"Ø¨Ø±":430,"Ø´ÙĪØ¯":431,"ĠÙħØ´":432,"Â«":433,"Â»":434,"Ø¨ÛĮ":435,"ĠÚ©Ø±":436,"ÙĪØ±Ø¯":437,"ĠÂ«":438,"ĠÙħØ¹":439,"ĠØ¯Ø³Øª":440,"Ø¨Øª":441,"Ø§ÙĨÙĩ":442,"ÙģØ±":443,"ÙĪØ´":444,"ĠÙģØ±":445,"ĠÛ±Û":446,"ĠÙħØ¯":447,"Ø§ÙĨØ¯":448,"ĠØ³Ø±":449,"ÙħØ§ÛĮ":450,"ĠØ§ÙĪ":451,"ĠØ§Ø³":452,"Ø§ÛĮØ¯":453,"ĠÙĤØ±":454,"ĠÙħØª":455,"Ø¬Ùĩ":456,"ÙĨÚ¯":457,"ÙĩØ±":458,"Ø±Ùģ":459,"ĠØ¯Ø§Ø´Øª":460,"Ø§Ø³Øª":461,"ÙĤÛĮ":462,"ĠØ¯Ø§Ø±Ø¯":463,"ÛĮÚ©":464,"ÙĦÙĩ":465,"ÙģØªÙĩ":466,"Ø¢":467,"Ø§Ø±Ø¯":468,"ĠÛ²":469,"ÙģØ§Ø¯Ùĩ":470,"ÙĪÙħ":471,"Ø§Ø±Ùĩ":472,"Ø§Ø¯ÛĮ":473,"ĠØ¢Ùħ":474,"ĠØ§Ø³ØªÙģØ§Ø¯Ùĩ":475,"Ø§Ùģ":476,"ĠÚ¯Ø±":477,"ĠÙĨÛĮØ²":478,"Ú©Ùĩ":479,"ÙĪØ¹":480,"ÙĪØ²":481,"ĠÙĩØ³Øª":482,"Ø§ÙħÙĩ":483,"ĠÙĩØ±":484,"ÙĪØ±ÛĮ":485,"Ú¯ÛĮØ±":486,"ĠØ§Ø±":487,"ÙĨØ¯Ùĩ":488,"ĠØ§ÙĦ":489,"Ø¨Ùĩ":490,"Ø§Ø®Øª":491,"ĠØ§ÙħØ§":492,"Ø±Ú©Øª":493,"ĠÚ©Ùħ":494,"ĠÙ¾ÛĮØ´":495,"ØªØ±ÛĮÙĨ":496,"Ú©ÙĨØ¯":497,"Ø§ÙĤ":498,"ĠØ¨ÛĮØ´":499,"ĠÚ©Ø´":500,"ĠÚ©Ø±Ø¯Ùĩ":501,"Ø¹Ø¯":502,"Ø¨Ø§":503,"ĠØº":504,"ĠÙħØ³":505,"Ø§ÙĦÛĮ":506,"ĠÙĨØ¸":507,"ĠÚ©ÙĨÛĮØ¯":508,"ĠÙĤØ±Ø§Ø±":509,"ĠØ®ÙĪØ§Ùĩ":510,"ĠØ§ÛĮØ±":511,"ĠØ´ÙħØ§":512,"ĠØ³ÛĮ":513,"ĠÙħØ±":514,"ĠØ§Ùģ":515,"ĠØ´Ø±Ú©Øª":516,"Ø¹ÛĮ":517,"ĠÙħÙĤ":518,"ØªØ±ÛĮ":519,"ĠØ§ÛĮ":520,"ĠØ¨ÛĮ":521,"ĠØ¬Ø¯":522,"Ø±Ø³":523,"Ø´ÛĮ":524,"ĠÙĪÛĮ":525,"ĠØ¨Ø¯":526,"Ø¬ÙĪØ¯":527,"Ø§Ú©":528,"Ø¹Øª":529,"ĠØ¯ÛĮÚ¯Ø±":530,"ĠØ§ÙĨØª":531,"ĠØŃØ§ÙĦ":532,"ĠØ¨Ø®":533,"Ø´ÙĨ":534,"ĠØ±ÙĪØ²":535,"ĠÙħØ¬":536,"Ø¹Ùĩ":537,"Ø®Øµ":538,"ĠØ±ÙĪÛĮ":539,"ĠØ¨Ø³ÛĮ":540,"ĠØ¹Ùħ":541,"ÙħÛĮÙĨ":542,"ÙĪØ±Øª":543,"ĠØ¨Ø§ÛĮØ¯":544,"ÙĪØª":545,"ĠØ¯Ùĩ":546,"ĠÙħØ§":547,"ÙĨÛĮÙĨ":548,"Ø´Ø§ÙĨ":549,"ĠĠ":550,"ÙĪÙĩ":551,"ÙĩØ§ÛĮÛĮ":552,"Ø§Ø²ÛĮ":553,"ĠÙħÙĪØ±Ø¯":554,"ĠÙ¾Ø³":555,"ØĽ":556,"ĠØ¨Ø§Ø²":557,"ĠØ²ÛĮ":558,"Ú©ÙĦ":559,"ĠØ¨Ø§Ø´":560,"ĠÙĨØ§Ùħ":561,"--":562,"Ø§ÛĮØª":563,"ĠÚ©Ø´ÙĪØ±":564,"ĠØªØŃ":565,"ĠØ¯ÙĪØ±":566,"ĠØ§ÛĮØ±Ø§ÙĨ":567,"ĠØ§Ø¬":568,"¹Û":569,"Ø§ÙħÙĦ":570,"ĠØ¬Ùħ":571,"ÙĦØ§Ùħ":572,"ĠØªØµ":573,"ĠØ§Ú¯Ø±":574,"ĠÚ©ÙĨØ¯":575,"Ø³ØªØ§ÙĨ":576,"ĠØ¨Ø§Ø´Ø¯":577,"Ø¬Ø§Ùħ":578,"ÙĤÙĩ":579,"ĠØ¯Ø§Ø¯":580,"ĠØ§Øµ":581,"ÙĩÙħ":582,"ĠØªÙĪØ³":583,"ĠØªÙĨ":584,"ÛĮØ§":585,"ĠÛĮÚ©ÛĮ":586,"ÙĦÙģ":587,"ĠÙĨØ³":588,"Ø¯Ø±":589,"ĠÙĩØ³ØªÙĨØ¯":590,"ĠÙĩÙħÚĨ":591,"Ø¯ÛĮ":592,"ÙĪØ§":593,"ÙĨÙĪØ§ÙĨ":594,"ÙĪÙĨØ¯":595,"ĠØ¯Ø§ÙĨ":596,"ĠÙĪØ¬ÙĪØ¯":597,"ĠÙĨÙħØ§ÛĮ":598,"ÙĨØ§ÙħÙĩ":599,"ĠØ¬Ø¯ÛĮØ¯":600,"Ø§Øµ":601,"ÙħÙĨØ¯":602,"ĠØ§Ø¹":603,"Ú©Ø±":604,"ĠÚ¯Ø°":605,"Ú©ÙĨÙĨØ¯":606,"ĠÙĨØ¸Ø±":607,"ĠÙĨÙĤ":608,"ĠØ¨Ø§Ø²ÛĮ":609,"ĠÚĨÙĩ":610,"ĠØ®ÙĪØ§ÙĩØ¯":611,"ÙĪØ³":612,"ĠØ±Ø³":613,"ĠØ§Ø¯":614,"ĠØ§Øª":615,"ĠØªÙħ":616,"ĠØ¨Ø²":617,"ĠØ§ÙĨØ¬Ø§Ùħ":618,"ĠØ¨ÛĮÙĨ":619,"Û°Û":620,"Ø´ØªÙĩ":621,"ĠØ´ÙĩØ±":622,"ĠØ§ÙģØ²":623,"ĠÙĨÙħÛĮ":624,"ĠÙ¾ÛĮ":625,"Ú©ÛĮ":626,"ĠÙ¾Ø±":627,"ĠØ¯Ø§Ø´ØªÙĩ":628,"ÙĶ":629,"ĠØ³Ø§Ø®Øª":630,"ĠØ§ØŃ":631,"Ø±Ø§ÛĮ":632,"ÙĪØ¨":633,"ĠØ¬Ùĩ":634,"Ú©Ø§ÙĨ":635,"Ø§ØªÛĮ":636,"Ø§Ø·":637,"ĠÚĨÙĨØ¯":638,"ĠÚ¯ÙģØª":639,"Ø±Ùĩ":640,"Ø®ÛĮ":641,"Ú¯Ø§ÙĨ":642,"³Û":643,"ÙĤØª":644,"Ø§ÛĮØ´":645,"Ø±ÛĮÚ©":646,"ĠØªÙĪÙĦ":647,"ĠØ´ÙĪØ¯":648,"ĠØµÙĪØ±Øª":649,"ĠÙĨØ¯":650,"ĠØ§ÙĪÙĦ":651,"ĠØ±Ø§Ùĩ":652,"ĠÙ¾Ø§ÛĮ":653,"ĠØ¹ÙĨÙĪØ§ÙĨ":654,"ÙĨØ§":655,"ĠÙħØ§Ùĩ":656,"ÛĮÙĩ":657,"ĠØ¯Ø§Ø¯Ùĩ":658,"ĠØ§Ø·":659,"Ø®ÙĪ":660,"Ú¯Ø°":661,"ĠÙĨÛĮØ³Øª":662,"ØªÙĪØ§ÙĨØ¯":663,"ĠÙĨÙĪ":664,"Ø¯Ùħ":665,"ĠÙħØ·":666,"ĠØªÙĪÙĦÛĮØ¯":667,"ĠØ¨Ø¹Ø¯":668,"ĠØ§Ø´":669,"Ú©Ø±Ø¯":670,"Ø¨ÛĮÙĨ":671,"ĠØ³Ø§Ø²":672,"Ø§Ø±Øª":673,"ĠØ¨Ø³ÛĮØ§Ø±":674,"ĠØ¨Ø²Ø±":675,"ØµØ¯":676,"ØŁ":677,"ĠÙħØ«":678,"ĠØ§Ù¾":679,"ĠØ§ÙĨØ¯":680,"ÙģØ§":681,"ÙĪÙĨÙĩ":682,"ĠØ¯Ø§ÙĨØ´":683,"ĠØªØ±":684,"ĠÙĩÙħÚĨÙĨÛĮÙĨ":685,"Ø¯ÙĩØ¯":686,"Ú©Ø³":687,"Ø¨Ø§ÙĨ":688,"ĠÚ©ÙĨÙĨØ¯":689,"ÛĮÙģ":690,"ĠÙĩÛĮ":691,"Ø§Ø®":692,"Ø§Ù¾":693,"ĠØ¨ÛĮØ´ØªØ±":694,"ĠØŃØ¯":695,"ĠÚ¯ÙĪØ´":696,"ĠØ¶":697,"ØŃÛĮ":698,"ÙĨØ¬":699,"ĠÙħÛĮÙĦÛĮ":700,"ĠØ²ÙħØ§ÙĨ":701,"ĠØªØ¨":702,"Û°Û°":703,"Ø§ÙĨÙĨØ¯":704,"ÙħØ§ÙĨÛĮ":705,"ÛĮÙĨÙĩ":706,"Ú¯ÙĪ":707,"ĠÙģØ¹":708,"ĠÙĤØ§Ø¨":709,"ĠØ¨Ø®Ø´":710,"ĠØ¢ÙħØ±ÛĮÚ©":711,"ĠØ¯Ø§Ø±ÙĨØ¯":712,"ĠÙ¾Ø±ÙĪ":713,"ĠÚ©Ø±Ø¯ÙĨ":714,"ÛĮØ³":715,"ĠØ¯ÙĦ":716,"ĠØ¨Ø±ÙĨØ§ÙħÙĩ":717,"ĠÙħØ±Ø¯":718,"ÚĨÙĩ":719,"ĠÚ©ÙĦ":720,"ĠØ³Ùĩ":721,"Ø§ÛĮÙĦ":722,"ÙħØ¯":723,"ĠØªØ¬":724,"ĠÙģÛĮÙĦ":725,"ĠÙħØµ":726,"Ú©Ø§Ø±":727,"ÙĪÙĨÛĮ":728,"ĠÙħØŃØµ":729,"ĠØ²ÛĮØ±":730,"Ø¹Ø§Øª":731,"ĠØ¢ÙĨÙĩØ§":732,"Ø³ØªÙħ":733,"Ø§ÙħÛĮ":734,"ĠØ§Ø®":735,"Ø§ØŃ":736,"Ú¯ÛĮØ±ÛĮ":737,"ĠÙĤØ¨":738,"Ø²Ø´":739,"ĠØ³ÙĪ":740,"ĠÙģØ±ÙĪ":741,"ÙħØª":742,"ĠÙĩÙħÛĮÙĨ":743,"ĠÙħØ®Øª":744,"ĠØ¨Ø²Ø±Ú¯":745,"ĠÚĨÛĮ":746,"ĠÙĩÙħÙĩ":747,"ĠÙħØŃØµÙĪÙĦ":748,"ĠÙĨÙħ":749,"ÙĦÛĮÙĦ":750,"ÙħÙĨ":751,"ĠÚ©ÙĪ":752,"ĠØ¨Ø§Ø²Ø§Ø±":753,"ĠØ¨ÙĨ":754,"ĠØ§ÛĮÙĨÚ©Ùĩ":755,"ĠØªØ¹":756,"ĠÙħØ¯ÛĮØ±":757,"ĠÙĪØ§ÙĤ":758,"ĠØ§ÙģØ±":759,"ÙĦÙĪ":760,"ĠØ¨Ø§Ø±":761,"ĠØ²ÙħÛĮÙĨ":762,"ØºÛĮ":763,"ĠØªÙĪØ³Ø·":764,"ĠØ¨ÙĪØ¯Ùĩ":765,"ĠØ«":766,"Ø³ØªÙĩ":767,"Ø§Ø²Ùĩ":768,"Ø¬ÛĮ":769,"ĠØ§Ø·ÙĦØ§":770,"ĠØ®Ø±":771,"ĠØªÙĪØ¬Ùĩ":772,"Ú©Øª":773,"ÚĺÙĩ":774,"Ø§Ø¯Ø±":775,"ĠÙħÙĨØª":776,"Ø®Ø§Ø¨":777,"Ù«":778,"ØªÙĪØ§ÙĨÛĮØ¯":779,"ÙħØ§ÙĦ":780,"ĠÚ©Ø§Ø±Ø¨Ø±":781,"Ø±Ø³ÛĮ":782,"ĠÛ±":783,"Ûµ":784,"ĠØ¹Ø±":785,"Ø§Ø³ÛĮ":786,"ĠØŃØ³":787,"Ø§Ø´":788,"ĠØ§Ø±Øª":789,"ĠØ²ÙĨØ¯":790,"ĠÙģØ¹Ø§ÙĦ":791,"ĠÚ¯Ø±ÙģØªÙĩ":792,"Ø¨Ø§ÙĦ":793,"ĠÙħØ®ØªÙĦÙģ":794,"ØªØ§ÙĨ":795,"ĠÚ¯ÙĪØ´ÛĮ":796,"ĠØ¢Ø¨":797,"ĠØ¬Ø§ÛĮ":798,"Ø³Ùĩ":799,"ÙĨÙĩ":800,"ØªØ§Ø¨":801,"Ø±Ø§Ùĩ":802,"ĠØ§ÙģØ²Ø§ÛĮØ´":803,"Ú¯Ø±ÛĮ":804,"ĠÙ¾Ø±Ø¯":805,"ĠØ´Ø¨":806,"Ø¯Ø§":807,"ĠÙĨÙħØ§ÛĮØ´":808,"ĠØ§ÙĨØªØ®Ø§Ø¨":809,"Ø«Ø±":810,"ĠÚ¯Ø±ÙģØª":811,"Ø²Ùĩ":812,"ÙħÙĦ":813,"ĠÙģÛĮÙĦÙħ":814,"ĠÙĨÛĮØ§Ø²":815,"ĠØ°":816,"ĠÙĨØ´":817,"ĠØ¢ÙħØ±ÛĮÚ©Ø§":818,"ĠØ³ÛĮØ³ØªÙħ":819,"Ø±Ø§Ø¦":820,"ĠØ¨ÛĮÙħ":821,"ØºÛĮÛĮØ±":822,"Ø¯Ø§Ø±":823,"ĠØ³Ø§":824,"ĠÚ©Ø³":825,"ÛĮÙĨÛĮ":826,"ÙĦØ¨":827,"ĠØªØºÛĮÛĮØ±":828,"ĠØ¬ÙĨ":829,"ĠÙĩÙĨ":830,"ĠÙĤÛĮÙħ":831,"Ø´Ùħ":832,"Ø¨Ø±Ø¯":833,"Ø±ØŃ":834,"Ø²Ø¯":835,"Ø§Ø¶":836,"er":837,"Ø¹ÛĮØª":838,"Ø¯Ø§Ùħ":839,"ĠÛ²Û°Û":840,"ĠÙĩØ²Ø§Ø±":841,"ĠØ´Ø¯ÙĨ":842,"Ø£":843,"ĠÙĨØ´Ø§ÙĨ":844,"ĠÙģØ±ÙĪØ´":845,"ĠØ¨Ø§ÙĦØ§":846,"ĠÛµ":847,"Ø¬Ø§Ø¯":848,"ÙģÛĮ":849,"ĠÙĩÙħØ±Ø§Ùĩ":850,"ĠØªÙĤ":851,"Ø´ÙĪÙĨØ¯":852,"ĠÚ¯Ø²Ø§Ø±":853,"ĠØ®ÛĮ":854,"ĠØªÙĨÙĩØ§":855,"ĠÛ´":856,"ĠØ§ÛĮØ¬Ø§Ø¯":857,"Ø¨ÙĪØ¯":858,"ĠÛ±Û¹Û":859,"Ġ1":860,"ÙĪÛĮØ³":861,"Ø®ÙĪØ§Ùĩ":862,"ĠØ¨ÙĦ":863,"ĠØ¹ÙĦ":864,"ĠÙĪØ±":865,"ĠØ´ÙĨ":866,"ĠØ¹ÙĦØ§":867,"ĠÙħØ±Ø§":868,"ĠØ¢Ø²":869,"ĠÙħÙĩ":870,"ĠÙħÙĩÙħ":871,"ĠØ²ÛĮØ§Ø¯ÛĮ":872,"ĠØ§Ø¯Ø§ÙħÙĩ":873,"ĠâĢ":874,"ĠØ§ÙĤ":875,"ÚĺÛĮ":876,"Ø´Ø±":877,"ĠS":878,"ĠÙĤÛĮÙħØª":879,"Ø¨ÙĪ":880,"ĠÚ¯ÙĪ":881,"Ø³Ø§ÙĨ":882,"ĠØ®ÙĪØ¯Ø±ÙĪ":883,"ĠØ®Ø±ÛĮØ¯":884,"ĠØ®Ø·":885,"ĠØ¨Ø±Ø®ÛĮ":886,"ĠØ®Ø§ÙĨ":887,"ĠØ¸":888,"ĠØ§ÙģØ±Ø§Ø¯":889,"ĠØ§Ø¹ÙĦØ§Ùħ":890,"ĠØ´Ùĩ":891,"Ø¨Ø§Ø±":892,"ĠÚ¯Ø²Ø§Ø±Ø´":893,"ÙĪÙĤ":894,"Û²":895,"ĠØªØ´":896,"ĠØ±ÛĮ":897,"ĠØºÛĮØ±":898,"ĠØ³Ø±ÛĮ":899,"ĠÙħÛĮØ§ÙĨ":900,"ÙĪØµ":901,"Ú¯Ùĩ":902,"ĠØ¯ÙĪÙĦ":903,"ÙĪÛĮØ±":904,"Ø·ÙĪØ±":905,"ĠÛĮØ§Ø¯":906,"ÙĪÛĮÛĮ":907,"Ø±ÙĪÙĩ":908,"ĠÚ©ØªØ§Ø¨":909,"ĠÙĦÛĮ":910,"Ø¨Ø§Ø±Ùĩ":911,"ĠØªÙħØ§Ùħ":912,"ĠÚ©ÙħÚ©":913,"ĠÚĺ":914,"Ø¸Ùĩ":915,"Ø²ÛĮÙĨÙĩ":916,"ĠÙĩÛĮÚĨ":917,"ĠØªØ§Ø±ÛĮ":918,"ĠØŃØªÛĮ":919,"ÙħÙĩ":920,"ĠØ³Ø§Ø²ÙħØ§ÙĨ":921,"ĠÚ¯Ø±Ø¯":922,"ĠÙħØ´Ú©ÙĦ":923,"ĠÚ©Ø§Ùĩ":924,"ĠØ¯ÙĦÛĮÙĦ":925,"ĠÙħØ§ÙĨÙĨØ¯":926,"ĠØ²ÙĨØ¯Ú¯ÛĮ":927,"ĠÙħÙĪØ¶":928,"Ø±Ùħ":929,"ÛĮØ¯Ø§":930,"Ø±Ø§ØŃÛĮ":931,"ĠÙħÙħ":932,"ĠØ¯Ø³ØªÚ¯Ø§Ùĩ":933,"Ø¹Ø«":934,"ĠØªÛĮÙħ":935,"ĠØ§ÙħÚ©Ø§ÙĨ":936,"ĠÙĩØ¯":937,"Ø¨ØªÙĩ":938,"ĠØ§Ø±Ø§Ø¦":939,"Ú¯Ø±Ø¯":940,"ĠØ§Ø´Ø§Ø±Ùĩ":941,"ĠØ§Ø±Ø§Ø¦Ùĩ":942,"ĠØ¨Ø§Ø¹Ø«":943,"Ø®Ùĩ":944,"ĠÙĩÙħØ§ÙĨ":945,"ÛĮØ¯ÙĨ":946,"ĠØ§ØµÙĦÛĮ":947,"ĠÙĨØ³Ø¨Øª":948,"in":949,"ĠÚ©Ø§ÙĩØ´":950,"ĠØ¨Ø³ÛĮØ§Ø±ÛĮ":951,"ĠÚ¯Ø±ÙĪÙĩ":952,"ĠÚ¯ÙĦ":953,"ĠÙĪÙĦÛĮ":954,"ÙĦÛĮØª":955,"ĠØ§Ø¨":956,"ĠÚ©Ø§Ùħ":957,"Ø·Ùĩ":958,"ĠØ¯Ø±ÛĮØ§":959,"ĠÙħØ¹Ùħ":960,"Ø²Ø§ÙĨ":961,"ÙĦÛĮÚ©":962,"ĠØ§ÙĦØ¨ØªÙĩ":963,"ĠÙħÙĪØ¶ÙĪØ¹":964,"Ø±ÛĮÙĤ":965,"ĠÙħÙħÚ©ÙĨ":966,"ĠØ´Ùħ":967,"Ø´Ùĩ":968,"ĠÙĨÙĪØ¹":969,"Ġ2":970,"Ø±ÙģÛĮ":971,"ĠØ¯Ø±ØµØ¯":972,"ĠØ³Ù¾":973,"ĠâĢ¦":974,"ĠÚ¯Ø°Ø´ØªÙĩ":975,"ĠÙĩÙĪØ´":976,"Ø§Ø¨ÛĮ":977,"ĠÙģØ¶":978,"ĠØ®Ø§Ø±":979,"Û´":980,"ĠÙĤØ·":981,"ĠA":982,"ĠØ¹ÙħÙĦ":983,"ĠØ§Ø·ÙĦØ§Ø¹Ø§Øª":984,"ĠØ±ÙģØª":985,"ĠÙħØ±Ø¯Ùħ":986,"Ø¶ÛĮ":987,"ĠÙħÙĨØ·":988,"ÙĪØ¯ÛĮ":989,"Ø¬Ø§":990,"ĠÙ¾ÛĮØ¯Ø§":991,"ĠØ®Ø¨Ø±":992,"ĠÛ¶":993,"ÛĮØ¯ÛĮ":994,"ĠÙĨÙĩ":995,"Ø³Ø§ÙĦ":996,"ĠÙħØ¯ÙĦ":997,"Ø±Ø§Øª":998,"ÛĮØ¨":999,"ĠÙħÛĮÙĦÛĮÙĪÙĨ":1000,"ĠØ¨Ø§Ø´ÛĮØ¯":1001,"Ø§ÛĮÙĨ":1002,"ĠÙĨÙģØ±":1003,"on":1004,"ĠØµÙĨ":1005,"ØªÙĪØ§ÙĨÙĨØ¯":1006,"ØªÙħØ§":1007,"Ø¯Ø§ÙĨ":1008,"ĠÙħØ®":1009,"ĠØªÙĪØ§ÙĨ":1010,"ĠØ³ÙĨ":1011,"ĠØµÙģ":1012,"ÛĮÙĨØ¯":1013,"ÙĪÙħÛĮ":1014,"Ø¨Ø§Ø´Ø¯":1015,"ÛĮÙħÛĮ":1016,"ĠÙĪØ§Ø±Ø¯":1017,"ĠØ·Ø±Ø§ØŃÛĮ":1018,"ÙĨØ§ÙĨ":1019,"ĠØ¨Ø±Ú¯":1020,"ĠØ¢ÙĦ":1021,"Ø§Ø¦":1022,"ĠÚ¯ÙģØªÙĩ":1023,"ĠØ¹Ø±Ø¶":1024,"ĠØ³Ø¨":1025,"ĠØªÙĪØ³Ø¹Ùĩ":1026,"ÙĤÛĮÙĤ":1027,"ĠØªØ±Ú©":1028,"ĠØ´Ø®Øµ":1029,"ĠÙĨÙģØª":1030,"ĠÛ³":1031,"ÙģÙĤ":1032,"ĠØ·ÙĪÙĦ":1033,"ĠÛ±Û³Û":1034,"ĠØªØ¹Ø¯":1035,"ĠØ¨Ø§ÙĦ":1036,"Ø´Ø§Ø±":1037,"ĠÛ²Û°Û±Û":1038,"ĠØ§ØŃØª":1039,"ĠC":1040,"ĠØ§ÙħØ±ÙĪ":1041,"ĠØ¨Ø¯ÙĪÙĨ":1042,"Ú¯ÙĦ":1043,"ØŃÙĩ":1044,"ĠÙĤØ§Ø¨ÙĦ":1045,"Ø³Ø§Ø²ÛĮ":1046,"Ø§ÙĪØ±":1047,"ĠØ¯Ø§Ø®":1048,"ÙĨØ¯ÛĮ":1049,"ÙĦØ³":1050,"ĠØ±ÙĪØ´":1051,"ĠÙĪØ§ÙĤØ¹":1052,"ĠÙģØ¹Ø§ÙĦÛĮØª":1053,"ĠÙħØ´Ø®Øµ":1054,"ĠÚĨÙĩØ§Ø±":1055,"ĠÚ©Ø§Ø±Ø¨Ø±Ø§ÙĨ":1056,"ĠÙħØ±Ú©":1057,"Ø§Ø³Ø¨":1058,"ĠÙ¾Ø´Øª":1059,"ÙĩÙĨ":1060,"Ø³Ø±":1061,"Ø§ÛĮØ±":1062,"ĠØ³Ø§Ø¹Øª":1063,"ĠØ¯ÙĨÛĮ":1064,"Ø³ØªØ±":1065,"ĠÙħØ¬Ùħ":1066,"Ġ--":1067,"ĠÚ©Ø³Ø¨":1068,"Ø¨Ø±ÛĮ":1069,"Û¸":1070,"ÙĤÙĦ":1071,"ĠØ¯ÙĪÙĦØª":1072,"Ø°ÛĮØ±":1073,"Ø¯ÙĨ":1074,"ÙĦÛĮÙĩ":1075,"ĠÙĪÙĤ":1076,"ĠØ¬Ø²":1077,"ĠØ¯Ø§Ø±Ø§ÛĮ":1078,"ĠØ²Ø¨Ø§ÙĨ":1079,"ĠØ´Ú©":1080,"ĠØ¯Ø§ÙĨØ´Ú¯Ø§Ùĩ":1081,"ÛĮØ´Ùĩ":1082,"ĠØªØ£":1083,"ĠÙģÙĤ":1084,"ĠÚ©ÙĨÛĮÙħ":1085,"ĠÙĨØ§":1086,"ĠØ³Ø§Ùħ":1087,"ĠØ¬ÙĩØ§ÙĨ":1088,"Ø¯ÙĩØ§ÛĮ":1089,"Ø¨Ø§Ø·":1090,"ĠØ¹Ø±Ø¶Ùĩ":1091,"ĠÙĨØ®":1092,"ĠØ§ÙĪÙĦÛĮÙĨ":1093,"ĠØ³Ø·":1094,"ĠÙħÙĦÛĮ":1095,"ÛĮØ´ÙĨ":1096,"ĠÙħÙĨØ·ÙĤÙĩ":1097,"ĠØ¢ÙħÙĪØ²":1098,"ĠÙħÙĨØªØ´Ø±":1099,"Ú¯ÛĮØ±Ø¯":1100,"ĠØ²ÙħØ§ÙĨÛĮ":1101,"ĠÙĪØ²":1102,"Ø§Ø¨Ø±":1103,"ÙĪØ§Ø±":1104,"an":1105,"Ø¯Ø§Ø´Øª":1106,"ĠÙħØ³Øª":1107,"ÙģÙĩ":1108,"ĠÙĨØ³Ø®Ùĩ":1109,"Ø³ØªÛĮ":1110,"Û¶":1111,"ĠØ´Ú©ÙĦ":1112,"ĠÙģØ±Ø¯":1113,"ĠÛ¸":1114,"ĠØ¯ÛĮØ¯":1115,"ÙĪÛĮØ¯":1116,"ĠØ§Ø¨Øª":1117,"Ø±Ø¨Ùĩ":1118,"ĠÙħÙĪÙģÙĤ":1119,"ĠØ¯Ø±ÛĮØ§ÙģØª":1120,"ĠÙĩÙĪØ§":1121,"ĠØ³Ø§ÛĮØª":1122,"ÛĮÚ©ÛĮ":1123,"ĠØ¨Ø±Ø±Ø³ÛĮ":1124,"ĠÙħØ¬ÙħÙĪØ¹":1125,"Û·":1126,"ĠØ§ÙĤØª":1127,"Ú©ØªØ±":1128,"ĠØ´Ø¨Ú©Ùĩ":1129,"ĠØ®Ø¯Ùħ":1130,"ÙĪÙĨØ§":1131,"Ú©ÙĪ":1132,"ĠØºØ°":1133,"Ø±Ø§ÛĮØ·":1134,"Ø§ÙĨØ³":1135,"ĠØŃØ¯ÙĪØ¯":1136,"ĠÙĨÛĮØ±":1137,"ĠØ´Ø±Ø§ÛĮØ·":1138,"ĠØ¬ÙħÙĦÙĩ":1139,"ĠÙĨØ²Ø¯":1140,"ĠÙĤØ¯Ø±":1141,"ĠØ¨ÙĩØªØ±ÛĮÙĨ":1142,"ĠØ¨ÙĩØ±Ùĩ":1143,"ĠÙĤØ¨ÙĦ":1144,"ĠØ¯ÛĮÚ¯Ø±ÛĮ":1145,"ĠØ¨ÙĪØ¯ÙĨØ¯":1146,"ĠM":1147,"Ù¾ÛĮ":1148,"ĠÙħØ¹Ø±ÙģÛĮ":1149,"ĠØ§Ø±ØªØ¨Ø§Ø·":1150,"ĠØŃØ¶":1151,"ÙĦØª":1152,"ĠÙĩØ¯Ùģ":1153,"Ø§Ø²Ùħ":1154,"ĠØ®ÛĮÙĦÛĮ":1155,"ĠØ¯ÙĦØ§Ø±":1156,"âĢĮâĢĮ":1157,"ĠØ§ØŃØªÙħØ§ÙĦ":1158,"ĠÛ·":1159,"ĠÚ©ÙĪÚĨ":1160,"ÙĨØª":1161,"ĠÛ²Û°":1162,"ĠØ²ÙħÛĮÙĨÙĩ":1163,"Ø§ÙĩÛĮ":1164,"ĠÙĩÙĪØ´ÙħÙĨØ¯":1165,"Ø±Ø¨":1166,"ĠØ¢Øº":1167,"Û±":1168,"ÛĮØ±Ùĩ":1169,"ĠØ¯ÙĪØ±Ø¨ÛĮÙĨ":1170,"ĠØ¹Ø¨":1171,"or":1172,"Ø±Ø§Ùģ":1173,"ĠØ§ÙĤØªØµ":1174,"Ú©ÙĨÙĪÙĨ":1175,"Ø«ÛĮØ±":1176,"ĠØ§Ø³ØªØ§ÙĨ":1177,"ÙĪÙĦÛĮ":1178,"Ø¯ÙĩÙĨØ¯":1179,"ĠØ¯Ø±Ø¨Ø§Ø±Ùĩ":1180,"Ø¦ÛĮØ³":1181,"ĠØ±ÙĨÚ¯":1182,"ĠØ®Ø§Øµ":1183,"ĠØ·Ø±ØŃ":1184,"ĠÚ©Ø±Ø¯ÙĨØ¯":1185,"Ú©Ø§Ø±ÛĮ":1186,"Ø¹ÙĨÛĮ":1187,"ØªÛĮØ¬Ùĩ":1188,"ĠØ§Ø³Ø§Ø³":1189,"ĠØ§Ù¾ÙĦ":1190,"ĠÙħØŃØµÙĪÙĦØ§Øª":1191,"ĠØ§Ø¶":1192,"ÙĩØ±Ø§ÙĨ":1193,"ĠØ·Ø±ÛĮÙĤ":1194,"ĠÚ©ÙĪØ¯":1195,"Ø®Ø±":1196,"ĠÙ¾Ø§Ø±":1197,"ĠÚ¯ÛĮ":1198,"ĠÙĪØ§":1199,"ĠP":1200,"ar":1201,"Ø§ÙĦØ¨":1202,"ĠØ±ÙĤ":1203,"ĠØ±Ø§ÛĮ":1204,"ĠØ¯ÙĪØ±Ùĩ":1205,"ĠÙħØµØ±Ùģ":1206,"ĠÚ©ÙĨØ§Ø±":1207,"ĠØ¨Ø§Ø´ÙĨØ¯":1208,"ĠØ´ÛĮ":1209,"ĠÙģÙĤØ·":1210,"ĠÙħÛĮÙĦ":1211,"ÛĮÙĨØ¯Ùĩ":1212,"ĠØ´ÙĪØ±":1213,"ĠØ¢Ø±":1214,"ĠØ´Ø§Ùĩ":1215,"ĠØ§Ø®Øª":1216,"ĠÙħÚ©":1217,"ÙħÛĮÙħ":1218,"ĠØ¬Ø§Ùħ":1219,"ĠÙ¾Ø±Ø¯Ø§Ø®Øª":1220,"ĠØ¢ØºØ§Ø²":1221,"ĠØµÙģØŃÙĩ":1222,"ĠÚĨØ±Ø§":1223,"ĠØªÙĩØ±Ø§ÙĨ":1224,"ĠÙĨØ¯Ø§Ø±Ø¯":1225,"en":1226,"ĠØªØ§Ø±ÛĮØ®":1227,"ØµÙĪØµ":1228,"ĠØªØ¹Ø¯Ø§Ø¯":1229,"ÚĨÛĮ":1230,"ĠØªÙĩ":1231,"ĠÙĤØ¯Ø±Øª":1232,"Ú©ÙĨÛĮØ¯":1233,"ĠØ¬ÙĨÚ¯":1234,"ÙħØ§ÛĮÙĩ":1235,"ĠÙ¾ÙĨØ¬":1236,"ĠØ¯ÙĪÙħ":1237,"Ø±Ø³Ø¯":1238,"Ø¯ÙĪØ¯":1239,"Ø§Ø±Ø§ÙĨ":1240,"ĠØ¨ÙĩØªØ±":1241,"ĠÙħØ³Ø¦":1242,"ĠØ¬ÙħÙĩ":1243,"ĠØ´Ø±ÙĪ":1244,"ĠØ´Ø§ÙħÙĦ":1245,"ĠØŃÙĤ":1246,"ĠÛĮØ¹ÙĨÛĮ":1247,"Ú¯Ø²":1248,"ĠÙĩØ²ÛĮÙĨÙĩ":1249,"ØµÙĦ":1250,"ĠÙĪØ¨":1251,"ĠÙħÛĮØ²Ø§ÙĨ":1252,"ĠÙĨØªÛĮØ¬Ùĩ":1253,"ĠÙħØ¯Øª":1254,"ĠØ¯ÙĨ":1255,"ĠÙħØ«ÙĦ":1256,"Ø®ÙĪØ±Ø¯":1257,"ĠÙĩÙĨÚ¯":1258,"ĠÚ©ÙħÛĮ":1259,"Ø³ÙĪÙĨ":1260,"ĠØ³Ùģ":1261,"ĠØ§Ø³ÙĦØ§Ùħ":1262,"ØªÙĪØ±":1263,"ĠØ«Ø¨Øª":1264,"ĠØ§Ø«Ø±":1265,"ĠØ³Ø±ÙħØ§ÛĮÙĩ":1266,"ĠÚĨÙĨÛĮÙĨ":1267,"ĠÙĨØ®Ø³Øª":1268,"Ø¯ÛĮØ¯":1269,"ĠØ´Ø±ÙĪØ¹":1270,"ĠØ¢ÛĮÙĨØ¯Ùĩ":1271,"ĠØŃØ¶ÙĪØ±":1272,"Ø§ÙĦÙĩ":1273,"ĠØ±Ø¦ÛĮØ³":1274,"ĠØªÙĦØ§":1275,"at":1276,"ĠÙĪÙĤØªÛĮ":1277,"ĠØ³Ø·ØŃ":1278,"ĠØ®ØµÙĪØµ":1279,"ĠÙĤØ§Ø¨ÙĦÛĮØª":1280,"ĠØ§ÙĤØ¯Ø§Ùħ":1281,"Ø¬Ø±":1282,"ØªÙĪÙĨ":1283,"Ø§ÙģØª":1284,"ĠØ§Ø¬ØªÙħØ§":1285,"ÙģØ§ÙĪØª":1286,"ĠØ·Ø¨":1287,"ĠÙ¾Ø§ÛĮØ§ÙĨ":1288,"ĠÙĤØ³":1289,"Û³":1290,"ØªÙĪ":1291,"Ø§ÙĦØ§Øª":1292,"ĠÙħØ±Ø¨ÙĪ":1293,"ĠÙħÙĪØ¬ÙĪØ¯":1294,"ĠØ§Ùĩ":1295,"Ø®Ø§ÙĨÙĩ":1296,"ĠØ´Ø§ÛĮØ¯":1297,".Â»":1298,"ĠÚ¯ÙĪÚ¯ÙĦ":1299,"Ø¯ÛĮÙĦ":1300,"ÙĪÙĦØ§":1301,"ĠØ¨ÛĮØ´ØªØ±ÛĮ":1302,"Ø§ÙģÙĩ":1303,"ĠØ§ÙĨÚ¯":1304,"ĠØ¬Ø§ÙĨ":1305,"ĠØµØŃ":1306,"ĠØ§Ù¾ÙĦÛĮÚ©":1307,"ÙĪØ²Ùĩ":1308,"ĠÚ©ÙĦÛĮ":1309,")ØĮ":1310,"ĠØªØ¨Ø¯ÛĮÙĦ":1311,"ĠÙħÙĪØ§Ø±Ø¯":1312,"ĠØ·ÙĪØ±":1313,"ĠÙħÙĨØ§Ø³Ø¨":1314,"ĠØ¨ÙĪØ¯ÙĨ":1315,"Ú¯ÙĪÛĮØ¯":1316,"ĠØ¯ÙĨØ¨Ø§ÙĦ":1317,"ĠÛ³Û":1318,"ĠØ³Ø±Ø¹Øª":1319,"ÙĦØ§Ø³":1320,"Ú©Ø³ÛĮ":1321,"ĠØ¬ÙĩØ§ÙĨÛĮ":1322,"ĠØ®Ø§ÙĨÙĩ":1323,"ĠÙĩÙĨÙĪØ²":1324,"Ø§Ø·Ø±":1325,"ĠØ³ÙģØ±":1326,"ĠÙħØ´ØªØ±ÛĮ":1327,"ĠØªØ¬Ø±Ø¨Ùĩ":1328,"ĠØªÙĦ":1329,"ĠÙĤØ§ÙĨ":1330,"ĠØ¬Ø°":1331,"ĠÛĮÙĩ":1332,"ĠÚĨØ´Ùħ":1333,"ĠØ¯ÙĩØ¯":1334,"ĠØªØµÙħÛĮÙħ":1335,"ĠØªØµÙĪÛĮØ±":1336,"ĠÙģÙĨØ§":1337,"ĠÙħØ§ÛĮ":1338,"Ġ{":1339,"ĠØ§Ø¬ØªÙħØ§Ø¹ÛĮ":1340,"Ø§Ø¨Øª":1341,"ĠÙ¾Ø§Ø³":1342,"ĠÙĪÛĮØ±":1343,"ĠÙħØªØŃ":1344,"ĠÚ©ÛĮÙģ":1345,"ĠØªÙĦØ§Ø´":1346,"ĠÙħØ¬ÙħÙĪØ¹Ùĩ":1347,"ĠØ³Ø§Ø®ØªÙĩ":1348,"ĠØ¨ÛĮÙħØ§Ø±ÛĮ":1349,"ĠÚĨÙĪÙĨ":1350,"ĠØ±Ø³ÛĮØ¯":1351,"ĠØ·Ø±Ùģ":1352,"al":1353,"ĠÙĨØ±Ùħ":1354,"Ø´Ø¯Ùĩ":1355,"ĠØ§ÛĮÙĨØªØ±":1356,"Ø¯Ø§Ø±ÛĮ":1357,"ĠT":1358,"ÛĮÙĨÚ¯":1359,"ĠØ§Ù¾ÙĦÛĮÚ©ÛĮØ´ÙĨ":1360,"ĠØµØ¯":1361,"ĠÙ¾Ø±ÙĪÚĺÙĩ":1362,"ĠØ¬ÙħÙĩÙĪØ±ÛĮ":1363,"Ġ{--":1364,"ĠØ¨Ø±Ø§Ø¨Ø±":1365,"ĠØ®ÙĪØ¨ÛĮ":1366,"ĠØ§Ø¹Øª":1367,"Ú¯Ø°Ø§Ø±":1368,"ĠØ§ÛĮÙħ":1369,"ĠØªÙĦÙģ":1370,"ĠØ§ÙħØ±ÙĪØ²":1371,"Ú¯Ø±Ø§ÙĨ":1372,"00":1373,"ĠÙģÙĨØ§ÙĪØ±ÛĮ":1374,"Ø§Ø¨ÙĦ":1375,"ĠØ·ÛĮ":1376,"ĠÙĩÙģØªÙĩ":1377,"Ø§ÙģÛĮ":1378,"ĠÚ©Ø§Ø±ÛĮ":1379,"ĠÙĪÛĮÚĺ":1380,"Ø§Ø¶Ø±":1381,"ĠG":1382,"ĠÙħØ¨":1383,"ĠÚ¯ÛĮØ±":1384,"ĠØ¹ÙĦØ§ÙĪÙĩ":1385,"ĠØ¨Ø§ÙĨ":1386,"ĠÛ±Û°":1387,"ÛĮÚ©Ø³":1388,"ÙĪÛĮØª":1389,"ĠÚ©ÙĨØªØ±":1390,"ĠÚ¯Ø§Ø²":1391,"Ú¯Ø°Ø§Ø±ÛĮ":1392,"ĠÙĦØ§Ø²Ùħ":1393,"Ø³ØªØ§":1394,"Û±Û":1395,"ĠØªÚ©":1396,"Ø´ÛĮÙĨ":1397,"ĠÙ¾ÛĮØ´Ø±":1398,"Ú©ÛĮÙĦ":1399,"ĠØ®Ø§ÙĨÙĪ":1400,"ĠÙĨÙĤØ´":1401,"Ø®Ø´":1402,"ĠØŃÙĪØ²Ùĩ":1403,"ĠÙħØ§ÙĦÛĮ":1404,"ĠÙħØ±Ø¨ÙĪØ·":1405,"es":1406,"ĠØ¯Ø±Ø¢":1407,"ĠÙĪØ¶":1408,"ĠØ·Ø¨ÛĮ":1409,"ĠD":1410,"ĠØ¨Ø¹":1411,"ĠØ³ÙĪÛĮ":1412,"ĠÙĪÛĮÚĺÚ¯ÛĮ":1413,"Ø¶Ø§":1414,"ĠÚ©ÛĮÙĦ":1415,"ĠÙĩØ§ÛĮÛĮ":1416,"ĠØŃØ±Ùģ":1417,"ĠÙħØ³ÛĮØ±":1418,"Ø¦ÛĮ":1419,"ĠØŃØ§Ø¶Ø±":1420,"Ø³Ùħ":1421,"ÙĦØ§ØŃ":1422,"ÙĪØ¯Ùĩ":1423,"ĠØ¬ÙĦ":1424,"ÛĮØ·":1425,"ĠÚĨÛĮØ²ÛĮ":1426,"ĠØªØŃØª":1427,"Ú©ÙĨÛĮÙħ":1428,"ĠÙħØŃÛĮØ·":1429,"Ù¾Ø§ÙĨÛĮ":1430,"ĠØ§ÙĨØªÙĤ":1431,"ĠÙĤØ³ÙħØª":1432,"Ø±ÙĪØ¯":1433,"Ø§Ø¨Ùĩ":1434,"ĠØ¢Ø³ÛĮ":1435,"ĠØ´Ø¯ÙĨØ¯":1436,"ĠØ®ÙĪØ¨":1437,"ØªÙĦ":1438,"Ù¾Ø±":1439,"ĠØ§Ø±ÙĪ":1440,"Ø¸Ø±":1441,"Ø§Ø´ØªÙĩ":1442,"ĠÙ¾Ø±Ø¯Ø§Ø²":1443,"ĠØ±Ø´Ø¯":1444,"ĠÙħÙĪØ¨":1445,"ĠØ¢Ø®Ø±":1446,"ĠÚ©Ø§ÙħÙĦ":1447,"ĠØ¬ÙĪ":1448,"ÙħØ²":1449,"ĠÙħØŃØ¯ÙĪØ¯":1450,"Ú¯ÙĪÙĨÙĩ":1451,"ĠÙģÚ©Ø±":1452,"Û¹":1453,"ĠØ¨ÛĮØ§ÙĨ":1454,"ĠÚ©ÙĪÚĨÚ©":1455,"ĠÙģØ±Ø§":1456,"ĠÚ©ÙĨØªØ±ÙĦ":1457,"Ø§Ø¨Ø¹":1458,"ĠØ®Ø¯ÙħØ§Øª":1459,"ĠÙĨØ²Ø¯ÛĮÚ©":1460,"ÙĪØ±Ø¯Ùĩ":1461,"ĠØ³Ø§ÛĮØ±":1462,"ĠÛĮØ§ÙģØª":1463,"ÙħØ§ÛĮÛĮ":1464,"Ø¨Ø·":1465,"ĠØ§ÙģØª":1466,"ĠÙħØ¯ÛĮØ±ÛĮØª":1467,"ĠØ³Ø®":1468,"ĠØ§Ø¶Ø§ÙģÙĩ":1469,"ĠØ¨ØŃ":1470,"ĠØŃØ§ÙĦØª":1471,"Ø±ÚĺÛĮ":1472,"ĠÙĤØ¯":1473,"ĠØ¨Ú¯ÛĮØ±":1474,"Ù¾Ø§":1475,"ĠØ§Ø³ÙĦØ§ÙħÛĮ":1476,"ĠØ³ÙħØª":1477,"ĠØ§Ø±Ø²Ø´":1478,"ĠÙħÙĪØ§Ø¯":1479,"Ġ-":1480,"ÙĨØ¯Ú¯Ø§ÙĨ":1481,"ĠÙ¾ÛĮØ±":1482,"ĠØ§ÛĮØ±Ø§ÙĨÛĮ":1483,"ÙĪÙĩØ§ÛĮ":1484,"ĠØ³Ø®Øª":1485,"ÙħØ§ÛĮØ´":1486,"ÙĪØ³Øª":1487,"ĠØ´Ø±":1488,"Ú©ÙĨÙĨØ¯Ùĩ":1489,"ĠÙħØ«Ø§ÙĦ":1490,"ÙĪÙĦÙĪ":1491,"ĠÙĩÙĪ":1492,"ĠÚ©Ø§ÙĨ":1493,"ĠØ§ÙĨØ³Ø§ÙĨ":1494,"Ø±Ø§ÛĮÙĨ":1495,"ĠØ¨ÙĨØ§Ø¨":1496,"ĠØ§Ø®ØªÛĮ":1497,"ĠØ®ÙĪØ§ÙĨ":1498,"ĠÙħØ·Ø§ÙĦ":1499,"Ú©Ø±ÙĪ":1500,"ĠÙĦÙĪ":1501,"ĠØ´ÙĪÙĨØ¯":1502,"ĠØ¨Ø¯ÙĨ":1503,"ĠØ¨ÙĨØ§Ø¨Ø±Ø§ÛĮÙĨ":1504,"Ø§ÙħÛĮÙĨ":1505,"ĠØ§ÙĨØ¯Ø§Ø²Ùĩ":1506,"ĠÙħØ°":1507,"ĠÙħØ±Ú©Ø²":1508,"ĠÚ©Ø±ÙĪÙĨØ§":1509,"ĠÙħØº":1510,"Ġ3":1511,"ĠH":1512,"ĠØ¢ÙħÙĪØ²Ø´":1513,"ĠR":1514,"ÙĩÙĨÚ¯":1515,"ĠI":1516,"ĠØ¯ÙĩÛĮØ¯":1517,"Ø¬Ùħ":1518,"ĠØ®Ø§ÙĨÙĪØ§Ø¯Ùĩ":1519,"ĠØ®Ø§Ø·Ø±":1520,"Ø§Ø¨ÙĤ":1521,"ĠØŃÙĦ":1522,"ÙĦØ§Ùģ":1523,"ĠÙħØªØ±":1524,"Ø´ÙĨØ§Ø³":1525,"Ø§ÙĦØª":1526,"ĠØ§ÙĨØ±ÚĺÛĮ":1527,"ĠØ§Ø®ÛĮØ±":1528,"ĠÛ±Û²":1529,"ĠØ§ÙĨØªØ¸":1530,"ĠØŃÚ©":1531,"ĠÙħÙĪØ¨Ø§ÛĮÙĦ":1532,"Ø³ÙĪÙĨÚ¯":1533,"ĠØ¯Ø§Ø³Øª":1534,"ĠØ¯Ø§Ø±ÛĮØ¯":1535,"ĠÚ¯Ø³ØªØ±":1536,"Ø³Ø§Ø²":1537,"ĠØªØ®":1538,"ĠØ³Ø§ÙħØ³ÙĪÙĨÚ¯":1539,"ĠÙħÙĨØ¸":1540,"ĠØ³Ù¾Ø³":1541,"ÙĪØ§Ø±Ùĩ":1542,"ĠÙħØ´Ø§Ùĩ":1543,"ĠÙĨØµ":1544,"Ø²Ø§Ø±Øª":1545,"ĠØ´ÛĮØ±":1546,"ĠÙħÛĮÙĦØ§Ø¯ÛĮ":1547,"Ø±ÛĮØ§ÙĨ":1548,"ĠØªØ´Ú©ÛĮÙĦ":1549,"Ø§ÙĩÙħ":1550,"ÙĩØ§ÛĮØª":1551,"ĠÙħÙĦ":1552,"ĠØ¬Ø§":1553,"ĠØ¯ÙĪØ³Øª":1554,"ĠÙħØªÙĨ":1555,"ĠØ³ÙĦ":1556,"ĠØ§ÙĪÙĨ":1557,"ÙģØ§ÙĤ":1558,"ĠB":1559,"ĠØ¬ÙĦÙĪ":1560,"ÂŃ":1561,"ÙĪØªÛĮ":1562,"ĠØ¯ÙĨÛĮØ§":1563,"ĠØ®ÙĪØ§ÙĩÙĨØ¯":1564,"ĠÙĪØ²Ø§Ø±Øª":1565,"ĠØ³Øª":1566,"ĠÚ©Ø§ÙĦ":1567,"ÛĮÙģÙĪÙĨ":1568,"Ù¾Ø±Ø¯":1569,"ĠâĢĮ":1570,"ĠÙħØ¹ÙħÙĪÙĦØ§":1571,"ĠØ±Ø§ØŃ":1572,"ĠØ¯Ø§Ø®ÙĦÛĮ":1573,"ĠØŃØ§ÙĦØ§":1574,"ĠÙĩÙħÚ©Ø§Ø±ÛĮ":1575,"ĠÙħØŃÙĦ":1576,"ĠÙĪØ²ÛĮØ±":1577,"Ø±Ø¨ÛĮ":1578,"ĠØªÚ©ÙĨ":1579,"ĠÙĪÛĮÚĺÙĩ":1580,"ĠØ¢ÛĮÙģÙĪÙĨ":1581,"it":1582,"ĠØ¨Ø±Ø®ÙĪØ±Ø¯":1583,"ĠØ§Ø®ØªÛĮØ§Ø±":1584,"ĠÙģÛĮ":1585,"ĠÙģØ§Ø±":1586,"Ø§Ø®ØªÙĩ":1587,"ĠÙĨØ¯Ø§Ø±":1588,"ĠÙĨÙĪØ±":1589,"ĠØ³Ø§Ø¯Ùĩ":1590,"ĠØ¬ÙĩØª":1591,"ĠØ§ÙĤØªØµØ§Ø¯ÛĮ":1592,"ĠÙĨØ¨ÙĪØ¯":1593,"ĠØ§ÙĦÚ©ØªØ±":1594,"Ø§ÛĮÙĩ":1595,"ĠÙ¾ÙĪØ´":1596,"Ø¤":1597,"ĠÙĦØŃ":1598,"ĠØ§ØªÙģØ§ÙĤ":1599,"ĠØ³Ø±ÙĪÛĮØ³":1600,"Ø±Ø®":1601,"ĠØ§ØŃØ³":1602,"Ø±Ø§ÙĨ":1603,"ĠØ¹ÙħÙĦÚ©Ø±Ø¯":1604,"ĠØ²ÛĮØ§Ø¯":1605,"ÙĤØ§ÛĮ":1606,"ĠÙħØ´Ø§ÙĩØ¯Ùĩ":1607,"ĠÙħØ§Ø±":1608,"ĠL":1609,"ĠÙ¾Ø§ÛĮÛĮÙĨ":1610,"Ø§ÛĮÙħ":1611,"ĠÙģØ¶Ø§ÛĮ":1612,"ĠÙ¾Ø²Ø´":1613,"ĠØ¹Ú©Ø³":1614,"ĠØªØŃÙĤÛĮÙĤ":1615,"ÙĪØ§ÙĨÛĮ":1616,"ĠÙ¾Ø§Ø³Ø®":1617,"ĠÚ©ÛĮÙģÛĮØª":1618,"ĠØ¹Ø¶":1619,"ĠØªÙħØ§":1620,"ĠÚĨÛĮÙĨ":1621,"Ø´ÙĨØ¨Ùĩ":1622,"ĠÙ¾ÙĦÛĮ":1623,"ĠÙĨÚ¯Ø§Ùĩ":1624,"Ø®ÙĪØ§Ø³Øª":1625,"ĠÙĦØ¨":1626,"ĠØ¯Ø§Ø¯ÙĨ":1627,"ĠØ³ÙĨÚ¯":1628,"ĠÙħØ´Ú©ÙĦØ§Øª":1629,"ĠØµØ±Ùģ":1630,"ĠØ¸Ø§Ùĩ":1631,"ĠØŃØ§ÙĦÛĮ":1632,"ĠÙħÛĮÙĦÛĮØ§Ø±Ø¯":1633,"ĠØ§Ú©":1634,"ÙĪØ±Ø´":1635,"ÛĮØ²":1636,"ĠØ§ÙĨØªØ¸Ø§Ø±":1637,"ĠÚ¯Ø±Ø¯Ø´":1638,"Ø¯Ø§Ø¯":1639,"Ø¸ÛĮÙħ":1640,"le":1641,"ĠØµÙĨØ¹Øª":1642,"ĠØ¹ÙħÙĦÛĮ":1643,"ĠÙħÙĤØ§Ùħ":1644,"ĠÙĨÚ¯Ùĩ":1645,"ĠÙħÙĪØªÙĪØ±":1646,"Ø²ÙĨØ¯":1647,"ĠÙħØ±Øª":1648,"ĠØ§ÙĨØ¯Ø±ÙĪ":1649,"ĠØŃØ³Ø§Ø¨":1650,"ĠØŃÙħ":1651,"ĠÚ©Ø§ÙħÙĦØ§":1652,"ĠØ¨Ø±Ø³":1653,"ĠØ¨Ø±ÙĤ":1654,"ĠÚ©ÙħØªØ±":1655,"ĠÙĪØ§ØŃ":1656,"ĠÛ¹Û":1657,"ÙħÙĨØ¯Ø§ÙĨ":1658,"Ø¡":1659,"ĠÙħØ±ØŃ":1660,"Ø§ØµÙĦÙĩ":1661,"ĠØªÙģ":1662,"ĠÙĨÙħÙĪÙĨÙĩ":1663,"Ø®ÙĪØ§ÙĩØ¯":1664,"ĠØ®ÙĪØ´":1665,"Ø¬Ø¨":1666,"Ø±ÛĮÙģ":1667,"ĠÙ¾Úĺ":1668,"ÙħÙĦÙĦÛĮ":1669,"ĠØªÙĦÙģÙĨ":1670,"ĠÙħÙĪØ³ÛĮ":1671,"ĠÚĨÛĮØ²":1672,"ĠÙĪÙĤØª":1673,"ĠØ§ÙģØ²ÙĪØ¯":1674,"ĠØ³ÙĪÙħ":1675,"ĠØ³Ø±ÛĮØ¹":1676,"ĠØ¯Ø§Ø³ØªØ§ÙĨ":1677,"ĠÙĩÙĨÚ¯Ø§Ùħ":1678,"ĠÙĤÙĦ":1679,"Ø§ÛĮØ¬":1680,"Ġ5":1681,"ĠØ¯Ø±Ø³Øª":1682,"ĠÙ¾Ø°ÛĮØ±":1683,"Ø±ÛĮÙħ":1684,"ĠØªÙĩÛĮÙĩ":1685,"ĠÚ©ÙĨÙĨØ¯Ùĩ":1686,"ÙĪØ¨ÛĮ":1687,"ĠØ³Ø±Ø§":1688,"Ú©ØªÙĩ":1689,"ĠÙĩÙħÛĮØ´Ùĩ":1690,"ĠÙħØ§ÙĨ":1691,"ro":1692,"ĠØ¹ÙħÙĪÙħÛĮ":1693,"Ø®ØµØµ":1694,"ĠÙĩÙĨØ±":1695,"ĠE":1696,"ĠØ¯ÙĤÛĮÙĤ":1697,"ĠØ®ÙĪØ¯Ø´":1698,"ic":1699,"ÙħÙĪÙĨ":1700,"ĠØ³Ø§Ø²ÛĮ":1701,"ĠØ¨Ø±Ú¯Ø²Ø§Ø±":1702,"ĠF":1703,"Ġ4":1704,"ĠØ´Ø®ØµÛĮ":1705,"ĠØ§Ø¬Ø±Ø§ÛĮ":1706,"ĠÙĤØµØ¯":1707,"ÛĮØ¯Ùĩ":1708,"ĠØ§ØŃØ³Ø§Ø³":1709,"ĠÙħØ±ØŃÙĦÙĩ":1710,"ĠÙĤØ§ÙĨÙĪÙĨ":1711,"ÙĪØ§Ø¹":1712,"ĠÙģÙĪØª":1713,"ĠÚ©ÙħÙ¾Ø§ÙĨÛĮ":1714,"ĠØŃØ±Ú©Øª":1715,"ĠÙĨØ´Ø¯Ùĩ":1716,"ĠØ¢ÛĮØ§":1717,"ĠÙĨÙĩØ§ÛĮØª":1718,"ĠÛ²Û°Û°Û":1719,"Ø¨ÛĮÙĩ":1720,"Ø¢ÛĮØ¯":1721,"ĠØ®Ø§Ø±Ø¬":1722,"ĠØ§ÙĨÙĪØ§Ø¹":1723,"ĠØ·Ø¨ÙĤ":1724,"ĠÚ©Ø§ÙģÛĮ":1725,"ĠÙ¾ÛĮØ§Ùħ":1726,"ĠÙħØ¨Øª":1727,"ĠØŃØ§Ùģ":1728,"Ø§ÙĩØ§ÛĮ":1729,"re":1730,"st":1731,"ĠÛ±Û¸":1732,"ĠÚ©Ø³ÛĮ":1733,"ĠÙ¾ÛĮØ´ÙĨÙĩ":1734,"Ø²Ø§Ø±ÛĮ":1735,"ĠÙĨÛĮÙħ":1736,"Ø¯ÙĩØ§":1737,"Ø¶Ø§ÛĮ":1738,"ĠÙĨÙħØ§ÛĮØ´Ú¯Ø±":1739,"ĠÚ©Ø´ÙĪØ±ÙĩØ§ÛĮ":1740,"ĠØ¨ÙĩØ¨ÙĪØ¯":1741,"ĠØ§Ø¨Ø²Ø§Ø±":1742,"ĠÚ©ÛĮÙĦÙĪÙħ":1743,"ĠÙĪØ¶Ø¹ÛĮØª":1744,"ĠØ§Ø¬Ø±Ø§":1745,"ĠØ¨Ø³ØªÙĩ":1746,"ĠØ¯Ø§Ø®ÙĦ":1747,"ÙĪÙĨØª":1748,"ĠÙħØ¹Øª":1749,"ĠØ¯ÙĪØ±Ø§ÙĨ":1750,"ĠØ¯ÛĮØ¯Ùĩ":1751,"ĠÚ¯ÙĪÙĨÙĩ":1752,"Ġt":1753,"ĠØ¯Ø³ØªØ±Ø³ÛĮ":1754,"ĠØ¨Ø±ÙĨØ¯":1755,"ĠØ¢ÙħØ¯Ùĩ":1756,"ĠØªÙħØ§ÙħÛĮ":1757,"ĠØ¬Ø±ÛĮØ§ÙĨ":1758,"ĠØ±Ùĩ":1759,"ĠÙĨÙĪØ´ØªÙĩ":1760,"ĠØ¨Ø®Ø´ÛĮ":1761,"ĠÙħØŃØ³":1762,"ÙģØ¹":1763,"Â»ØĮ":1764,"ÙĪÚ©":1765,"ÙĦÙĤ":1766,"ĠÛ¹":1767,"ĠÚ©ÙĪØª":1768,"Ø´Ú©":1769,"Ø§ÙĪÛĮØ±":1770,"Ġ20":1771,"ĠÙħØ²":1772,"ĠØ´ÙĩØ±ÛĮ":1773,"ĠØ¢Ø²ÙħØ§ÛĮØ´":1774,"ĠØ±Ø§Ø¨":1775,"ĠÙħØ§Ø¯Ø±":1776,"ÙĪÛĮÙĩ":1777,"ØµÙĪØ±Øª":1778,"ĠÛĮØ§ÙģØªÙĩ":1779,"ĠØªØ§Ø«ÛĮØ±":1780,"ĠØ·Ø¨ÛĮØ¹ÛĮ":1781,"ĠØŃÙħÙĦ":1782,"ÛĮØ¨Ø§ÙĨÛĮ":1783,"ĠÙ¾ÙĪÙĦ":1784,"ĠÙħÙĪØ³ÛĮÙĤÛĮ":1785,"ĠØ³ÛĮÙĨ":1786,"ĠØ§Ø¸Ùĩ":1787,"ĠÛ±Ûµ":1788,"ĠÙĨÚ©ØªÙĩ":1789,"ĠØ´ÙĪØ±Ø§ÛĮ":1790,"ĠÙ¾ÚĺÙĪÙĩ":1791,"ĠØ¢ÙĪØ±Ø¯":1792,"ĠØ¸Ø±Ùģ":1793,"ĠØ¨ÙĦÚ©Ùĩ":1794,"ĠØ¨Ø¹Ø¯ÛĮ":1795,"Ú¯ÙĪÙĨ":1796,"ĠÙģÙĦ":1797,"ĠÙģØ±Ø§ÙĩÙħ":1798,"ĠØ¹Ø§ÙħÙĦ":1799,"ĠØ¬Ø§ÙħØ¹Ùĩ":1800,"ĠØ§Ú©ÙĨÙĪÙĨ":1801,"ĠØŃÙģ":1802,"ÙĪÙĦÙĪÚĺÛĮ":1803,"ĠÙħÙĨØ§Ø¨Ø¹":1804,"ĠØ§ØŃØªÙħØ§ÙĦØ§":1805,"ĠØ¹ÙĦÛĮ":1806,"Ù¾Ø°ÛĮØ±":1807,"ĠØªØµØ§ÙĪÛĮØ±":1808,"ÙĪÙĦÙĩ":1809,"ÙĤÛĮÙħ":1810,"ĠØªÙĪÛĮ":1811,"Ø±ÙĪÙģ":1812,"ÙĪØ¦":1813,"ĠÙħÙĪÙĤ":1814,"ĠØ±Ø§Ø¨Ø·Ùĩ":1815,"ĠÙĪÛĮØ±ÙĪØ³":1816,"ĠÙĨØ®Ø³ØªÛĮÙĨ":1817,"ĠÙĪØ³":1818,"ĠÙħØªØŃØ¯Ùĩ":1819,"ØµØ±":1820,"ĠÙ¾ÙĨ":1821,"ĠÙħÙģ":1822,"ĠØ±Ø³ÙħÛĮ":1823,"ĠØªØ³":1824,"ĠØ®ÙĪØ§Ø³Øª":1825,"Ø´ØªÛĮ":1826,"ĠØ¹ÙĦØ§ÙĤÙĩ":1827,"ĠØ§ÙħÙĨ":1828,"ĠØ³ÙĦØ§Ùħ":1829,"ĠØ¯Ø³ØªÙĪØ±":1830,"ĠÙĨÙħÙĪØ¯":1831,"ĠÙ¾Ø´ØªÛĮØ¨Ø§ÙĨÛĮ":1832,"ĠØªØ±Ø§":1833,"ĠØ§Ø®ØªØµ":1834,"ĠØªÙĪØ±":1835,"ĠÙĨØª":1836,"ĠØ§Ø¨ØªØ¯Ø§":1837,"Ø§Ø¯ÙĦ":1838,"ĠØ§ÙĨØªÙĤØ§ÙĦ":1839,"ĠÙħØ´Ø§Ø¨Ùĩ":1840,"ĠØ§ÛĮØ¯Ùĩ":1841,"ĠØ¬ÙħØ¹":1842,"Ø§ÙĨÛĮÙĩ":1843,"Ù¾Ø±Ø¯Ø§Ø²":1844,"ĠØ´ÙĨØ§Ø®ØªÙĩ":1845,"ĠØ²ÛĮØ±Ø§":1846,"ĠØªØ¨ÙĦÛĮ":1847,"ĠØ§Ø·ÙĦØ§Ø¹":1848,"ĠØ¯Ø®":1849,"ĠØ¨Ø§ÙĨÚ©":1850,"ĠØ§Ø¸ÙĩØ§Ø±":1851,"ÙĪØ·":1852,"ĠØ¯Ø±ÙħØ§ÙĨ":1853,"ĠÙħÙĪÙģÙĤÛĮØª":1854,"ĠÙĨØ³ÙĦ":1855,"Ù¾ÛĮÙħ":1856,"ØªÙĨ":1857,"ĠØŃØ§ÙģØ¸Ùĩ":1858,"Ø¬ÙĪ":1859,"ĠØ§ÙĨØªØ´Ø§Ø±":1860,"ĠØ¯Ø§Ø´ØªÙĨ":1861,"ĠØ§ÛĮØ§ÙĦØ§Øª":1862,"ĠÙħØ¬ÙĦØ³":1863,"Ú©Ø´":1864,"Ø³ÛĮØ¯Ùĩ":1865,"ĠÚ©Ø§":1866,"ĠØªÙĤØ±ÛĮ":1867,"ĠØµØŃØ¨Øª":1868,"ĠØ§ÙĩÙħ":1869,"ĠØ¨ÛĮØ±":1870,"ĠØŃÙħØ§ÛĮ":1871,"ĠØªØ§ÛĮ":1872,"ĠØªØ¨ÙĦÛĮØº":1873,"ĠØ¯ÙĤÛĮ":1874,"ĠØ¹Ø±Ø§":1875,"ĠØ¹ÙĪ":1876,"ac":1877,"ĠÙħÙĨØ§Ø·":1878,"ĠÚ¯Ø²ÛĮÙĨÙĩ":1879,"Ø®ÛĮØµ":1880,"ĠN":1881,"he":1882,"Ø¨Ø§Øª":1883,"ĠÚ¯ÙĦÚ©Ø³ÛĮ":1884,"ĠØ¯Ø±Ø¢ÙħØ¯":1885,"ĠÙĨØµØ¨":1886,"ĠØ¢ÛĮ":1887,"ÙĪÙħØª":1888,"ĠØ¢Ø´ÙĨ":1889,"ĠØ§ÛĮÙĨØªØ±ÙĨØª":1890,"ÙĪÛĮØ²ÛĮ":1891,"ĠØ´Ø§":1892,"ĠÙĨÙĤÙĦ":1893,"ĠØªÙĨØ¸ÛĮÙħ":1894,"ĠÙħÙĤØ§ÙĦÙĩ":1895,"ÙĤØ¯Ø±":1896,"ĠÙħØªÙģØ§ÙĪØª":1897,"ĠØªÙĪØµ":1898,"ÙĦØ§ÛĮÙĨ":1899,"ĠÙģØµÙĦ":1900,"ĠÙĨÙĪØ´Øª":1901,"ØªÛĮØ¨":1902,"ĠØªØ§Ø²Ùĩ":1903,"ĠØ¢Ø«":1904,"ĠÙģØ´Ø§Ø±":1905,"Ø´ÙĨØ§Ø³ÛĮ":1906,"ĠØ§ÙĩÙħÛĮØª":1907,"ĠÙħØŃÙħØ¯":1908,"Ø§ÛĮØ¹":1909,"ĠØ²ÙĨ":1910,"ĠÙ¾Ø±Ø¯Ø§Ø²ÙĨØ¯Ùĩ":1911,"Ø±Ú©Ø²":1912,"ĠØ§ÙĨÚ¯ÙĦÛĮ":1913,"Ø¹Ø§":1914,"ĠÚ©Ø§Ø±Øª":1915,"ĠØ¬Ø¯ÛĮØ¯ÛĮ":1916,"ĠØ±ÙĪØ³ÛĮ":1917,"ĠÙģØ§ØµÙĦÙĩ":1918,"ĠØŃÛĮ":1919,"ĠØªÙĦÙĪÛĮØ²ÛĮ":1920,"Ø¨ÙĪØ±":1921,"ĠØ¯Ø³ØªÙĩ":1922,"ĠØ®ÙĦØ§":1923,"ĠÙ¾ÛĮØ´ÙĨÙĩØ§Ø¯":1924,"Ø§Ø¬":1925,"ĠØ¯Ø§Ø±ÛĮÙħ":1926,"Ú¯ÙĪÛĮ":1927,"ĠÙĨÙĪÛĮØ³":1928,"ĠØ§Ø´Øª":1929,"ĠØ§ÙĪÙĦÛĮÙĩ":1930,"ĠÚ¯Ø±ÙģØªÙĨ":1931,"ĠØ§Ø®ØªØµØ§Øµ":1932,"ĠØ®Ø§Ø±Ø¬ÛĮ":1933,"ion":1934,"ÙĨØªÛĮ":1935,"ĠØ§Ø³ØªØ§ÙĨØ¯":1936,"Ø§Ø¨ÙĤÙĩ":1937,"ĠØ§Ø¬Ø§Ø²Ùĩ":1938,"Ø¹ÛĮÛĮÙĨ":1939,"Ø§ÙħØ¨Ø±":1940,"ĠØ¨Ø§ØªØ±ÛĮ":1941,"ĠÙħÙĨØ¸ÙĪØ±":1942,"ĠØ´ÙĪ":1943,"ĠÙĨÙģ":1944,"ÙĪØ±Ø§ÙĨ":1945,"ĠØ³Ø¨Ú©":1946,"ĠØ¨ÙĦÙĨØ¯":1947,"Ø²Ø§":1948,"ĠØªØ¹ÛĮÛĮÙĨ":1949,"ĠØ¨Ø¨ÛĮÙĨ":1950,"Ø³ÛĮÙĪÙĨ":1951,"Ú©Ø±ÙĪØ³":1952,"ĠÚ©Ø±Ùĩ":1953,"ĠÙģØ±Ø§ÙĨ":1954,"ĠÙĪØ±ÙĪØ¯":1955,"ĠØ±Ø´ØªÙĩ":1956,"Ø³ÛĮÙħ":1957,"Ø¬ÙĪÛĮ":1958,"ĠW":1959,"ĠØŃÙħØ§ÛĮØª":1960,"ĠÙħØ´ØªØ±ÛĮØ§ÙĨ":1961,"ĠØ³Ø¹ÛĮ":1962,"ĠØ§ÙħÙĪØ±":1963,"ĠØ§ÙħÛĮØ¯":1964,"ĠÙħÙĤØ§Ø¨ÙĦ":1965,"Ú¯Ø§ÙĩÛĮ":1966,"ĠØ§Ø±Ø³Ø§ÙĦ":1967,"Ø¹ÙĨÙĪØ§ÙĨ":1968,"ĠÙĪØ³ÛĮ":1969,"ÙĤØ¯":1970,"ĠØ´Ø§Ø±":1971,"ÙĨØ¯Ø§ÙĨ":1972,"Ø®ØµÙĪØµ":1973,"ĠØ¬Ø³Øª":1974,"ÙĤØ¨":1975,"Ø¹ØªÛĮ":1976,"ĠØ±Ø³ÛĮØ¯Ùĩ":1977,"ĠØ§ÙģØ±Ø§Ø¯ÛĮ":1978,"Ø§ÛĮÙĨØ¯":1979,"Ù¾ÛĮÙĪ":1980,"ĠØ¨Ø±Ø¯":1981,"ĠØ§ÙĨØ¯Ø±ÙĪÛĮØ¯":1982,"ĠØ¯ÙĩÙĨØ¯":1983,"ĠÙħØ·Ø§ÙĦØ¹Ùĩ":1984,"ĠØªÙĤØ±ÛĮØ¨Ø§":1985,"Ø§Ø¨Ø¯":1986,"ĠØªØ´Ø®ÛĮØµ":1987,"ĠØ§Ø±ÙĪÙ¾Ø§":1988,"ĠØ±ÙĪÙĨ":1989,"ĠÙħÙĨØ§Ø·ÙĤ":1990,"ĠÙĩÙĪØ§Ù¾ÛĮÙħ":1991,"ĠØµØ§Ø¯Ø±":1992,"ÙħØ§Ø¯Ùĩ":1993,"ĠØ¢Ø²Ø§Ø¯":1994,"ĠÙħØŃØ³ÙĪØ¨":1995,"ing":1996,"ĠÙĩØ³ØªÛĮØ¯":1997,"ĠØ´Ú©Ø³Øª":1998,"Ú©ÛĮØ¯":1999,"ĠØŃÙģØ¸":2000,"ĠØªØ±ØªÛĮØ¨":2001,"Ø±ÙĪÛĮ":2002,"ĠØ¯Ø³ØªÛĮ":2003,"ĠØ¢Ø«Ø§Ø±":2004,"ĠÙģØ±ÙħØ§ÙĨ":2005,"ĠÙħØ±Ú¯":2006,"ĠØ¢Ø®Ø±ÛĮÙĨ":2007,"Ú¯Ø§Ø±":2008,"ĠÙĦØ°":2009,"Ú©ÙĨÙħ":2010,"Ø¯Ø¯":2011,"ĠÙĩÙģØª":2012,"ĠØ¨Ø¹Ø¶ÛĮ":2013,"ĠÙħÙĤØ§ÛĮ":2014,"ØµÙĩ":2015,"ĠÙħØªÙĪ":2016,"ĠÙĩÙĨØ¯":2017,"ĠØªØ§Ø¨":2018,"Ú¯Ø§Ø¨":2019,"ĠÙģÙĪÙĤ":2020,"ØŃÙĦ":2021,"ĠÙħØ®Ø§Ø·":2022,"ĠØ¯Ø±ÛĮ":2023,"ĠÙ¾Ø§ÛĮÙĩ":2024,"ĠØ¯ÙĤÛĮÙĤÙĩ":2025,"ĠÙħÙĤØ§ÛĮØ³Ùĩ":2026,"Ø¢ÙĪØ±ÛĮ":2027,"ĠÙħÙĪØ¬Ø¨":2028,"ĠÙ¾Ø±Ø³":2029,"Ø³ÛĮØ³":2030,"ĠÙħØ·Ø±ØŃ":2031,"Ø§ÙĤÙĦ":2032,"ĠØ³ÛĮØ§Ø³Øª":2033,"ÙĪØ²ÛĮ":2034,"Ú©Ø±ÙĪØ³Ø§ÙģØª":2035,"ĠÚ©Ø§ÙħÙ¾ÛĮÙĪ":2036,"Ø§ÙĦØ¯":2037,"ĠÙħØ³Ø§":2038,"ÙĨÚ¯ÛĮ":2039,"ĠØªØŃØµ":2040,"ĠØ¨ÛĮÙħØ§Ø±":2041,"ĠØ´ÙĨØ§Ø³":2042,"ĠØŃÙħÙĦÙĩ":2043,"ĠØ³ÙĪØ¯":2044,"ĠÙ¾Ø¯Ø±":2045,"ĠØ§Ø³Ù¾":2046,"ĠØªÙĪØ¶ÛĮ":2047,"ĠØ¶Ø±":2048,"ĠØ³ÛĮØ§Ø³ÛĮ":2049,"Ġi":2050,"ÚĨØ§Ø±":2051,"ĠÙħØ§ÛĮÚ©Ø±ÙĪØ³Ø§ÙģØª":2052,"ĠÙ¾Ø®Ø´":2053,"ĠÙħÙĩØ±":2054,"ĠØ¢ÙħØ§Ø¯Ùĩ":2055,"Ø²ÙĨ":2056,"ĠØªØ§ÙħÛĮÙĨ":2057,"ĠØ¯ÙĩÙĩ":2058,"Ú¯Ø±Ø¯Ø¯":2059,"ĠÙħØ±Ú©Ø²ÛĮ":2060,"ĠØªÚ©ÙĨÙĪÙĦÙĪÚĺÛĮ":2061,"ĠØŃÙĤÙĪÙĤ":2062,"ĠØ®Ø·Ø±":2063,"ĠÙ¾Ø§Ø¯":2064,"ĠÚĨÙĨØ¯ÛĮÙĨ":2065,"ĠØ®ÙĪÙĨ":2066,"Ø¦ÙĪ":2067,"ÙĨÙĪ":2068,"ĠØ±ÙĪØ´ÙĨ":2069,"Ø§Ø´ÛĮ":2070,"ĠØ±Ø²":2071,"ĠÚ©Ø¯":2072,"ØŃØ§ÙĦ":2073,"Ú©ÙĪØ±":2074,"ĠÙĪÛĮÙĨØ¯":2075,"ØªØ§":2076,"Ø¹Ø§ÙħÙĦ":2077,"ĠØ±ÙĪÙĨØ¯":2078,"Ø±Ø§Ø±":2079,"ĠØ°Ø®":2080,"ĠØ²ÙĨØ§ÙĨ":2081,"ĠØ¨ØŃØ«":2082,"ĠO":2083,"ĠØ±ÙģØªÙĩ":2084,"Ø§ÙģØ²Ø§Ø±":2085,"ÙĤØ§":2086,"Ø§ÙĩØ§":2087,"ou":2088,"ĠØ¯Ø±ÙĪÙĨ":2089,"ĠØ´Ø§ÙĩØ¯":2090,"ĠØ¹Ø±Ø§ÙĤ":2091,"ĠØ§ØªØ§ÙĤ":2092,"ĠÙħØ§Ø´ÛĮÙĨ":2093,"ĠÙĤØ¯ÛĮÙħÛĮ":2094,"ĠØ§ÙħØ³Ø§ÙĦ":2095,"ĠÙĩØ³ØªÙĩ":2096,"Ø§Ø¬Ùĩ":2097,"ĠØ¨ÙĩØ¯Ø§Ø´Øª":2098,"ĠØ±ÙĪØ§ÙĨ":2099,"ĠÙħØ¬Ùĩ":2100,"Ø¯ÙĩÛĮ":2101,"ĠØ´ÙĪÛĮØ¯":2102,"ĠÙħØ´ØªØ±":2103,"ĠÚ©Ø§Ø±Ø¨Ø±Ø¯":2104,"ĠØ¨Ø§ÙĤÛĮ":2105,"Ø¨Ø¹":2106,"ĠØ¢Ø³ÛĮØ¨":2107,"ĠØªÙĪØ¶ÛĮØŃ":2108,"ĠÚ¯Ø±Ùħ":2109,"ĠØ¬Ø¯Ø§":2110,"ĠØ¨Ø§ÙĦØ§ÛĮ":2111,"ĠØ¯ÙĨÛĮØ§ÛĮ":2112,"ÙĨØ§ÛĮ":2113,"ĠØ§Ø¹Ø¶Ø§ÛĮ":2114,"Ø¬ÙħÙĩ":2115,"ĠØ§ÙħÙĨÛĮØª":2116,"ĠÙĤØ±Ø§Ø±Ø¯":2117,"ĠØ¢ÙħØ§Ø±":2118,"ÙĤÙĤ":2119,"ĠÙ¾Ø§Ú©":2120,"ĠÚ©ÙĪÙĩ":2121,"ĠÙ¾ÚĺÙĪÙĩØ´":2122,"ĠÚ©ÙĪØ¯Ú©":2123,"ĠØ¬Ø°Ø§Ø¨":2124,"ĠÙģÙĪØªØ¨Ø§ÙĦ":2125,"ĠÙĪØ±Ø²Ø´":2126,"ÙģØ§Ø¹":2127,"ĠÙĨÛĮØ±ÙĪÙĩØ§ÛĮ":2128,"Ø¬ÛĮØª":2129,"ĠØ±Ø®":2130,"ØºØ§ÙĨ":2131,"ÙĩÙĨÚ¯ÛĮ":2132,"ĠØ¢ÙĤØ§ÛĮ":2133,"ĠÙħØ¬ÙĩØ²":2134,"ĠØ´Ø¹":2135,"Ø±ÛĮÙĩ":2136,"Ú©ÙĨØ§ÙĨ":2137,"ĠØ¹Ø¯Ùħ":2138,"ĠÙħÙĤØ¯Ø§Ø±":2139,"Ú¯Ø±Ø§Ùħ":2140,"Ø¯ÛĮÚ¯Ø±":2141,"Ø³ÙĦ":2142,"Ø®ØªÙĩ":2143,"ÙĪØ±ØªÛĮ":2144,"ĠÙĪØ§ØŃØ¯":2145,"el":2146,"ĠØ§ØµÙģÙĩ":2147,"ĠÙħØ¬Ø§Ø²ÛĮ":2148,"ĠØ¯ÙĪØ¨Ø§Ø±Ùĩ":2149,"ĠØ¢Øª":2150,"ĠØ§Øº":2151,"ĠØ¬ÙĦÙĪÚ¯ÛĮØ±ÛĮ":2152,"ĠÙĨØŃ":2153,"ĠÙģØ±Øµ":2154,"ĠØªÙĪÙħØ§ÙĨ":2155,"ed":2156,"ĠÙħØ¹Ø§":2157,"ĠØ¯Ø§":2158,"ĠÙħÚ©Ø§ÙĨ":2159,"âĢİ":2160,"ĠØªØ¯":2161,"ĠØ±ÙģØªØ§Ø±":2162,"ÙĪØ¹ÛĮ":2163,"ĠØ±ÙĪØ³ÛĮÙĩ":2164,"ĠÚ©ÛĮÙĦÙĪÙħØªØ±":2165,"ĠØ°ÙĩÙĨ":2166,"ĠÚ©ÙĪØªØ§Ùĩ":2167,"ĠØ´ÙħØ§Ø±":2168,"ĠØªØ±Ú©ÛĮØ¨":2169,"ÙħØ±":2170,"Ø³Ø§ÙĨÛĮ":2171,"ĠØ§Ø±Ø²":2172,"ĠØ¨Ø§Ø´ÛĮÙħ":2173,"ĠØ¹ÙĦÙħÛĮ":2174,"ĠØªØ£Ø«ÛĮØ±":2175,"ĠØ³Ø±Ø¯":2176,"ĠÙħØ´Ùĩ":2177,"ĠU":2178,"ĠØ¹Ø§ÙĦÛĮ":2179,"Ø§Ú©ÛĮ":2180,"Û°Û°Û°":2181,"ĠØŃØ°":2182,"ĠØ¯Ø±Ø®ÙĪØ§Ø³Øª":2183,"ĠØ§Ø³ØªØ®":2184,"ĠØ¢ÙħØ±ÛĮÚ©Ø§ÛĮÛĮ":2185,"ĠÙĪÛĮÙĨØ¯ÙĪØ²":2186,"Ø³ØªÚ¯ÛĮ":2187,"ĠØªØºÛĮÛĮØ±Ø§Øª":2188,"Ø¨ÙĨØ¯ÛĮ":2189,"ĠØ¢Ø±Ø§Ùħ":2190,"ĠØ¹Ø¶ÙĪ":2191,"ĠÙ¾ÛĮØ´Ø±ÙģØª":2192,"ĠÙħÙĪØ§Ø¬Ùĩ":2193,"ĠØ¬ÙĪØ§ÙĨ":2194,"ĠÙħØ§Ø¯Ùĩ":2195,"ĠÙħØ¤":2196,"Ø²ÙħØ§ÙĨ":2197,"ĠØªØ¬Ø§Ø±ÛĮ":2198,"ĠØ¢ÙħØ¯":2199,"ĠÙĪØ§ÙĤØ¹ÛĮ":2200,"ĠÙħØ§ÙĦ":2201,"ĠÙħØ¯Ø§Ø±":2202,"ĠÚ©ÙĨÙħ":2203,"ĠØ¬Ø§ÛĮÛĮ":2204,"ĠÙħØ±Ø§Ø¬":2205,"Ø§ÙĨØª":2206,"ĠÙĪÛĮØ¯ÛĮ":2207,"ĠØ±ÙĤØ§Ø¨Øª":2208,"ĠØ¯ÛĮØ¬ÛĮØª":2209,"et":2210,"ĠØ¢Ø°":2211,"Ø±Ø§ØŃ":2212,").":2213,"ÙĪØ±ÛĮØª":2214,"Ø§ÙħÙ¾":2215,"ĠÙģØ±Ø²ÙĨØ¯":2216,"Ø³ØªØ§ÙĨÛĮ":2217,"Ú©Ø±Ø¯Ùĩ":2218,"ĠÙħÙĪØ³":2219,"ĠØ±ÙĪØ¯":2220,"om":2221,"ĠØ´ÙĩØ±Ø³ØªØ§ÙĨ":2222,"ĠØªÙĪØ§ÙĨØ§ÛĮÛĮ":2223,"ĠÙĩØ´Øª":2224,"ĠÙĩØ³ØªÛĮÙħ":2225,"ĠØŃØ±ÙģÙĩ":2226,"ĠÙĩÙħÚĨÙĨØ§ÙĨ":2227,"ĠØ¯Ø±Ø¬Ùĩ":2228,"ĠØ´Ø¨ÛĮÙĩ":2229,"ĠÙħØ³Ø¦ÙĦÙĩ":2230,"ĠØ¨ÙĨÛĮ":2231,"ĠÙħØ¹Ø±ÙĪÙģ":2232,"ĠÙĩÙħÚĨÙĪÙĨ":2233,"ĠØªÙģØ§ÙĪØª":2234,"ĠØŃØ¯Ø§ÙĤÙĦ":2235,"ĠÚ¯ÛĮÚ¯Ø§Ø¨":2236,"ĠÚ©ÙĪØ¯Ú©Ø§ÙĨ":2237,"ĠØ¹ÙĦØª":2238,"Ø§ÙĦÙħÙĦÙĦÛĮ":2239,"ĠØ¨Ø´":2240,"ĠØ§ØµÙģÙĩØ§ÙĨ":2241,"ĠÙħØ®ØªÙĦÙģÛĮ":2242,"ĠØ°Ø®ÛĮØ±Ùĩ":2243,"ĠÛ±Û¶":2244,"ĠØªØ§Ø±ÛĮØ®ÛĮ":2245,"ĠÛ±Û´":2246,"ĠØ²ÛĮØ¨":2247,"Ú©Ø±Ø¯ÙĨØ¯":2248,"ĠØ´Ø§ÙĨ":2249,"ĠØ¸Ø±ÙģÛĮØª":2250,"ĠØ±Ø³Ø§ÙĨÙĩ":2251,"ĠØ¢Ø´":2252,"Ø¨ÙĪØ¨":2253,"ĠÚ¯Ø§ÙĩÛĮ":2254,"ĠÙģØ§ÛĮÙĦ":2255,"ĠV":2256,"Ø§ÙħØª":2257,"ĠÙ¾ÙĪØ³Øª":2258,"ĠÙĤØ±ÙĨ":2259,"ĠØ±Ø³ÛĮØ¯ÙĨ":2260,"ĠÙģØ±ÙĩÙĨÚ¯":2261,"ĠØ³ÙģÛĮØ¯":2262,"ĠØ³Ø§Ø®ØªÙħØ§ÙĨ":2263,"ĠÙħØ³ØªÙĤÛĮÙħ":2264,"ÛĮÙĨÚ©":2265,"ĠØ§Ø¨Ø±":2266,"ĠØ¯Ø§Ø´ØªÙĨØ¯":2267,"Ú¯ÙĪÛĮÙĨØ¯":2268,"ĠÙħÙĨØ¬Ø±":2269,"ĠÙħÛĮØ²":2270,"ĠØ¬ÙĨÙĪØ¨ÛĮ":2271,"ĠØ¬ÙĨÙĪØ¨":2272,"ĠÚ©Ø¯Ø§Ùħ":2273,"ĠØ¯Ùģ":2274,"Ù¾Ø¯":2275,"ĠÙĨØ¨":2276,"ĠØ§ÙĨÚ¯ÙĦÛĮØ³ÛĮ":2277,"ĠÙĨØªØ§ÛĮØ¬":2278,"ĠØ®ÙĪØ§Ø¨":2279,"ÙĦØ§Ú©":2280,"Ø³Ø§ÛĮØª":2281,"ÙĨØ²":2282,"ĠØ§Ø³Ùħ":2283,"ĠØ¯ÚĨØ§Ø±":2284,"Ø¨Ø§ÙĨÛĮ":2285,"ĠØ®Ø±ÙĪ":2286,"ĠÚ¯Ø°Ø§Ø±ÛĮ":2287,"ĠÙħØ«ÙĦØ§":2288,"ĠÙģØ±ÙĩÙĨÚ¯ÛĮ":2289,"ĠÙĤØ¨ÙĦÛĮ":2290,"ĠØ¯ÛĮÚ¯Ø±Ø§ÙĨ":2291,"ĠØ¨Ø¯Ø§ÙĨ":2292,"ĠØ²ÛĮØ¨Ø§":2293,"ĠØŃØªÙħØ§":2294,"ĠØ¨ÙĨØ§":2295,"Ġ6":2296,"ĠØ´Ø§Ø±Úĺ":2297,"ĠÙħØªÙĪØ¬Ùĩ":2298,"ĠØ±ÙĪØ³Øª":2299,"ĠÙĨØ¯Ø§Ø´Øª":2300,"Ø§Ø³Ø§Ø³":2301,"Ø§ØµÙĦ":2302,"ĠØ±Ø§Ø³Øª":2303,"ĠØ§Ø³ÙĨ":2304,"ÙĨØ¸Ø±":2305,"ĠÙĤØ§Ø¯Ø±":2306,"ĠØ¢ÙĨÙĦØ§ÛĮÙĨ":2307,"ĠØ¶Ø¯":2308,"ĠØ´ÙĩØ±Ø¯":2309,"Ø±Ø³Ø§ÙĨÛĮ":2310,"ĠØ¢ÙĨØ¬Ø§":2311,"Ø¨Ø§Ø²":2312,"ĠØ¹Ø¨Ø§Ø±Øª":2313,"ĠØ¬ÛĮ":2314,"ĠØ´ÙħØ§ÙĦ":2315,"ĠØ¨Ø±ÙĪØ²":2316,"ĠØ§Ø±Ø¯":2317,"Ø§Ø¨Ø·":2318,"ĠØªØ¹Ø±ÛĮÙģ":2319,"ÙĨØ¯Ø±":2320,"ĠØ¬Ø°Ø¨":2321,"ĠØ§ÛĮÙĨØ¬Ø§":2322,"Ø§Ø¦ÙĦ":2323,"Ø§ÙģÙĤ":2324,"Ø±ÛĮØŃ":2325,"ĠÙģØ±Ø¢":2326,"Ø¯Ø§ÛĮ":2327,"ĠÙħØ³Ø§ÙģØ±":2328,"ĠÛ³Û°":2329,"ĠØ®ØµÙĪØµÛĮ":2330,"Ø§Ø¯Ú¯ÛĮ":2331,"Ú©ÙĨØ´":2332,"ĠØ´Ø®ØµÛĮØª":2333,"ĠØ³ÛĮÙħ":2334,"as":2335,"ĠØŃØ°Ùģ":2336,"ĠÙĨÛĮØ±ÙĪÛĮ":2337,"ĠØ¢ÙĨÚĨÙĩ":2338,"ĠØ®Ø§ØµÛĮ":2339,"ĠØªÛĮ":2340,"ÙħÛĮØ±":2341,"ĠÙĨÚ¯Ø±":2342,"ĠØºØ°Ø§ÛĮÛĮ":2343,"Ø¨ÛĮØ±":2344,"ĠÚ©Ø§ÙħÙ¾ÛĮÙĪØªØ±":2345,"ĠØ¨Ú¯ÛĮØ±ÛĮØ¯":2346,"ĠÙĨØ¸Ø§ÙħÛĮ":2347,"ĠØ¨Ø±Ø§Ø³Ø§Ø³":2348,"ĠÙĪØ²ÙĨ":2349,"am":2350,"ĠØ¬Ø§ÙĦØ¨":2351,"Ùī":2352,"ĠØ´ÙħØ§Ø±Ùĩ":2353,"ÙĪÙģ":2354,"ĠÙĨÙĤØ·Ùĩ":2355,"ĠØ¬ÙħØ¹ÛĮØª":2356,"ĠÙĤÙĩØ±":2357,"ĠÙĪØ¸":2358,"ĠÚ©Ø§Ø±Ø¨Ø±ÛĮ":2359,"ĠØªØ§Ú©ÛĮØ¯":2360,"ĠÙħØŃØ¨ÙĪØ¨":2361,"ĠÙħÙĩÙĨØ¯":2362,"ĠÙ¾Ø²Ø´Ú©ÛĮ":2363,"ĠÙĩØªÙĦ":2364,"ĠÙĦØ¨Ø§Ø³":2365,"ĠÙĨØ¯Ø§Ø±ÙĨØ¯":2366,"ØªÙĪØ§ÙĨÛĮÙħ":2367,"ĠØ®ÙĪØ§ÙĩÛĮØ¯":2368,"ĠÙħØ®ØµÙĪØµ":2369,"ĠØ±Ùħ":2370,"Ø§Ø¨Ø§ÙĨ":2371,"ĠÚĺØ§Ù¾":2372,"ĠØ§ØºÙĦØ¨":2373,"ĠÙĨØ¯Ø§Ø´ØªÙĩ":2374,"ĠØ¨Ø±Ø®ÙĪØ±Ø¯Ø§Ø±":2375,"ĠÚ¯Ø³ØªØ±Ø¯Ùĩ":2376,"ĠÛ²Ûµ":2377,"ĠØ¹ÙħÙĦÛĮØ§Øª":2378,"ÙħØ¹":2379,"Ø§Ú©Ø³":2380,"ĠØ§ÙĤØªØµØ§Ø¯":2381,"ĠÚ¯Ø±Ø§Ùģ":2382,"ĠÙģØ±ÙĪØ´Ú¯Ø§Ùĩ":2383,"ĠØ³ÙĤ":2384,"ĠØ·ÙĪÙĦØ§ÙĨÛĮ":2385,"ĠØ®ÙĪØ±Ø¯":2386,"ĠØ¨Ø®ÙĪ":2387,"Ú¯Ø§ÙĨÙĩ":2388,"ĠÙħØŃØª":2389,"ÙħØ§Ùĩ":2390,"Ø¨ÛĮÙĨÛĮ":2391,"Ġ8":2392,"ĠÙħÛĮØ¯Ø§ÙĨ":2393,"ĠÙģÙĨÛĮ":2394,"ĠÚ©Ø±Ø¯Ùħ":2395,"ĠØ±Ø§ØŃØªÛĮ":2396,"ĠÛ±Û³Û¹Û":2397,"ĠÙ¾Ø³Øª":2398,"ĠÙ¾ÙĦ":2399,"ĠØ¬Ø´ÙĨ":2400,"Ø¬Ø§ÙĨ":2401,"ĠØ³ÙĪØ®Øª":2402,"Ø¢ÙĪØ±":2403,"ĠÙħØŃØªÙĪ":2404,"ĠØµÙĨØ¯":2405,"ĠÚ©Ø§Ø±ÙĩØ§ÛĮ":2406,"Ø§ÙĦÛĮØ§":2407,"ĠØ¢ÙĦÙħØ§ÙĨ":2408,"ĠØ¬Ø§Ø±ÛĮ":2409,"ĠÙħØ´ØªØ±Ú©":2410,"Ø¯ÙĩÛĮØ¯":2411,"Ø¢Ùħ":2412,"ÙĪÛĮØ³ÛĮ":2413,"ÙĪÛĮÙĨ":2414,"ĠÙĨØ±Ø®":2415,"ĠÛĮÚ©Ø¯ÛĮÚ¯Ø±":2416,"ĠÚ¯Ø°Ø§Ø´Øª":2417,"Ú©ÙĨÙĨØ¯Ú¯Ø§ÙĨ":2418,"ĠØ¨ÛĮØ±ÙĪÙĨ":2419,"ĠÙ¾Ø§":2420,"ĠØ¯Ø®ØªØ±":2421,"Ø¨Ø±Ø¯Ø§Ø±ÛĮ":2422,"ĠØ§ÙħÚ©Ø§ÙĨØ§Øª":2423,"ØºÙĦ":2424,"ĠÙĨÙĩØ§ÛĮÛĮ":2425,"ĠØªØ§Ú©ÙĨÙĪÙĨ":2426,"ĠØ§ÛĮØ³Øª":2427,"ÙĪØ³ÛĮ":2428,"ĠÙĨØ®ÙĪØ§ÙĩØ¯":2429,"ĠØ®ÙĪØ±Ø´":2430,"ĠÙħØ³ÙĦ":2431,"ĠØ¹Ùĩ":2432,"is":2433,"ĠÙģØ±ØµØª":2434,"ĠØ¨Ø§Ø²Ú¯":2435,"ĠÙ¾Ø±ÚĨ":2436,"ĠÙģØ±Ø§ÙĨØ³Ùĩ":2437,"ĠØ±ÙĪÛĮØ¯":2438,"Ø²ÙħÛĮÙĨ":2439,"ch":2440,"ĠØªØŃÙĦÛĮÙĦ":2441,"Ø§ÙħÙĪØ´":2442,"ĠØ³Ø§ÙĦÙĩ":2443,"Ø¯Ø§Ø±Ø§ÙĨ":2444,"Ø¨ØŃ":2445,"ĠØ§ÙĦÚ©ØªØ±ÙĪÙĨ":2446,"ĠØ§ÙĪØ±":2447,"ĠØ¬Ø§ÛĮØ²Ùĩ":2448,"ĠÙħØ§ÙĨØ¯":2449,"ĠØ¯Ø´":2450,"ĠØ¨Ø§ÙĪØ±":2451,"ĠÙħÙĩØ§":2452,"ĠÙħØŃÙĦÛĮ":2453,"Ø³ÙĪØ±":2454,"ĠÛĮÙĪÙĨ":2455,"ĠÙĨØ¸ÛĮØ±":2456,"ĠØ¹ÙĦÛĮÙĩ":2457,"Ø±Øª":2458,"ĠØ¯Ø±Ú©":2459,"ĠØ§ÙĨØªØ®Ø§Ø¨Ø§Øª":2460,"ÙħØ§ÙĨØ¯":2461,"ĠØ§ÙģØ²Ø§Ø±":2462,"Ġ201":2463,"ĠÙĪØ§ÙĤØ¹ÛĮØª":2464,"ĠÙħØ´Øº":2465,"ĠØ¢ØªØ´":2466,"Ø¸Øª":2467,"ĠÙħÚ¯":2468,"Ø¯ÙĩÙħ":2469,"ĠØµØ¯Ø§ÛĮ":2470,"ĠÙ¾Ø§Ø±Ú©":2471,"ĠÚ©ÙĦØ§Ø³":2472,"ĠØ§ØªØŃ":2473,"ĠX":2474,"ĠØ®ÙĪØ¯Ø±ÙĪÙĩØ§ÛĮ":2475,"ØºØ°":2476,"ĠØªÙħØ§Ø³":2477,"ĠÚ¯Ø±Ø¯Ø´Ú¯Ø±ÛĮ":2478,"ĠØ±ÙĪØ§Ø¨Ø·":2479,"ÙĪØ§Ø¬":2480,"ĠØ´ÙĨØ§Ø³Ø§ÛĮÛĮ":2481,"ĠØ¨Ø§Ø²Ø¯ÛĮØ¯":2482,"ĠØ¨Ú¯Ø°Ø§Ø±":2483,"ĠØ¨Ø±Ø¬":2484,"Ø·Ø±":2485,"ĠÙħØ³Ø¦ÙĪÙĦ":2486,"Ú¯ÙģØª":2487,"Ø§Ø¸":2488,"ĠØ¯Ø±Ø¯":2489,"ĠØ³ÙĪØ§ÙĦ":2490,"ĠØ§ÙħØ±":2491,"ĠØªÙħØ±Ú©Ø²":2492,"Ú¯ÛĮØ±ÙĨØ¯":2493,"ĠØŃÙĤÛĮ":2494,"ĠØµÙĨØ§ÛĮØ¹":2495,"ĠÚ©ÛĮ":2496,"ĠÙħØ±ØªØ¨Ø·":2497,"ĠØ¯Ø§Ùħ":2498,"ĠØ±ÙĪÙĨÙħØ§ÛĮÛĮ":2499,"ĠØ³ÛĮØ§Ùĩ":2500,"ĠÙħØ±Ø§Ø¬Ø¹Ùĩ":2501,"Ø±ÛĮØ¨":2502,"Ø¬ÙĩÛĮØ²":2503,"ĠÙħØ§Ø³":2504,"ĠÙĨØ¨Ø§ÛĮØ¯":2505,"ĠØ§Ø´ØªØ¨":2506,"ĠØ¨ÙĪØ±":2507,"Ø§ÙĦØ¹":2508,"Ú©Ùħ":2509,"ĠØ±ÙĪØ³ØªØ§":2510,"ĠØ®Ø§Ú©":2511,"ĠØ§ÙĨÙĤÙĦ":2512,"Ø´Ø§Ùĩ":2513,"ĠÙģÛĮØ²ÛĮ":2514,"ot":2515,"ĠØªØ¬ÙĩÛĮØ²":2516,"Ø®ÙĪØ§ÙĩÛĮØ¯":2517,"ÙĪÛĮÙĦ":2518,"Ġ10":2519,"ĠØ¨Ø²ÙĨ":2520,"ĠÚ©Ø³Ø§ÙĨÛĮ":2521,"ĠØ¬Ø²Ø¦ÛĮ":2522,"Ø§ÙĦØ´":2523,"ĠÙ¾ÙĦØª":2524,"ÙħØ§Øª":2525,"ĠØ¨Ø§Ø´Ú¯Ø§Ùĩ":2526,"ad":2527,"ĠØ¢Ø´ÙĨØ§":2528,"Ġs":2529,"ĠØµÙĪØ±ØªÛĮ":2530,"ÙĨÙĪØ¹ÛĮ":2531,"ĠØªØŃØµÛĮÙĦ":2532,"Ø¨Ø§Ø´":2533,"ĠÚ¯Ø°Ø§Ø´ØªÙĩ":2534,"ÛĮØªØ§ÙĨÛĮ":2535,"ÚĺÙĨ":2536,"Ġ7":2537,"Ø¢ÙĪØ±Ø¯":2538,"ĠØ§Ú©Ø³":2539,"ĠØ¸Ø§ÙĩØ±":2540,"ĠØ³ÙĦØ§ÙħØª":2541,"ĠÙĪØ³ÛĮÙĦÙĩ":2542,"ĠÙħØ´ØºÙĪÙĦ":2543,"il":2544,"ĠÙħØ·ÙĦØ¨":2545,"ĠÚĨÚ¯ÙĪÙĨÙĩ":2546,"ĠØ¯Ùħ":2547,"ĠØ¨Ú¯ÛĮØ±Ø¯":2548,"ĠØ±ÙĪØŃ":2549,"ĠÙħØ±ÙĪØ±":2550,"ĠÙħØŃÙĤÙĤ":2551,"ĠÚ¯Ø³ØªØ±Ø´":2552,"ÙħØ§Ø¯":2553,"ÙĤØ§Øª":2554,"ĠÙ¾Ø±ÙĪØ§Ø²":2555,"Ø±ÙĪØ²":2556,"ĠØ´Ø¯ÛĮØ¯":2557,"ĠØ¹ÙħØ±":2558,"Ġ9":2559,"Ú¯ÙĨ":2560,"ĠØŃØ§ØµÙĦ":2561,"ĠÙħØ¯Ø±Ø³":2562,"Ø±Ø§ÛĮÛĮ":2563,"ĠÙģØ±Ø§ÛĮÙĨØ¯":2564,"ĠØ²ÛĮØ³Øª":2565,"ĠØ°Ú©Ø±":2566,"ĠØ±Ø¯":2567,"Ø³Ø¨":2568,"Ġp":2569,"ĠØºØ°Ø§":2570,"ĠØ±ÙĪØ²Ø§ÙĨÙĩ":2571,"ol":2572,"ĠØªÙĪØ§ÙĨØ³Øª":2573,"Ø±ÛĮÙĨ":2574,"ĠÙħØ³Ø§Ø¨ÙĤ":2575,"ĠÙĨØ§ÙħÙĩ":2576,"ĠØªÙĦÙĪÛĮØ²ÛĮÙĪÙĨ":2577,"Ġc":2578,"ĠØ¬Ø§ÛĮÚ¯Ø§Ùĩ":2579,"ĠÙħØ±Ø§Ø³Ùħ":2580,"ĠÙĨÙħØ§ÛĮØ´Ú¯Ø§Ùĩ":2581,"Ø²Ø§Ø¯Ùĩ":2582,"ĠØ¹ÙĦÙĪÙħ":2583,"ÙģØ±Ùħ":2584,"Ø¯Ø§Ùģ":2585,"ĠØ¯ÙĤØª":2586,"ĠØŃØ¬Ùħ":2587,"ĠÛ±Û·":2588,"ĠØ§Ø³ØªØ§ÙĨØ¯Ø§Ø±Ø¯":2589,"Ø·Ø§ÙĨ":2590,"ĠØ¢Ø¯":2591,"ĠØ³Ø§Ø®ØªØ§Ø±":2592,"ĠØ¯Ú©ØªØ±":2593,"Û¹Û":2594,"Û³Û":2595,"ĠÙ¾ÛĮØ§Ø¯Ùĩ":2596,"ĠÚ¯ÛĮØ±ÛĮ":2597,"ĠØ±Ø§ØŃØª":2598,"ĠÙħÙĨØ§Ø³":2599,"ĠÙĦØ°Øª":2600,"ĠÙħØ³Ø§Ø¨ÙĤØ§Øª":2601,"ĠÛ±Û±":2602,"ĠÙĨÙĪØ¹ÛĮ":2603,"ĠØ§ÙħÙĨÛĮ":2604,"ĠØµØ¯Ø§":2605,"ĠØ´Ø´":2606,"ØªØŃ":2607,"ĠÙħÛĮØ´Ùĩ":2608,"ĠØªÙĪØµÛĮÙĩ":2609,"Ú¯Ø°Ø§Ø±Ø¯":2610,"Ø±Ø§ÙģÛĮ":2611,"ĠØ¨Ø¨Ø±":2612,"ĠØ¬ÙĦØ³Ùĩ":2613,"ÛĢ":2614,"ĠØ¶ÙħÙĨ":2615,"ĠØ²Ø¯":2616,"ĠØ¯ÛĮØ¬ÛĮØªØ§ÙĦ":2617,"ĠØ´Ø§ÛĮ":2618,"Ú©ÙĨÙĩ":2619,"ĠØªÙĪØ§ÙģÙĤ":2620,"Ø´Ø§":2621,"ĠØ¨Ø²Ø±Ú¯ÛĮ":2622,"ÙħÛĮØ²":2623,"ĠØªØŃÙĤÛĮÙĤØ§Øª":2624,"ĠÙħØªØ®ØµØµ":2625,"ÙĪØ±ÛĮÙĩ":2626,"ĠÙħÙĤØ§":2627,"ĠØ¢Ø³":2628,"ĠØ´ÙħØ§ÙĦÛĮ":2629,"ĠØ±Ø³Øª":2630,"ĠØªØŃØ±ÛĮÙħ":2631,"ĠÙĤÙĪØ§ÙĨ":2632,"ĠØ§Ø´ØªØ±":2633,"ĠÙħÙĤØ§ÙħØ§Øª":2634,"ĠÛ±Û³":2635,"ĠØµØ¨ØŃ":2636,"ĠØ¨Ø§ÙĦØ§ÛĮÛĮ":2637,"ĠÙģØ±ÙĪØ¯":2638,"Ú©Ø²":2639,"ĠÚĨØ§Ù¾":2640,"ĠØ³ÙĩØ§Ùħ":2641,"ĠØ¨Ø±ÛĮØªØ§ÙĨÛĮ":2642,"ĠØ®Ø¨Ø±ÙĨÚ¯":2643,"ĠÙħØ¹Ø§ÙĪÙĨ":2644,"ĠØ¢Ø¨ÛĮ":2645,"ĠÙĨÛĮÙħÙĩ":2646,"Ø§ÙĪÛĮ":2647,"ĠØªØ³Øª":2648,"ÙĦØ§ÙĦ":2649,"ÙĨØ´":2650,"ĠØ¨Ø§Ø²Ø§Ø±ÛĮ":2651,"ĠÙĤØ§ÙĦØ¨":2652,"ĠØ±ÙĪØ²ÙĨØ§ÙħÙĩ":2653,"ĠØ¬Ø§ÛĮÚ¯Ø²":2654,"ĠÙħØ¹ÙĨÛĮ":2655,"ĠÛ±Û°Û°":2656,"ĠØ¨ØªÙĪØ§ÙĨØ¯":2657,"ĠØ¨Ø±Ú¯Ø²Ø§Ø±ÛĮ":2658,"ĠÙħØ§ÙĩÛĮ":2659,"Ø±ÛĮØ²ÛĮ":2660,"ĠØ®ÙĪØ¯ØªØ§ÙĨ":2661,"ĠØ¢Ùģ":2662,"ĠÙħØ¨Ø§Ø±":2663,"ĠØ³Ø§ÙħØ§ÙĨÙĩ":2664,"Ù¾ÙĦ":2665,"ĠØªÛĮØ±":2666,"Ø±ÙĪÙħ":2667,"Ø§ÙĨÚ¯ÛĮ":2668,"ĠÚ¯ÛĮØ§Ùĩ":2669,"ĠÙħÚ©Ø§ÙĨÛĮ":2670,"ĠØ§Ø·Ø±Ø§Ùģ":2671,"Ø²Ø¨":2672,"ĠØ§ØµÙĦØ§ØŃ":2673,"ĠÚ©Ùģ":2674,"ĠÛ²Û´":2675,"ĠØ´Ø¯Øª":2676,"ĠØªØ¨ÙĦØª":2677,"ĠØ§ÙħÙĨÛĮØªÛĮ":2678,"ĠØ®ÙĪØ§ÙĩÛĮÙħ":2679,"ĠØ¨ÙĪØ¯Ø¬Ùĩ":2680,"ĠØ¯ÙĪÙĦØªÛĮ":2681,"ĠÙ¾ÙĪØ´Ø´":2682,"Ù¾Ø±Ø³":2683,"ĠØ§ÙħØªÛĮ":2684,"ĠØ§Ø¯Ø§Ø±Ùĩ":2685,"ĠÚ©Ø´Ùģ":2686,"ĠÙħÙĪÙĤØ¹ÛĮØª":2687,"ĠØ³Ø§ÛĮ":2688,"ĠÙĪÛĮØ¯":2689,"ĠØ§Ø¹ÙħØ§ÙĦ":2690,"ĠÙĨÚ©Ø±Ø¯Ùĩ":2691,"Ø¦Øª":2692,"ĠØ¹ÙĩØ¯Ùĩ":2693,"ĠÙĨØŃÙĪÙĩ":2694,"ĠØ¬Ø¯ÛĮ":2695,"ĠØ¨Ø±Ø¯Ø§Ø´Øª":2696,"ĠØ³Ø®ÙĨ":2697,"Ú¯Ø§ÙĨÛĮ":2698,"ĠÙĨÙĤØ§Ø·":2699,"ĠÙģØ§Ø±Ø³ÛĮ":2700,"ĠÙħØ´Ø§ÙĪØ±":2701,"ĠØ®ÙĪØ¯Ùħ":2702,"ĠÙĦØ§":2703,"ĠØ«Ø§ÙĨÛĮÙĩ":2704,"ĠØ®ÛĮØ§Ø¨Ø§ÙĨ":2705,"ĠØ³Ø§ÙĨ":2706,"ĠÛĮØ§Ø¯Ú¯ÛĮØ±ÛĮ":2707,"ĠØ¯Ø±ÙĪ":2708,"ĠØ§ÛĮÙĨØ³ØªØ§":2709,"ĠÙħØªØ¹Ø¯":2710,"ĠÙĨØ§Ø´ÛĮ":2711,"ĠÙĤØ¯Ùħ":2712,"ĠÙĨØ§Ø±":2713,"ĠØ¯ÛĮÚ¯Ùĩ":2714,"ĠØ±ÙĩØ¨Ø±":2715,"ÙħØ¦":2716,"ĠÙĦÙ¾":2717,"ĠÛ±Û¹":2718,"ĠÙĪØ§Ú©ÙĨØ´":2719,"ĠØ§Ø´ØªØ¨Ø§Ùĩ":2720,"ĠÙħØ¨ÙĦ":2721,"ĠØ§ÙħØ±ÙĪØ²Ùĩ":2722,"ĠÙģØ±Ùħ":2723,"ĠØ§Ú©Ø«Ø±":2724,"ĠÙĨÛĮØ³ØªÙĨØ¯":2725,"Ú¯ÛĮÙĨ":2726,"ÙĨØ§Ùħ":2727,"ĠÙĨØ´Ø³Øª":2728,"ĠØ±ÙģØªÙĨ":2729,"ĠÙģØ±Ø¯ÛĮ":2730,"ĠØ§ÙģØºØ§ÙĨ":2731,"ĠØªØ±Ø³":2732,"ĠÚ¯ÛĮÚ¯Ø§Ø¨Ø§ÛĮØª":2733,"ĠÙħØµÙĨÙĪØ¹ÛĮ":2734,"ĠØ§Ø¹ØªÙħØ§Ø¯":2735,"ĠØ¹Ú©":2736,"ĠÙħØŃØªÙĪØ§ÛĮ":2737,"ĠØ§Ø²Ø¯":2738,"ĠØ±Øª":2739,"ĠÙĦÛĮØ³Øª":2740,"Â».":2741,"ĠÙħØŃÙħ":2742,"ĠØ´ÙĩØ±Ø¯Ø§Ø±ÛĮ":2743,"ĠÛ±Û¹Û¹Û":2744,"ĠÙ¾ÙĦØ§Ø³":2745,"ĠØ±ÙħØ²":2746,"Ø·ÛĮ":2747,"ĠÙ¾Ø±ÙĪØª":2748,"ĠØ§ÙĩØ¯Ø§Ùģ":2749,"ĠØ±Ø§ÛĮÚ¯Ø§ÙĨ":2750,"ĠØ§Ø³Ø§Ø³ÛĮ":2751,"ĠØ¯Ø§Ø¯ÙĨØ¯":2752,"Ø±ÙĨ":2753,"ĠØ§ÛĮÙĨÚĨÛĮ":2754,"ĠÙģÙĩØ±":2755,"ĠÙ¾ÙĦÛĮØ³":2756,"ĠÙħØ·ÙħØ¦":2757,"ĠØ³Ø¨Ø¨":2758,"ĠÙĤÙĪØ§ÙĨÛĮÙĨ":2759,"ĠÙħØºØ²":2760,"Ú©Ø§Øª":2761,"ĠØ³Ø±Ø§Ø³Ø±":2762,"ĠØ¨ÛĮØª":2763,"ĠØ§ÛĮØª":2764,"ĠØªØ±Ú©ÛĮÙĩ":2765,"ĠØŃÙĪ":2766,"ĠØ¢ÙĪØ±":2767,"ĠØ§ÙĨØ³Ø§ÙĨÛĮ":2768,"ĠØ§Ø³ØªØ§Ø±Øª":2769,"ĠÙħÙĪØ²Ùĩ":2770,"ĠØºØ±Ø¨ÛĮ":2771,"ĠØªÙĤØ³ÛĮÙħ":2772,"ĠÙħÙĩØ§Ø±Øª":2773,"Ø§ÙĪ":2774,"ĠØ¢ÙħÙĪØ²Ø´ÛĮ":2775,"ĠØ®Ø¨Ø±ÛĮ":2776,"ÙħÛĮÙĦ":2777,"ĠØµÙĨØ¹ØªÛĮ":2778,".}":2779,"ĠØ¨Ø§Ø´Ùĩ":2780,"ĠÚ©Ø§Ø±Ø´ÙĨØ§Ø³":2781,"ĠÚĨÛĮÙĨÛĮ":2782,"ĠØ§Ø¹ØªØ±":2783,"ĠÙħØªØ¹":2784,"ĠØ§Ø±Ø²ÛĮ":2785,"ĠØ§ÛĮÙĨØªØ±ÙĨØªÛĮ":2786,"ĠØŃÚ©ÙĪÙħØª":2787,"ÙĩØ±Ùĩ":2788,"ĠÙĤØ±Ø§Ø±Ø¯Ø§Ø¯":2789,"ĠØ¨ÛĮÙħÙĩ":2790,"ĠØ¢ÙĪØ±Ø¯Ùĩ":2791,"Ø¦ÛĮÙĨ":2792,"ĠÙħØ®Ø§ÙĦ":2793,"ĠÚĨÛĮØ³Øª":2794,"ĠØ¢Ø¯Ùħ":2795,"ĠØ±ÛĮØ§Ø³Øª":2796,"ĠÙħØ³Ø§Ø¦ÙĦ":2797,"ĠØ¨Ø³":2798,"ĠØ¯Ú©":2799,"ĠØŃØ²Ø¨":2800,"ĠØ«Ø§Ø¨Øª":2801,"Ø´ÙĪ":2802,"ĠØ¨ÙĨØ¯ÛĮ":2803,"ĠØ¢ÙĨØ§ÙĨ":2804,"Ø¹Ùģ":2805,"ĠÙħØ¹ØªÙĤØ¯":2806,"Ġm":2807,"ĠÚ©Ø´ØªÙĩ":2808,"ĠÙ¾ÙĦØªÙģØ±Ùħ":2809,"ĠÙħØ¹ÙħØ§Ø±ÛĮ":2810,"ĠÙħØ«Ø¨Øª":2811,"ĠÙĦØŃØ§Ø¸":2812,"ĠØªØ®ØµØµ":2813,"Ú©Ø§ÙĦ":2814,"ĠÙħØ¯ÛĮØ±Ø§ÙĨ":2815,"ĠØ¯Ø§Ø±Ùĩ":2816,"ĠÛ²Û°Û²":2817,"ĠØ³ÙĨØªÛĮ":2818,"ĠØ§ÙħØªÛĮØ§Ø²":2819,"Ø³ÙĪÙĦ":2820,"ĠØ²ÙĨØ¯Ùĩ":2821,"ÙĨØ¯Ú¯ÛĮ":2822,"ĠÙħØ¯ØªÛĮ":2823,"ĠÙĦØŃØ¸Ùĩ":2824,"ĠØ¹ÙĨ":2825,"ĠØªØµÙĪØ±":2826,"ÛĮØ±ÛĮ":2827,"Ø²Ø±":2828,"ĠØ³ÙĦÙĪÙĦ":2829,"ĠÚ©Ø±Ø¯ÛĮÙħ":2830,"us":2831,"ĠØ¨ÚĨÙĩ":2832,"ĠØ¹Ø¨ÙĪØ±":2833,"ĠÚĨØ§ÙĦØ´":2834,"ĠØ¯Ø³ØªØ±Ø³":2835,"ĠØ®ÙĪØ¯Ø±ÙĪÛĮ":2836,"ent":2837,"ÛĮÚ©Ø³ÙĦ":2838,"ĠØ³ØªØ§Ø±Ùĩ":2839,"ĠØ§Ú©Øª":2840,"ØºØ§ÙĦ":2841,"ĠØ´ÛĮÙĪÙĩ":2842,"id":2843,"ĠØ§ÛĮÙĨØ³ØªØ§Ú¯Ø±Ø§Ùħ":2844,"ĠØ±Ø³ØªÙĪØ±Ø§ÙĨ":2845,"ĠØ¨Ø§ÙĦØ§ØªØ±":2846,"ĠÙĤÙĪÛĮ":2847,"ĠØ±Ø¹":2848,"Ú©ÙĦÛĮ":2849,"Ú¯Ø²Ø§Ø±ÛĮ":2850,"ĠØªÙĤÙĪÛĮØª":2851,"Ø¢ÙĨ":2852,"ĠÙħØ¯Ø±Ø³Ùĩ":2853,"ĠÙĪØ§ÙĤØ¹Ø§":2854,"ĠÚ¯Ø±Ø§ÙĨ":2855,"Ø§Ø±Ø´":2856,"ĠØ¯ÛĮØ¯ÙĨ":2857,"ĠØ¢ÙĨÚ©Ùĩ":2858,"ĠØªØ¬Ø§Ø±Øª":2859,"Ø¬Ø§Øª":2860,"ĠØ§ØµÙĦØ§":2861,"ØºÙĨ":2862,"ĠØ³ÙĩÙħ":2863,"ĠØ±Ø¶":2864,"ĠØªØ¬ÙĩÛĮØ²Ø§Øª":2865,"ĠØ¨Ø®ÙĪØ§Ùĩ":2866,"ĠÙ¾Ø§ÙĦ":2867,"ĠØ²Ø¯Ùĩ":2868,"ÚĨÙĨØ¯":2869,"ĠØ±ØªØ¨Ùĩ":2870,"ĠØ§Ø±ØªØ´":2871,"ÙĦØ§Øª":2872,"ĠØ¨Ø§Ø²Ú¯Ø´Øª":2873,"ĠØ²ÛĮØ¨Ø§ÛĮÛĮ":2874,"ÙĦÙĨØ¯":2875,"ĠØ¹ÙĤØ¨":2876,"ĠØ§ÙĨÙĤÙĦØ§Ø¨":2877,"ĠÙģÙĦØ³":2878,"Ø¨ÙĪÚ©":2879,"ĠØ§Ø³ØªØ±Ø§Øª":2880,"OS":2881,"ĠØ§Ø´ØªØ±Ø§Ú©":2882,"ĠÙģØ¶Ø§ÛĮÛĮ":2883,"ĠÙħÙģÛĮØ¯":2884,"and":2885,"ĠÙģÙĪÙĦ":2886,"Ø±Ø§Ø¬":2887,"ĠØ´ÙĩØ±ÙĪ":2888,"ĠÙħØ¯ÛĮØ±Ø¹Ø§ÙħÙĦ":2889,"Ø®ÙĪØ§ÙĨ":2890,"ĠÚ©Ø§Ø±Ú¯Ø±Ø¯":2891,"ĠØ§Ø³ØªÙĤ":2892,"ĠÙĤØ¯Ø±ØªÙħÙĨØ¯":2893,"ĠØ§ÙĨÚ¯ÛĮ":2894,"ĠÚĨÙĨØ¯Ø§ÙĨ":2895,"ĠÙħÙĨÙģÛĮ":2896,"ĠØ±ÙĪØ²ÙĩØ§ÛĮ":2897,"ĠÙħØ³Ø§Ø¨ÙĤÙĩ":2898,"ĠØ¨Ø±Ø³Ø¯":2899,"ĠÛµÛ°":2900,"ĠÙħØ°Ø§Ú©":2901,"ÙĦÙĪØ¯":2902,"ĠÙħØ±Ø§Ú©Ø²":2903,"Ø²ÙĦ":2904,"ĠÙ¾Ø³Ø±":2905,"ĠÙ":2906,"Ø¬Ø§ÛĮÛĮ":2907,"ÙħÙ¾":2908,"ÙĨÙħØ§ÛĮ":2909,"ĠØªØ±Ø§Ø´Ùĩ":2910,"ĠÙħÙĩØ§Ø¬Ø±":2911,"Ø§ÙĦÙĦÙĩ":2912,"ĠØ¯ÙģØªØ±":2913,"ĠØºØ±Ø¨":2914,"ĠØ±Ø§ÙĩÛĮ":2915,"of":2916,"ĠØµØ§ØŃ":2917,"ĠØ±Ø¹Ø§ÛĮØª":2918,"ĠØ¯Ø§ÙĨØ³Øª":2919,"ĠÙħØ¬Ø¨ÙĪØ±":2920,"ĠØ¹Ø¯Ø¯":2921,"ĠÙħØŃØ§Ùģ":2922,"ĠÙħÙĨØªÙĤÙĦ":2923,"ĠØ§Ø¬Ø±Ø§ÛĮÛĮ":2924,"ĠØ¨ÛĮØ´ØªØ±ÛĮÙĨ":2925,"ĠÚ©ÙĦØ§":2926,"Ġf":2927,"ÙĪÙĦÛĮØª":2928,"ĠÙħÙĩÙħÛĮ":2929,"ĠØ¹Øµ":2930,"Ø§Ø¯ÛĮÙĩ":2931,"ĠÙĪØ§ÙĨ":2932,"ct":2933,"ĠØ¹Ø±Ø¨":2934,"ĠÙħÙĤØ±":2935,"ĠØªÚ©Ø±":2936,"ĠØªÙħØ§ÛĮ":2937,"ĠÙĤØ·Ø¹":2938,"ĠØ²ÙĪØ¯":2939,"ĠØ³Ø¨Ø²":2940,"ĠÙħØŃØªÙĪØ§":2941,"ĠØ²Ø¯ÙĨ":2942,"ĠØ³Ø±ÛĮØ§ÙĦ":2943,"ĠÙħØŃØ¯ÙĪØ¯ÛĮØª":2944,"ĠÚĺÙĪØ¦":2945,"ĠØ§Ø³Ø±Ø§Ø¦":2946,"iv":2947,"ĠÙħÙģÙĩ":2948,"ĠÙħØ±Ø²":2949,"ĠÙħÙĨØ¨Ø¹":2950,"ĠÙĨÙĪÛĮØ³ÙĨØ¯Ùĩ":2951,"ĠØ¯Ø±Øµ":2952,"ĠØ§Ø³Ø¨":2953,"ĠØ§Ø·ÙĦØ§Ø¹Ø§ØªÛĮ":2954,"ÙĤÛĮÙĩ":2955,"ĠØ¨Ø¯ÙĨÙĩ":2956,"ĠÙĨØ¸Ø§Ùħ":2957,"ĠÙĩÙĪØ§ÙĪÛĮ":2958,"Ø·Ø±Ùģ":2959,"ĠØ¨ÙĪØ¯Ùħ":2960,"ĠØ¯ÙĪØ³ØªØ§ÙĨ":2961,"Ø¬Ø¯":2962,"ag":2963,"ĠØ®Ø±Ø¯":2964,"Ø³ÛĮÙĨ":2965,"ĠÙħØ±Ø§ØŃÙĦ":2966,"ĠØ´ÙĩØ±ÙĩØ§ÛĮ":2967,"ĠØ±ÙģØ¹":2968,"ĠØ¨Ø¯ÛĮÙĨ":2969,"ĠÙģÙĩØ±Ø³Øª":2970,"ig":2971,"ĠØ§Ø²Ø¯ÙĪØ§Ø¬":2972,"ĠØ§ØµÙĦ":2973,"ĠØ±Úĺ":2974,"Ø§ØµØ±":2975,"ĠØŃÙĤÛĮÙĤØª":2976,"ĠØ¨Ø§Ø²Ø§Ø±ÛĮØ§Ø¨ÛĮ":2977,"ĠÙĩÙħØ³Ø±":2978,"ĠÙĨØ§ÙĨ":2979,"ĠØ§Ø±ØªØ¨Ø§Ø·Ø§Øª":2980,"ĠØ±ÙĤÙħ":2981,"ĠÙħØ¹ÙĦ":2982,"ĠÙĦÛĮÙĨÚ©":2983,"Ø¨Ø¯":2984,"ĠØ§ÙģØºØ§ÙĨØ³ØªØ§ÙĨ":2985,"ĠØ¯ÛĮØ¯Ø§Ø±":2986,"ĠØ§ÙĨØ¬":2987,"ĠK":2988,"ÚĨØ±":2989,"ĠÙĨØ´Ø¯":2990,"ĠØ±Ø§ÙĨ":2991,"ĠØªØ¨ÙĦÛĮØºØ§Øª":2992,"ĠÙħÚ¯Ø§Ù¾":2993,"ØªÙĪØ§ÙĨØ³Øª":2994,"ĠØ´ÙĨØ¨Ùĩ":2995,"ĠØ¨ÛĮÙĨÛĮ":2996,"ĠÚĺØ§ÙĨ":2997,"ĠØªØ§ÛĮÛĮØ¯":2998,"Ú©Ø±ÛĮ":2999,"ĠØ¯Ø¹":3000,"Ø§Ø´ÙĤ":3001,"ĠÙĨÙģØªÛĮ":3002,"ĠØ§ØªØµ":3003,"ĠØ§ÙħÛĮØ¯ÙĪØ§Ø±":3004,"Ú¯Ø±Ùħ":3005,"Ø´ÙĪÙĨ":3006,"ĠØ´Ø±ÙĤÛĮ":3007,"Ø§Úĺ":3008,"ÙĪÚ¯":3009,"ĠØ¬Ø§Ø¯Ùĩ":3010,"Ø§ÙĦØ¯ÛĮÙĨ":3011,"ĠØ´Ø§Ø®Øµ":3012,"ĠØ§ØªØŃØ§Ø¯ÛĮÙĩ":3013,"ĠÙħÙĨØŃ":3014,"ĠÙħØ§ÙĨØ¯Ùĩ":3015,"ĠÙĨÚ©ÙĨÛĮØ¯":3016,"ĠÙģÛĮØ³":3017,"ĠÙģØ¹ÙĦÛĮ":3018,"ĠÙĨÛĮØ±ÙĪ":3019,"ĠØ¨Ø§Øº":3020,"Ù¾Ø§Ø±":3021,"Ø¢ÙħØ¯":3022,"ĠÙĩÙĨÚ¯Ø§ÙħÛĮ":3023,"ĠØ§Ú¯Ø±ÚĨÙĩ":3024,"ĠÙħØªÙĪØ³":3025,"ĠÙħØ´ÙĩÙĪØ±":3026,"ĠØ¬ÙĦØ¨":3027,"Ø§Ø¯Øª":3028,"ĠÙĦØ·":3029,"ĠØ®Ø±ÛĮØ¯Ø§Ø±ÛĮ":3030,"ĠØªÙĪØ²ÛĮ":3031,"ĠØ¨Ø¯Ø§ÙĨÛĮØ¯":3032,"ĠÚ©Ø´Ø§ÙĪØ±":3033,"ĠÙĩÙĪØ§ÛĮÛĮ":3034,"Ú©Ø§Ùħ":3035,"Ø§Ø¯Ø«":3036,"ay":3037,"Ø§Ø¯Ø§":3038,"ĠØ¨Ø§Ø±Ø¯":3039,"ĠØ§ÛĮÙħÙĨÛĮ":3040,"ĠØ§ÙĤØ¯Ø§ÙħØ§Øª":3041,"ĠØªØ±Ø¬ÙħÙĩ":3042,"ĠÛ±Û¹Û¸":3043,"Ú©Ø±Ø¯ÙĨ":3044,"Ø¹Ø¯Ùĩ":3045,"ĠØªØ¹Ø¯Ø§Ø¯ÛĮ":3046,"ĠÙ¾ØªØ±":3047,"ĠØªØ±Ø§ÙħÙ¾":3048,"ÙĪØ±Ú©":3049,"ĠØ®ÛĮØ±":3050,"ĠÙĩÙħÙĪØ§Ø±Ùĩ":3051,"ĠÙħÙĨØ§Ø³Ø¨ÛĮ":3052,"Ø§ÙĨØ¯Ø§Ø²ÛĮ":3053,"ĠÙĨÙĪØ²":3054,"ĠØ¹ÙħØ¯Ùĩ":3055,"ĠØ±Ø§ÙĨÙĨØ¯":3056,"ĠÙĦØ§ÛĮÙĩ":3057,"ĠØ¨Ø³Øª":3058,"ĠØ¬Ø²ÛĮØ±Ùĩ":3059,"ĠØ§Ø³ØªØ§Ø¯":3060,"ÙĪÙĦØ¯":3061,"ĠÙĩÙħØ²ÙħØ§ÙĨ":3062,"ĠØ®Ø¯Ø§":3063,"ĠÙĨÙĤØ´Ùĩ":3064,"ÙħÛĮÙĨØ§ÙĨ":3065,"ĠØªÙĪØ²ÛĮØ¹":3066,"ĠØ§ØªÙĪÙħ":3067,"Ø³Ø§":3068,"ĠÙĤØ¶":3069,"ĠØ¨Ø²Ø±Ú¯ØªØ±ÛĮÙĨ":3070,"ĠØ§Ø±Ø²Ø§ÙĨ":3071,"ĠØ¬Ø§ÛĮÚ¯Ø²ÛĮÙĨ":3072,"Ø§ÙĨØ¯ÙĨ":3073,"ĠØ®Ø§ÙĨÙħ":3074,"ĠØ¢ÙĦØ¨":3075,"ĠØ§ÙĩÙĦ":3076,"ĠÙĪÙĦ":3077,"Ø±Ø§ÙĨÛĮ":3078,"Ø²ÛĮÙĨ":3079,"ĠØ¯Ø§Ø±Ùħ":3080,"ĠÙĨØ§Ø¨":3081,"ĠÙĪØ§Ø¨":3082,"ĠÙħØ¨ØªÙĨÛĮ":3083,"ow":3084,"Ú©Ø§":3085,"Ø§Ø¶ÛĮ":3086,"ĠØ¯Ø±Ø®Øª":3087,"ĠØ¹ÙĪØ§ÙħÙĦ":3088,"Ø²Ø§ÛĮ":3089,"ĠØ¢Ø²Ø§Ø¯ÛĮ":3090,"ĠÙĩØ±ÚĨÙĨØ¯":3091,"Ø±ÙģØª":3092,"Ø²Ø´ÛĮ":3093,"Ġd":3094,"ĠØ±Ø¯Ùĩ":3095,"ÛĮÙģÙĩ":3096,"Ø§ØªÙĪ":3097,"ĠØ®Ø¯ÙħØª":3098,"ĠØ¯ÛĮØ¬ÛĮ":3099,"ĠÙħØªØµÙĦ":3100,"ĠÙĤØ§ÙĨÙĪÙĨÛĮ":3101,"ĠÚ¯Ø´Øª":3102,"ĠÙħØ¹ÙĨØ§ÛĮ":3103,"ĠØ´ÙĨØ§":3104,"ĠØ§Ø·ÙħÛĮÙĨØ§ÙĨ":3105,"ĠÚĨÙĩØ§Ø±Ùħ":3106,"ĠÚĺØ§Ù¾ÙĨ":3107,"ĠÙĪÛĮØª":3108,"ĠØ¢Ø³Ø§ÙĨ":3109,"ĠØ¯ÛĮØ±":3110,"Ø¨ÛĮÙĦ":3111,"ÙĪØŃ":3112,"Ø¹Ùħ":3113,"ĠØ·Ø¨ÛĮØ¹Øª":3114,"ĠØ±Ú©":3115,"ĠØ¹Ø¬ÛĮ":3116,"ĠØ¨Ø±ÛĮØªØ§ÙĨÛĮØ§":3117,"ĠØ±ÙĪØºÙĨ":3118,"ĠØ¢ÙĩÙĨÚ¯":3119,"ĠØ¨ØªÙĪØ§ÙĨÙĨØ¯":3120,"ĠØ´ÛĮÙĪØ¹":3121,"ĠØ¨Ø±Ø¯Ùĩ":3122,"ĠÙĨÙħØ§ÛĮÙĨØ¯Ùĩ":3123,"ĠÚ©Ø´ØªÛĮ":3124,"ĠÙħØ¯Ø±ÙĨ":3125,"Ø¢Ø¨":3126,"ut":3127,"ĠØ±ÙĪØ¨":3128,"Ø±ÛĮØ²":3129,"ĠØ¹Ø´":3130,"ÙĨÙĪÛĮØ³":3131,"ĠÙħØ´Ø®ØµØ§Øª":3132,"ĠÙĪØŃ":3133,"ĠÙĩÙĨØ±ÛĮ":3134,"ĠØ§Ø±Ø´Ø¯":3135,"ÙĪØ´ÙĨ":3136,"ĠØ§Ø³ØªØ±":3137,"ĠÚ©ÙĦÙħÙĩ":3138,"ĠÙĪØ±ÙĪØ¯ÛĮ":3139,"oo":3140,"ĠØ³ÙĨØ³ÙĪØ±":3141,"ĠØ®Ø§Ø±Ø¬Ùĩ":3142,"ĠÙĤØ±ÙħØ²":3143,"ĠÙĦØ§ÛĮ":3144,"ĠØªÙħØ±ÛĮÙĨ":3145,"ĠØ¯Ø§Ø±ÙĪ":3146,"ĠÙ¾Ø§ÛĮØª":3147,"ĠØŃØ¯Ø§Ú©":3148,"ĠÙĨÙĪØ´ØªÙĨ":3149,"Ø§ÛĮØ§ÙĨ":3150,"ĠØ®Ø¨Ø±Ú¯Ø²Ø§Ø±ÛĮ":3151,"ĠØ®ÙĪØ¯Ú©Ø§Ø±":3152,"ĠØ±ÚĺÛĮÙħ":3153,"ĠØ¯ÙĪÙħÛĮÙĨ":3154,"ÙĪÚ©Ø§Ø±":3155,"ĠÙħØ§Ùħ":3156,"ĠÚĨÙĩØ±Ùĩ":3157,"ÚĨÛĮØ¯Ùĩ":3158,"ĠØ¹Ø§Ø¯ÛĮ":3159,"ĠÙĩÙħØ§ÙĨÙĨØ¯":3160,"ĠØ¯Ø§ÙĨÙĦÙĪØ¯":3161,"ĠØ³ÛĮØ¯":3162,"ĠØ¨ÙĦÙĪ":3163,"ĠØ¨Ø±Ø®":3164,"ĠØ§Ø¹ØªØ¨Ø§Ø±":3165,"ĠØ¬ÙĨØ³ÛĮ":3166,"ĠÙħØ°Ú©ÙĪØ±":3167,"ĠÙĨØ¸Ø§Ø±Øª":3168,"ĠØ¨Ø±Ø§Ø¯Ø±":3169,"Ø¯ÛĮØ¯Ùĩ":3170,"un":3171,"ĠÙħØ¨ØªÙĦØ§":3172,"ĠØ³ÙĪÙĨÛĮ":3173,"ĠØ®Ø´":3174,"ĠÙĨØ´Ø§ÙĨÙĩ":3175,"Ø®ÙĪØ§ÙĩÙĨØ¯":3176,"ĠÙĦÛĮÚ¯":3177,"ĠÙĦÙĪÙĦÙĩ":3178,"Ø¬ÙĪÛĮØ§ÙĨ":3179,"ĠØ¯ÙĩÙĨØ¯Ùĩ":3180,"ĠÚ©ÙħÛĮØ³ÛĮÙĪÙĨ":3181,"Ù¬":3182,"Ù¾Ø§ÛĮÛĮ":3183,"ĠÙħØ·ÙĦ":3184,"ÛĮØ§Ø¨Ø¯":3185,"ir":3186,"..":3187,"ĠÙĪØ¸ÛĮÙģÙĩ":3188,"Ø§ÙĤØ¹":3189,"ĠØ¨ÙĨØ¯":3190,"ĠØ§Ø±Ø²ÛĮØ§Ø¨ÛĮ":3191,"ĠÙ¾ÛĮÚ©Ø³ÙĦ":3192,"ÛĮÚ©Ø³ÙĦÛĮ":3193,"ĠÚ©Ø±ÛĮ":3194,"Ø±ÙĪØ´":3195,"ĠÚ¯Ø±Ø¯ÛĮØ¯":3196,"Ø§ÙĨØ¯Ùĩ":3197,"ÙĪØ§Ø±ÛĮ":3198,"ĠÙħØ§Ø¬":3199,"ĠØªØ§ÙĨ":3200,"ĠØ§Ø¯Ø¨ÛĮ":3201,"ĠÙ¾ÙĪ":3202,"ĠØ¬Ø²Ø¦ÛĮØ§Øª":3203,"ĠØ¬Ø¹":3204,"ĠÙģØ±Ø§ÙħÙĪØ´":3205,"ĠØ¨Ø±ØªØ±":3206,"ĠØ¨ÙĩØªØ±ÛĮ":3207,"ĠÚ¯Ø±ÙĪÙĩÛĮ":3208,"ĠÙģØ±Ø¶":3209,"ĠÙ¾Ùĩ":3210,"ĠØ¬Ø´ÙĨÙĪØ§Ø±Ùĩ":3211,"ÙģØ±Ø§ÙĨØ³":3212,"ĠØ§ÙĪØ§ÛĮÙĦ":3213,"ĠØ¬ÙĪØ§Ø¨":3214,"Ø§Ø±Ú©Øª":3215,"Ø§ØŃÛĮÙĩ":3216,"ĠØ¨Ù¾Ø±Ø¯Ø§Ø²":3217,"ĠÙĨÚ¯ÙĩØ¯Ø§Ø±ÛĮ":3218,"ĠØ¯ÙĦØ§ÛĮÙĦ":3219,"ĠØ¨ÙĩÛĮÙĨÙĩ":3220,"ĠÙ¾ÛĮÚĨÛĮØ¯Ùĩ":3221,"ĠØ®Ø¨Ø±ÙĨÚ¯Ø§Ø±":3222,"ĠØ¬Ø³ØªØ¬ÙĪ":3223,"ĠØ®Ø´Ú©":3224,"Ø±Ø¶":3225,"Ø§Ø±ÙĪ":3226,"ĠØ§ÙĦÛĮ":3227,"ÙħÙĨØ¯ÛĮ":3228,"ĠØ§ØµØ·":3229,"ĠÙĩÙĪØ§ÛĮ":3230,"ĠÙĨÙĪØª":3231,"ÙĪØ§ÙĦ":3232,"ĠÚ¯ÛĮÙħ":3233,"ĠÙĤÙĦØ¨":3234,"ĠØ¯Ø±ØµØ¯ÛĮ":3235,"ĠØ¯ÙĤÛĮÙĤØ§":3236,"Ú©Ø§Ø±Ø§ÙĨ":3237,"ĠØ¨ÙĪØ±Ø³":3238,"ĠÙĪØ³Ø§ÛĮÙĦ":3239,"ÛĮØªÙĩ":3240,"ur":3241,"Ø§Ø®Ø±":3242,"Ø§Ø¦ÛĮ":3243,"ĠÚ©ÙĦÛĮÚ©":3244,"Ø±Ø¯Ùĩ":3245,"ĠØ·Ø¨ÙĤÙĩ":3246,"ĠØ´ÛĮÙħÛĮ":3247,"ĠÙħÛĮØ´ÙĪØ¯":3248,"ĠØ§Ø¨ØªØ¯Ø§ÛĮ":3249,"ĠÙĩÛĮØ¦Øª":3250,"ĠØ§Ø¨Ø¹":3251,"ĠØ¯Ú©ÙħÙĩ":3252,"ĠÙĪØ§Ø³":3253,"ĠØ§ÙĦÙħÙĦÙĦÛĮ":3254,"ÙģØ§ÙĨÙĩ":3255,"ĠØ®Ø§ÙĨÚ¯ÛĮ":3256,"ĠØ¨Ø§Ø²ÛĮÚ©ÙĨ":3257,"ĠØªØŃÙĪÛĮÙĦ":3258,"ĠÛ±Û¹Û·":3259,"ĠØ§ÛĮØ§ÙĦØª":3260,"ĠØ·ÙĦ":3261,"ĠÙħÙĪØ§Ø±Ø¯ÛĮ":3262,"Ø¨Ø§Ø±ÛĮ":3263,"Ø§ÙĨØ¯Ø§Ø²":3264,"ĠØ§ÛĮÚ©Ø³":3265,"Ø§Ø´ÛĮÙĩ":3266,"Ø§Ø¯ÙĩØ§ÛĮ":3267,"ĠØ¨Ú¯Ø°Ø§Ø±ÛĮØ¯":3268,"Ú¯Ø±ÙģØª":3269,"ĠØ§Ø³Ø±Ø§Ø¦ÛĮÙĦ":3270,"Ø§Ø±Ú©":3271,"ĠÙħÙĩÙĨØ¯Ø³ÛĮ":3272,"ĠÙĩÙħØ§ÙĨØ·ÙĪØ±":3273,"ĠØ¨ÙĤÛĮÙĩ":3274,"ĠØµÙĪØªÛĮ":3275,"ĠÚ©Ø´Øª":3276,"ÙĨØ§Ú©":3277,"ĠØ³Ú©":3278,"ÙĩØ§ÛĮØ´":3279,"ĠÙĨÚ¯Ø±Ø§ÙĨÛĮ":3280,"ĠØ§ÙģØªØ§Ø¯":3281,"ĠØ§ÙĨØ¬ÙħÙĨ":3282,"Ġb":3283,"ĠØ¯ÛĮÙĪØ§Ø±":3284,"ĠØ§Ø¹ØªØ±Ø§Ø¶":3285,"ĠØ²ÙĨØ¬":3286,"ap":3287,"ĠØ²Ùħ":3288,"ĠØ¹ÙĦÙħ":3289,"ĠØ§ÙĨÚ¯Ø´Øª":3290,"ÙĦØŃ":3291,"ĠÚ©Ø§ÙĦØ§":3292,"ÙĨØ³":3293,"20":3294,"ĠÙĨØ²Ø¯ÛĮÚ©ÛĮ":3295,"ĠØ§ØªØµØ§ÙĦ":3296,"ĠÙĦØº":3297,"ĠÙħØ·ÙħØ¦ÙĨ":3298,"ĠÚ©Ø§Ø±Ú©ÙĨØ§ÙĨ":3299,"ĠÚ¯Ø°Ø´Øª":3300,"ĠØµØŃÙĨÙĩ":3301,"ĠØ¹ÛĮÙĨ":3302,"ĠÙħØ¨Ø§Ø±Ø²Ùĩ":3303,"ĠØ¶Ø±ÙĪØ±ÛĮ":3304,"ÙĪÛĮØ´":3305,"Ø¨ÙĦ":3306,"ĠØ³ÛĮÙĦ":3307,"ĠÚ©ÙĦÛĮØ¯":3308,"ĠØ¹Ú©Ø§Ø³ÛĮ":3309,"ĠÚ¯Ø°Ø±":3310,"ĠÙĤÙĦÙħ":3311,"ĠØ³ÙĨÚ¯ÛĮÙĨ":3312,"ĠÙĪØ±Ø²Ø´ÛĮ":3313,"ĠØ¯Ø¨ÛĮØ±":3314,"ĠØ§ÙĤØ§ÙħØª":3315,"ĠØ´Ø±ÙĤ":3316,"ĠØ´ÛĮØ´Ùĩ":3317,"Ø¨Ø§Ø´ÙĨØ¯":3318,"ÙĦÛĮÙħ":3319,"ĠØ³Ø±Ø§Øº":3320,"Ø¬Ø§ÛĮ":3321,"ĠÛ²Û²":3322,"ĠØ¯Ø³":3323,"ĠØ¢ÙĦØ¨ÙĪÙħ":3324,"ĠØ³Ø±Ø§ÙĨ":3325,"ĠØ®ÙĦØ§ÙĤ":3326,"ĠØ§Ø®ØªÙĦØ§Ùģ":3327,"ĠØ±ÛĮØ§ÙĦ":3328,"ĠØ¨ÛĮÙħØ§Ø±Ø³ØªØ§ÙĨ":3329,"ÙĨØ¬ÛĮ":3330,"Ø¨Ø§ÛĮ":3331,"ĠØµØ±ÙģØ§":3332,"ĠÚĨÙĤØ¯Ø±":3333,"ĠØ§ØªÙħ":3334,"ĠØªØµØ±ÛĮØŃ":3335,"ĠÙħÙĦÙĦ":3336,"ĠÙĤØ·Ø¹Ø§Øª":3337,"ĠØ³Ø§Ø²ÙĨØ¯Ùĩ":3338,"ĠØ±ÙĪÛĮØ¯Ø§Ø¯":3339,"ĠÛ±Û³Û¸":3340,"ÙģØ§ÙĪØªÛĮ":3341,"ĠØŃØ§Ø´ÛĮÙĩ":3342,"ĠØ¯ÙģØ§Ø¹":3343,"ĠØ¨Ø±ÙĨØ¯Ùĩ":3344,"ĠØ§ÛĮØ³ØªÚ¯Ø§Ùĩ":3345,"ĠÛ´Û°":3346,"ĠÚ©ÙĨÙģØ±Ø§ÙĨØ³":3347,"ĠØ®ÙĪØ±":3348,"ĠØ§ÙĪØ§Ø®Ø±":3349,"ĠÙħØ¹ÙħÙĪÙĦÛĮ":3350,"ĠÙĨÙħÙĪØ¯Ùĩ":3351,"Ø¨Ø®":3352,"ĠØ§ÙħÙ¾":3353,"Ø±Ø¨Ø§ÛĮØ¬":3354,"ĠÙħÛĮØ±":3355,"ĠÙĨÙħØ§ÛĮÛĮØ¯":3356,"ĠØŃØ³ÛĮÙĨ":3357,"ĠÙ¾ÛĮÙħ":3358,"ĠÙħØ³Ø¦ÙĪÙĦÛĮØª":3359,"ĠØ¨ÙĪ":3360,"ĠÙħØ²Ø§ÛĮ":3361,"Ø§Ø¨ÙĦÙĩ":3362,"ĠØªÙĤØ§Ø¶":3363,"ĠÚ©Ø§Ø±Ø¨Ø±Ø¯ÛĮ":3364,"ĠÙ¾Ø±ÙĪÙĨØ¯Ùĩ":3365,"ÙĪØ§ÛĮ":3366,"ĠØ³Ø¹":3367,"ĠØ¢Ù¾":3368,"ĠÙĨÙħØ§ÛĮØ¯":3369,"ĠØ¯Ø§Ø¯Ú¯Ø§Ùĩ":3370,"Ø«Ø±ÛĮ":3371,"ĠØ¨ØŃØ±Ø§ÙĨ":3372,"ĠÙħØªÙĪØ³Ø·":3373,"Ø¨ÙĨØ¯":3374,"ĠÙħÙĨØªØ¸Ø±":3375,"ĠÚĨØ±":3376,"Ú¯Ùħ":3377,"ĠÚ¯Ø§Ùħ":3378,"Ġof":3379,"ĠØªØ£Ø³ÛĮØ³":3380,"ĠÙħÙĪÙĦ":3381,"ĠØ¢Ø°Ø±Ø¨Ø§ÛĮØ¬":3382,"ĠØªÙĪØ§ÙĨØ³ØªÙĩ":3383,"ĠØ§Ø³ØªØ±Ø§ØªÚĺÛĮ":3384,"ĠØ¹Ø¨Ø¯":3385,"ĠØ®ÙĪØ¯Ø´Ø§ÙĨ":3386,"Ø³Ú©":3387,"ÙģÙĦ":3388,"ĠÙĤÙĩ":3389,"ĠÙĤØ·Ø¹Ø§":3390,"ÙĪÛĮØ¨":3391,"ĠÙħÙĤØ§Ø¨ÙĦÙĩ":3392,"ĠØ³Ø§ÙĦÙħ":3393,"Ø¨ÙĨ":3394,"Ú¯Ø§Ø±ÛĮ":3395,"ĠØªØ±Ú©ÛĮ":3396,"ĠÙħÚ¯Ø§Ù¾ÛĮÚ©Ø³ÙĦÛĮ":3397,"ĠÙħØ®Ø§Ø·Ø¨":3398,"ĠÙħØŃÙĤÙĤØ§ÙĨ":3399,"ĠØ¨Ø¨ÛĮÙĨÛĮØ¯":3400,"ĠØ¨Ùħ":3401,"Ø±Ø§ØªÙĪØ±":3402,"ĠØ¨Ø§ÙģØª":3403,"Ø§ÙĨÚ¯ÛĮØ²":3404,"Ø§Ø±ÙĩØ§ÛĮ":3405,"ĠØ¯Ø±Ø³":3406,"ĠÙħØ´Ø§Ø±Ú©Øª":3407,"ØªØ§Ù¾":3408,"ĠØ±Ø§Ø¯ÛĮ":3409,"ĠÚ¯ÛĮØ±Ø¯":3410,"Ø²Ùħ":3411,"ØŃØ§Øª":3412,"ĠÙħØ§Ø³Ú©":3413,"ĠÚ©ÛĮÙĦÙĪ":3414,"ĠÙĩÙħØ§Ùĩ":3415,"ĠÙĨØ§ØŃÛĮÙĩ":3416,"ĠÙģØ¶Ø§":3417,"ĠØªØµÙĪÛĮØ¨":3418,"ĠÙħØµØ§ØŃ":3419,"ĠØ§Ø¨Ø¹Ø§Ø¯":3420,"ĠÙħÙĤØ§ÙĪÙħØª":3421,"ÛĮÙĦÛĮ":3422,"Ø§Ø±Ø§Øª":3423,"ĠØªÙĪØ¬ÙĩÛĮ":3424,"ĠÙĨØ¨Ø§Ø´Ø¯":3425,"ĠØ§ÙĦÚ¯":3426,"ĠØ¯Ø±ÙħØ§ÙĨÛĮ":3427,"ĠØªØ¦":3428,"ĠÚ©Ø§Ø±Ø´ÙĨØ§Ø³Ø§ÙĨ":3429,"ĠØ§Ø³ØªØ§Ø±ØªØ§Ù¾":3430,"ĠØ·ÙĦØ§":3431,"Ø¯Ø§ÙĨÙĨØ¯":3432,"ÙĪØ°":3433,"ĠÙ¾ÛĮØ´Ø±ÙģØªÙĩ":3434,"ĠØ§Ø±ØªÙģØ§Ø¹":3435,"ĠØ´Ùģ":3436,"ĠØ®Ø§Ùħ":3437,"ĠØŃØ¯Ø§Ú©Ø«Ø±":3438,"ĠÚ©ÙĨÙĪÙĨÛĮ":3439,"ÙħØ§ÙĨØ§ÙĨ":3440,"ĠÙĪØ§ÚĺÙĩ":3441,"ĠÙħØ¹Ø§Ø¯ÙĦ":3442,"ÙĪØ´ÛĮÙħÛĮ":3443,"Ø¯ÙĩÙĨØ¯Ùĩ":3444,"ĠÚ¯ÙĪÙĨØ§":3445,"ĠØ±Ø§ÛĮØ§ÙĨÙĩ":3446,"ĠØ§ÙĦÙĩ":3447,"ĠÙħØ³ØªÙĤÙĦ":3448,"Ø§ÙħÙĪÙĨ":3449,"ÛĮÙĨÙĪ":3450,"ÚĺØ§ÙĨØ³":3451,"ĠØŃØ§Ú©":3452,"ĠØªØ±Ø¯":3453,"ĠØ§ÙĦÚ©ØªØ±ÛĮÚ©ÛĮ":3454,"ĠÚ©ÙĪØ±":3455,"ĠÙħØµØ§ØŃØ¨Ùĩ":3456,"ĠØ³Ø§Ø¨ÙĤ":3457,"ÙĪÙĤÙģ":3458,"Ø¹ÛĮÙģ":3459,"ation":3460,"ĠØ®ÙĪØ§ÙĨØ¯ÙĨ":3461,"Ø¹ÙĩØ¯":3462,"ĠØ¹ÙħÛĮ":3463,"ĠÚ©Ø§ÙĨØ§ÙĦ":3464,"ĠØ¯Ø±Ú¯ÛĮØ±":3465,"Ø®Ø±Ùĩ":3466,"ĠØ§ÛĮÙħÛĮÙĦ":3467,"ĠÛ±Û¹Û¶":3468,"ĠØ®Ø±ÙĪØ¬ÛĮ":3469,"ĠØ¯Ø±Ú¯Ø°":3470,"ĠØªØ±Ø§Ùģ":3471,"ĠÙħØ·Ø§ÙĦØ¨":3472,"ĠØªÚ©Ø±Ø§Ø±":3473,"ĠØ§ÙĦØ§ÙĨ":3474,"ĠØ§Ø³ØªÙĤÙĦ":3475,"Ø§Ø²Ú¯ÛĮ":3476,"ĠØ³ÙģØ§Ø±Ø´":3477,"ĠØªØ£ÙħÛĮÙĨ":3478,"ĠØ§ÛĮÙħÙĨØ§":3479,"ĠÚ©Ø´Ø§ÙĪØ±Ø²ÛĮ":3480,"ĠØ®Ø·ÙĪØ·":3481,"Ø±Ú©ØªÛĮ":3482,"ĠØ³Ø±ÙĪØ±":3483,"ĠÚ©Ø§Ø±Ø®Ø§ÙĨÙĩ":3484,"Ġw":3485,"Ú©Ø´Ø¯":3486,"ĠÙ¾Ø±Ø¯Ø§Ø²Ø´":3487,"em":3488,"ĠØ®ÙĦÙĤ":3489,"ĠÙĨÛĮØ§Ø²ÛĮ":3490,"ĠØ¯Ø±ÛĮØ§ÛĮÛĮ":3491,"ĠÙħØªÙĪÙĤÙģ":3492,"ĠØ²ÙĨØ¯Ø§ÙĨ":3493,"ĠÚ©ÙĨØ³ÙĪÙĦ":3494,"ĠÙħÙħÙĨ":3495,"ĠØ³Ø§ØŃ":3496,"Ġthe":3497,"ĠØ§ÙģØ³":3498,"ĠÙħØ¬ÙĪØ²":3499,"ĠÙģÙĨ":3500,"ĠÙħØªÙĤ":3501,"ĠØ±ÙĪØ¨Ø±ÙĪ":3502,"ĠØ¨Ø¯Ø³Øª":3503,"ĠÙģÛĮØ²ÛĮÚ©ÛĮ":3504,"ÙħØªØ±":3505,"ĠØ§Ø³Ùģ":3506,"ĠÙ¾ÛĮØ±ÙĪØ²ÛĮ":3507,"Ø¨Ø®Ø´":3508,"ĠØ§Ø®ØªØµØ§ØµÛĮ":3509,"ÛĮÙĦØ§Øª":3510,"ĠØªØ¯Ø±ÛĮ":3511,"ĠØªØ®ØµØµÛĮ":3512,"ĠÚĨÛĮÙ¾":3513,"ĠÙģØ±ÙĪØ¯Ú¯Ø§Ùĩ":3514,"im":3515,"ĠÙĩØ¯Ø§ÛĮØª":3516,"ĠØ³Ø§ÙĦÚ¯ÛĮ":3517,"ĠÙĨÙħØ§ÛĮÙĨØ¯Ú¯Ø§ÙĨ":3518,"ĠÙħØ³ÛĮ":3519,"ØºÛĮØ±":3520,"ĠØ§Ø³ØªÙĤÙĦØ§ÙĦ":3521,"ØŃÛĮØŃ":3522,"ĠØ³Ø±Ø¨Ø§Ø²":3523,"ĠÙ¾ÙĨÙĦ":3524,"ĠÙ¾Ø²Ø´Ú©":3525,"ÙĩÛĮ":3526,"Ø¯Ø³":3527,"ĠÙĩÙĪØ§Ù¾ÛĮÙħØ§":3528,"ÙĨØ¸":3529,"ĠÚ©ÙĨÙĨØ¯Ú¯Ø§ÙĨ":3530,"ĠØŃÛĮÙĪØ§ÙĨ":3531,"ĠÙ¾Ø§ÛĮØ¯":3532,"ĠÚ©Ø´ÙĪØ±ÙĩØ§":3533,"ĠÚ©ÙħØªØ±ÛĮ":3534,"Ø¬Øª":3535,"ĠØ®Ø§ÙĦÛĮ":3536,"ĠÙĨÙĪØ´":3537,"ĠÙĪÛĮØ¯ÛĮÙĪ":3538,"ĠØªÙĪØµÛĮÙģ":3539,"ĠØ³ÙĨØª":3540,"ĠÙģØ±Ø³Øª":3541,"ĠØ®ÙĪØ§Ø³ØªÙĩ":3542,"ĠÚ©Ø§ÙĨØ§Ø¯Ø§":3543,"ĠØ§Ø®Ø¨Ø§Ø±":3544,"Ø±ÙĪØª":3545,"ĠØ¢ÙģØ±ÛĮÙĤ":3546,"ĠÚ©Ø§Ø¨":3547,"Ø¢ÙģØ±":3548,"ĠØ³Ø®ØªÛĮ":3549,"ia":3550,"Ù¾ÙĪØ´":3551,"Ø®ÛĮØ±":3552,"ĠØ¨Ø²ÙĨÛĮØ¯":3553,"ĠÙĤÙĩÙĪÙĩ":3554,"ĠØ¨Ø±ÙĤØ±Ø§Ø±":3555,"ĠØ±ÙĪØ³ØªØ§ÛĮ":3556,"ĠÛĮØ®":3557,"ĠØªØ¶":3558,"ĠØ§Ø³Ù¾Ø§ÙĨÛĮ":3559,"ĠÚ©ÙħÛĮØªÙĩ":3560,"ĠÙħÙĪØ±":3561,"ĠJ":3562,"ĠÙ¾ÛĮÚ©":3563,"ĠØ¨ÙĩØ¯Ø§Ø´ØªÛĮ":3564,"ĠØ§ØµØ·ÙĦØ§ØŃ":3565,"ĠÙħØ°Ùĩ":3566,"ĠØ¹Ùģ":3567,"ÙħØ§ÙĦÛĮ":3568,"ĠØ§Ø¹Ø¯":3569,"ĠØµØ§ØŃØ¨":3570,"ĠØ®ÙĪØ±Ø¯ÙĨ":3571,"ĠÚĨØ·ÙĪØ±":3572,"ĠÚĨØ±Ø®":3573,"ĠÛ²Û°Û±Û¸":3574,"ÙĨØ´ÛĮÙĨ":3575,"ĠÙħØ§ÙĦÚ©":3576,"ĠØŃÙģØ§":3577,"ĠØ±ÙĩØ¨Ø±ÛĮ":3578,"ĠØ¨Ø´Ø±":3579,"ĠØ·ÙĪØ±ÛĮ":3580,"Ø³Ø§ÛĮ":3581,"ĠØ´ÙĩØ±ÙĪÙĨØ¯Ø§ÙĨ":3582,"ĠÙĤØ·Ø¹Ùĩ":3583,"ĠØªØ¹ÙħÛĮØ±":3584,"ĠØ¬ÙĨØ³":3585,"ĠÙ¾Ø§ÛĮÚ¯Ø§Ùĩ":3586,"Ø§ØŃØª":3587,"ĠØ±ÙĪØ²ÛĮ":3588,"ĠØµØ§Ø¯Ø±Ø§Øª":3589,"ĠØŃØ³ÙĨ":3590,"od":3591,"ĠÙ¾ØªØ±ÙĪØ´ÛĮÙħÛĮ":3592,"ĠØ¢Ø°Ø±Ø¨Ø§ÛĮØ¬Ø§ÙĨ":3593,"ĠØ¨Ú¯ÙĪÛĮ":3594,"ĠØ¹Ø¬ÛĮØ¨":3595,"ĠØ¢Ø²ÙħÙĪÙĨ":3596,"Ø¹Ø¨":3597,"ĠØ´ØºÙĦ":3598,"ĠØ±ÛĮØ´Ùĩ":3599,"ĠØ±Ø§Ø¨Ø·":3600,"ĠÙĤØ¨ÙĦØ§":3601,"Ø³ÛĮÙĦ":3602,"ĠØ³Ø±Ø²ÙħÛĮÙĨ":3603,"ĠØ¨ÛĮØ³Øª":3604,"Ø®Ø§ÙĨ":3605,"ĠØ¯Ø§Ø¦":3606,"ØºÙĩ":3607,"ÙĪÙ¾":3608,"ĠØ¯ÙĦØ§Ø±ÛĮ":3609,"ĠÙħØ¹ÙħÙĪÙĦ":3610,"ĠØ±ÛĮØ§":3611,"ĠØ¯Ø§ÙĨØ´ÙħÙĨØ¯Ø§ÙĨ":3612,"ĠÙ¾ÛĮØ´ÛĮÙĨ":3613,"ĠÙħØ¨ÙĦØº":3614,"Ú©Ø¯Ùĩ":3615,"ĠØºØ°Ø§ÙĩØ§ÛĮ":3616,"ĠØªØ¹ÙĪÛĮ":3617,"ĠÙħØ¹ØªØ¨Ø±":3618,"ĠÙħØŃÚ©":3619,"ĠZ":3620,"ĠØ®ÙĪØ±Ø´ÛĮØ¯":3621,"ĠÙħÛĮÚ©Ø±ÙĪ":3622,"ĠØµÙĨØ¯ÙĪÙĤ":3623,"ĠØ¹ÙĦØ§Ø¦":3624,"ĠØªØ³Ùĩ":3625,"ĠØ§Ø®ÛĮØ±Ø§":3626,"Ø§ØªÛĮÚ©":3627,"ĠØ¬ÙĦÙĪÛĮ":3628,"ĠØ¢Ø³ÛĮØ§":3629,"Ġ[":3630,"ĠÚ©Ø§Ø±ÙħÙĨØ¯Ø§ÙĨ":3631,"ĠÙħØªØŃØ¯":3632,"ĠÙĨØ§Ø®":3633,"Ø¨ÛĮØª":3634,"ĠØ§ÙĨÚ¯ÙĦ":3635,"ĠØ³Ù¾Øª":3636,"ĠÙħØ¬Ø§Ø²":3637,"ĠØ¯Ø¹ÙĪØª":3638,"ĠØ§ÙħØ§Ùħ":3639,"Ø±Ø²":3640,"ĠÙĦÙħ":3641,"ÛĮÛĮØ¯":3642,"ĠÙ¾ÙĦØ§":3643,"ĠØ¯ÛĮÙĨ":3644,"ĠØ¨Ø§Ø¯":3645,"ĠÙĨÙģÙĪØ°":3646,"ĠØªØ²":3647,"ĠÙ¾Ø±Øª":3648,"ĠØ³Ø±Ø·Ø§ÙĨ":3649,"ĠØ¯ÙĩÛĮÙħ":3650,"ĠØ³ÛĮÙĨÙħØ§":3651,"ĠØ±ÛĮÛĮØ³":3652,"ĠØŃÚ©Ùħ":3653,"ĠØ§ÛĮØªØ§ÙĦÛĮØ§":3654,"ĠØ¨ÛĮÙħØ§Ø±Ø§ÙĨ":3655,"ĠØ§ÙĪÙĤØ§Øª":3656,"ĠÛ¶Û°":3657,"ĠiOS":3658,"Ø¯Ø§ÙĨØ¯":3659,"Ø¨Ø±ÙĨØ¯":3660,"ĠÚ©Ø´ÛĮØ¯Ùĩ":3661,"ÙĪÙħØ§":3662,"ĠÚ©Ø±ÙħØ§ÙĨ":3663,"ØŃØµ":3664,"ĠØ±ÛĮØ³":3665,"ĠÙħØ·Ø§ÙĦØ¹Ø§Øª":3666,"ĠØ§Ú¯Ùĩ":3667,"ĠÛ²Û°Û²Û°":3668,"ul":3669,"ĠÙĤØ¨ÙĪÙĦ":3670,"ĠÚ¯Ùħ":3671,"ĠØ³Ù¾ØªØ§ÙħØ¨Ø±":3672,"ĠÚĨÙĨØ§ÙĨ":3673,"ĠØ³Ø§Ø¨ÙĤÙĩ":3674,"ĠØ¨Ø±ÙħÛĮ":3675,"Ùª":3676,"ĠØ¯ÙĨØ¯Ø§ÙĨ":3677,"ĠÚĺÙĨ":3678,"ÙģØ³":3679,"ĠØªÚ©ÙħÛĮÙĦ":3680,"ĠØ¬Ø²ÙĪ":3681,"ĠØ±Ø¨Ø§Øª":3682,"ÙĤÛĮØ¨":3683,"ĠØ¯ÙħØ§ÛĮ":3684,"ĠÙĨÛĮÙĪÛĮ":3685,"Ø´Ø§ÛĮ":3686,"ĠØ§ÚĨ":3687,"ĠØ§ÙģØ²ÙĪØ¯Ùĩ":3688,"ĠÙħØ®Ø§ÙĦÙģ":3689,"ĠØªÙħØ§ÛĮÙĦ":3690,"ĠØ§Ø³ØªÙĤØ¨Ø§ÙĦ":3691,"ĠØ§ÙĦÚ©ØªØ±ÙĪÙĨÛĮÚ©ÛĮ":3692,"ĠØ®Ø¨":3693,"ÙĪØ¬":3694,"ĠØ¨Ú¯ÛĮØ±ÙĨØ¯":3695,"ĠØ²Ø§":3696,"ĠÙģØ§Ø±Ø³":3697,"ĠØ¯ÛĮØ¯Ú¯Ø§Ùĩ":3698,"Ø¯ÙĩÛĮÙħ":3699,"ĠSt":3700,"ĠÙĦÙĪØ§Ø²Ùħ":3701,"ÙĨØ¯ÙĨ":3702,"ÙĪØ±ÙĪ":3703,"ĠÙĨØ¸Ø±ÛĮÙĩ":3704,"ĠÙģØ±Ø§ÙĨØ³":3705,"ĠÙ¾Ø§ÙĨ":3706,"ce":3707,"ĠÛ²Û±":3708,"ĠÙħØ¤Ø³":3709,"ĠØµÙģØ±":3710,"ĠØ³ÙĨØ¯":3711,"ĠÙĤÙħ":3712,"ĠÙħÙģÙĩÙĪÙħ":3713,"ĠØªÙĦÙĪÛĮØ²ÛĮÙĪÙĨÛĮ":3714,"ÙĤØ§Ø¯":3715,"ĠØ¨Ø§Ø±ÛĮ":3716,"Ġ19":3717,"ØªØ±Ø§":3718,"ĠØ§ØªÙħÛĮ":3719,"ĠÚ©Ø§Ø±ÙĩØ§":3720,"ĠÙ¾Ø§ÙĦØ§ÛĮØ´":3721,"ĠØ§Ø±ÙĪÙ¾Ø§ÛĮÛĮ":3722,"ÙĨÙħØ§ÛĮÛĮ":3723,"ĠÙĩØ´Ø¯":3724,"ĠÚ¯ÙģØªÚ¯ÙĪ":3725,"ĠØ§Ø¨ØªÙĦØ§":3726,"ĠÛ²Û°Û±Û·":3727,"ĠØ³Ø®ÙĨÚ¯":3728,"Ø³Ø§Ø®Øª":3729,"ĠØ¬ÙħØ¹Ùĩ":3730,"ĠÙħÛĮÚ©ÙĨØ¯":3731,"ĠÙĤÙĦØ¹Ùĩ":3732,"ĠØ¨Ø±Ø¯ÙĨ":3733,"ĠØ³Ø±Ø®":3734,"ĠÙĨÙģØ³":3735,"ĠØŃÛĮÙĨ":3736,"ĠÙħÛĮÙĪÙĩ":3737,"ĠØŃØ§ÙĪÛĮ":3738,"ĠØ®ÙĦÛĮ":3739,"ĠØ¹ÙĪØ¶":3740,"ĠØ¨ØªÙĪØ§ÙĨÛĮØ¯":3741,"ĠÙĨÙĪØ²Ø§Ø¯":3742,"ÙĪÙĦÙĪØ´ÙĨ":3743,"ĠÙħØ¹ÛĮ":3744,"ĠØ§ÙĪÙĦÙĪÛĮØª":3745,"ĠØ¯Ø§ÙĨØ´Ø¬ÙĪÛĮØ§ÙĨ":3746,"ĠØ±ÙĪØ¯Ø®Ø§ÙĨÙĩ":3747,"ĠÙ¾Ø±ÚĨÙħ":3748,"ĠÚ©ÙĦÛĮØ¯ÛĮ":3749,"ĠÛ²Û°Û±Û¶":3750,"um":3751,"ĠÙħÙĨØµ":3752,"ĠÙ¾ÛĮÚĨ":3753,"ĠØ¹ØµØ±":3754,"ÙĦØ·":3755,"ter":3756,"os":3757,"ÛĮØ¯ÙĨÛĮ":3758,"ÙħØ§ÙĨÙĨØ¯":3759,"ĠØ§ÙĦÚ¯ÙĪØ±ÛĮØª":3760,"ĠÙĤØ§":3761,"ĠÙħØ³Ú©ÙĨ":3762,"Ø±ÙĪÙĨØ¯":3763,"ĠÙģØ±Ø¢ÛĮÙĨØ¯":3764,"ĠÙĨÛĮÙĪÛĮÙĪØ±Ú©":3765,"ĠØ¨ÛĮØ§ÙĨÛĮÙĩ":3766,"ĠÙħÙħÙĨÙĪØ¹":3767,"Ø¯Ø³Øª":3768,"Ø§ÛĮÙĤ":3769,"ĠØ®ÙĦØ§ØµÙĩ":3770,"ĠÙħØ³Ø¬Ø¯":3771,"ĠØªØ£ÛĮÛĮØ¯":3772,"ĠØ¨Ø§Ø±Ùĩ":3773,"ĠØ¹Ø±Ø¨Ø³ØªØ§ÙĨ":3774,"ĠØ±ÙĪØ²ÙĩØ§":3775,"ĠÙĩØ±Ú¯Ø²":3776,"ĠØ§Ø¨Ø²Ø§Ø±ÙĩØ§ÛĮ":3777,"Ø³Ø§Ø²Ø¯":3778,"Ø¯Ø±Ø§":3779,"ĠØ§ØµÙĪÙĦ":3780,"ÙĪØ§ÙĨÙĩ":3781,"ĠØ¹Ø´ÙĤ":3782,"ĠÙħÙĩÙħØªØ±ÛĮÙĨ":3783,"ĠÚ¯Ø±Ø§ÙģÛĮÚ©ÛĮ":3784,"ĠØ§Ø±Ùħ":3785,"ab":3786,"ĠÙĩØ¬":3787,"ĠØ§ÛĮÙĨØªÙĦ":3788,"ĠÙ¾Ø§ÛĮØªØ®Øª":3789,"ĠØ¢Ø±Ø§ÛĮ":3790,"Ø§ÙģØ²Ø§Ø±ÛĮ":3791,"ĠÙħØªØ¹ÙĦÙĤ":3792,"ĠØ§Ú©ØªØ¨Ø±":3793,"ĠÙħÙĩØ§Ø¬Ø±Øª":3794,"ess":3795,"ĠÙĨØ´ÙĪØ¯":3796,"ĠØ´Ø±ØŃ":3797,"Ø§ÙĦØ¹Ø§Ø¯Ùĩ":3798,"ĠØªØµÙĪÛĮØ±ÛĮ":3799,"ĠØ¹Ø§Ø´ÙĤ":3800,"ĠØ§ÙħÛĮØ±":3801,"ĠØ´Ø§Ø®":3802,"ĠÚ¯ÙĪØ´Øª":3803,"ĠÙħØ±Øº":3804,"ĠØ§Ø¯Ø¹Ø§":3805,"ĠÙĪØ§Ø¨Ø³ØªÙĩ":3806,"ĠØ±Ø§ÙĨÙĨØ¯Ùĩ":3807,"ĠØŃØ§Ú©Ùħ":3808,"ĠÙħØªØ¹Ø¯Ø¯ÛĮ":3809,"Ø¯Ø§ÛĮÛĮ":3810,"Ú©Ø±Ø¯Ùħ":3811,"ĠØªØ±ÙĪØ±ÛĮ":3812,"ĠÚĨØ§Ø±":3813,"ĠÙĩÛĮØ¬Ø§ÙĨ":3814,"ĠØ±Ø§ÙĨÙĨØ¯Ú¯ÛĮ":3815,"ÙĪÙĤÛĮ":3816,"Ø§Ø¯Ø§Ø±":3817,"ĠØªØ¹Ø§ÙħÙĦ":3818,"ĠØªØ§Ø¨Ø³ØªØ§ÙĨ":3819,"ĠÙĨÛĮØ§Ø²ÙħÙĨØ¯":3820,"ĠØµÙĦØŃ":3821,"ĠØ§ÙĦØ¹":3822,"ĠØ¹Ø²ÛĮ":3823,"ĠØ§ÙĨØ¯Ø§Ø²ÛĮ":3824,"Ø§ÙĨÚ¯":3825,"ĠÙħØ§Ø±Ø³":3826,"ĠØ¢ÚĺØ§ÙĨØ³":3827,"ĠÙĩØ±ÚĨÙĩ":3828,"ĠÙ¾ÛĮØ´Ø±Ø§ÙĨÙĩ":3829,"Ø¨Ø±Ú¯":3830,"ØŃØ§ÙĦÛĮ":3831,"ĠØµÙĨØ¯ÙĦÛĮ":3832,"Ù¾Ùĩ":3833,"ĠÙħØ§ÙĩÙĩ":3834,"ĠÙĤÙĩØ±ÙħØ§ÙĨÛĮ":3835,"ĠØ±Ø³Ø§ÙĨÛĮ":3836,"ĠÚ©Ø§Ø®":3837,"ĠØ¨ÙĨÛĮØ§ÙĨ":3838,"ĠØ®ÙĦ":3839,"ĠÙĦÙĨØ²":3840,"Ø§ÙģØªØ¯":3841,"ĠØ±Ø§ÙĩÚ©Ø§Ø±":3842,"ĠØ§Ø±ØªØ¨Ø§Ø·ÛĮ":3843,"ĠØ´Ú¯ÙģØª":3844,"ĠÙħØŃÙĪØ±":3845,"ĠÙħØ±Ø¯Ø§ÙĨ":3846,"ĠØ¨Ø±Ø¬Ø³ØªÙĩ":3847,"ĠÙĪØ§ÙĦ":3848,"ĠØ¨Ø§Ø±Ø¯Ø§Ø±ÛĮ":3849,"ĠØªÚ©ÙĨÛĮÚ©":3850,"ĠØªØ±Ø§ÙģÛĮÚ©":3851,"ĠÙħØ´Ú©ÙĦÛĮ":3852,"ĠIn":3853,"ĠØ±Ø²ÙĪÙĦÙĪØ´ÙĨ":3854,"ĠÙĪØ¨Ø³Ø§ÛĮØª":3855,"ĠØ®Ø±ÙĪØ¬":3856,"ĠÛ²Û°Û±Û¹":3857,"ĠØ¨Ø¯ÙĩÛĮØ¯":3858,"ĠÙħÛĮØª":3859,"ĠØ³Ø§ÙĦØ§ÙĨÙĩ":3860,"ĠÛĮØ§ÙģØªÙĨ":3861,"ÙĩØ§Ùħ":3862,"ĠÙĨÙĤØ§Ø´ÛĮ":3863,"ĠØ§Ø±ØªÙĤØ§":3864,"ĠØ´Ø±Ø§ÛĮØ·ÛĮ":3865,"ĠØ¨Ø¯ÙĩØ¯":3866,"ĠÚ©Ø§ØºØ°":3867,"Ø§ÙĪØ±Ø¯":3868,"ĠØ¢ÙĦÙħØ§ÙĨÛĮ":3869,"ĠÙħØ¨ÙĨÛĮ":3870,"ĠÚ©ÙħØ¨ÙĪØ¯":3871,"ĠØ³ÙĪØ±ÛĮÙĩ":3872,"ĠÚĨÙ¾":3873,"Ø§Ø²ÙĪÙĨ":3874,"ĠÙħØ¹Ø±Ø¶":3875,"Ø±Ø§Ø«":3876,"ĠØ¶Ø¨Ø·":3877,"ĠØ®ÙĨ":3878,"ĠÚ©ÙĨÙĩ":3879,"ĠÙĨØ³Ø¨ØªØ§":3880,"ĠØ¨Ø±ÙĪÛĮØ¯":3881,"ĠØ¸Ø§ÙĩØ±Ø§":3882,"ĠÙĨÙĩØ§":3883,"ÙĪØ¯Ú¯ÛĮ":3884,"ĠØ¨Ø§Ø²Ø¯Ø§Ø´Øª":3885,"ĠØ´ÙģØ§Ùģ":3886,"Ø²Ø¯Ùĩ":3887,"ĠÛĮØ§Ø¨Ø¯":3888,"ĠØªØ¹Ø·":3889,"ÛĮØ´Ø§ÙĨ":3890,"ĠØ¢Ú¯Ø§Ùĩ":3891,"ĠÙ¾Ø±ÚĨÙħØ¯":3892,"ĠÙħØŃØ¯ÙĪØ¯Ùĩ":3893,"ĠØ³Ø±Ø§ÙĨØ¬Ø§Ùħ":3894,"ĠÙ¾ÛĮÙĪØ³Øª":3895,"ÂŃâĢĮ":3896,"ĠÙĦÛĮØªØ±":3897,"ĠØ§ÛĮÙĦ":3898,"ĠÙĨÚ©Ø§Øª":3899,"op":3900,"ĠØ³Ø®ÙĨÚ¯ÙĪÛĮ":3901,"Ø³ØªÛĮÚ©":3902,"ĠØ¨ÙĪØ¯ÛĮÙħ":3903,"ĠÙħØ¬Ø¯Ø¯":3904,"ÚĺÛĮÚ©":3905,"ĠÙ¾Ø±ÙĪØ±Ø´":3906,"ĠØ¨ÙĪØ´":3907,"ĠØªØ®Øª":3908,"ĠØ¹Ø±Ø¨ÛĮ":3909,"ĠØ±Ø§ÛĮØ¬":3910,"ĠÙħØ®Ø§Ø·Ø¨Ø§ÙĨ":3911,"ĠØªÙĩØ¯ÛĮØ¯":3912,"ĠÙħÛĮØ§ÙĨÚ¯ÛĮÙĨ":3913,"ED":3914,"ĠØ±ÙħØ§ÙĨ":3915,"ĠÙĨÚ¯Ø±Ø§ÙĨ":3916,"ĠÛ²Û¸":3917,"ĠØ¹ÙĦØ§Ø¦Ùħ":3918,"ĠØªØ§Ø³ÛĮØ³":3919,"ÙĪÛĮØ²":3920,"ÙħØ±Ú©Ø²":3921,"ĠØ¶Ø¹ÛĮÙģ":3922,"ÙĪÙħÛĮØª":3923,"ĠÛ²Û·":3924,"Ø§ÙģØ¹":3925,"ĠØ³Ø§ÙĨØªÛĮ":3926,"Ø§ÛĮÙĦÛĮ":3927,"ĠØ§ÙĦÚ¯ÙĪØ±ÛĮØªÙħ":3928,"Ø´ÙĩØ±":3929,"ĠÙ¾ÙĨØ¬Ø±Ùĩ":3930,"ĠØ®Ø§Ø·":3931,"Ù¾Ø³":3932,"ĠØŃØ³Ú¯Ø±":3933,"ĠÚ©ÙĦÛĮÙĩ":3934,"ĠØµØŃÛĮØŃ":3935,"ĠØ§Ø³ØªØ±Ø³":3936,"ĠÙħÙĪØ«Ø±":3937,"oc":3938,"ĠØ´ÛĮØ§":3939,"ĠØ§ÙĨØªÙĤØ§Ø¯":3940,"ĠØŃÙģØ§Ø¸Øª":3941,"ĠÙģÛĮØ³Ø¨ÙĪÚ©":3942,"âĢı":3943,"ĠÙħÙĦØ§":3944,"ĠØ±Ø¶Ø§ÛĮØª":3945,"ĠÙ¾ÛĮÚ¯ÛĮØ±ÛĮ":3946,"ĠØ¬Ø§Ø°":3947,"ĠØ¢Ø¯Ø±Ø³":3948,"ĠÙ¾Ø´ØªÛĮ":3949,"ĠØŃÙħÙĦØ§Øª":3950,"ĠÚ©ÙĦÙħØ§Øª":3951,"ĠØ¹ÙħÛĮÙĤ":3952,"ĠØ¯Ø§Ø±ÛĮ":3953,"ĠØ§ÙĨÚ¯ÙĦØ³ØªØ§ÙĨ":3954,"ĠÙĨÙĪÛĮØ³ÛĮ":3955,"ĠÛ²Û°Û°":3956,"ĠÙģÛĮÙĦØªØ±":3957,"ĠØ±ÛĮØ²ÛĮ":3958,"ĠØ§ØŃØªÙħØ§ÙĦÛĮ":3959,"ĠØ±ÙĪÛĮÚ©Ø±Ø¯":3960,"ĠØ¨ÙĨÙĪÛĮØ³":3961,"ÙĪÙħÙĩ":3962,"ĠÙĪÛĮØªØ§ÙħÛĮÙĨ":3963,"ĠØ¨Ø§Ø±ÙĩØ§":3964,"ĠÙħØªÙģØ§ÙĪØªÛĮ":3965,"Ø´ÙħØ§Ø±":3966,"ĠØªÙĨØ¸ÛĮÙħØ§Øª":3967,"ĠØ³Ø¤":3968,"ĠØ¨Ø±Ø®ÙĦØ§Ùģ":3969,"ÚĺØ§Ø¯":3970,"Ø¯ÛĮÙĨ":3971,"Ø³Ø±ÛĮ":3972,"ĠÚ©ÛĮÙĦÙĪÙħØªØ±ÛĮ":3973,"ĠÙĨØ¨ÙĪØ¯Ùĩ":3974,"Ø³ÙĪ":3975,"ĠØ¬Ø§ÙħØ¹":3976,"ĠØ®Ø±Ø§":3977,"ĠØ¬Ø¯ÙĪÙĦ":3978,"ĠØ¢ÙħØ§Ø²ÙĪÙĨ":3979,"ĠØ¹Ø±ÙĪ":3980,"ĠØ²Ø§Ø¯Ùĩ":3981,"ĠÙ¾ÙĪØ±":3982,"ĠÙĨÚ¯Ø§ÙĩÛĮ":3983,"ĠØ¹Ø¯":3984,"ĠÙħØ±ÙĪØ±Ú¯Ø±":3985,"ĠÚĨÚ©":3986,"ĠÙħØ±ÛĮ":3987,"ĠØ³ÙĪØ±":3988,"ĠØ¨Ø§Ø¨":3989,"ĠØ¢Ú¯Ø§ÙĩÛĮ":3990,"!!":3991,"ĠÙħÙĪÙĤØ¹":3992,"ÙħØŃ":3993,"ÙĪÛĮØ§":3994,"ĠØ§ÙģØªØ§Ø¯Ùĩ":3995,"Ø®ÙĪØ±":3996,"ĠØ¨Ø±ÙĤÛĮ":3997,"ĠÚĺØ§ÙĨÙĪÛĮÙĩ":3998,"Ù¾ÛĮÙĨ":3999,"ĠØ¨Ø§Ø²Ø³Ø§Ø²ÛĮ":4000,"ĠØ³ÛĮØ±":4001,"ĠÙħØŃØ§Ø³":4002,"ĠÙĪØ§Ú©Ø³":4003,"ĠØ¹Ø±ØµÙĩ":4004,"ĠÙĨÙĪÚ©":4005,"ĠØ¨Ø´Ú©Ùĩ":4006,"ĠÙĩØ´Ø¯Ø§Ø±":4007,"ĠØ¢Ø¨Ø§ÙĨ":4008,"ØºÙĦÛĮ":4009,"ĠØŃØ§Ø¯Ø«":4010,"ĠÙģØ±Ø§ÙĨØ³ÙĪÛĮ":4011,"ĠØ³ÙĦÛĮ":4012,"ĠØ¬Ø§ÙĨØ¨ÛĮ":4013,"ĠØªÙĪÛĮÛĮ":4014,"ĠØŃØ±":4015,"ĠØ±Ø§Ø³ØªØ§ÛĮ":4016,"ĠÙĩÙĪÛĮØª":4017,"ĠØ´ÛĮÙħÛĮØ§ÛĮÛĮ":4018,"ĠØ¢Ø±Ø§ÙħØ´":4019,"ĠØ®ÙĪØ±Ø´ÛĮØ¯ÛĮ":4020,"ĠØŃÙĤÙĪÙĤÛĮ":4021,"ĠÙĨÙĪØ§ÙħØ¨Ø±":4022,"Ø§ÛĮØªÛĮ":4023,"Ø¹ÙĦÛĮ":4024,"ĠØ´Ø¯Ùħ":4025,"Ø§ÙħÙĦÛĮ":4026,"Ø±ÙģÙĩ":4027,"ĠÛ±Û¹Û´":4028,"ĠØ³Ø§ÙĦÛĮ":4029,"ĠÙĦØ±":4030,"ĠØ¯Ø±Ø¢Ùħ":4031,"ĠØ¢ÙĩÙĨ":4032,"ĠØ¯Ø´ÙĪØ§Ø±":4033,"Ø¢ÛĮÙĨØ¯":4034,"ĠØ§ÙĪÙ¾":4035,"Ú©Ø´ÛĮ":4036,"ĠØ¨ÙĪÙħÛĮ":4037,"ĠØ¬Ø¯ÛĮØ¯ØªØ±ÛĮÙĨ":4038,"ĠØªØ±Ø¬ÛĮ":4039,"ĠÙģØ§Ø²":4040,"ĠØ¯Ø±Ùħ":4041,"ĠØ¨Ø®Ø§Ø±":4042,"ĠÚ©Ø§Ø±Ú¯Ø±Ø¯Ø§ÙĨÛĮ":4043,"ÙĦØ±":4044,"ĠØªØ¨ÙĦÛĮØºØ§ØªÛĮ":4045,"ĠØ«Ø±ÙĪØª":4046,"ĠØ¬Ø§Ø°Ø¨Ùĩ":4047,"ÙģÛĮÙģ":4048,"ĠÛ²Û¶":4049,"ĠØ§Ø³ØªÙĪØ¯ÛĮ":4050,"ĠØ¨Ø§Ø²Ùĩ":4051,"ĠÙĨØ§Ù¾":4052,"ĠÙħÛĮØ±Ø§Ø«":4053,"Ø²ÛĮÚ©":4054,"ĠÛ±Û°Û":4055,"ĠÙĨØ§Ø³":4056,"Ø§ÙħÙĦÙĩ":4057,"av":4058,"ÙĩØ§Ø³Øª":4059,"ĠÙĪÛĮØ¯Ø¦":4060,"ĠØ®Ø³":4061,"ØºÙħ":4062,"ĠØŃØ§Ø¯Ø«Ùĩ":4063,"Ġ13":4064,"ĠÙĨÛĮØ§Ø²ÙĩØ§ÛĮ":4065,"ĠÛµÛ°Û°":4066,"ĠÙħØ£":4067,"ĠÙħÙĨØ²ÙĦ":4068,"ĠØ§ÙħØªØŃ":4069,"ĠÚ¯Ø±Ø¯Ø´Ú¯Ø±Ø§ÙĨ":4070,"ĠØ±Ø¯ÛĮ":4071,"ĠÛ±Û¹Ûµ":4072,"ĠØ¨ÙĨØ²ÛĮÙĨ":4073,"50":4074,"Ø´Ø¯ÙĨ":4075,"ĠØ¨Ø§Ø³ØªØ§ÙĨ":4076,"ĠÙħÙĤØ¯Ùħ":4077,"ĠÙħØŃØ§Ø³Ø¨Ùĩ":4078,"ÙĤØ±":4079,"ĠÛ³Ûµ":4080,"ĠÙħØ±Ø§ÙĤ":4081,"ĠØ¨Ø¨Ø±ÛĮØ¯":4082,"ĠÛ°":4083,"ĠØ¨Ø§Ø²ÛĮÚ¯Ø±":4084,"ĠÙĤØªÙĦ":4085,"ĠØ´ÙĨÛĮ":4086,"ĠÙĪØ¹Ø¯Ùĩ":4087,"ĠÚ©ÙĪÛĮÙĨ":4088,"ĠÙĨØ¨Ø±Ø¯":4089,"ĠØ³ÙĤÙģ":4090,"Ø¨Ø§Ø²ÛĮ":4091,"ĠØªÙĪÙĦÛĮØ¯ÛĮ":4092,"ĠÙ¾Ø°ÛĮØ±Ø´":4093,"Ø¦ÙĪÙħÛĮ":4094,"Ø´Ú©ÙĦ":4095,"ĠÚĺÙĪØ¦ÙĨ":4096,"ĠÙĨØ¬Ø§Øª":4097,"ĠÙĨØ¸Ø±Ø§Øª":4098,"ĠÙĨÙĪØ¬":4099,"Ø§ÙĩÛĮÙħ":4100,"âĢ¦":4101,"ĠØ¨Ø§ÛĮ":4102,"ĠÙħØ¬ÙĦÙĩ":4103,"ÙĪØªÙĪ":4104,"ÙĤÛĮØ§ÙĨ":4105,"ĠØ¨Ø´Ùĩ":4106,"ĠØ§Ø¹ØªÙĤØ§Ø¯":4107,"Ø´ÙĪÛĮØ¯":4108,"ĠÙĩØ±Ú©":4109,"ĠÙĨØ§ÙħÛĮØ¯Ùĩ":4110,"ĠØ§ÙĨØ¯Ú©ÛĮ":4111,"Ø¬Ø¹":4112,"ĠØ¨Ø®ÙĪØ§ÙĨ":4113,"ĠØ´ÛĮØ§Ø¦ÙĪÙħÛĮ":4114,"ĠØ§Ø´ÛĮ":4115,"Ø±Ø³ÛĮØ¯":4116,"ĠØ¯Ø§ÙħÙĨÙĩ":4117,"Ø²Ø§Ùħ":4118,"ĠØ³Ø§Ú©ÙĨ":4119,"Ġn":4120,"ÚĨØ±Ø®Ùĩ":4121,"ĠØ§ØªÙĪØ¨":4122,"ĠØ¬Ø³":4123,"ĠÙĨÙĩØ§Ø¯":4124,"ĠØ§ÙĨÚ¯ÛĮØ²Ùĩ":4125,"ĠØ±Ú©ÙĪØ±Ø¯":4126,"ĠØ§Ø¶Ø·Ø±":4127,"ØºØ°ÛĮÙĩ":4128,"ĠØ±ÙĪØŃØ§ÙĨÛĮ":4129,"ÙħØ¯Øª":4130,"ĠÙħØ§ÙĨØ¹":4131,"Ø§Ø±ÛĮØ³":4132,"ĠØ¯Ø§ÛĮ":4133,"ĠØ§ÙĨØ¨":4134,"ĠÙģØ±ÛĮ":4135,"ex":4136,"ĠØ¨Ø§Ø²Ø§Ø±ÙĩØ§ÛĮ":4137,"ĠØªØµØ§Ø¯":4138,"Ù¾Ø±Øª":4139,"ĠÙģØ±Ø§Ø±":4140,"ĠØ³Ø±ÙĪ":4141,"Ġin":4142,"ĠÛ±Û³Ûµ":4143,"ĠÙ¾Ø§Ø¯Ø´Ø§Ùĩ":4144,"ĠØ¢ÙĪØ±ÛĮÙĦ":4145,"ĠØ´Ø§ÙĨØ§":4146,"ĠØ§ØªÙĪÙħØ¨ÛĮÙĦ":4147,"ĠÚ¯ÙĨ":4148,"ĠØ³ÙĤÙĪØ·":4149,"ĠØ´ÙĩØ±ÛĮÙĪØ±":4150,"ĠØ³ÛĮØ§Ø±Ùĩ":4151,"ĠÛ³Û²":4152,"ĠÛ²Û°Û±Ûµ":4153,"Ø³ØªØ±ÛĮ":4154,"ÙģØ§ÛĮ":4155,"ĠØªØ±Ú©ÛĮØ¨ÛĮ":4156,"ĠØ¬ÙĨÚ¯ÙĦ":4157,"ĠÙĨÙħØ§ÛĮÙĨØ¯":4158,"ĠØªØ±ÛĮ":4159,"ĠØ§ÙħØ¶Ø§":4160,"ĠØ§ÙħØªØŃØ§ÙĨ":4161,"Ú©ØªØ±ÛĮ":4162,"ĠÙħØ³Ø§ÙĦÙĩ":4163,"Ø®ØªÛĮ":4164,"ĠÚ©ØªØ§Ø¨Ø®Ø§ÙĨÙĩ":4165,"ĠØ§Ø³ØªØ±Ø§ÙĦÛĮØ§":4166,"ĠØªØ®Ùħ":4167,"ĠØµØ±ÙģÙĩ":4168,"ĠÙħØ¹ÙĨ":4169,"ĠÙĤØ¨ÛĮÙĦ":4170,"ĠØ¸Ø§ÙĩØ±ÛĮ":4171,"ĠÙħØªØ§Ø³":4172,"ĠØ·Ø±Ø§ØŃ":4173,"Ø²ÙĨÛĮ":4174,"ĠÙħØ³Ø§ÙģØ±Ø§ÙĨ":4175,"ÙģØ¬":4176,"ĠÙħÙĤØµØ¯":4177,"Ø¨Ø§Ø¨":4178,"ĠØ³Ø±Ú©":4179,"ĠØ¢ÙĨØªÛĮ":4180,"ĠÚĨØ±Ø¨ÛĮ":4181,"ĠØ´Ø¹Ø±":4182,"ĠØ¶Ø±Ø¨Ùĩ":4183,"ĠÙĤÛĮÙħØªÛĮ":4184,"ĠØ¨Ø±Ø¯Ø§Ø±ÛĮ":4185,"ĠØ§Ø¯Ø¨ÛĮØ§Øª":4186,"ĠØ§Ø®ØªÙĦØ§ÙĦ":4187,"ĠÛ²Û³":4188,"ĠØ¯Ø§Ø±Ø§ÛĮÛĮ":4189,"ĠØ´ÙĩØ±Øª":4190,"ÛĮÙĨØª":4191,"ĠØ²Ø±Ø¯":4192,"ĠÙģØ±ÛĮÙħ":4193,"ĠÙ¾Ø¯ÛĮØ¯Ùĩ":4194,"ip":4195,"ĠØ§ØŃÙħØ¯":4196,"ĠÚĨØ§ÛĮ":4197,"ĠÚ¯Ø±ÙģØªÙĨØ¯":4198,"ĠÙĩØ§ÛĮ":4199,"ĠÙĦØ·Ùģ":4200,"ĠØ·Ø±ÙģØ¯Ø§Ø±Ø§ÙĨ":4201,"ĠØ¨Ø§ÙĨÚ©ÛĮ":4202,"ĠÙħØ¤Ø«Ø±":4203,"ĠØºØ±":4204,"ĠÚ¯ÙĪØ´Ùĩ":4205,"ĠØ¨ÙĦÛĮ":4206,"ĠØ±ÛĮØ§Ø¶ÛĮ":4207,"ÛĮØ¯Ú¯ÛĮ":4208,"ĠÚ¯Ø±Ø§ÙģÛĮÚ©":4209,"ĠØªØºØ°ÛĮÙĩ":4210,"ĠØ¯ÙĪØ´ÙĨØ¨Ùĩ":4211,"ĠÙħØ¹Ø§ÙħÙĦÙĩ":4212,"ĠØ§Ø³ØªØ®Ø¯Ø§Ùħ":4213,"ĠØ¯Ø±Ø³ØªÛĮ":4214,"ØªÙĪØ¬Ùĩ":4215,"ĠØ³Ù¾Ø§Ùĩ":4216,"ĠØ´ÙĨØ§Ø®Øª":4217,"ĠØ¨Ø§Ø²Ø±":4218,"ers":4219,"ĠØ³ÙĦØ·":4220,"Ġ,":4221,"ĠØ±Ø³Ø§ÙĨØ¯":4222,"ĠÙħÙĪØ¬":4223,"ĠØ§Ø®ÙĦØ§":4224,"ĠØ³Ø§Ø®ØªÙĨ":4225,"ĠÙĪØ¬Ùĩ":4226,"ĠØ¨Ø±Ø·Ø±Ùģ":4227,"ĠÚ¯ÙĪÙĨØ§Ú¯ÙĪÙĨ":4228,"ĠØªØ§Ø²Ú¯ÛĮ":4229,"ĠØ¬Ø±Ùħ":4230,"ĠØ¹Ø§Ø¯Øª":4231,"ĠØ¢Ø´ÙĨØ§ÛĮÛĮ":4232,"ĠÙ¾ÛĮÙĪÙĨØ¯":4233,"ĠØ³ØªØ§Ø¯":4234,"Ú©ÙĨÛĮ":4235,"ĠØªÙħØ§Ø´Ø§":4236,"ĠØŃÛĮØ§Øª":4237,"ĠØ¯ÙĪÚĨØ±Ø®Ùĩ":4238,"ĠÙħØŃÙĦÙĩ":4239,"ĠØ¢ÙĦÙĪØ¯Ú¯ÛĮ":4240,"Ø§ÛĮÙģ":4241,"ĠÙģØ±Ø¢ÙĪØ±Ø¯Ùĩ":4242,"ĠØµÙģØŃØ§Øª":4243,"ĠÙ¾Ø±Ø²":4244,"ĠØ±ÙĪØ§ÛĮØª":4245,"ĠØ¯Ø³Ø§ÙħØ¨Ø±":4246,"Ø¬ÙĪÛĮÛĮ":4247,"ĠØ³ÙĦØ§ÙħØªÛĮ":4248,"ĠÙ¾ÛĮØ´Ú¯ÛĮØ±ÛĮ":4249,"ate":4250,"ĠØ±ÙĪØ³ØªØ§ÛĮÛĮ":4251,"Ø§ÙĦÙħ":4252,"Ø§Ú©ÙĨÙĪÙĨ":4253,"ĠÙħØŃØ§ÙģØ¸Øª":4254,"Ú¯Ø§":4255,"ĠØ±ØŃ":4256,"ĠØªØ±Ø¬ÛĮØŃ":4257,"ĠØ¢ÙĪØ±Ø¯ÙĨ":4258,"ĠØŃØ¯ÛĮ":4259,"ĠØ³ÙĨØ¬":4260,"ĠØªÙĪÙĤ":4261,"ĠÙ¾ÙĨØ¬Ùħ":4262,"Ù¾Ø°ÛĮØ±ÛĮ":4263,"ĠØ¬ÙĪØ±":4264,"ĠØ¯Ø§ÙĨØ´Ú©Ø¯Ùĩ":4265,"ĠÙħØªØ§Ø³ÙģØ§ÙĨÙĩ":4266,"ĠÙ¾Ø±ØªØ§Ø¨":4267,"Ø±Ø§Ø³":4268,"ĠØ§Ø³ÙģÙĨØ¯":4269,"ĠÙ¾ÛĮØ±Ø§ÙħÙĪÙĨ":4270,"ĠØ¯Ø±ÙĨ":4271,"ĠÙħØ±Ø§ÙĤØ¨Øª":4272,"ĠØ¯Ø±Ú¯Ø°Ø´Øª":4273,"ĠØ´ÙĦÙĪ":4274,"ĠÙĩÛĮØ¯":4275,"ĠÚĨÙĩØ§Ø±Ø´ÙĨØ¨Ùĩ":4276,"ĠÙĦØ²":4277,"Ø¢Ø¨Ø§Ø¯":4278,"ĠÙĨÙĪØ³":4279,"ĠØ§ØŃØªØ±":4280,"ĠØ§ÙĨØ¹":4281,"ÙĪÛĮÙħ":4282,"Ú©ÙĪÙĦ":4283,"ĠØ´ØºÙĦÛĮ":4284,"ĠÙ¾ÙĪØ±Øª":4285,"ĠØ®Ø§ÙĦ":4286,"ĠØŃÙĦÙĤÙĩ":4287,"ĠØ¶Ø¹Ùģ":4288,"ĠØ³Ø§ÙĦÙĨ":4289,"ĠÙĦÙĨØ¯ÙĨ":4290,"ĠÙħØªØºÛĮØ±":4291,"ĠÙħØŃÛĮØ·ÛĮ":4292,"Ø®ÙĪØ§ÙĩÛĮÙħ":4293,"ĠÙ¾Ø§Ú©Ø³ØªØ§ÙĨ":4294,"ĠÙħØ§Ø²":4295,"ĠÙģÙĩÙħ":4296,"ĠÙħØ²Ø§ÛĮØ§ÛĮ":4297,"ĠØ¨ØªÙĪØ§ÙĨ":4298,"ÛĮØ¯Ùħ":4299,"ÛĮØ¯ÙĨØª":4300,"Ø§ÙĨÛĮØ§ÙĨ":4301,"ĠØ¬Ø³ØªØ¬ÙĪÛĮ":4302,"ĠÙ¾Ø±Ø§":4303,"ĠØ§Ø¯Ø¹":4304,"ĠÙħØ°ÙĩØ¨ÛĮ":4305,"ĠÙĪØ§ÛĮ":4306,"ĠÙħØ¹Ø§ÙħÙĦ":4307,"ĠØ§ÛĮÙĨÚĨ":4308,"ĠØ´Ø§Ø®Ùĩ":4309,"ĠÙħØ§Ø¬Ø±Ø§":4310,"ĠØ§Ø³ØªØ§ÙĨØ¯Ø§Ø±":4311,"Ø®Ø§Ø±":4312,"Ø¯Ø±Ø§Ø³ÛĮÙĪÙĨ":4313,"ĠØ±ÙĩØ§":4314,"ĠÙĪÛĮØ¯Ø¦ÙĪ":4315,"ØªÙħ":4316,"ĠØ±ÛĮØ³Ú©":4317,"ĠÚ©Ø§Ø±Ø§ÛĮÛĮ":4318,"Ø¬Ø§Ø³Øª":4319,"ĠÙĪØ§Ø³Ø·Ùĩ":4320,"ĠÙħØªÙĨÙĪØ¹":4321,"ÙĦØ²":4322,"ĠØ¨Ø±ÙĪØ¯":4323,"ÙĨÛĮØ§":4324,"ĠÚ©ÙĦØ§Ø³ÛĮ":4325,"ĠØŃÛĮÙĪØ§ÙĨØ§Øª":4326,"ĠØªØ±Ø§ÙĨÙĩ":4327,"ĠØ¨ÛĮØ¯":4328,"ĠØ¨ÙĩÙħÙĨ":4329,"ĠØ³Ùħ":4330,"ĠØ§ÙĨØ¯Ø±ÙĪÛĮØ¯ÛĮ":4331,"Ø§Ø¯ÙĨ":4332,"ĠØ¨Øª":4333,"ĠØ¬Ø¹Ø¨Ùĩ":4334,"ÙģØ§ÙĤÛĮ":4335,"Ø¯ÛĮÙĩ":4336,"ĠÙħØ±Ø³":4337,"ĠÚĨØ±Ø§Øº":4338,"ĠØ¯Ø±ÛĮØ§ÚĨÙĩ":4339,"ĠÙħÛĮÙĨ":4340,"ÙĨØ´Ø§ÙĨ":4341,"ĠØ§Ø«":4342,"ĠØ¯Ø´ÙħÙĨ":4343,"ĠØ¹ÙĪØ§Ø±":4344,"ĠØ®ÙĦØ§Ùģ":4345,"000":4346,"ÙĩÙĨÛĮ":4347,"ĠØ¬Ø±":4348,"ĠÙģØ±Ø´":4349,"ØªÛĮÚ©":4350,"ĠØ®ÙĪØ§ÙĨØ¯Ùĩ":4351,"ĠØ¯Ø§Ø´ØªÙħ":4352,"ĠÛ¹Û°":4353,"ĠÙħØ´Ø§ÙĪØ±Ùĩ":4354,"ĠÙĤÙĩØ±ÙħØ§ÙĨ":4355,"Ø§ÙĩØª":4356,"ĠÙĨØ§Ø¯Ø±":4357,"ĠØªÙĨÙĪØ¹":4358,"Ø·ÙĪØ±ÛĮ":4359,"ĠÙ¾ÙĨÙĩ":4360,"ĠÙĩÙħÙĪÙĨ":4361,"ÙĨÙĪÛĮØ³ÛĮ":4362,"ĠØ²ÙĪØ¯ÛĮ":4363,"ĠØ¬ÙĨØ¨":4364,"ĠÙħØ·Ø§Ø¨ÙĤ":4365,"Ø²Ø§ÛĮÛĮ":4366,"ĠØ¬ÙĨØ¨Ùĩ":4367,"ĠÙĦÙĩ":4368,"Ø´Ø¯ÙĨØ¯":4369,"ĠØªØ¹ÙĪÛĮØ¶":4370,"ÙĨÙħØ§ÛĮØ´":4371,"ĠØ¢ÙģØª":4372,"ĠÙħØ£Ùħ":4373,"ĠØ³ÛĮÙĨÙħØ§ÛĮÛĮ":4374,"ort":4375,"ĠØ§ÛĮØ´Ø§ÙĨ":4376,"ĠØ§ØªÙģØ§ÙĤÛĮ":4377,"ĠØ´ÛĮØ±ÛĮÙĨ":4378,"ĠØ§Ø¨Ø±Ø§Ø²":4379,"±Û°":4380,"10":4381,"ĠÚ¯Ø§Ùĩ":4382,"ĠØ¨ÙĨØ¯Ø±":4383,"ĠØ¬ÙħØ¹ÛĮ":4384,"ĠØµØ§Ø¯":4385,"Ø¯Ø§Ø«":4386,"ĠØ¨Ùģ":4387,"ĠØºÛĮØ±ÙĤ":4388,"ĠØ¹ÙħÙĦÛĮØ§ØªÛĮ":4389,"ĠØªÙģÚ©Ø±":4390,"Ø²ÛĮÙĩ":4391,"Ø±Ø§ØŃØª":4392,"Ø³ÙĨ":4393,"ĠÙĨØ±":4394,"ĠÙħÙĨØ·ÙĤÛĮ":4395,"ĠÙħØŃÚ©ÙĪÙħ":4396,"Ø§ØªÙĪØ±":4397,"ĠÙ¾Ø±ÙĪØªØ¦ÛĮÙĨ":4398,"ÛĮÚ©Ø±":4399,"ĠÙħØ°Ø§Ú©Ø±Ùĩ":4400,"ĠÙħØªÙĪÙĦØ¯":4401,"ĠØ§ØŃØ³Ø§Ø³Ø§Øª":4402,"ĠÚ¯ÙģØªÙħ":4403,"ĠÙħÙĦØª":4404,"ÛĮÚ©Ùĩ":4405,"ĠÙħÛĮØ²Ø¨Ø§ÙĨ":4406,"ĠØ±ÙĨÚ¯ÛĮ":4407,"ĠØ¢ÙħØ¯ÙĨ":4408,"ĠÙħØ²ÛĮØª":4409,"ĠÚĺØ§Ù¾ÙĨÛĮ":4410,"ĠØ¬Øº":4411,"Ø«ÛĮ":4412,"ĠØ¬Ø±Ø§ØŃÛĮ":4413,"ĠØ¨ØµÙĪØ±Øª":4414,"ĠÙĨÙĪØ±ÛĮ":4415,"ĠØ§Ø¨Ø±ÛĮ":4416,"ĠÚ¯Ø±Ø¯Ø¯":4417,"ĠÚ©Ø§Ø¨ÙĦ":4418,"ĠÙħØµØ±":4419,"ĠØ§ØŃØ¯Ø§Ø«":4420,"Ø¨Ø±Ø§ÙĨ":4421,"ĠÙħØªÙĩÙħ":4422,"ĠØªÙħØ§Ø´Ø§ÛĮ":4423,"ĠÙĪØ§ØŃØ¯ÙĩØ§ÛĮ":4424,"ĠÙħØ§ÙĦÛĮØ§Øª":4425,"ĠÙĪÙĤÙĪØ¹":4426,"ĠØ¯Ø³ØªÛĮØ§Ø¨ÛĮ":4427,"ĠØªÙĨÙĩØ§ÛĮÛĮ":4428,"Ġ12":4429,"ĠÙģÙĪØ±ÛĮÙĩ":4430,"ive":4431,"Ø§ÙħØ§":4432,"ĠØªÙĪÙĨ":4433,"ĠÙģØ±Ø§ÙĪØ§ÙĨÛĮ":4434,"ĠÙ¾Ø±Ø¯Ùĩ":4435,"ÛµÛ°":4436,"ĠÙ¾ÛĮÙħØ§ÙĨ":4437,"ĠÚ©Ø´ÙĪØ±ÛĮ":4438,"ĠØ¬Ø§Ø¨":4439,"ĠAM":4440,"ĠØ®Ø§ÙĪØ±":4441,"Ø¢ÙħÙĪØ²":4442,"Ø±Ø¯Ú¯ÛĮ":4443,"Ø±Ø§Ø±ÛĮ":4444,"ĠÙħØªØ¹Ø¯Ø¯":4445,"ĠØ¨ÙĪÛĮ":4446,"ĠØªÙĪÙĦØ¯":4447,"ĠØ®ÙĪØ§Ø³ØªØ§Ø±":4448,"ĠØªÙĪÙ¾":4449,"Ø¹ÙĪØ¯":4450,"Ø¨ÙĩØ´Øª":4451,"ĠØ¨Ø¹Ø¯ÙĩØ§":4452,"ĠØ§ØªÙĪØ¨ÙĪØ³":4453,"ĠØªÙħÛĮØ²":4454,"ĠØ§Ø¯Ø§Ø±ÛĮ":4455,"ĠØ¨ÙĨÛĮØ§Ø¯":4456,"ÙĪÙĦØª":4457,"ĠØ¬Ø¯Ø§Ú¯Ø§ÙĨÙĩ":4458,"Ø¯ÙĪÙĨ":4459,"ĠØ´ÙĪØ±ÙĪÛĮ":4460,"ĠØªØ¬Ø±Ø¨ÛĮ":4461,"ĠQ":4462,"ĠØ®ÙĦÛĮØ¬":4463,"Ú¯ÙĪÛĮÛĮ":4464,"Ø¯Ø§ÙĨÛĮØ¯":4465,"ĠÙĩÙħÚ¯ÛĮ":4466,"ĠÙ¾Ø§Ø±ÛĮØ³":4467,"ect":4468,"ĠØ®Ø±Ø¯Ø§Ø¯":4469,"Û²Û°":4470,"ĠÚ©Ø§Ø±Ø´ÙĨØ§Ø³ÛĮ":4471,"Ġh":4472,"ĠÙ¾Ø±Ø¯Ø§Ø®ØªÙĩ":4473,"ĠÚ©Ø§Ø±Ø¢ÙģØ±":4474,"ĠØ§Ø³Ú©":4475,"ĠØ§ÙĨÙģØ¬":4476,"ĠÙĪØ§Ú©Ø³ÙĨ":4477,"ĠØªØ´ÙĪÛĮ":4478,"ack":4479,"Ø§ÙĨØ§":4480,"ĠØ¯Ø±ØŃØ§ÙĦÛĮ":4481,"ĠØ³Ø®ÙĨØ±Ø§ÙĨÛĮ":4482,"ore":4483,"ĠÙĪØ¸Ø§ÛĮÙģ":4484,"Ø¯ÙĦ":4485,"Ġl":4486,"ÙħÙĪ":4487,"ĠØ±ÙĪØ§ÙĨÙĩ":4488,"ĠØ§ÙģØ²Ø§Ø±ÛĮ":4489,"ĠÙģØ±Ø§ÙĪØ§ÙĨ":4490,"ĠØ³Ø§Ø¯Ú¯ÛĮ":4491,"ĠØ§ÙģØªØª":4492,"ĠØ¨ÙħØ¨":4493,"ĠÛĮÙĪØ±ÙĪ":4494,"ĠÙ¾Ø§ÛĮØ¯Ø§Ø±":4495,"ĠÚ©Ø§ÙĦÛĮ":4496,"ĠÙħØªØ±ÛĮ":4497,"ĠØ¢Ø³ÙħØ§ÙĨ":4498,"ĠØ§ÙĪØª":4499,"ĠØ³Ø±Ù¾Ø±":4500,"ĠÙħÛĮÚ©ÙĨÙĩ":4501,"ĠÚĨØ´":4502,"ĠÙĪØ§ÙĦØ¯ÛĮÙĨ":4503,"ĠÙĪØ§Ø´":4504,"ĠÛ¸Û°":4505,"ĠØµØ¯ÙĪØ±":4506,"ĠÙħØ¶":4507,"ĠÙ¾Ø±Ø³Ø´":4508,"ĠØ§ÙĤÛĮØ§ÙĨ":4509,"ĠØªØ¹ÙĩØ¯":4510,"ĠØ¹Ø¯Ùĩ":4511,"ĠØ¹ØµØ¨ÛĮ":4512,"ĠÙĩÙħØ§ÙĩÙĨÚ¯ÛĮ":4513,"ĠØªØ§ÙĦ":4514,"ĠØ¯ÙĪÙĨ":4515,"ĠØºÙĪÙĦ":4516,"Ġand":4517,"ĠØ§Ø³Ù¾Ø§ÙĨÛĮØ§":4518,"ĠØªØŃÙĪÙĦ":4519,"ĠØ§Ù¾Ø±Ø§ØªÙĪØ±":4520,"ĠØ²Ø®":4521,"ĠØ¨ÙĩØ§Ø±":4522,"ĠØ±ÙĤÛĮØ¨":4523,"ĠÙħØªÙĤØ§Ø¶ÛĮ":4524,"ĠØºØ°Ø§ÛĮ":4525,"ĠÚ¯ÛĮØ§ÙĩØ§ÙĨ":4526,"ak":4527,"ĠÙģØ±Ø²ÙĨØ¯Ø§ÙĨ":4528,"ĠØ¨Ø³ØªØ±":4529,"ĠØ§ÙħØ±ÙĪØ²ÛĮ":4530,"ĠÙģØ³":4531,"ĠÙĪØ§Ø±":4532,"ÛĮØ¨ÙĩØ´Øª":4533,"ĠÙĨØ¯Ø§Ø±ÛĮØ¯":4534,"ĠØ¨Ø³ØªÚ¯ÛĮ":4535,"ĠÙħØ³Ø¦ÙĪÙĦØ§ÙĨ":4536,"Ø§ÙĦØŃ":4537,"Ø¨Ø®Øª":4538,"ĠPro":4539,"ĠÚ©Ø¬Ø§":4540,"ĠØ³ÙĪØ²":4541,"ĠØ¨Ø§Ø²ÛĮÚ©ÙĨØ§ÙĨ":4542,"ĠÚ©Ø±ÙĪÙħ":4543,"ĠÙģØ§Ø±Øº":4544,"ĠØ¨Ø±ÙĤØ±Ø§Ø±ÛĮ":4545,"ĠØ¨Ø±Ø§ÛĮØªØ§ÙĨ":4546,"ĠØªÙĪÛĮÛĮØªØ±":4547,"ÙĪØ§Ø²":4548,"ĠÛ²Û°Û±Û´":4549,"ÙĪØ´ÛĮ":4550,"Ø§ØªØ±":4551,"Ù¾Ø²":4552,"Ùł":4553,"all":4554,"Ø±ÙĨÚ¯":4555,"ĠØ§ÙĨØªÙĩØ§ÛĮ":4556,"ĠØ§ØªÙĩØ§Ùħ":4557,"ĠØ§Ø±Ø§":4558,"ĠÚ¯Ø°Ø§Ø±":4559,"ĠØ·ÛĮÙģ":4560,"ÙħØ§ÙĨÙĩ":4561,"ĠÚ©Øª":4562,"ĠÚĨØ±Ø§Ú©Ùĩ":4563,"Ø§Ø³ÛĮÙĪÙĨ":4564,"ĠÙģÙĦØ³Ø·":4565,"ĠØ§Ø¨ØªØ¯Ø§ÛĮÛĮ":4566,"if":4567,"ĠUS":4568,"ĠØªØ§Ø¨Ø¹":4569,"ĠÙĩØ³ØªÙħ":4570,"ĠØªÙĨØ¯":4571,"ĠÙģØ§ÛĮ":4572,"ĠÙħÙĪØ´Ú©":4573,"ĠØ²ÙħÛĮÙĨÛĮ":4574,"ÙĪØ±Ø¯ÛĮÙĨ":4575,"ĠÙħØªÙħØ±Ú©Ø²":4576,"ĠÙħØ±Ø¨ÛĮ":4577,"ĠÙĤØ±Ø¨Ø§ÙĨÛĮ":4578,"ĠÙ¾ÚĺÙĪÙĩØ´Ú¯Ø±Ø§ÙĨ":4579,"ĠÙĨÙĪØ¢ÙĪØ±ÛĮ":4580,"ĠØ¢Ø¨Ø§Ø¯":4581,"ĠÙ¾Ø±Ø²ÛĮØ¯ÙĨØª":4582,"ĠÙħÛĮØªÙĪÙĨ":4583,"ĠØ¯Ø±Ú¯ÛĮØ±ÛĮ":4584,"ĠÙħØ§ÛĮØ¹":4585,"ÙĦÛĮÙĨ":4586,"ĠÙĨÙĪØ§Ø±":4587,"ĠØ¯ÙģØ§":4588,"ĠÚ¯Ø¬Øª":4589,"ie":4590,"ĠØ¯ÛĮØ¬ÛĮØ§ØªÙĪ":4591,"ĠØ³ÙĪØ¦":4592,"ĠÙĪØ§Øª":4593,"ĠÙĩØ±Ú¯ÙĪÙĨÙĩ":4594,"ĠØ¨Ú©Ø§Ø±":4595,"ĠØ´ÙĨÛĮØ¯Ùĩ":4596,"ĠÙħÙĨØŃØµØ±":4597,"ĠØ¹ÙĪØ§Ø±Ø¶":4598,"ÙħÙĨØ³ØªØ§ÙĨ":4599,"ĠØ®Ø±Ø§Ø³Ø§ÙĨ":4600,"ĠØ¯ÙħØ§":4601,"ĠÙĨÙħØ§Ø¯":4602,"ĠØªÙĨÚ¯":4603,"Ø±Ø§Ú¯ÙĪÙĨ":4604,"ĠØ¨Ú©":4605,"ĠØ®ÙĪØ¯ÙħØ§ÙĨ":4606,"Ø¨Ø±Ø§ÛĮ":4607,"Ø§Ø®ØªÛĮ":4608,"ÙħØ§ÛĮØ´ÛĮ":4609,"ĠÙĤÙĪÙĦ":4610,"ĠØ¯ÛĮØª":4611,"ÙħÛĮÙĩ":4612,"ĠÙħÙĪÙĨ":4613,"ĠØªØ®ÙģÛĮÙģ":4614,"ĠÙĩØ§Ø³Øª":4615,"ÚĨÛĮÙĨ":4616,"ĠÙħÙĪØ³Ø³Ùĩ":4617,"Ø§Ø¨Ø±ÛĮ":4618,"ÚĨØ³Ø¨":4619,"ĠØ²ÛĮØ±Ø³Ø§Ø®Øª":4620,"Ø¨Ø±Øª":4621,"ĠÛ·Û°":4622,"ĠÙħØ´Ú©ÙĦØ§ØªÛĮ":4623,"Ø¯Ø§ÙĨÛĮÙħ":4624,"ĠØ±ÙĪØ¨Ùĩ":4625,"ĠØ¢Ø³Øª":4626,"ĠØ®ÙĪØ§ÙĨÙĨØ¯Ùĩ":4627,"ĠØ§Ø±Ø¯ÛĮØ¨ÙĩØ´Øª":4628,"ĠØŃØ³Ø§Ø³":4629,"ĠÙ¾Ø¯Ø±Ø´":4630,"ĠÙħØ¯Ø±Ú©":4631,"ĠÚ¯ÛĮÙĦ":4632,"ĠÙĪÛĮØ±Ø§ÛĮØ´":4633,"ĠÙħØ³ØªÙĨØ¯":4634,"Ú¯Ø±Ùĩ":4635,"ĠÙĪØ§Ø±Ø¯Ø§Øª":4636,"ĠÛĮÙĩÙĪØ¯ÛĮ":4637,"Ġ/":4638,"ĠØ·Ø±ÙģÛĮ":4639,"ĠØ§Ø³ÙĨØ§Ø¯":4640,"ĠThe":4641,"ĠÛĮÚ©Ù¾Ø§Ø±":4642,"ity":4643,"ĠÚ¯ÛĮØª":4644,"ĠØªØ§Ø¬":4645,"ĠÚ©ÙĦØ§Ùĩ":4646,"ĠÙħØ°Ø§Ú©Ø±Ø§Øª":4647,"ĠØ¬ÙĦØ³":4648,"Ø§Ø±Ùģ":4649,"ĠØ±ÙĩØ¨Ø±Ø§ÙĨ":4650,"ĠÙĩØ§":4651,"ĠØ§Ø³ÙĨÙ¾Ø¯":4652,"ĠØ±ÙĨØ¬":4653,"ĠØ¢ÛĮÙ¾Ø¯":4654,"ec":4655,"ĠØ±ÙĪØ²Ùĩ":4656,"ĠØ®Ø´ÙĪÙĨØª":4657,"ĠÙħØ¯Ø§Ø±Ø³":4658,"Û±Û¹Û":4659,"ĠØ¨Ø²Ø±Ú¯ØªØ±":4660,"ĠÙģØ±Ø§ØªØ±":4661,"ĠØ²ÙĨÚ¯":4662,"ĠÙħØ±Ø¯Ø§Ø¯":4663,"ĠØ§ÙĨÛĮÙħ":4664,"ĠØ³ÙĦØ§ØŃ":4665,"ØºØ§Ùħ":4666,"ĠÙĩØ¯ÙģÙĪÙĨ":4667,"ÛĮØ³ÛĮ":4668,"ĠÙĩÙħÚ©Ø§Ø±Ø§ÙĨ":4669,"ĠÙĦØºÙĪ":4670,"ĠØ§ØªÙħØ§Ùħ":4671,"ĠØ§ÙĦÙħÙ¾":4672,"ĠØ´Ø§Ø¯":4673,"ĠØºÙĨÛĮ":4674,"ÙĪØ±Ø§":4675,"ĠØ¨Ú¯ÙĪÛĮÛĮÙħ":4676,"ra":4677,"ĠØ²ÙħØ³ØªØ§ÙĨ":4678,"ĠØ´Ø¨Ø§ÙĩØª":4679,"ĠÙħØ®Ø§Ø¨":4680,"Ġa":4681,"per":4682,"ĠÛ³Û°Û°":4683,"ĠØ¨Ø±Ú¯Ø´Øª":4684,"ĠÙħÙĨØ¹":4685,"ĠÚ©ÙĦØ§Ø³ÛĮÚ©":4686,"ĠØºÛĮØ±Ùĩ":4687,"ĠHD":4688,"Ú¯ÙĪÙĨÚ¯ÛĮ":4689,"ĠÙħØ¯Ø¹ÛĮ":4690,"ĠÙħØ¯ÛĮ":4691,"ĠØ¨ÙĦÛĮØ·":4692,"ĠÙħØ®ÙģÛĮ":4693,"ĠÚ©ÙĨÙĪÙĨ":4694,"ĠØ³ÙĪÙħÛĮÙĨ":4695,"ĠØ´Ø§ÛĮØ¹Ø§Øª":4696,"ĠØ¨Ú¯Ø°Ø§Ø±Ø¯":4697,"ĠØ§Ø³ÙĨÙ¾Ø¯Ø±Ø§Ú¯ÙĪÙĨ":4698,"ĠÙĩØ²Ø§Ø±Ø§ÙĨ":4699,"ĠÙĨØ§Ú¯Ùĩ":4700,"ĠÙħØ¬Øª":4701,"ÙħÛĮÙĨÛĮ":4702,"ĠÛĮÙĪ":4703,"ÙĦÙģÛĮ":4704,"Ø§Ø±Ø§":4705,"ĠØ¹Ø¨Ø§Ø³":4706,"ĠØ³Ø¦ÙĪ":4707,"est":4708,"ĠÙ¾Øª":4709,"ĠÚ©ÙģØ´":4710,"ĠÛ±Û³Û·":4711,"ÛĮØ¯ÙĨØ¯":4712,"Ø¬Ø²":4713,"Ø§ÙĪÙħ":4714,"ĠÛ±Û¹Û²":4715,"ĠØ§ÙĦÙĦÙĩ":4716,"ĠØŃØ¬":4717,"ĠØªØ´ÙĪÛĮÙĤ":4718,"ĠÚ©ÙĪØ§ÙĦ":4719,"ĠÙħÛĮØ§ÙĨÙĩ":4720,"ĠØ±ÙĪØ§ÙĨÛĮ":4721,"ĠÙħØ´Øª":4722,"ĠØ¹ÙģÙĪÙĨØª":4723,"ĠÙģØ±ÙĪØ±Ø¯ÛĮÙĨ":4724,"ĠØ¯Ø±Ú¯Ø§Ùĩ":4725,"ĠÚ©ÙĪÚĨÚ©ÛĮ":4726,"ĠÙĨØ¬":4727,"Ø¯ÙĨÛĮ":4728,"ĠÚ©Ø±Ø¨ÙĨ":4729,"ob":4730,"ĠØ¯Ø±ÛĮØ§ÛĮ":4731,"art":4732,"ĠÙħÙĦØ§ÙĤØ§Øª":4733,"ĠØ§ÙĦÚ©ØªØ±ÙĪÙĨÛĮÚ©":4734,"ĠÙħØ¤Ø³Ø³Ùĩ":4735,"ĠØ³Ø¯":4736,"ĠÙħØ§Úĺ":4737,"Ġto":4738,"Ø¨ÛĮÙĨÛĮØ¯":4739,"ĠØªØŃØµÛĮÙĦÛĮ":4740,"ĠØ´Ø¨Ùĩ":4741,"ĠÙĪØ¶Ø¹":4742,"ĠÙĨÙĪØ§":4743,"ĠÙħØ´ÙĩØ¯":4744,"ĠØ®Ø§ÙħÙĪØ´":4745,"ĠÛ³Û¶":4746,"Ø§ÙĩØ¯":4747,"ĠØ´Ú©ÙĦÛĮ":4748,"ĠÙħØ§ÙĩÙĪØ§Ø±Ùĩ":4749,"ĠÚĨÚ¯ÙĪÙĨÚ¯ÛĮ":4750,"ĠÙħÙĪØ¶ÙĪØ¹Ø§Øª":4751,"ĠØ¨Ø§Ø¨Øª":4752,"ĠØ´Ø§Ø¹":4753,"ĠÙħØ¬Ø¯":4754,"ĠØªØ¹Ø¨ÛĮÙĩ":4755,"ĠØªØ¨Ø±ÛĮØ²":4756,"ĠØ¨Ø§ÙĦØ§ØªØ±ÛĮÙĨ":4757,"ĠØ³Ø±Ùħ":4758,"Ú¯Ø±Ø¯Ø§ÙĨ":4759,"ĠÚ©Ø§Ø±Ú¯Ø±Ø¯Ø§ÙĨ":4760,"ĠÚ©ÙĦØ§ÙĨ":4761,"ĠØ±Ø³ÛĮØ¯Ú¯ÛĮ":4762,"Ø§ÙĦØ¨ÛĮ":4763,"ĠÙģØ¯Ø±Ø§Ø³ÛĮÙĪÙĨ":4764,"ĠØ¯Ø±Ø¨":4765,"ĠØ¨Ø±Ø³Ø§ÙĨØ¯":4766,"ĠÙĨÚ©Ø±Ø¯":4767,"Ø§ÙĨÙĪ":4768,"ĠØ¢Ú©":4769,"ĠØ¨Ø§Ú©ØªØ±ÛĮ":4770,"Ø´Ø§ÙĩÛĮ":4771,"ĠØ§Ø³ØªØ®Ø±Ø§Ø¬":4772,"ĠØ³Ø§ØŃÙĦ":4773,"ĠÙ¾Ø§Ø±ÚĨÙĩ":4774,"ĠÙĨÙĤØ¯":4775,"ĠØ¬ÙĪØ§ÙĨØ§ÙĨ":4776,"ĠÙģØ±Ú©":4777,"ĠÙħØŃØµÙĪÙĦÛĮ":4778,"ĠØ¹ÙĤ":4779,"ĠØ¹ÙħÙĤ":4780,"ĠÙĨÙĪØ¬ÙĪØ§ÙĨ":4781,"Ø³ÛĮØ±":4782,"Ù¾Øª":4783,"ÙħØ±Ùĩ":4784,"ĠØ³Ø¤Ø§ÙĦ":4785,"Ø§Ø¨ØªÛĮ":4786,"ĠÙģØ§ÙĦ":4787,"ĠÙĤØ·Ø±":4788,"ĠÙĩØ¯ÛĮÙĩ":4789,"ĠÙ¾ÛĮØ´ØªØ±":4790,"ÙĦÛĮÙĦÛĮ":4791,"ĠØ¨ÛĮØ§ÛĮØ¯":4792,"ĠÚĨÙĪØ¨":4793,"ĠÙĩÛĮØ¯Ø±ÙĪ":4794,"ĠÙ¾ÙĨØ§Ùĩ":4795,"ĠÙģÙĪÙĨ":4796,"ĠØ§Ø³ÙĦ":4797,"ĠÙħØ·ÙĦÙĪØ¨":4798,"ĠÙĤÙĦØ¨ÛĮ":4799,"ÙħØ§Ø³":4800,"ĠÚ©Ø§Øª":4801,"ÙĩØ§Ø¨":4802,"ĠØ´ØªØ§Ø¨":4803,"ĠØ¬ÙĪØ´":4804,"ĠÛĮØ§Ø¯Ø¯Ø§Ø´Øª":4805,"ĠÙħØ¹Ø§ÙħÙĦØ§Øª":4806,"ĠØ®ÙĪØ±Ø¯Ùĩ":4807,"ĠØ¨Ø§ÙĨØ¯":4808,"ĠÛĮÚ©Ø´ÙĨØ¨Ùĩ":4809,"ĠÙ¾Ø±ÚĨÙħØ¯Ø§Ø±":4810,"ĠÙ¾ÙĨÙĩØ§ÙĨ":4811,"ĠØ§ÙĪØ¬":4812,"ĠØ§Ø«Ø¨Ø§Øª":4813,"ĠØ²ÙĨØ¬ÛĮØ±Ùĩ":4814,"ĠÙĩÙĪØ±":4815,"ĠÙĪØ³Ø·":4816,"ĠÚ©ÙĨÛĮ":4817,"ĠØ®ÙĨÚ©":4818,"Ú©Ø±Ø§ÙĨ":4819,"Ø§Ø¯ÙĩØ§":4820,"Ø¨Ú©":4821,"ĠÙĨÚ¯Ø§Ø±":4822,"ver":4823,"ĠØªØŃÙĤÛĮÙĤØ§ØªÛĮ":4824,"ĠØ¨ÛĮØ§ÙĪØ±":4825,"ĠØ§Ø³ØªÛĮ":4826,"ĠÙħÙĪØ³ÙĪÙħ":4827,"ĠØ¯ÙĩÙħ":4828,"ĠØ¢ÙĨØ¬Ø§ÛĮÛĮ":4829,"Ú¯Ø°Ø§Ø±Ø§ÙĨ":4830,"ĠØ¹ÙĨØ§ØµØ±":4831,"ĠØ§Ø´ÛĮØ§":4832,"Ù¾Ø±Ø¯Ø§Ø²Ø¯":4833,"ÙĪÚ©Ø±":4834,"Ø¹ÙĩØ¯Ùĩ":4835,"og":4836,"ĠØ³ØªÙĪÙĨ":4837,"ĠÙģØ±ÙħØ§ÙĨØ¯Ùĩ":4838,"ĠØªÙĦÚ¯Ø±Ø§Ùħ":4839,"ĠØ§Ø®Ø°":4840,"ĠØªØŃÙħÙĦ":4841,"ĠØ¶Ø®":4842,"ĠØ§ÙĦÙĩØ§Ùħ":4843,"ĠØ¬ÛĮÙħ":4844,"ÙĦØ§Ú¯":4845,"ĠØªØ¬Ø²ÛĮÙĩ":4846,"ÙģÙĪÙĨ":4847,"ĠÙħØªÙĨØ§Ø³Ø¨":4848,"ĠØ§Ø³ÛĮØ¯":4849,"ĠÚ©ÙĪØ¯Ú©ÛĮ":4850,"ĠÙģÙĦØ²ÛĮ":4851,"ĠÙħØŃØ¨ÙĪØ¨ÛĮØª":4852,"Ø©":4853,"ĠØ±ÛĮØ²":4854,"ĠØ¯Ø§Øº":4855,"ĠÙ¾Ø§Ù¾":4856,"ĠÙĩÙħØ±Ø§ÙĩÛĮ":4857,"ĠØ²ÙĪØ¯ØªØ±":4858,"ĠØ§Ø²Ø§ÛĮ":4859,"ĠÙĨØ§Ø²":4860,"ĠÙħØ±Ø¨Ø¹":4861,"ĠÙħØ§Ø¯":4862,"ĠØ±Ø¶Ø§":4863,"ĠØ§ØªÙģØ§ÙĤØ§Øª":4864,"ĠØ¨ÙĪÚ©":4865,"ĠâĢ¦.":4866,"ÙĪØ§ÛĮÛĮ":4867,"ĠÚ©ÙĨÚ¯Ø±Ùĩ":4868,"ĠÚ¯Ø§ÙĦ":4869,"ĠØ®Ø§Ø·Ø±ÙĨØ´Ø§ÙĨ":4870,"ĠÚĺÙĪØ¦ÛĮÙĩ":4871,"ĠÚ¯Ø±ÛĮ":4872,"ĠØ¯Ø±Ùĩ":4873,"ĠØ¢Ø°Ø±":4874,"ĠÙĨÙĪÚ©ÛĮØ§":4875,"ĠØªØ§Ù¾":4876,"ĠØ´Ø±Ú©ØªÛĮ":4877,"Ø®ÙĪØ§ÙĨÛĮ":4878,"ĠÙħØ§ÙĨÛĮ":4879,"ĠØ§ÙĦÙħÙ¾ÛĮÚ©":4880,"ĠØ³Ø§Ø²ÙħØ§ÙĨÛĮ":4881,"ĠØªÙĪÙĦÛĮØ¯Ú©ÙĨÙĨØ¯Ú¯Ø§ÙĨ":4882,"ĠØ´ÛĮØ±Ø§Ø²":4883,"ĠÚ©ÛĮÙĦÙĪÚ¯Ø±Ùħ":4884,"ĠÚ¯Ø²Ø§Ø±Ø´ÛĮ":4885,"Ø´ÙĪÛĮÛĮ":4886,"Ú©ÛĮÙĩ":4887,"ont":4888,"ĠØ¬ÙĦØ³Ø§Øª":4889,"ĠØ¨Ø®ÙĪØ§ÙĩÛĮØ¯":4890,"ĠØ¨Ø§Ø²Ø±Ú¯Ø§ÙĨÛĮ":4891,"ĠØªØ¯ÙĪÛĮÙĨ":4892,"ĠØºÛĮØ±Ùħ":4893,"ĠÚ©Ø§ÙĦØ§ÙĩØ§ÛĮ":4894,"ĠÙħØŃÙħÙĪØ¯":4895,"ĠØ¨Øº":4896,"ĠÙĪØ§Ø¶":4897,"ĠØ´Ø§ÙĨØ³":4898,"ĠÙħØ·Ø¨":4899,"Ù¾ÙĪÙĦÛĮ":4900,"Ú¯ÙĪÛĮÙħ":4901,"ĠØ²Ø§ÙĪÛĮÙĩ":4902,"Ø±Ø§ØªÙĪØ±ÛĮ":4903,"ĠÙĤÛĮ":4904,"ĠØ·ÙĦØ§ÛĮÛĮ":4905,"ĠØ§Ø¨ÙĪ":4906,"Ø±Ú©Ø§Øª":4907,"ĠÛ±Û±Û":4908,"ÚĨÙĪØ¨":4909,"ĠØ³Ø·ÙĪØŃ":4910,"ĠÛĮÚ©Ø³Ø§ÙĨ":4911,"ĠØ§ÛĮÙģØ§":4912,"âĢĮÂŃ":4913,"ĠÙĤØ²":4914,"ĠÚ©Ø§Ø±ÙĩØ§ÛĮÛĮ":4915,"ĠØ§ØŃØªØ±Ø§Ùħ":4916,"ĠÚ©ÙħØªØ±ÛĮÙĨ":4917,"ĠØ¨Ø§ÙĦØ§Ø®Ø±Ùĩ":4918,"ĠØ§ÙĨØ¯Ø§Ø®Øª":4919,"ĠØ®ÙĪØ´Ø¨Ø®Øª":4920,"Ú¯Ø±ÙģØªÙĩ":4921,"ĠØªØ®Ø±ÛĮØ¨":4922,"ĠUSB":4923,"ĠÚ©Ø§ÙģÙĩ":4924,"ĠØ³ÙĪØ§Ø±":4925,"ĠØ°ÙĩÙĨÛĮ":4926,"ÙģØ±Ø¯":4927,"ĠØ§ÙĦØ¹Ø§Ø¯Ùĩ":4928,"ĠØ§Ø±Ø²Ø´ÙħÙĨØ¯":4929,"Ø¨ÙĪÙĦ":4930,"ĠØ¶Ø±Ø¨":4931,"Ġ+":4932,"Ù¾ÙĪØ±":4933,"ĠÙħÙĪØ§ÙĤØ¹":4934,"ĠØ¯Ø³ØªÚ¯ÛĮØ±":4935,"Ø§ØªÙĪÙĨ":4936,"ĠØªØ³ÙĦØ§":4937,"ĠÙħØ¹ÙĨØ§":4938,"ĠØ¬ÙħÙĩÙĪØ±":4939,"ÙħØ§ÙĨØ¯Ùĩ":4940,"ĠÙĩÙĦ":4941,"ĠÙħÛĮÚ©ÙĨÙħ":4942,"Ø¶Ø§Ø¹":4943,"ĠÚ©Ø§Ø³Øª":4944,"ĠÙĩÛĮØ§Øª":4945,"ĠÙ¾Ø§ÛĮØ§ÙĨÛĮ":4946,"ĠÙħØ±Ø§Øª":4947,"ØµØ§Ø¨":4948,"ĠÙħÙĩØ¯ÛĮ":4949,"Ø§Ú¯Ø±":4950,"ĠØ¢ÙĪØ±ÛĮ":4951,"ĠY":4952,"ĠÚĨÙĨØ¯Ø§ÙĨÛĮ":4953,"ĠØ§ÙģÚ©Ø§Ø±":4954,"80":4955,"ĠØ®Ø±ÛĮØ¯Ø§Ø±Ø§ÙĨ":4956,"Ø§ÙĦØ¹ÙħÙĦ":4957,"ĠØªÙĪÙĤÙģ":4958,"ÙħØ¯ÛĮ":4959,"ĠÙ¾ÙĪÙĦÛĮ":4960,"ĠØ±Ø£":4961,"ĠØ®ÙĪØ¯Ø±ÙĪÙĩØ§":4962,"ĠØŃØ³Ø§Ø³ÛĮ":4963,"ÛĮÙĨØ§":4964,"ĠÙĤØ·Ø¹ÛĮ":4965,"Ø§ÙĦÛĮØ§ÛĮÛĮ":4966,"ĠØ§Ø³ØªØ®ÙĪØ§ÙĨ":4967,"Ø®ÙĪØ¯":4968,"ĠØ³Ø¯Ùĩ":4969,"ĠØ¬ØºØ±Ø§ÙģÛĮ":4970,"ĠØ·Ø¹Ùħ":4971,"ĠØ¨Ø§Ø³ØªØ§ÙĨÛĮ":4972,"ĠÚ©Ø§Ø±Ú¯Ø±Ø§ÙĨ":4973,"ĠÙħØªØ®ØµØµØ§ÙĨ":4974,"ĠÙģÛĮØ²ÛĮÚ©":4975,"ĠØ®ÙĪØ¯Ø±ÙĪØ³Ø§Ø²":4976,"ÙħØ§Ø±Ú©":4977,"ÙħÛĮØ§ÙĨÙĩ":4978,"ĠØ§ÙģØªØªØ§ØŃ":4979,"ĠØ®Ø·Ø±ÙĨØ§Ú©":4980,"Ù¾Ø§ÛĮ":4981,"ĠÚ©Ù¾ÛĮ":4982,"Ú¯Ø±ÙħÛĮ":4983,"ĠÚ©ÙĪÙĪÛĮØ¯":4984,"ĠÙģØ¹ÙĦØ§":4985,"ĠÙħØ¬Ø¯Ø¯Ø§":4986,"ĠÙĪØ§Ùħ":4987,"ĠØ´Ø³Øª":4988,"ĠØ§ÙĩØ§ÙĦÛĮ":4989,"ĠØ¯ÛĮØ¯ÙĨÛĮ":4990,"ĠØ¯Ø±ÙĪØ§ÙĤØ¹":4991,"ĠÙģÙĦØ³ÙģÙĩ":4992,"ĠØ´Ú©Ø§ÛĮØª":4993,"ÚĨÙĨÛĮÙĨ":4994,"ĠØ¢ÙħØ§Ø¯Ú¯ÛĮ":4995,"Ø¨ÙĪØ±Ú¯":4996,"ĠØ¢ØªÛĮ":4997,"Ġg":4998,"Ġ200":4999,"ĠØ³ÛĮÙĨÙĩ":5000,"ĠØ¹Ø¸ÛĮÙħ":5001,"ĠØ³Ø¨Ø²ÛĮ":5002,"ĠÚ©Ø´ÛĮØ¯ÙĨ":5003,"ĠØ§ÙĨÚ¯ÙĦÛĮØ³":5004,"ĠÙħØ¹ØªÙĤØ¯ÙĨØ¯":5005,"ist":5006,"Ø¹Ø¯ÛĮ":5007,"Ú¯Ø°Ø±Ø¯":5008,"ÙħÛĮÙĦÛĮ":5009,"Ø§Ú©ØªÙĪØ±":5010,"Ø±Ø³Ø§ÙĨ":5011,"ĠÙĨØ§Ø³Ø§":5012,"ĠØ¨Ø§ÙĦØº":5013,"ĠØ¯ÙĩØ§ÙĨ":5014,"ĠÙħØ§ÛĮÙĦ":5015,"ĠØ¬ÙĨØ¨Ø´":5016,"ĠÙħÙĪÙĤØª":5017,"ÙĪØ¨Ùĩ":5018,"ĠØ¹ÙħØ¯":5019,"ĠÙ¾Ø§ÛĮÛĮ":5020,"ĠÛ²Û¹":5021,"ĠÙ¾Ø¯ÛĮØ¯":5022,"ĠÙĩÙĪØ§Ù¾ÛĮÙħØ§ÛĮÛĮ":5023,"ĠÙħÙĤÛĮ":5024,"ÙĪÙĨÚ¯":5025,"ĠÚ©Ø§Ù¾":5026,"ĠÙħÙĤØ§ÙĪÙħ":5027,"ĠÙħØ¯Ø§ÙĪÙħ":5028,"ĠØ¬Ø¨Ø±Ø§ÙĨ":5029,"ĠØºÙĦ":5030,"ĠØ³ÛĮÚ¯ÙĨ":5031,"ÙģØ±Ø§ÙĨ":5032,"Ø¨ØªÛĮ":5033,"ĠHT":5034,"ĠØ³ÙĪØ§ÙĦØ§Øª":5035,"ĠØ´Ø´Ùħ":5036,"ĠÙħØŃØ§Ø³Ø¨":5037,"ĠØ§Ø³Ú©ÙĨ":5038,"ĠÚ¯Ø±ÚĨÙĩ":5039,"ÙħØ«":5040,"ĠÙĨÚĺØ§Ø¯":5041,"ĠØ¯ÛĮÙ¾ÙĦ":5042,"ĠÛ²Û°Û±Û²":5043,"ĠÛĮÚ©Ùħ":5044,"ĠØ§Ø³ØªØ±Ø§ØŃØª":5045,"ĠØ±Ø§ÙĩÙĨÙħØ§ÛĮÛĮ":5046,"ĠÛ¶Û´":5047,"Ú©Ø³Øª":5048,"ÙĪØ±Ø¯ÛĮ":5049,"ĠØ±Ùģ":5050,"ĠØ§Ø´Ú©":5051,"ĠØ§Ø¬Ø§Ø±Ùĩ":5052,"ĠØ¢Ø±Ø²":5053,"Ø¯ÙĦÛĮÙĦ":5054,"ĠØ§ÙĨÚ¯Ø§Ø±":5055,"ĠÙħØ®Ø§ÙĦÙģØª":5056,"¹Û°":5057,"ĠØ¨ÛĮÙĦ":5058,"ĠØ§ÙħÙ¾Ø±Ø§ØªÙĪØ±ÛĮ":5059,"ĠØªÙĤØ§Ø¶Ø§":5060,"ĠÙĤÙģÙĦ":5061,"ĠØ§ÙĤÛĮØ§ÙĨÙĪØ³":5062,"ĠØ§ØŃØªÛĮ":5063,"ĠÚ©Ø±Ø¯ÛĮØ¯":5064,"ĠØ´ÙĩÛĮØ¯":5065,"ĠØ®Ø§ÙĪØ±ÙħÛĮØ§ÙĨÙĩ":5066,"ĠØ¨Ø³Ø§Ø²":5067,"ØºØ¯":5068,"ĠÙģØ±ÙħÙĪÙĦ":5069,"ĠØ®ÙĪØ´ØŃØ§ÙĦ":5070,"ĠÚ©ÙĦÙħ":5071,"ĠØ¯ÙĩÙĨØ¯Ú¯Ø§ÙĨ":5072,"ĠØ³ÙĪØ¡":5073,"ĠÙħØ´Ø§":5074,"ĠÛ±Û³Û¶":5075,"ĠØ§ÛĮØ³":5076,"ĠÙ¾Ø±ÙĪØªÚ©ÙĦ":5077,"Ú©ØªÙĪØ±":5078,"ÙĨÙĪØ´Øª":5079,"ĠØ¨ÙĦØ§Ú©":5080,"ĠÚĨØ±Ø®Ùĩ":5081,"ĠØ§ÙĦÚ¯ÙĪ":5082,"Ø§Ø²Ø¯Ùĩ":5083,"igh":5084,"ĠÙħÛĮÙĦØ§Ø¯":5085,"nd":5086,"ĠÙģØ±Ú©Ø§ÙĨØ³":5087,"ÙģØ±Ùĩ":5088,"ĠØ¢ÛĮØª":5089,"ĠÙ¾Ø±Ùģ":5090,"ĠØ¯Ø§ÙĨÙĩ":5091,"ĠÙħØŃÙĪ":5092,"ĠÚ©ÙĪØ§ÙĦÚ©Ø§Ùħ":5093,"ĠØ§ÙĨÙģØ¬Ø§Ø±":5094,"Ø±ÙĩØ§ÛĮ":5095,"ĠØ®ÙĪØ¯Ø¯Ø§Ø±ÛĮ":5096,"Ø´ÙĪÛĮÙħ":5097,"ĠÙĪÙģ":5098,"ge":5099,"ĠØ¹ÙħÙĪÙħ":5100,"ĠÙħØ¯Ø§Ø±Ú©":5101,"ĠÙħÙĪØ§Ùģ":5102,"ĠØ§Ø³ØªØ¹":5103,"ĠÙħÙĪØ´":5104,"Û±Û²":5105,"ĠÚ©ÙĪÙĦ":5106,"ĠÚ¯ÛĮØ§ÙĩÛĮ":5107,"ĠÚ©ÙĪØªØ§ÙĩÛĮ":5108,"ĠÙ¾Ø§Ø±Ø³":5109,"ĠÛ´Ûµ":5110,"ĠÛ²Û°Û±Û³":5111,"ĠÙĪÛĮÙĨ":5112,"ĠØ§ÙĪØ¶Ø§Ø¹":5113,"ĠÙģÛĮÙĨ":5114,"ĠÂ«Â«":5115,"ÙĩØ§ÛĮØ´Ø§ÙĨ":5116,"ĠØªØ§Ú©Ø³ÛĮ":5117,"ĠÛ¹Û¸":5118,"Ù¾Ø±ÛĮ":5119,"ĠÙħØ¹Ø¯ÙĨ":5120,"Ú¯ÙģØªÙĩ":5121,"ĠÙĨØ§ÙħØ²Ø¯":5122,"ĠÙĨÙħÚ©":5123,"ĠÙ¾Ø§ÙĦØ§ÛĮØ´Ú¯Ø§Ùĩ":5124,"ĠÙĦÙĪÚ©Ø³":5125,"Ú©ÙĪÙ¾":5126,"ĠÙħÙĪØ§ÙģÙĤØª":5127,"ĠØ¨Ú©Ø´":5128,"Ø±ÙĪØ²Ø±Ø³Ø§ÙĨÛĮ":5129,"ĠØ¨Ú¯ÛĮØ±ÛĮÙħ":5130,"ĠØ§Ø°":5131,"ĠÙģÙĦØ²":5132,"ĠÙħØ§ÚĺÙĪÙĦ":5133,"ĠØ®Ø³ØªÙĩ":5134,"one":5135,"ĠÙħÛĮØ±Ø²Ø§":5136,"ĠÚ©Ø§ÙħÙ¾":5137,"Ø§ÙĤØ¯":5138,"ĠÙģØ¹Ø§ÙĦØ§ÙĨ":5139,"ĠÛ´Û°Û°":5140,"ĠÚ¯Ø°Ø§Ø´ØªÙĨ":5141,"ÙĪØ³ØªÙĩ":5142,"ĠÙĩÙħØ³":5143,"ĠÙĪÛĮØ¯ÛĮÙĪÛĮÛĮ":5144,"ĠØ§Ø³ØªÙĨ":5145,"ĠÚ¯ÙĨØ¬":5146,"Ø¶Ùĩ":5147,"Ø§ÛĮØ¨":5148,"ĠÙĩØ§Ø´":5149,"pl":5150,"ÙĦØ§ÙĨ":5151,"ĠÙĪÙĨ":5152,"ĠØ´Ø¨Ø§ÙĨÙĩ":5153,"ĠØªØ²Ø±ÛĮÙĤ":5154,"ĠØ§Ø¶Ø§ÙģÛĮ":5155,"ĠØ¨ÙĩØ´":5156,"ĠÙĤØ¯ÛĮÙħ":5157,"ĠØ¢Ø²Ø§Ø±":5158,"ĠÙħÙĪØ¶ÙĪØ¹ÛĮ":5159,"Ø¸Ø§Ùĩ":5160,"ĠÙħØ®ÙĦÙĪ":5161,"ĠÙģÚ©Ø±ÛĮ":5162,"ĠØ´ÙĪÛĮÙħ":5163,"ĠØ®ÙĪØ´Ø¨Ø®ØªØ§ÙĨÙĩ":5164,"ĠÙĦØ¨Ùĩ":5165,"ÙĤÛĮØ¯Ùĩ":5166,"ard":5167,"ĠÙħÙĤØ±Ø±Ø§Øª":5168,"ĠØ±ÙĪØ´ÛĮ":5169,"ĠÚ¯ÙģØªÙĨ":5170,"Ø¯Ø±ÛĮ":5171,"ĠÙĤØ¶Ø§ÛĮÛĮ":5172,"ĠÛĮÚ©Ù¾Ø§Ø±ÚĨÙĩ":5173,"ÙħØªÛĮ":5174,"ĠØ§ÛĮÙĨÙĩ":5175,"ĠÛ±Û¹Û³Û":5176,"ĠÙĦØ°Ø§":5177,"ear":5178,"ĠØ¨Ø¨Ø±Ø¯":5179,"ØµØ±ÛĮ":5180,"ĠØ§Ø³ÙĨÙ¾":5181,"Ġ30":5182,"ĠÙĩØ¯Ø³Øª":5183,"ÙĨÚ¯Ø§Ø±ÛĮ":5184,"ĠÙģØ§Ú©ØªÙĪØ±":5185,"ĠØ¨Ø±Ø¹ÙĩØ¯Ùĩ":5186,"ĠØ²Ø§ÛĮ":5187,"ĠØ³Ø¹ÙĪØ¯ÛĮ":5188,"ĠÙĨÙħØ§":5189,"ĠÙģÛĮÙĦÙħÛĮ":5190,"ĠÙĪÛĮÙĦ":5191,"ÛĮØªÛĮ":5192,"ĠÙĨÛĮØ±ÙĪÚ¯Ø§Ùĩ":5193,"ĠØªØ¦Ø§ØªØ±":5194,"ĠØ±ÙĪØ²ÙħØ±Ùĩ":5195,"ĠÙħØ¨ÙĨØ§ÛĮ":5196,"ĠØ¨ÙħØ§ÙĨØ¯":5197,"ĠØ®ÙĪØ§ÙĨØ¯":5198,"ĠØ³ÛĮÚ¯ÙĨØ§ÙĦ":5199,"ĠØ¨Ø§Ø´Ùħ":5200,"ĠØ®ÙĦØ§ÙĤÛĮØª":5201,"ĠØŃØ±Ø§Ø±Øª":5202,"ĠÙĩÙĨØ±ÙħÙĨØ¯":5203,"ĠØ¢Ø´Ú©Ø§Ø±":5204,"ÙħØ±Ø¯":5205,"Ú¯Ø±Ø§":5206,"ĠÙ¾ÙĨØ¬Ø´ÙĨØ¨Ùĩ":5207,"ĠØ´Ø±Ø·":5208,"ĠÙħØ´Ø®ØµÛĮ":5209,"Û³Û°":5210,"Ġ15":5211,"ĠÙ¾ÙĩÙĦ":5212,"60":5213,"ĠÙħØ±Ø¨ÙĪØ·Ùĩ":5214,"ĠØ¹Ø³ÙĦ":5215,"ĠÙģØ§ÙĤØ¯":5216,"Ø®ØµÛĮ":5217,"Ø·Ø¨ÛĮ":5218,"ĠØ¢ÙģØ±ÛĮÙĤØ§":5219,"ĠÚ©Ø§ÙĦÛĮÙģØ±":5220,"ĠØªØŃÙĤÙĤ":5221,"ĠØ¬ÙĨÛĮÙĨ":5222,"Ø§Ø¯ÙĪ":5223,"ĠØ¯Ø³ØªÛĮØ§Ø±":5224,"ĠÙħÛĮÚ©ÙĨÙĨØ¯":5225,"Ú©ÙĨÙĨ":5226,"ĠØªØŃØµÛĮÙĦØ§Øª":5227,"ĠØ§Ú©ÙĪ":5228,"ÙĪØ¯Ø±":5229,"Ø§ÙģØ²":5230,"Ú¯Ø±Ø§ÛĮÛĮ":5231,"ĠØ§Ø±ÙħÙĨØ³ØªØ§ÙĨ":5232,"ĠØ§ÙĪÙ¾Ú©":5233,"Ø§Ø±ÙĨ":5234,"ĠØ¨Ø§Ø²ÙĨØ´":5235,"ĠÙ¾Ø±ÙĪÙģ":5236,"Ø§Ø¨ÙĨØ¯":5237,"Ø¸Ùħ":5238,"ĠÙħÙĤÛĮØ§Ø³":5239,"ĠØ¨Ø¯ÛĮ":5240,"ĠÚĨÛĮØ²ÙĩØ§ÛĮÛĮ":5241,"ĠØªÛĮØ±Ùĩ":5242,"Ø´Ø§ÛĮÛĮ":5243,"ÙĩÙĪØ´":5244,"ĠÙĩÙĨØ±ÙħÙĨØ¯Ø§ÙĨ":5245,"ĠÚ©ÙħÙ¾ÛĮÙĨ":5246,"ÙħÚ©":5247,"ĠÙħØ³ØªÙĤØ±":5248,"ÙĪÙĦØ§ÙĨ":5249,"ĠØ®ÙĪØ§Øµ":5250,"Ø§ÙĤÛĮ":5251,"ĠØ§ÙĪØ±Ø§ÙĤ":5252,"ĠÚ©ÛĮØ³":5253,"Ø¨ÛĮÙĨÛĮÙħ":5254,"ĠØ¨Ø¨ÛĮÙĨÛĮÙħ":5255,"ĠØªØ¯Ø±ÛĮØ³":5256,"ĠØ¨Ø±Ø²ÛĮ":5257,"ĠØ¨Ø¯Ùĩ":5258,"Ø³Ø§Ùħ":5259,"ĠØ´ÛĮØ®":5260,"ĠØ±Ø§Ø³ØªØ§":5261,"Ø¯Ø§ÙĨØ³Øª":5262,"ĠØ§ÙĨØ¨ÙĪÙĩ":5263,"ĠØ³ÙĦÙģÛĮ":5264,"ĠØ³Ø§Ø²ÙĨØ¯Ú¯Ø§ÙĨ":5265,"Ø±Ø³ÙĨØ¯":5266,"ĠÙħØ§Ú©":5267,"Ø±Ø§ØªÛĮ":5268,"ĠÙ¾Ø±ÛĮ":5269,"ĠÙħÙĨØ¯":5270,"ĠØ¢ÙħØ±ÛĮÚ©Ø§ÛĮ":5271,"ĠÙĪØ§Ø¶ØŃ":5272,"ØŃØ«":5273,"ĠØ®ÙĪÛĮØ´":5274,"ĠØ´ÙĩØ±ÙĩØ§":5275,"ĠØ²ÙĨÛĮ":5276,"ĠØªØºÛĮÛĮØ±Ø§ØªÛĮ":5277,"ĠØ¨Ø¹Ø¯Ø§":5278,"ĠÙĪØ±Ø¯":5279,"ĠÙĨÚ©ÙĨØ¯":5280,"ĠÙ¾Ø§Ø¯Ø´Ø§ÙĩÛĮ":5281,"Ù¾ÙĪÙĦÛĮØ³":5282,"Ø¯ÙĩÙĨØ¯Ú¯Ø§ÙĨ":5283,"ĠØ¯Ø§ÙĪØ·":5284,"ĠRe":5285,"ĠØ¢Ø²ÙħØ§ÛĮØ´ÛĮ":5286,"ĠØ³Ø±Ø¨Ø§Ø²Ø§ÙĨ":5287,"ĠØµØ¯Ø±":5288,"ĠÙĨÙĪØ´ÛĮØ¯ÙĨÛĮ":5289,"Ú©ÙĪÙĩ":5290,"Ø´ÛĮØ±":5291,"ĠØ¨ÛĮÚ©":5292,"ĠÛ²Û°Û±Û°":5293,"ĠÙĨØ§Øª":5294,"ĠÙħÙĨØ¸Ùħ":5295,"ĠÙ¾ÚĺÙĪÙĩØ´ÛĮ":5296,"ĠØ¯ÙĪØ¯":5297,"ĠÙĨÙħØ§ÛĮÙĨØ¯Ú¯ÛĮ":5298,"ĠØ±Ø§Ø¯ÛĮÙĪ":5299,"Ø§Ø³ØªÙģØ§Ø¯Ùĩ":5300,"ĠÙħÙĦÚ©":5301,"ÙģØ±ÙĪ":5302,"ĠØ¨Ø±Ø¯Ø§Ø±":5303,"ĠÚ¯ÙģØªÙĨÛĮ":5304,"ĠØ¬ÙĦÙĪÙĩ":5305,"Ú¯ÙĪÙĨÛĮ":5306,"Ø§Ø±Ùħ":5307,"ĠØªØŃØ±ÛĮÚ©":5308,"ĠØ¨Ø±ÙĨØ¬":5309,"ĠØ¯Ø±Ø§Ø²":5310,"ĠØ³Ø§ÛĮÙĩ":5311,"Ú©ÛĮÙĨ":5312,"ĠØ°Ø±Ø§Øª":5313,"ĠÚĨÛĮÙ¾Ø³Øª":5314,"ĠØ·Ø±Ø²":5315,"ĠÙĨÙĪØ§ØŃÛĮ":5316,"ĠØªØ¶ÙħÛĮÙĨ":5317,"ĠØ¹ÙĤÛĮØ¯Ùĩ":5318,"ĠØ§ÛĮØ±Ø§ÙĨÛĮØ§ÙĨ":5319,"ĠÙħÙĤØ§ÙĦØ§Øª":5320,"ub":5321,"ĠØªÙĪØ±ÛĮ":5322,"ĠØ§Ø´ØªØºØ§ÙĦ":5323,"ĠØ¹ÙĦØ§Ùħ":5324,"ĠØªØ³ÙĩÛĮÙĦØ§Øª":5325,"ĠØ´Ú©Ø§Ø±":5326,"ĠØ¯ÙĦØ®ÙĪØ§Ùĩ":5327,"Û±Û°":5328,"ĠÙħØ±ØªØ¨":5329,"ĠØ§ÙĦØª":5330,"ÛĮØ¯Ø§ÙĨ":5331,"ĠØ¨Ø¯ÙĩÙĨØ¯":5332,"ĠØ¨Ø®ÙĪØ§ÙĨÛĮØ¯":5333,"ĠØ¹Ø¨Ø§Ø±ØªÙĨØ¯":5334,"ĠØ¢ÙģØªØ§Ø¨":5335,"ØºØ¯ØºÙĩ":5336,"Ø®Ø§Øµ":5337,"ĠØŃØ³Ø§Ø³ÛĮØª":5338,"ĠØ¹ÙħØ¯ØªØ§":5339,"Ù¾Ø§Ø¯":5340,"ÚĨØ§ÙĦ":5341,"ĠØ¢ÛĮÛĮÙĨ":5342,"ĠØ¯Ø§Ø±ÙĪÙĩØ§ÛĮ":5343,"ĠÚ¯Ø§Ø²ÛĮ":5344,"ast":5345,"ĠØ¯Ø±ØŃØ§ÙĦ":5346,"ĠØ¬ÙĪÛĮ":5347,"ne":5348,"Ø¢ÙħÛĮØ²":5349,"ĠØ¯Ø±ÙĪØ§Ø²Ùĩ":5350,"ĠØ§Ø¹Ø¯Ø§Ø¯":5351,"ĠÙ¾ÙĩÙĨ":5352,"our":5353,"ĠÛ²Û°Û±Û±":5354,"ĠÚĨÙĨØ¯ÛĮ":5355,"ĠØ¢ÙĦÙĪØ¯Ùĩ":5356,"Ø²Ø§Ø¯":5357,"ĠÙĨÛĮÚ©":5358,"ĠØªÙ¾Ùĩ":5359,"Ù¾Ø¯ÛĮØª":5360,"ĠØ³ÙĪÙ¾":5361,"ÛĮÙħØ§":5362,"ĠÙĨØ¯Ø§Ø±ÛĮÙħ":5363,"Ø²ÛĮØ¯Ùĩ":5364,"ĠÙģÙĪ":5365,"ĠÙħØªÙħØ§ÛĮ":5366,"Ø§ÛĮØ²":5367,"ÙĪØªØ§":5368,"ĠØ±Ø§Ø¶ÛĮ":5369,"ĠØ§ÛĮÙĨÙĩØ§":5370,"ĠØ¨Ø·ÙĪØ±":5371,"ine":5372,"ĠÙħØ¬ØªÙħØ¹":5373,"ĠØªÙĤØ§Ø¶Ø§ÛĮ":5374,"ĠÙĤÙĨØ¯":5375,"ĠÛĮØ§Ø¯Ø¢ÙĪØ±":5376,"ĠÛ±Û³Û´":5377,"ĠØ¬Ø°Ø§Ø¨ÛĮØª":5378,"ĠØ¯Ø³ØªÙĪØ±Ø§ÙĦØ¹ÙħÙĦ":5379,"ĠØ¯ÙħÙĪÚ©Ø±":5380,"gle":5381,"ĠÙ¾ÛĮÙĪØ³ØªÙĩ":5382,"ĠØ§Ú©Ø³ÛĮ":5383,"Ø·ÙĪ":5384,"ĠØµØ§Ø¯ÙĤ":5385,"ĠØ±ÙĪÙħ":5386,"ĠØªØ¹Ø§Ø¯ÙĦ":5387,"ĠØ³ÛĮØ¨":5388,"ÙĨÚ¯ØªÙĨ":5389,"Ø´ÙĨØ§ÙħÙĩ":5390,"ĠØ®ÛĮØ§ÙĦ":5391,"ĠØ¢Ù¾Ø¯ÛĮØª":5392,"ĠØ§ÙģØ²ÙĪÙĨÙĩ":5393,"ĠÙħØ´Ø±ÙĪ":5394,"Ø¯ÙĪØ¯ÛĮ":5395,"ĠØ¯Ø±ÙħÙĪØ±Ø¯":5396,"ÙĨÙħØ§ÛĮØ¯":5397,"ell":5398,"ĠÙħØ³Ø§ØŃØª":5399,"ĠØ§ÙģØ³Ø±Ø¯Ú¯ÛĮ":5400,"ĠÙħØ¹Ø§ÙĪÙĨØª":5401,"ĠÙħÚ©Ø§ÙĦ":5402,"ĠÙĩØ¬Ø±ÛĮ":5403,"ĠØ¢ÙĦÛĮ":5404,"ĠÙħÙĨÙĪ":5405,"ĠØ§ØªØ±":5406,"ĠØ¢ÙĨÙĤØ¯Ø±":5407,"ĠÙħØ·Ø¨ÙĪØ¹":5408,"ĠÛ¹Û¹":5409,"ĠØ¯ØºØ¯ØºÙĩ":5410,"ĠÚ©Ø¬":5411,"ĠÙħÙĤØ·":5412,"ĠØ¢Ùĩ":5413,"ĠØŃØ§Ú©ÛĮ":5414,"ĠØ¨Ø³ØªØ±ÛĮ":5415,"ik":5416,"PS":5417,"ĠØ§Ø³ØªØ¹Ø¯":5418,"ÙģÛĮÙĩ":5419,"ĠØ¨ØªÙĪØ§ÙĨÛĮÙħ":5420,"ĠØªØ¹Ø·ÛĮÙĦ":5421,"ĠØ³Ø§Ø¹ØªÛĮ":5422,"ĠÙģÙĪÙĦØ§Ø¯":5423,"ĠØ¬Ø±ÛĮÙħ":5424,"Ø´ÙħØ§Ø±ÛĮ":5425,"Ø±Ø§ÙĦ":5426,"ĠÛĮØ²Ø¯":5427,"ĠØŃØ±Ú©Ø§Øª":5428,"ĠÙ¾Ø§Ø±ÙĦ":5429,"ĠÚ¯Ø±Ùĩ":5430,"ĠØªØ®ÙħÛĮÙĨ":5431,"ĠØ¬Ø±ÛĮÙħÙĩ":5432,"ĠØ±Ø³Ùħ":5433,"ĠÚĺÙĨØªÛĮ":5434,"ĠÙĦØ¨ÙĨØ§ÙĨ":5435,"ĠÙĨØ§Ú©":5436,"ĠÙ¾ÙħÙ¾":5437,"ĠØªÚ©Ùĩ":5438,"Ø·Ø§Ùģ":5439,"ĠØ¨Ø±ÙĪØ²Ø±Ø³Ø§ÙĨÛĮ":5440,"ĠØ¸Ùĩ":5441,"NA":5442,"ĠÙħØ³ÙĦØŃ":5443,"ĠØ¨ÙĦØ§Ùģ":5444,"ÙħÙĨØ¸":5445,"ĠØªÙĪÙĦÛĮØ¯Ú©ÙĨÙĨØ¯Ùĩ":5446,"ĠÙħÙĨØ§ÙģØ¹":5447,"Ú¯ÙĩÛĮ":5448,"ĠØ§Ø¯Ø¹Ø§ÛĮ":5449,"ĠÙħØ§Ø±Ú©Øª":5450,"ĠÛ¹Ûµ":5451,"are":5452,"ĠØ®ÙĪØ±Ø§Ú©ÛĮ":5453,"ĠØ³Ú©Ùĩ":5454,"Ú¯Ø°Ø§Ø±ÙĨØ¯":5455,"ĠÙĨÙĪÛĮÙĨ":5456,"ib":5457,"ĠÙ¾Ø±ÙĨØ¯Ùĩ":5458,"ĠÙĪØ§Ø´ÙĨÚ¯ØªÙĨ":5459,"Ø§Ø°":5460,"ue":5461,"ĠØ®Ø§ÙĨÙĪØ§Ø¯Ú¯ÛĮ":5462,"Ú¯Ø§Ùħ":5463,"ĠØ¯ÙĪÚ¯Ø§ÙĨÙĩ":5464,"Ø±ÙĩØ§":5465,"ĠÚ©Ø´ÛĮØ¯":5466,"ĠØ²ÛĮØ¨Ø§ÛĮ":5467,"ĠØ¯Ø§Ø´ØªÛĮÙħ":5468,"ĠØ³Ú¯":5469,"Ø¯Ø§ÙħÛĮ":5470,"ĠØ¹Ø¶ÙĪÛĮØª":5471,"ĠØ´Ú©Ø±":5472,"ĠØ§ÛĮØ²":5473,"ĠØ¯ÛĮØ¬ÛĮØªØ§ÙĦÛĮ":5474,"ĠCh":5475,"ĠÙħØ§ÙħÙĪØ±ÛĮØª":5476,"Ú¯Ø§ÙĩØ±Øª":5477,"Ø³Ø§Ø¨":5478,"Ø¬ÙħÙĩÙĪØ±":5479,"ĠØ¹Ø«":5480,"ĠÙħÚ¯Ø±":5481,"ĠÚ¯Ø±Ø¯ÙĨ":5482,"Ø¨ÛĮØ§":5483,"Ø±Ø¯ÙĨ":5484,"ĠÙģØ±ÙĪØ´ÙĨØ¯Ùĩ":5485,"ĠØªÙĨØ´":5486,"ĠÙ¾Ø±Ø³Ù¾ÙĪÙĦÛĮØ³":5487,"ØªØ±Ø²":5488,"ĠØ¯Ø±Ø¬":5489,"ĠÙĨÙĪØ¨Øª":5490,"ĠÙħÛĮÙĨÛĮ":5491,"ĠÙĦÙħØ³":5492,"ÙĪÚ¯ÙĪ":5493,"ĠØ¨ÙĦØ§ÙģØ§ØµÙĦÙĩ":5494,"Ú©Ø§ÙĦØ§":5495,"Ø±ÛĮØª":5496,"ĠÙħØ¬ÙħØ¹":5497,"ÙģÛĮØ³":5498,"ĠÙģÙĦØ³Ø·ÛĮÙĨÛĮ":5499,"ĠØ¯ÛĮØ±ÙĪØ²":5500,"ĠØªØ¨Ø§Ø¯ÙĦ":5501,"ĠØ¨Ø±ÙĨØ¯ÙĩØ§ÛĮ":5502,"ĠØªÙĪØ±Ùħ":5503,"ĠØªØ¹ÙĦÙĤ":5504,"ĠØ¹ÙħÙĪÙħØ§":5505,"ĠØ¹Ø¨Ø§Ø±":5506,"ĠØ¢Ø²ÙħØ§ÛĮØ´Ú¯Ø§Ùĩ":5507,"30":5508,"ĠÙħØ§Ø±Ú©":5509,"ĠØ¨ÙĨØ²":5510,"ĠØ¢ÙģØ±":5511,"Ø§ÙĦØªÛĮ":5512,"ÙģØ±Ø³Øª":5513,"ĠÚ©Ø±ÛĮØ³Øª":5514,"ĠØŃÙĪØ§Ø¯Ø«":5515,"Ø³ÛĮØ³ØªÙħ":5516,"ĠØ¨Ø±Ø¯Ø§Ø´ØªÙĩ":5517,"Ø¦Ùĩ":5518,"ĠÙĨÙĪØ§Ø²":5519,"ĠØ³Ø§Ø²Ùĩ":5520,"Ġy":5521,"end":5522,"Ø§Ø·Ø¹":5523,"Ø¯ÙĪ":5524,"ĠØ§ÙĨØ¨Ø§Ø±":5525,"ĠÙħÙĤØ¯Ø§Ø±ÛĮ":5526,"ĠÙĤØ§Ø±Ùĩ":5527,"ĠØ§Ø³Ú©Ø§Ø±":5528,"ĠÙĤØ§Ø¬":5529,"oogle":5530,"ax":5531,"ĠÙħØ³ÛĮØ±ÛĮ":5532,"ĠÛĮÙĪØªÛĮ":5533,"ĠØ§Ø¹Ø¯Ø§Ùħ":5534,"ĠØµØ¨Ø±":5535,"ĠÙħØ¹Ø¯ÙĨÛĮ":5536,"ĠØ§ÛĮÙĨØ¬Ø§Ø³Øª":5537,"ÙĦÛĮÙģ":5538,"ĠØ§Ø´ØºØ§ÙĦ":5539,"ĠÙħÙĨÙĪÛĮ":5540,"ass":5541,"ĠÚ©Ø§Ø±ÙħÙĨØ¯":5542,"ĠÚ¯ÙĪØ±":5543,"ĠØ§ÙĨØ¹Ø·Ø§Ùģ":5544,"ÙħÙĨØ¸ÙĪØ±":5545,"ĠÙħØ±Ø§ØªØ¨":5546,"Ø§Ø±Ø´ÛĮ":5547,"ÙĪÙĤØª":5548,"ĠØ´ÙĩØ±Ú©":5549,"ĠÚ©Ø±Ùħ":5550,"ĠÚ©Ø§Ø±Ú©Ø±Ø¯":5551,"ĠØ¹ÙĦÛĮØ±":5552,"ĠÙ¾Ø²Ø´Ú©Ø§ÙĨ":5553,"Ø·ÙĦ":5554,"ĠÙ¾Ø°ÛĮØ±ÙģØªÙĩ":5555,"Ø§Ø²Ø¯ÙĩÙħ":5556,"ĠÙħØ§ÙĦÚ©ÛĮØª":5557,"ĠÚ©Ø§ÙĦÛĮÙģØ±ÙĨÛĮØ§":5558,"Ø±Ø³Ø§ÙĨØ¯":5559,"ĠÛ²Û°Û°Û¸":5560,"ind":5561,"ĠØ§ØªØŃØ§Ø¯":5562,"ĠÙĩÙģØªÙħ":5563,"Ø¨Ø§ÛĮØ³Øª":5564,"ÙĨÙħ":5565,"ĠØµØ¯ÙĩØ§":5566,"ĠÙĨÙĩØ§ÛĮØªØ§":5567,"ĠÙħÙĪØ¯":5568,"ĠØ·Ø§ÙĦ":5569,"ĠØ²ÙĪØ¬":5570,"ĠÙħÙĤØ§Ø¯":5571,"ĠÚ©ÙĪØ´":5572,"ĠØ§Ø«Ø±Ø§Øª":5573,"age":5574,"ĠØªØ§Ø±ÛĮÚ©":5575,"ace":5576,"ĠÚ©ÛĮØ¨":5577,"ĠÙĦØ§ÛĮØŃÙĩ":5578,"ĠØ¨Ø®Ø§Ø·Ø±":5579,"ĠØ¯Ø§ÙĨØ´Ú¯Ø§ÙĩÛĮ":5580,"ĠÙħÛĮÚ©ÙĨÛĮÙħ":5581,"ĠÙĨØ¸Ø±ÛĮ":5582,"ĠÙĪØ§ÚĨ":5583,"Ø§Ø¯ÙħÛĮ":5584,"ĠÙħÙĤØ¯Ø³":5585,"ĠØ¨Ø§Ø±Ø§ÙĨ":5586,"ĠØªØ£Ú©ÛĮØ¯":5587,"ĠØ§Ø±Ø§ÛĮÙĩ":5588,"ĠÙĨØ§ÙĪ":5589,"ĠØ²ÙĨØ¯Ø§ÙĨÛĮ":5590,"ĠØ§Ø¶Ø·Ø±Ø§Ø¨":5591,"Ø§Ø±ÙĩØ§":5592,"ĠØ¨Ø±Ú¯Ø±Ø¯":5593,"ĠÙħØŃØ¶":5594,"ĠÙħØŃØµÙĪÙĦØ§ØªÛĮ":5595,"Ú¯Ø°Ø±":5596,"ĠÚ¯ÛĮÚ¯Ø§Ø¨Ø§ÛĮØªÛĮ":5597,"ĠØ³Ø±Ú¯Ø±ÙħÛĮ":5598,"ØŁ!":5599,"ĠØ¨Ø±ÛĮ":5600,"ĠØ§ÙĦÚ¯ÙĪÛĮ":5601,"ĠØ¯Ø§ÙĨØ³ØªÙĩ":5602,"ĠØ¨Ø²ÙĨØ¯":5603,"Û±Û³Û":5604,"ĠØ¨ÛĮÙĨØ¯":5605,"ĠØ§ÙĨØ¯Ø§Ùħ":5606,"ĠÛ³Û±":5607,"th":5608,"LED":5609,"ĠØ§Ø¯ØºØ§Ùħ":5610,"Ø§Ø±ØªÛĮ":5611,"Ø¨Ø§Ú©Ø³":5612,"ĠØ³Ù¾Ø±Ø¯Ùĩ":5613,"ĠØ¨Ø±Ùĩ":5614,"ĠÙ¾ÛĮØ¯":5615,"ĠØ³ÙģØ§Ø±Øª":5616,"ĠØ§Ø³Ù¾ÛĮÚ©Ø±":5617,"Ø§Ø²ÙĨ":5618,"ĠÙħÛĮØ®ÙĪ":5619,"ÙĪØ¬ÙĪØ¯":5620,"pp":5621,"ĠÙĤØ±Ø¢ÙĨ":5622,"ĠØ¨ØºØ¯Ø§Ø¯":5623,"ĠØ¯ÙĩÛĮ":5624,"ĠÙħØ´Ø§ØºÙĦ":5625,"ĠÛĮÙĪÙĨØ§ÙĨ":5626,"ĠÛ±Û¹Û±Û":5627,"ĠÙĨÙĤÙĦÛĮÙĩ":5628,"ĠØ¯Ø±Ø®":5629,"ĠÙĨÙĤØµ":5630,"ĠÙħØ¯Ø§ÙĦ":5631,"ĠÙģÛĮØ¨Ø±":5632,"ĠÚ©ÙħØ§ÙĦ":5633,"ĠØ³ÙĦØ·Ø§ÙĨ":5634,"ĠÙħØ®ØµÙĪØµØ§":5635,"ĠØ¯Ø±Ø®ØªØ§ÙĨ":5636,"ĠÙħØ§ÙĨØ¯ÙĨ":5637,"ĠÙ¾Ø±Ø³Øª":5638,"ĠØ¬ØºØ±Ø§ÙģÛĮØ§ÛĮÛĮ":5639,"ĠÙħØ§Ø³Øª":5640,"ĠÙħØŃØ±Ú©":5641,"ĠØ¯Ø§Ø¦ÙħÛĮ":5642,"ĠØ¢Ú¯ÙĩÛĮ":5643,"ĠØ¨Ø±ØªØ±ÛĮ":5644,"ĠÙ¾ÛĮØ´ÙĨÙĩØ§Ø¯ÛĮ":5645,"ĠØ§ÙĨØŃØµ":5646,"ĠØ¯Ø±Ø§ÛĮ":5647,"ĠØ§ÙĨÛĮÙħÛĮØ´ÙĨ":5648,"Ø§ØŃØªÛĮ":5649,"ĠØ¨Ø±Ø§ÛĮØ´":5650,"ĠÙ¡":5651,"ĠØ´ÙĩØ±Ø¯Ø§Ø±":5652,"ĠØ³Ø§ÛĮØ²":5653,"ĠØ±Ø£ÛĮ":5654,"ĠØ¨Ø¯ÙĦ":5655,"ĠØ´Ø§ÛĮØ¹":5656,"Ø¯Ø§Ø±Ø¯":5657,"ĠØ¨Ø±Ø¢ÙĪØ±Ø¯":5658,"ĠØªØ¬Ø±Ø¨ÛĮØ§Øª":5659,"ĠØ¹ÙĦØ§ÙħØª":5660,"ĠÚ©Ø±ÙĪ":5661,"ĠØ§ÛĮØ±ÙĨØ§":5662,"ĠÙĨÙĪÛĮØ³ÙĨØ¯Ú¯Ø§ÙĨ":5663,"ĠØ¨ÛĮØ§ÙĪØ±Ø¯":5664,"ĠØ§Ø´Ú©Ø§ÙĦ":5665,"ĠØ§Ø±ØªÙĤØ§ÛĮ":5666,"ĠØ¬ÙĨÚ¯ÛĮ":5667,"ES":5668,"Ø²Ø³ØªØ§ÙĨ":5669,"ĠØ¨ÙĩÙħ":5670,"ĠØ®Ø±Ø§Ø¨":5671,"ĠÙħØ§Ø±ÛĮ":5672,"ĠØ¨Ø§Ø²ÛĮÚ¯Ø±Ø§ÙĨ":5673,"ÙĤØ§Ùħ":5674,"ĠØ³Ø±Ù¾Ø±Ø³Øª":5675,"ĠØªÛĮÙħÛĮ":5676,"ĠÙĨÙĩØ§Ø¯ÙĩØ§ÛĮ":5677,"ĠØªØµÙģÛĮÙĩ":5678,"ĠÚĨØ§Ø±ÚĨÙĪØ¨":5679,"ĠÙĨØ§Ø§Ùħ":5680,"ĠÙĪÚ©ÛĮÙĦ":5681,"Ø¢ÙĪØ±ÙĨØ¯":5682,"ĠÙģØªØŃ":5683,"act":5684,"ĠÙħÙĨØªÙĤ":5685,"ÙģÛĮØª":5686,"ĠÙħØ¯ÛĮØ±Ùĩ":5687,"Ø§ÙĨØ´":5688,"Ø¬ÙħÙĦÙĩ":5689,"ĠÙĤØ¶ÛĮÙĩ":5690,"ĠÙħÙģÙĩÙĪÙħÛĮ":5691,"Ø¢ÛĮ":5692,"ĠÙĪÛĮØ¯Ø¦ÙĪÛĮÛĮ":5693,"ĠØ¨ÛĮØ±ÙĪÙĨÛĮ":5694,"ĠÙĩÙĪØ§Ù¾ÛĮÙħØ§ÛĮ":5695,"ĠØ§Ø®ÙĦØ§ÙĤÛĮ":5696,"ure":5697,"Ġv":5698,"ĠÙħÙĪØªÙĪØ±ÙĩØ§ÛĮ":5699,"ĠÙ¾Ø§ÛĮÛĮØ²":5700,"ĠÚ©Ø§Ø±Ø§Ú©":5701,"ĠÙģØ±Ø¯Ø§":5702,"ÙĦÙħ":5703,"ĠØ§Ø±ÙħÙĨÛĮ":5704,"ĠÙħÚ©ÙħÙĦ":5705,"ĠØ¹Ø·":5706,"ĠÙħØ³Ú©":5707,"ÙħÛĮØ²ÛĮ":5708,"ÚĨÛĮØ²":5709,"ÙĦØ§Øº":5710,"ĠØ³ÙĪÙ¾Ø±":5711,"ĠØ¸ÙĩÙĪØ±":5712,"ĠØ¬Ú©":5713,"ĠØ±ÙĪÙĨÙĤ":5714,"ĠØ¨Ø§Ú©Ø³":5715,"ĠØ§ÛĮØªØ§ÙĦÛĮØ§ÛĮÛĮ":5716,"ĠØ³Ø·ØŃÛĮ":5717,"ĠØ´Ø§Ùħ":5718,"ĠØªØ±Ø¯Ø¯":5719,"ĠØ¨Ø¨Ø±ÙĨØ¯":5720,"ĠÚĨØ§Ùĩ":5721,"ĠØªØ³ÙĩÛĮÙĦ":5722,"ĠØ³Ø§Ø²Ú¯Ø§Ø±":5723,"ĠÚĨÙĨØ§ÙĨÚĨÙĩ":5724,"ĠÙĦØ§Øª":5725,"ĠØ¯Ø§ÛĮØ±Ùĩ":5726,"ĠØ¬Ø§ÙĦØ¨ÛĮ":5727,"ĠÙĨÙĤØ±Ùĩ":5728,"ĠÙĤØ³ÙħØªÛĮ":5729,"Û±Û¹":5730,"ĠÙħØŃØ±ÙĪÙħ":5731,"Ø¹Ú©Ø³":5732,"ĠØ³Ù¾Ø±ÛĮ":5733,"ĠÙħØ´Ú©ÛĮ":5734,"ĠÙĪØ§Ú¯Ø°Ø§Ø±":5735,"ĠØ¨Ù¾Ø±Ø³":5736,"ĠØªÙĪØ§Ø¨Ø¹":5737,"ĠØ®ÙĪØ¯ØªÙĪÙĨ":5738,"ĠÛ´Û¸":5739,"ĠÙĨØ®ÙĪØ§ÙĩÙĨØ¯":5740,"ĠÙħØµØ±ÙģÛĮ":5741,"ĠØŃÙħØ§Ùħ":5742,"ĠÙħØ®ÙĦÙĪØ·":5743,"ant":5744,"ĠØªÚ©ÛĮÙĩ":5745,"ĠPl":5746,"ĠØ¹Ø²ÛĮØ²":5747,"Ø§Ø³Ùħ":5748,"ĠÙģØ§Ø´":5749,"Ġre":5750,"ĠØ³Ø§Ø³":5751,"ĠØ¨Ø±Ø²ÛĮÙĦ":5752,"ĠØ§Ø³ØªØ§ÙĨØ¯Ø§Ø±Ø¯ÙĩØ§ÛĮ":5753,"ĠØ¯Ø§Ø³ØªØ§ÙĨÛĮ":5754,"ĠÙĨÙĤØ¶":5755,"ÙħÙĪÙĦ":5756,"ĠØ²ÙĦØ²":5757,"ĠØ¨Ø±Ø¬Ø§Ùħ":5758,"ĠØ¨ÙĨØ§Ø¨Ø±":5759,"ĠØ¨Ø§Ø±ÛĮÚ©":5760,"ĠØ®Ø§Ø·Ø±Ø§Øª":5761,"ĠØ§Ø´Ø®Ø§Øµ":5762,"ĠØ§Ø®ØªØ±Ø§":5763,"ĠÙĤØ¶Ø§":5764,"ĠØ¨Ø¯ÙĩÛĮ":5765,"ĠÙĨØ§Ø¯ÛĮ":5766,"ĠÙħØ¹ÙĦÙĪÙħ":5767,"ĠØ²ÙĦØ²ÙĦÙĩ":5768,"ĠÙħØ±ÛĮØ®":5769,"ĠÚ©Ø§ÙĨØ¯":5770,"ĠØ§Ø¹ØªØ¨Ø§Ø±ÛĮ":5771,"ĠÙĨØªÙĪØ§ÙĨØ³Øª":5772,"ĠÛ²Û°Û°Û°":5773,"ĠÚĨØ´ÙħÙĩ":5774,"ĠØ®Ø·ÛĮ":5775,"Ø¨ÙĦÛĮ":5776,"ĠÛĮØ§Ø¯Ø¢ÙĪØ±ÛĮ":5777,"ĠØ´Ø¯ÛĮÙħ":5778,"ĠÚ©Ø§Ø±ÙģØ±":5779,"ĠÛ²Û°Û°Û¹":5780,"ĠÙ¾Ø±Ùĩ":5781,"se":5782,"ĠÙħØ±Ø³Ø¯Ø³":5783,"ĠØ®Ùħ":5784,"Ø§ÙħØ¹":5785,"ĠØ®ÙĪØ§ÙĩØ±":5786,"Ø®ØªÙĨ":5787,"ĠÙħÛĮØªÙĪØ§ÙĨÛĮØ¯":5788,"ÙģØ´":5789,"ĠØ®Ø´Ùħ":5790,"ĠGT":5791,"Ø¢ÙĦ":5792,"ĠÙħØ¨ØªÙĦ":5793,"Ġ14":5794,"ĠØŃØ±Ú©ØªÛĮ":5795,"ÙĪØ§Øª":5796,"Ø²ÙĨÙĨØ¯":5797,"ĠÙĤØµÙĩ":5798,"ĠØ¯Ø±ÙĪØº":5799,"Ġ11":5800,"ĠØ¯Ø±ÙĪÙĨÛĮ":5801,"ark":5802,"ÙĤÛĮÙħØª":5803,"ĠÙħØºØ²ÛĮ":5804,"ĠÚ©Ø§Ø±Ø¢ÙģØ±ÛĮÙĨ":5805,"ĠØªÙĤØ¯":5806,"ÙĪØ±ÙĨ":5807,"ĠØ¢ÙħÙĪ":5808,"ĠÚ©ÙĦÛĮØ³Ø§ÛĮ":5809,"ÙĪÛĮÚĺÙĩ":5810,"ĠÙģØ¯Ø±":5811,"ĠØ¨Ø±ÚĨØ³Ø¨":5812,"ÚĨØ§ÙĤ":5813,"ĠÚ©Ø±ÙĪÙĨ":5814,"ĠÛĮØ®ÚĨØ§ÙĦ":5815,"Ø³Ø§Øª":5816,"Ø¯Ø§Ø¯ÙĨØ¯":5817,"ĠØ®Ø±Ø¬":5818,"ĠØ²ÙĪÙħÛĮØª":5819,"ĠØªØ¬Ø¯ÛĮØ¯":5820,"):":5821,"ØªÛĮÙĨ":5822,"ĠÙĩÙĨØ¯ÛĮ":5823,"ĠØ¨Ú¯Ùħ":5824,"ĠÙĨØ¹":5825,"ÛĮØªÙĪÙĨ":5826,"ĠØ¯ÛĮØ¯Ùħ":5827,"ĠÙĩÚ©Ø±":5828,"ĠØ§ÛĮÙħÙĨ":5829,"ĠÙħÙĨØªÙĤØ¯Ø§ÙĨ":5830,"ĠÙħÙĤØ§Ø¯ÛĮØ±":5831,"ĠØ§Ø³ØªÙĪØ±":5832,"ight":5833,"ĠØŃØ±ÛĮÙħ":5834,"Ġth":5835,"Ø³ØªÛĮÚ©ÛĮ":5836,"Ø´Ø±Ø¯Ùĩ":5837,"ĠÙħÙĨØªÙĩÛĮ":5838,"ÙħÙĨØª":5839,"Ø±Ø§ØŃØªÛĮ":5840,"ov":5841,"ĠÙĨØ´Ø±ÛĮÙĩ":5842,"ĠÙĪØµÙĦ":5843,"ĠØ¯Ø§Ø±ÙĨ":5844,"ÛĮÚ©Ø§":5845,"ĠÙ¾Ø§Ø¯Ú©Ø³Øª":5846,"ĠØ±Ø³ÙħØ§":5847,"ĠØªØ±Ø¨ÛĮØª":5848,"ĠØ§ÙħØª":5849,"ĠØªØ¸Ø§Ùĩ":5850,"ĠÛĮÙĪÙĨØ§ÙĨÛĮ":5851,"ĠØªÙĦÙģÙĨÛĮ":5852,"ĠÚĨÙĪØ¨ÛĮ":5853,"ĠØ¯ÛĮÙĪØ§ÙĨ":5854,"ĠØªØ§ÛĮÙ¾":5855,"ĠÙħÙĪØ§ÙĨ":5856,"ĠÙĪØ¶ÙĪØŃ":5857,"ĠØ®Ø¨Ø±ÙĨÚ¯Ø§Ø±Ø§ÙĨ":5858,"Ġ100":5859,"Ø¨Ø³":5860,"ĠÙĪØ±Ø²Ø´Ú¯Ø§Ùĩ":5861,"ĠÙĤØ·Ø§Ø±":5862,"ĠØ§ÙħØ§Ø±Ø§Øª":5863,"ĠØ³Ø§ÙħØ§ÙĨ":5864,"ĠÙħØªØ±ÙĪ":5865,"ĠØ¯ÛĮÙĨÛĮ":5866,"ÙĦØ³ÙĦÙĩ":5867,"ĠØ¶Ø±ÙĪØ±Øª":5868,"Ø¢Ø±":5869,"ĠØ®ÙĪÙĨÙĩ":5870,"ĠÚ©Ø±ÙħØ§ÙĨØ´Ø§Ùĩ":5871,"ĠØ®Ø¯Ø§ÛĮ":5872,"ĠØ§Ø³ÙħØ§Ø±Øª":5873,"ĠÙħØ§Ø¯Ø±Ø´":5874,"Ø§ÙħØ¯":5875,"ĠØ§ØªØ®":5876,"ĠÙħØ±Ø¯ÙħÛĮ":5877,"Ø¦ÙĪÙĨ":5878,"ĠÙħØ¸":5879,"ĠÙħØ³ØªÙĤÛĮÙħØ§":5880,"ĠØ¯Ø§Ø±Ø§":5881,"ĠDe":5882,"ØµÛĮ":5883,"ĠSp":5884,"ĠÚ©Ø±Ø¨":5885,"ĠØ¨ÛĮØ¯Ø§Ø±":5886,"ĠÙĨØ§Ø¯ÛĮØ¯Ùĩ":5887,"ĠÙ¾Ø°ÛĮØ±ÛĮ":5888,"ĠØ±ÙĪØ´ÙĨØ§ÛĮÛĮ":5889,"ĠØ§ÙĦØŃ":5890,"ĠØ§ÙģØªØ®Ø§Ø±":5891,"ĠÙħÛĮØ§Ø¯":5892,"ĠÙĪØ¨ÙĦØ§Ú¯":5893,"Ø¬ÙĨ":5894,"ĠØ§ÙģØ³Ø§ÙĨÙĩ":5895,"ĠØ¨ÙĦÙĩ":5896,"Ø§ÙģØ²Ø§Ø±ÙĩØ§ÛĮ":5897,"ĠØ´ÙĨÛĮØ¯ÙĨ":5898,"ĠØ·Ø±":5899,"ĠÙħØ¹ÙĦÙħ":5900,"ĠÙģØ´Ø±Ø¯Ùĩ":5901,"ĠÙħÙģØ§ÙĩÛĮÙħ":5902,"Ø¨Ø§Ø³ÛĮ":5903,"ĠØ§ÙĨÚ¯ÛĮØ²":5904,"ĠØ§Ú©Ø³ÛĮÚĺÙĨ":5905,"ĠÙģØ±Ø³ØªØ§Ø¯Ùĩ":5906,"ĠÙĪÛĮØ²Ø§ÛĮ":5907,"TE":5908,"ĠØ§ÙħÙĪØ§Ø¬":5909,"ĠÙĨØ¨Ø§Ø´":5910,"ĠÚ¯Ø±ÙĪ":5911,"ĠØ¢Ú©Ø§Ø¯ÙħÛĮ":5912,"ĠÙ¾ÙĩÙĦÙĪÛĮ":5913,"ĠØµÙĦØ§ØŃ":5914,"ĠÙĨØ¯Ø§Ø¯Ùĩ":5915,"ÙĪØ§ÙĨØª":5916,"ĠÙĪØ³ÛĮØ¹":5917,"ĠØ³ÛĮÙĨÙħØ§ÛĮ":5918,"Û±Û¸":5919,"ĠØ¹Ø¯Ø§ÙĦØª":5920,"ĠØ¢ÛĮÙĨÙĩ":5921,"ĠØ¬ÙģØª":5922,"ĠØªØ±ÙĪØ±ÛĮØ³ØªÛĮ":5923,"ĠÚ©ØªØ§Ø¨ÛĮ":5924,"ĠØ§ØªØ®Ø§Ø°":5925,"ĠØ¹ÙĨØµØ±":5926,"ĠØ¨Ø§Ø²Ú¯Ø±Ø¯":5927,"Ú©ÙĪÚ©":5928,"ĠØ§Ø±ÙħØºØ§ÙĨ":5929,"ĠØ±Ø§ÙĩÙĨÙħØ§ÛĮ":5930,"ĠÚ©Ø§ÙħÙ¾ÛĮÙĪØªØ±ÛĮ":5931,"ĠÚ¯ÛĮÙĦØ§ÙĨ":5932,"ĠØ§ÛĮÙĨÚ¯ÙĪÙĨÙĩ":5933,"ĠÙħØŃÚ©Ùħ":5934,"ĠØ¨Ø®ÙĪØ±":5935,"ĠØ§Ø¨ÙĨ":5936,"ĠØ´ÙĪØ§ÙĩØ¯":5937,"ĠØ³ÛĮÚ¯Ø§Ø±":5938,"ĠÙĩØ´ØªÙħ":5939,"ĠØ¹ÙħÙĦØ§":5940,"Ġ16":5941,"ĠÙħØ¨Ø§":5942,"Ø´ÛĮØ§ÙĨ":5943,"ĠØªÙĪØ¶ÛĮØŃØ§Øª":5944,"ĠØ±Ø§Ø¬Ø¹":5945,"ĠØ¨ÙĪØª":5946,"ĠÙħØ£ÙħÙĪØ±ÛĮØª":5947,"ĠØ¬Ø§Ø³":5948,"ĠØ¨Ø§ÙĦØ§ØªØ±ÛĮ":5949,"Ø¹Ø´":5950,"ĠØ³Ø±ÙĨØ´ÛĮÙĨ":5951,"ĠÙħØºØ§Ø²Ùĩ":5952,"ĠØ¬Ø²Ø¡":5953,"ĠÚ©Ø§ÙħÛĮ":5954,"ĠØ«Ø¨Ø§Øª":5955,"ĠØ§ÙĦÙģ":5956,"ĠÙĩÙħØ³Ø±Ø´":5957,"ĠÚ©Ù¾":5958,"ĠØ³ÙĦØ³ÙĦÙĩ":5959,"ĠØ¬Ø§ÙĪØ§":5960,"ĠØ¢ÙĦÙĪÙħ":5961,"iz":5962,"ĠÙħØ³Ú©ÙĪÙĨÛĮ":5963,"ĠØ¯ÛĮØ³Ú©":5964,"ĠÙĪÛĮÙĦÛĮ":5965,"ĠØ¹Ø¨Ø¯Ø§ÙĦ":5966,"ĠÙ¾ØªØ§ÙĨ":5967,"ĠØªÙĦÙĤÛĮ":5968,"ÙħÙĦÙĦ":5969,"Ø¦ÛĮØ¯":5970,"ĠØ³ÛĮÙĦÙĨØ¯Ø±":5971,"ÙĪØ±ÙĩØ§ÛĮ":5972,"ĠÙħØªØ´Ú©ÙĦ":5973,"Ø§Ù¾ÙĪØ±":5974,"ĠØ±Ø§Ú©":5975,"ĠØªØ¹ÙĦÛĮ":5976,"ĠØªØ§Ø®ÛĮØ±":5977,"ĠØ³Ø±ÚĨ":5978,"ĠÙħØµÙĪØ¨Ùĩ":5979,"ĠÙĤØ·Ø¨":5980,"Ø§Ø¬ÛĮ":5981,"ÙĩÙħØ±Ø§Ùĩ":5982,"ĠØ±ÙĤØ§Ø¨ØªÛĮ":5983,"ĠØªØ§ÛĮÙĦ":5984,"ĠÚ©Ø§Ø¨ÛĮÙĨ":5985,"ÙħÛĮØ§ÙĨ":5986,"Ø³ÙħÙĩ":5987,"ĠÙĩÙħØ§ÙĩÙĨÚ¯":5988,"Ġ*":5989,"Ú¯Ø±ÙĪÙĩ":5990,"ĠØ³ÙĦÛĮÙĤÙĩ":5991,"ÙĪØ³Ùģ":5992,"ĠÙħØ§ÙĩÛĮØª":5993,"ĠÙħÛĮØ¯ÙĩØ¯":5994,"ĠØŃØ¶ÙĪØ±ÛĮ":5995,"Ġst":5996,"ĠØ§Ø¹Ø·":5997,"ĠØªÚ©Ø§ÙħÙĦ":5998,"ĠØ®Ø³ØªÚ¯ÛĮ":5999,"ĠÚ¯Ø±ÙģØªÙħ":6000,"ØŁÂ»":6001,"Ú©ÛĮÙģÛĮØª":6002,"Ø¯ÙĨØ¨Ø§ÙĦ":6003,"ĠÙĪØµ":6004,"ain":6005,"ĠØŃÛĮØ§ØªÛĮ":6006,"ĠÛ±Û³Û²":6007,"ĠÛĮØ§Ø±":6008,"ĠØ§ØŃÙħØ¯ÛĮ":6009,"ĠØ¨Ø§Ø±Ø´":6010,"ĠØªØµØ§Ø¯Ùģ":6011,"ĠØ§Ú©Ø±Ø§ÙĨ":6012,"ĠÙħØ§ÙĨÛĮØªÙĪØ±":6013,"ĠØ¨Ø±Ø§":6014,"ĠÙĦÛĮØªØ±ÛĮ":6015,"ĠØªØ¦ÙĪØ±ÛĮ":6016,"ĠØ³Ø±Ú¯Ø±Ùħ":6017,"ĠØ®Ø§ÙĨÙĪØ§Ø±":6018,"ĠÙĨÚ¯":6019,"Ø¬ÛĮÙĩ":6020,"Ø§ØªÙĦ":6021,"ĠØ´ÙħØ§Ø³Øª":6022,"ĠÙħØ´Ø§Ø¨ÙĩÛĮ":6023,"ĠÙĨÙħØ±Ùĩ":6024,"ĠÙħÙĤØ·Ø¹":6025,"ĠÙħØ·ÙĦØ¹":6026,"ĠØ±ÙĪØ³ØªØ§ÙĩØ§ÛĮ":6027,"ÙĪØ§Ùħ":6028,"Ø´Ø¨":6029,"Ø¬ÙħÙĪØ¹":6030,"Ø´ÛĮÙĨÛĮ":6031,"Ø´ÛĮØ¯":6032,"Ø³Ú©ÙĪ":6033,"ĠØ¨ÙĨØ§ÛĮ":6034,"ĠØªØ±Ø´":6035,"ĠÙĨÙģØ±Ùĩ":6036,"ĠÙ¾Ø±ÙĪØ§ÙĨÙĩ":6037,"ĠØ³ÙĪØ§":6038,"ÙħØ§Ø¹":6039,"ĠØ¢ÙħÙĪØ²Ø§ÙĨ":6040,"ĠÙħØ¬Ø§Ø²Ø§Øª":6041,"ÙĤÙĪÙĩ":6042,"SD":6043,"ĠØ¨Ø±ÙĨ":6044,"Ø§Ø³Ø·":6045,"ĠØ¯Ø§ÙĨØ´Ø¬ÙĪ":6046,"Û±Ûµ":6047,"ĠØ§Ø¨Ø²Ø§Ø±ÛĮ":6048,"ĠÙħØ³ÛĮØŃÛĮ":6049,"ĠÙ¾Ú©ÛĮ":6050,"ĠÛ²Û°Û°Û¶":6051,"Ø§Ø·ÛĮØ³ÛĮ":6052,"ĠØªØµØ§ÙĪÛĮØ±ÛĮ":6053,"ĠÚ©Ø§Ø±Ú¯Ø§Ùĩ":6054,"Ø®ÙĨØ¯":6055,"ĠÚ©ÙĩÙĨ":6056,"ÙĩØ²Ø§Ø±":6057,"ĠÙģØ±ÙĪØ®ØªÙĩ":6058,"ĠØ®Ø§ÙĦØµ":6059,"ĠÚ©ÛĮØ¨ÙĪØ±Ø¯":6060,"ĠÙĤØ§ÚĨØ§ÙĤ":6061,"Ú©Ø³ÙĪØ³":6062,"ĠØ§Ø³Ù¾Ø±Øª":6063,"ÙĩØ§ÛĮØªØ§ÙĨ":6064,"ĠØ®ÙĪØ¯Ø±ÙĪØ³Ø§Ø²ÛĮ":6065,"ØªÙĩ":6066,"ĠÙħØŃØ§ÙģØ¸":6067,"ĠØ§ÙħØ§ÙĨ":6068,"ran":6069,"ĠØ¨Ø°":6070,"ĠÙĤÙĪÙĩ":6071,"Ù¾Ø±Ø¯Ø§Ø²ÛĮÙħ":6072,"ĠÙħÛĮÚ¯ÙĪÛĮØ¯":6073,"ĠÙħØ³Ø¯ÙĪØ¯":6074,"Ø¹ÙĦØ§":6075,"ĠØ¢Ø´Ù¾Ø²":6076,"ud":6077,"ill":6078,"ĠØ³Ø§Ø¹Ø§Øª":6079,"ĠØ§Ø³ØªØ§ÙĨØ¨ÙĪÙĦ":6080,"ĠÙħÛĮØªÙĪØ§ÙĨØ¯":6081,"Ù¾ÙĦÛĮ":6082,"ĠØµØŃØª":6083,"Ø§ÙģÙĦ":6084,"ĠÂ":6085,"ĠÙħØ®ØªØµ":6086,"ÙĨØ¯Ø±Ø§ÙĨ":6087,"Ġe":6088,"ĠØŃÙģØ§Ø±ÛĮ":6089,"ĠAMD":6090,"ĠÙħØ¬Ø³ÙħÙĩ":6091,"âĢĮØĮ":6092,"ĠÙ¾Ø§ÙĪØ±":6093,"ĠÙĦØ²ÙĪÙħ":6094,"ĠØŃÙĤÛĮÙĤÛĮ":6095,"ĠØ¨ÛĮÙĨØ¯Ø§Ø²":6096,"ĠØ¨Ø±Ùģ":6097,"ĠØ±Ø³Ø§ÙĨØ¯Ùĩ":6098,"ĠÙĨØ´Ø³ØªÙĩ":6099,"ĠØ¯Ø§Ø±ÙĪÛĮÛĮ":6100,"ĠÛ¹Û·":6101,"ĠØ§ÙĨØ¯Ú©":6102,"ĠØŃØ¯Ø³":6103,"Ø¹Ø§ÙĨ":6104,"Ø±Ø§Ø³ÛĮ":6105,"Ø¶Ø§ÙĨ":6106,"Ú©ÛĮÚ©":6107,"Ø±ÛĮÚ©Ø§":6108,"ĠÚ©ÙĩÚ©":6109,"ix":6110,"ĠÙ¾ØªØ§ÙĨØ³ÛĮÙĦ":6111,"ĠÛ²Û°Û°Û·":6112,"ĠÚ¯Ø±Ø¯ÛĮØ¯Ùĩ":6113,"Ø³ØªÙħÛĮ":6114,"ĠÚ©Ø§Ø±Ø¨Ø±Ø¯ÙĩØ§ÛĮ":6115,"Ø§Ø³ØªÛĮØ´ÙĨ":6116,"ĠÙģÛĮÙĦÛĮ":6117,"Ú©Ø§ÙĨØª":6118,"ĠØ¹Ú©Ø§Ø³":6119,"ĠÙħØ¨ØªÙĦØ§ÛĮØ§ÙĨ":6120,"ĠÙĤØ¯ÙħØª":6121,"ĠÙĤÙħØ±ÛĮ":6122,"ĠÙĨÛĮÙħÛĮ":6123,"ĠÙĤÙĪØª":6124,"ĠØ¯ÙĪÙĨØ§ÙĦØ¯":6125,"ĠØ®Ø§ÙĨØ¯":6126,"ĠÛ³Û´":6127,"ĠØ¯Ø±Ø¢ÙĪØ±Ø¯":6128,"Ø·ÛĮÙĦÛĮ":6129,"ĠÙĦÛĮÙĨÙĪ":6130,"ĠØ¶Ø±Ø±":6131,"ĠØ³Ø§Ú©ÙĨØ§ÙĨ":6132,"Ø§Ø³Ø±":6133,"ĠØ±ÙĪÛĮØªØ±Ø²":6134,"ĠÙģØ¶Ø§Ù¾":6135,"ĠØ§ÛĮØ¯":6136,"ĠØ§Ø³ØªØ«":6137,"ØªØ±ÙĩØ§ÛĮ":6138,"ĠØ¶Ø®Ø§ÙħØª":6139,"Ø±ÛĮØŃÛĮ":6140,"ĠØ®ÙĪØ²Ø³ØªØ§ÙĨ":6141,"ĠØªØ¯Ø§":6142,"ĠØ¯ÛĮØ§Ø¨Øª":6143,"ĠØµØ§ØŃØ¨Ø§ÙĨ":6144,"ĠÙ¾Ø±ÙģØ±ÙĪØ´":6145,"ĠÙĨØ§ÙħØ´":6146,"ĠÙĨØ±ÙĪ":6147,"ĠØ³ÙĨØ¬Ø´":6148,"ÙĪØ³ÛĮÙĦÙĩ":6149,"ĠSh":6150,"ĠØ¹Ø±Ø§ÙĤÛĮ":6151,"ĠØŃØ§ÙħÛĮ":6152,"ĠØ¹Ø«ÙħØ§ÙĨÛĮ":6153,"ĠÙħØµØ¯":6154,"ĠØ¯ÙĦÛĮÙĦÛĮ":6155,"ĠÙĨÙĪØ¨":6156,"ĠØ´Ø§Ø³ÛĮ":6157,"ĠØ±Ø¯ÛĮÙģ":6158,"Ø¨Ø§ÙĦÙĩ":6159,"ĠÙħØŃÙĪØ·Ùĩ":6160,"ĠÙĨØ§Ø¨ÙĪØ¯":6161,"ĠØªÙĤÙĦ":6162,"ĠÙ¾ÛĮØ³Øª":6163,"up":6164,"ĠØ¹ÙĨØ§":6165,"ode":6166,"ĠØ³ÙĨÛĮ":6167,"ĠÙģØ±ÙħØ§ÙĨØ¯ÙĩÛĮ":6168,"ĠÙħØ§Ø²ÙĨØ¯Ø±Ø§ÙĨ":6169,"ĠØ´Ø§Ø¹Ø±":6170,"ĠÙĩØ³ØªÙĨ":6171,"ØªØ§ÛĮ":6172,"ĠÙĦÙħØ³ÛĮ":6173,"ĠÚ¯ÙĨØ¯":6174,"ĠÚ¯ÛĮÚ¯Ø§ÙĩØ±Øª":6175,"ĠØ¢Ø±Ø§":6176,"ĠØªÙģØ³ÛĮØ±":6177,"ĠØ§Ø±Ø¯ÙĪ":6178,"ĠÙĨØ¯ÙĩÛĮØ¯":6179,"ĠÙĩÛĮØ¨Ø±":6180,"ĠØ¢ÙĦÙģ":6181,"ĠØ±ÙĪØ³":6182,"ĠÙħÛĮØ¯Ùĩ":6183,"ĠÙĦÙĤØ¨":6184,"ĠØ³ÙĪØ¦Ø¯":6185,"ĠÙħÛĮØ¯":6186,"ĠÚ©Ø§ÙĦØ§ÛĮ":6187,"ĠØ§ÙĨØ¯ÛĮØ´Ùĩ":6188,"Ø®ÙĪØ§ÙĩÙħ":6189,"Ġ50":6190,"ĠØºÛĮØ±ÙĤØ§Ø¨ÙĦ":6191,"ĠÙģØ¯Ø±Ø§ÙĦ":6192,"ĠØ¹Ø·Ø±":6193,"Ø³Ú©ÛĮ":6194,"ĠØ´Ú©Ùħ":6195,"Ø¯Ø±Ø¶Ø§":6196,"ĠÙĪÙĦØª":6197,"Ø§Ø²ÙĦ":6198,"Ø¨ÛĮÙĨØ¯":6199,"ĠÙĨØ¯Ø§Ø±Ùĩ":6200,"ĠÙģÙĪÚ©":6201,"ĠÙħØ¹Ø§ØµØ±":6202,"ĠÙħØµÙĪØ¨":6203,"ÙĨØ¬Ø§ÙĨ":6204,"ĠØ®Ø²":6205,"ÙĪØªÙĨ":6206,"ÙĪÙħØªØ±ÛĮ":6207,"ĠØªØ¹Ø·ÛĮÙĦØ§Øª":6208,"ÙħØªØ±ÛĮ":6209,"ĠÙĪØŃØ´Øª":6210,"ĠØ¯ÙĪÛĮ":6211,"ĠÙ¾Ø±Ø¯Ø§Ø²Ø´ÛĮ":6212,"ÙĪÙĪØ¯":6213,"Ú¯ÙĪÙĦ":6214,"ÙĤØ§ÙĨ":6215,"ĠÚ©Ø§ÙħÙ¾ÛĮÙĪØªØ±ÙĩØ§ÛĮ":6216,"ĠÙĨÙģØ¹":6217,"ĠØ³Ø¹ÛĮØ¯":6218,"ĠØ³Ø§ÙĦÙĩØ§ÛĮ":6219,"ĠØ³Ø±Øª":6220,"ĠÙħØ³ÛĮØŃ":6221,"Ø¹ÙĦ":6222,"ĠØŃØ¯ÙĪØ¯ÛĮ":6223,"ÚĨØ±Ø®":6224,"ĠØ¯ÙĪØ§Ùħ":6225,"ĠØ³ÙģÛĮØ±":6226,"ĠÙħØ³ÙĦÙħØ§ÙĨØ§ÙĨ":6227,"Ø·ÙĪØ¨Øª":6228,"ĠÙĩÙħØ³Ø§ÛĮÙĩ":6229,"ĠÙģØµ":6230,"ĠØ§ÙĩØ¯Ø§":6231,"io":6232,"ĠØ³Ø±ÙĤØª":6233,"ĠÚ¯ÙĪØ§ÙĩÛĮ":6234,"ĠÙ¾Ú©ÛĮØ¬":6235,"ĠÚĨØ³Ø¨":6236,"ĠØ³Ú©ÙĪÙĨØª":6237,"ĠØªØµÙħÛĮÙħØ§Øª":6238,"ĠÙħØªÙĨÙĪØ¹ÛĮ":6239,"qu":6240,"ĠØ¹Ø¨Ø¯Ø§ÙĦÙĦÙĩ":6241,"ĠÙĩØ±Ú©Ø¯Ø§Ùħ":6242,"ĠØ±Ø§Ùħ":6243,"ĠÙĩØ§ÛĮØ´":6244,"ĠÙĨØ§Ùĩ":6245,"ĠÙĩÙĦÙĨØ¯":6246,"ĠÚ©Ø§Ø³":6247,"ĠÛ³Û¸":6248,"ire":6249,"ĠÚĨÙĩÙĦ":6250,"Ø¬Ø§ÙĨÛĮ":6251,"ĠØ¨Ø§Ø§ÛĮÙĨ":6252,"ĠÙ¾ÛĮØ§ÙħÚ©":6253,"ĠØ®ÙĪØ§ÙĩØ§ÙĨ":6254,"ĠØªÙħØ¯ÛĮØ¯":6255,"ĠØ¬ÙĩØ´":6256,"Ø¨ÙĪØ±Ø¯":6257,"ĠÛ·Ûµ":6258,"ĠØ¯Ø´Øª":6259,"ĠØºÙħ":6260,"ĠØ³Ø§ØŃÙĦÛĮ":6261,"Ù¾ÙĪ":6262,"Ø²Ø¯ÛĮ":6263,"ĠØ¨Ø±Ø´":6264,"ĠØ³ÙĪÚĺÙĩ":6265,"ĠØ§ÙħØ¶Ø§ÛĮ":6266,"Ú¯Ø±Ø§Ø¯":6267,"ĠØŃÚ©Ø§ÛĮØª":6268,"ĠØ®Ø³Ø§Ø±Øª":6269,"ĠÙģØ±Ø³":6270,"ĠÛ±ÛµÛ°":6271,"ĠÙ¾Ø¯":6272,"ĠØ§ÙħÛĮØ¯ÙĪØ§Ø±Ùħ":6273,"ÛĮØ´Ú¯ÛĮ":6274,"ĠØ§ØªØ±ÛĮØ´":6275,"ĠØ´ÙĩØ±Ø³Ø§Ø²ÛĮ":6276,"ĠØ§Ø¨ÙĦØ§Øº":6277,"ĠÙĨÙĪØ³Ø§ÙĨ":6278,"ĠÙģÙĦØ´":6279,"ÙħØ²Ø¯":6280,"ĠÙħÙĩÙĨØ¯Ø³":6281,"Ø§Ø±Ø³ØªØ§ÙĨ":6282,"ĠÙħÛĮØªÙĪØ§ÙĨ":6283,"ĠÛĮÙĪØªÛĮÙĪØ¨":6284,"ÙģÙĪØ±":6285,"Ø®Ø§Ø·Ø±":6286,"Ø²Ø¯ÙĩÙħ":6287,"ĠÙ¾Ø°ÛĮØ±ÙģØª":6288,"ĠØ§Ø³ØªØ®Ø±":6289,"ĠØ§ØªÙĪÙħØ§ØªÛĮÚ©":6290,"ĠØ±Ø§ÙĨÙĨØ¯Ú¯Ø§ÙĨ":6291,"Ø¹ÛĮØªÛĮ":6292,"ĠØ¨Ø±Ú¯Ø²ÛĮØ¯Ùĩ":6293,"ĠÚ©Ø§Ø´":6294,"ĠÚ©Ø±Ø¯Ø³ØªØ§ÙĨ":6295,"ĠØ±Ø·ÙĪØ¨Øª":6296,"ĠØ§ÙĦÚ©Ø³":6297,"ĠØ¬ÙĪØ§ÛĮØ²":6298,"ĠØ¬Ø§ÙĨØ´ÛĮÙĨ":6299,"ĠØ¨ÙĦÙĪØªÙĪ":6300,"ĠÙħØŃØ§Ø³Ø¨Ø§Øª":6301,"ĠGoogle":6302,"ĠØ§Ú©Ø§ÙĨØª":6303,"ĠÙĤØ§Ø´ÙĤ":6304,"ĠØŃØ§ÙħÙĦ":6305,"ĠØ®Ø§Øª":6306,"ĠØ¨Ø±Ø§Ø¨Ø±ÛĮ":6307,"ĠØ¨Ø±ÙĪÙĨ":6308,"ĠØ±ÙģØªØ§Ø±ÙĩØ§ÛĮ":6309,"ĠÚ©Ø´ÙĪØ±ÙħØ§ÙĨ":6310,"Ø¨ÙĩÙĩ":6311,"ÙģØ¹Ø§ÙĦ":6312,"Ú©ÙĦØª":6313,"ĠØ±Ø²Ø±ÙĪ":6314,"ĠØµØ¹ÙĪØ¯":6315,"ĠØ³ÙģØ±ÙĩØ§ÛĮ":6316,"ĠÙħÙĩÙħØ§ÙĨ":6317,"ock":6318,"ĠØ§ÙĪØ§Ø³Ø·":6319,"ĠØ±ÙĤØµ":6320,"Ø¯ÙĪØ±":6321,"ĠÙģÙĪØ±Ø¯":6322,"ĠØ´Ø¹Ø§Ø±":6323,"ÙĪÛĮØ¬":6324,"ĠØ´Ø§Ø¯ÛĮ":6325,"ĠØªÙģØ±ÛĮØŃ":6326,"ĠØ³ÙĪØ§Ø±ÛĮ":6327,"ĠÙħÚ©Øª":6328,"ĠÛĮÚ©Ø¨Ø§Ø±":6329,"ĠÙģØ±ÙĪØ´ÛĮ":6330,"Ø±ÛĮØ¯":6331,"ĠÚ©ÙĪØ§ÙĨØª":6332,"ĠØ§ÙħØ±ÛĮ":6333,"ĠØ¨Ø§ÙĦÙĤÙĪÙĩ":6334,"ØªÛĮÙĪ":6335,"ĠÛ¶Û°Û°":6336,"ĠÙħÙĨØŃØµ":6337,"ĠØ§Ø·ÙĦØ§Ø¹ÛĮ":6338,"ĠØ´ÛĮØ¹Ùĩ":6339,"Ø§Ú©Øª":6340,"ĠÛ´Û²":6341,"ĠÙħØ³Ú©ÙĪ":6342,"ĠØ²Ø¨Ø§ÙĦÙĩ":6343,"ĠÙħÛĮØ¨Ø§Ø´Ø¯":6344,"ĠÚ©Ø§Ø±Ø¢ÙħØ¯":6345,"ĠÚ©Ø§ÙĪØ´":6346,"ĠÙħØ¯Ø§Ùħ":6347,"ĠÚ¯Ø±Ø§ÛĮØ´":6348,"ĠÙħØ§Ø±Øª":6349,"ĠAl":6350,"ĠÙĤØ§Ø¬Ø§Ø±":6351,"ĠØªØ§Ø±":6352,"ĠØ±ÙĤØ¨Ø§ÛĮ":6353,"ĠÙħØ³ÙĦÙħØ§ÙĨ":6354,"ĠÙĪÙĦØ§ÛĮØª":6355,"ĠØ®Ø§ÙĨØ¯Ø§ÙĨ":6356,"ÙħÛĮÙħÛĮ":6357,"ĠØ²Ø§ÛĮÙħØ§ÙĨ":6358,"ĠÙħØ³ØªÙħ":6359,"ĠÙħØ±Ø²ÛĮ":6360,"ĠØ®ÙĪØ¯Øª":6361,"ĠØ¯ÙĨØ¯Ùĩ":6362,"Ø¨Ø²Ø±":6363,"ĠØ¬ÛĮÙħØ²":6364,"ĠØ®Ø¯ÙħØ§ØªÛĮ":6365,"ĠÙħØªÙħØ§ÛĮØ²":6366,"Ú©Ø§Ø±Øª":6367,"Ú¯ÛĮØ±ÛĮØ¯":6368,"ĠØ¸ÙĩØ±":6369,"ĠØ§Ø¬Ø²Ø§ÛĮ":6370,"ĠØªØ§Ùħ":6371,"ĠÙħØ³ÛĮØ±ÙĩØ§ÛĮ":6372,"ĠÚ©ÙĦØ§Ùħ":6373,"ĠÙĤØ±ÙĨØ·":6374,"ĠÙħÙĩØ§Ø±":6375,"Ø§Ø¯ÙĦÙĩ":6376,"ĠÛ¹Û¶":6377,"ĠØ´ÛĮØ±ÛĮÙĨÛĮ":6378,"Ú¯Ø²Ø§Ø±":6379,"ĠØ§ÙħÛĮØ¯ÙĪØ§Ø±ÛĮÙħ":6380,"ØªÙĨØ§Ø¨":6381,"ĠØ¨Ø±ÛĮØ²":6382,"ĠÙħØ±Ø¯ÛĮ":6383,"ĠØ¢ÙĤØ§":6384,"ĠØ¨Ø®ÙĪØ§ÙĩÛĮÙħ":6385,"ĠÙĪÛĮÙĦÛĮØ§Ùħ":6386,"ĠØ§Ø³ØªÙĪØ¯ÛĮÙĪ":6387,"ÙĦÙĨ":6388,"ĠØ¯Ø§ÙĪØ±":6389,"ĠÚ¯ÙħØ±Ú©":6390,"ĠÙħÙĪØ§ÙĨØ¹":6391,"ĠÚ©ÛĮØª":6392,"ĠØ§ÙĤØ¯Ø§ÙħÛĮ":6393,"ÙģØ±ÙĪØ´":6394,"ĠØªØ±Ú©ÛĮØ¨Ø§Øª":6395,"ĠØ¨ÙĨÙĪÛĮØ³ÛĮØ¯":6396,"ile":6397,"Ø®ÙĪØ§ÙĩÛĮ":6398,"ĠÙħØ®Ø²ÙĨ":6399,"ĠÛ³Û·":6400,"ÙĦØ§ÛĮ":6401,"ĠÙħØŃØ¯ÙĪØ¯ÛĮ":6402,"ĠØ´ÙħØ³ÛĮ":6403,"Ø¹Ø§Ø±":6404,"ĠØ²Ø®Ùħ":6405,"ĠØ¨Ú¯Ø°Ø§Ø±ÙĨØ¯":6406,"ĠÙħØªØ£":6407,"ĠØ§ÛĮØ±Ø§Ø¯":6408,"Ø¢ÙĪØ±Ø¯Ùĩ":6409,"ÙģØ±Ø¶":6410,"Ø¬Ø§Ø¹":6411,"ĠØ§Ú©Ø«Ø±ÛĮ":6412,"ĠØ§Ø®Ø±Ø§Ø¬":6413,"ĠÙ¾ÛĮØ±ÙĪØ²":6414,"ĠØ®Ø±Ø¯Ùĩ":6415,"ĠØ§Ø²Ø¬ÙħÙĦÙĩ":6416,"ĠØ§Ø¨Ø±Ø§ÙĩÛĮÙħ":6417,"ĠØ¨Ø¹ÙĨÙĪØ§ÙĨ":6418,"Ù¾Ø§ÛĮÙĩ":6419,"ĠØ¯Ø±Ø¨Ø±":6420,"ĠØ³ÙĨÚ¯ÛĮ":6421,"ĠØ¨ÙĩØ§ÙĨÙĩ":6422,"ĠØ®Ø¯":6423,"Ú©ÙĪÛĮÙĨ":6424,"Ø§ÙħÙĨ":6425,"ĠØ·Ø§ÙĦØ¨Ø§ÙĨ":6426,"ĠØ§ÙĨØ¯Ø§Ø²":6427,"ĠØªØ¹Ø¬Ø¨":6428,"ÙĨÙĦ":6429,"ĠØ®Ø·Ø§":6430,"Ø´ÙĨØ§Ø³Ø§ÙĨ":6431,"ĠØ±ÙģØªØ§Ø±ÛĮ":6432,"ĠÙģØ³Ø§Ø¯":6433,"Ú©ÙĨØ§Ø±":6434,"ĠÙĤØ±ÙĨØ·ÛĮÙĨÙĩ":6435,"ĠÛĮØ§Ø¯Ø´Ø¯Ùĩ":6436,"ĠØªØ®ÙĦÛĮÙĩ":6437,"ĠØ¯ÙģØ§Ø¹ÛĮ":6438,"ĠÙħØ¹ØªØ±":6439,"ĠÙģØ±ÙħØª":6440,"ĠÙ¾Ø§Ø±Ø§Ùħ":6441,"com":6442,"ĠØ¹Ø¸":6443,"ĠØ¨Ø§Ø±Ø¯Ø§Ø±":6444,"ĠØ§Ø¬ØªÙĨØ§Ø¨":6445,"ĠÙĦÛĮÙĨÙĪÚ©Ø³":6446,"ĠÚ©Ø§ÙĨÙĪÙĨ":6447,"ĠÚ©Ø§Ø±Ú¯Ø±":6448,"Ġ18":6449,"ĠÚĨØ´ÙħÚ¯ÛĮØ±ÛĮ":6450,"ÙħÙĤ":6451,"Ø±Ø³ÙĨØ¬ÛĮ":6452,"ĠØ¹ÙĦØ§ÙĤ":6453,"ĠØ±ÙĪØŃÛĮ":6454,"ĠEn":6455,"ĠØ¯Ø§Ø¯Ùħ":6456,"ĠÙĨØ¸Ùħ":6457,"ĠÙħØ·ÙħØ¦ÙĨØ§":6458,"Ø¨Ø±Ùĩ":6459,"ĠØ¬Ø¨ÙĩÙĩ":6460,"ĠØ¨Ú¯ÙĪÛĮÙħ":6461,"ĠÛ±Û²Û¸":6462,"ĠØ¬Ø²ÛĮ":6463,"ĠØªØ¹ÙĦÛĮÙĤ":6464,"ÛĮØ§Øª":6465,"ĠØªÙģØ±ÛĮØŃÛĮ":6466,"Ġpro":6467,"Û¹Û¹":6468,"ÙħØ´":6469,"ĠÙĨØ¯Ø§Ø´ØªÙĨØ¯":6470,"ĠØ±ÙĪÛĮÙĩ":6471,"ĠÙħØ¬Ø²Ø§":6472,"ĠØ±ØµØ¯":6473,"Ø¢Ú¯Ø§Ùĩ":6474,"ĠÙħØ¯ÛĮØ±Ú©ÙĦ":6475,"ĠØ³Ø®ÙĨØ§ÙĨ":6476,"ĠØ§Ø¹Ø²Ø§Ùħ":6477,"ĠØ§Ø®ØªØ±Ø§Ø¹":6478,"Ø²ÙħÛĮÙĨÙĩ":6479,"ĠÛ¶Ûµ":6480,"ĠØ²ÙĨØ¯Ú¯":6481,"ĠØ§ÙģØ³Ø±":6482,"ĠØ¬ÙĪØ§ÙĨÛĮ":6483,"ĠÙħÚ©Ø±":6484,"Ø§Ø±ØªÙħØ§ÙĨ":6485,"Ø§ÙħÛĮÚ©":6486,"ĠØªÛĮØ²":6487,"ĠÚ¯ÙģØªÛĮÙħ":6488,"ÙĨØ¸ÛĮØ±":6489,"ĠBl":6490,"ĠØ³Ø±Ú©ÙĪØ¨":6491,"ĠØ§ÙģØ²ÙĪÙĨ":6492,"ÙĪÙĦÛĮÙĨ":6493,"ĠØ¬Ø§ÙĨØ¨":6494,"ĠÛ±Û²Û°":6495,"ĠÙĩÙħØ¯Ø§ÙĨ":6496,"ĠÚ¯ÙģØªÙĨØ¯":6497,"Ø±ÙĪØŃ":6498,"ĠÙĤØ²ÙĪÛĮÙĨ":6499,"ĠØ³ÙĪØ§ØŃÙĦ":6500,"ĠØ¬ÙĪØ§ÙħØ¹":6501,"ĠØ¬Ø³ÙħÛĮ":6502,"ĠØªØ±ÙħØ²":6503,"ĠØ´Ø¹Ø¨Ùĩ":6504,"ĠØ¯Ø®Ø§ÙĦØª":6505,"ĠØ§Ø¬Ø¨Ø§Ø±ÛĮ":6506,"ĠØ¯Ø¨ÛĮØ±Ø³ØªØ§ÙĨ":6507,"ĠÛĮØ§Ø±ÛĮ":6508,"ĠØªØ§Ø³ÛĮØ³Ø§Øª":6509,"ĠØ¯ÙĨØ¨Ø§ÙĦÙĩ":6510,"ĠÙĤØ§ÛĮÙĤ":6511,"ÙħØ¯Ø§Ø¯":6512,"ĠØ§Ø®ØªÙĦ":6513,"ĠÙħÙĪØ²ÛĮÚ©":6514,"ĠØ¨Ø§Ø²Ø±Ø³ÛĮ":6515,"ĠØ§ÛĮØ§Ùħ":6516,"ĠÚ©ÙĪÚĨÚ©ØªØ±":6517,"ĠÙĨØ¯Ø§Ø±Ùħ":6518,"ĠÙĨØ¸Ø±Ø³ÙĨØ¬ÛĮ":6519,"ĠØ¯ÙĪØ³ØªÛĮ":6520,"ĠÚ¯ÛĮØ±ÙĨØ¯Ùĩ":6521,"ĠØ¢ÛĮØ¯":6522,".Â»Â»":6523,"ĠØ¢ÙĨØ¯":6524,"ĠØ¯Ø³ØªØ§ÙĪØ±":6525,"ĠTh":6526,"ĠÙģØ¶Ø§ÙĩØ§ÛĮ":6527,"ÙĨÙħØ§":6528,"ĠØªÙĪØ¬ÛĮÙĩ":6529,"ĠÙĩÙĨØ±ÙĩØ§ÛĮ":6530,"ĠØ®ÙĪØ´Ùħ":6531,"ĠÙĤØ¨Ø±":6532,"ĠÙ¾ÙĦÙĩ":6533,"ĠØ¬Ø§ÛĮÚ¯Ø²ÛĮÙĨÛĮ":6534,"ĠØªØµØ§Ø¯ÙģÛĮ":6535,"ĠØ¨Ø´ÙĨ":6536,"ang":6537,"Ø®ÙĪØ¨ÛĮ":6538,"ĠØºØ§ÙģÙĦ":6539,"ĠØºÙĦØ·":6540,"ĠØªÙħØ¯ÙĨ":6541,"ĠØ³Ø±ÙĨÙĪØ´Øª":6542,"ord":6543,"ĠØªØ´Ø±ÛĮØŃ":6544,"ĠÙģØ±Ø§Ø±ÛĮ":6545,"ÙĪÛĮÚĨ":6546,"ÙħØ¬ÙħÙĪØ¹":6547,"Ú¯Ø±Ø¯ÛĮ":6548,"Ø¨Ø®Ø´Ø¯":6549,"eb":6550,"ĠÚ¯Ø´ØªØ§ÙĪØ±":6551,"ĠÙħÚ©Ø§ÙĦÙħÙĩ":6552,"ĠÙ¾ÛĮØ±ÙĪÛĮ":6553,"ĠÙĨØ§Ú¯ÙĩØ§ÙĨÛĮ":6554,"ØºØ±":6555,"ry":6556,"ĠØ§Ø²Ø·":6557,"Ø²ÙħÛĮÙĨÛĮ":6558,"ĠÙĩØ§Ø±Ø¯":6559,"ĠÙģØ±ØµØªÛĮ":6560,"Ø±ÙĪÛĮÛĮ":6561,"ĠØ¨Ø´ÙĪØ¯":6562,"ĠØ§Ú©Ø«Ø±ÛĮØª":6563,"ĠØ´ÙĦÙĪØº":6564,"ĠÙħØ§ÙĦÛĮØ§ØªÛĮ":6565,"ĠØªÙģØ§ÙĩÙħ":6566,"ĠÚ©ÙĪÚ©":6567,"ĠÙ¾ÙĪØ´ÛĮØ¯Ùĩ":6568,"ĠÙĤØ±Øµ":6569,"ĠØ¯ÛĮÙĪÛĮØ¯":6570,"ĠØ¨Ø±Ø³ÙĨØ¯":6571,"ĠØ§Ø¦Øª":6572,"ĠØ³Ø±Ø§Ø³Ø±ÛĮ":6573,"ĠØ¯Ú©ÙĪØ±":6574,"ĠØ¹ÛĮÙĨÚ©":6575,"ĠØ¢ÙħÛĮØ²":6576,"ĠÙĦØŃØ¸":6577,"ĠØ±ÙĪØ¯Ùĩ":6578,"ØªÙĨÙĩØ§":6579,"ĠØºØ§Ø±":6580,"ĠÙĨØªÙĪØ§ÙĨ":6581,"ĠÙĪØ³ÛĮØ¹ÛĮ":6582,"ĠØ®Ø§Ø·Ø±Ùĩ":6583,"ĠÙĨÚ©":6584,"ĠÙħØªÙĤØ§Ø¶ÛĮØ§ÙĨ":6585,"ĠØ§ÙĨØªØ®Ø§Ø¨ÛĮ":6586,"ÙĪÙĨØ²ÛĮ":6587,"Ø´Ø§Ø¯":6588,"ĠØªØ¬ÙħØ¹":6589,"ĠØ¢Ø¨Ø´Ø§Ø±":6590,"ĠÙĦØ§Ú©":6591,"ĠØ§ÙħÙĦØ§Ú©":6592,"ØŃØ¯":6593,"ĠØ¨Ú¯ÙĪÛĮÛĮØ¯":6594,"ĠØ§ÙĪØ¨":6595,"Û°Û±Û":6596,"ĠØ·Ø±Ø§ØŃØ§ÙĨ":6597,"ĠØ§ÙĦÙħ":6598,"ĠØ¯Ø±Ø§Ùħ":6599,"ĠØ³Ø±ÙģÛĮØ³":6600,"ĠØ¢ÙĦÙĪÙħÛĮÙĨÛĮ":6601,"ĠØ¹ÙĤÙĦ":6602,"ĠÚ©ÙĨÛĮÙĨ":6603,"³Û°":6604,"Û°Û²":6605,"Ø¹Ø§ØªÛĮ":6606,"ĠØ§ÙĦØ²Ø§Ùħ":6607,"Ø´Ø¯ÛĮØ¯":6608,"ĠØ²ØŃ":6609,"Ø§ÙĦÛĮØ²":6610,"ĠØ¨ØµØ±ÛĮ":6611,"ĠÚ©Ø§Ø¯Ø±":6612,"ĠÙ¾Ø§Ø±ÙĦÙħØ§ÙĨ":6613,"Ø¯ÙĩØ§ÛĮÛĮ":6614,"ĠÙħØ¨Ø§ØŃØ«":6615,"ĠØ¢Ø³ØªØ§ÙĨÙĩ":6616,"ÙĪÙĪ":6617,"ĠÙĩÚ©Øª":6618,"ĠØ´Ø§ÙĨÙĩ":6619,"ĠØ³Ø±ÙħØ§":6620,"ĠÙĪØ§Ø¨Ø³ØªÚ¯ÛĮ":6621,"ĠÙģÙĪÚ©ÙĪØ³":6622,"ĠÛµÛµ":6623,"ĠØ´Ø§ÛĮØ¹Ùĩ":6624,"ĠØ§Ø¹ØªØ±Ø§Ø¶Ø§Øª":6625,"Û°Ûµ":6626,"'s":6627,"ĠØ¬ÙĦØ¯":6628,"ĠØ¯Ø¨ÛĮ":6629,"ĠÙħØºÙĨ":6630,"11":6631,"ĠØ¸Ø±ÛĮÙģ":6632,"Ø¨Ø®Ø´ÛĮ":6633,"ĠØ®ØµÙĪØµØ§":6634,"ĠÚ©Ø§ÙĦØ±ÛĮ":6635,"ĠÙħØ¯ÙĨÛĮ":6636,"ĠÙĩØ§Ø±":6637,"ĠÙħØ§ÛĮÚ©ÙĦ":6638,"ĠØ§ÙĪØ³Øª":6639,"ĠÙ¾ÙĦØ§Ø³ØªÛĮÚ©ÛĮ":6640,"ĠÙ¾Ø§ÛĮØ¯Ø§Ø±ÛĮ":6641,"ĠÙĩÙħØ§ÛĮØ´":6642,"ÙĪØ§Ø³":6643,"ĠØ¨Ø®ÙĪØ§ÙĩØ¯":6644,"ĠØ±ÙĪÛĮØ¯Ø§Ø¯ÙĩØ§ÛĮ":6645,"ĠÙħØ§ÙĩØ§ÙĨÙĩ":6646,"ĠÙĩÙħÛĮØ´Ú¯ÛĮ":6647,"ÙĪÙĨØ¯ÛĮ":6648,"ĠÙģØ±ÙĤ":6649,"ĠØ³ÙĦØ·ÙĨØªÛĮ":6650,"ĠÙĤØ§Ø¶ÛĮ":6651,"ĠØ¯Ú¯Ø±":6652,"ĠØ¯ÙħÙĪÚ©Ø±Ø§Øª":6653,"ĠÙĤÙĦÙĩ":6654,"ĠØ¶Ø±ÛĮØ¨":6655,"ĠØµØ¨ØŃØ§ÙĨÙĩ":6656,"ĠÛ²Û°Û°Ûµ":6657,"ĠÚ©ÛĮØ³Ùĩ":6658,"ĠÙĨØ®ÙĪØ§ÙĩÛĮØ¯":6659,"ew":6660,"Ø¬ÛĮÙĨ":6661,"ĠÙĤØ¶Ø§ÙĪØª":6662,"ĠÙĩÙħÛĮÙĨØ·ÙĪØ±":6663,"ĠÙĨØ´Ø±":6664,"ĠÚ©Ø§Ùģ":6665,"ĠØªØ¯Ø±ÛĮØ¬":6666,"Ø±Ø§Ùħ":6667,"ĠØ®Ø§ØµÛĮØª":6668,"ĠÙ¾ÙĦØ§Ø³ØªÛĮÚ©":6669,"ĠØ±Ø³Ø§ÙĨ":6670,"ĠØ±Ø§ÙĩØ¨Ø±Ø¯":6671,"ĠÙħÙĨØ§Ø³Ø¨Øª":6672,"ĠØ±ÙĤØ¨Ø§":6673,"Ø§ÙĩÙĪ":6674,"ĠÙħÚ©Ø²ÛĮÚ©":6675,"ĠÙħØ³Ø§ÙģØª":6676,"ĠØªØµØ±Ùģ":6677,"ĠÙħÙĨØ´":6678,"ĠEx":6679,"Ù¾ÙĪØ±Øª":6680,"ĠØ¯Ø±Ø®Ø´Ø§ÙĨ":6681,"ĠÙĨÙĩÙħ":6682,"ĠÙ¾Ø®Øª":6683,"ĠÙģØ±Ø§Ø²":6684,"Ø°ÛĮ":6685,"Ù¾Ø±ÙĪ":6686,"ĠØ§Ú©ØªØ´":6687,"ĠØ¨Ø±Ø³Ø§ÙĨ":6688,"ÙħÛĮØ¯Ùĩ":6689,"ĠØªØ®ÙĦÙģ":6690,"ĠØ³Ø±ÙħØ±Ø¨ÛĮ":6691,"ĠØ¨ÛĮØ§ÛĮ":6692,"ĠØ¨ÛĮÙģØª":6693,"ĠØ¨ÙĦÙĪØªÙĪØ«":6694,"ĠÙħØ¹Ø¯Ùĩ":6695,"ĠØ®ÙĪØ¯Ø±Ø§ÙĨ":6696,"ĠÙĪÛĮØ¯ÛĮÙĪÛĮ":6697,"ĠØ§Ø³ØªØŃ":6698,"ĠÚĨØ´ÙħØ§ÙĨ":6699,"ĠØ§Ú¯Ø²":6700,"ĠØ°ÙĪØ¨":6701,"ĠÙģØ¶Ø§ÙĨ":6702,"ÙĨØ±":6703,"ĠÙħÙĪÙĩØ§ÛĮ":6704,"ĠØ¢ÙħØ§Ø±ÛĮ":6705,"ĠØ§Ø³ØªØ¯":6706,"ĠØµØ§Ùģ":6707,"ĠØ¨Ø±ØªØ±ÛĮÙĨ":6708,"ĠØªØ¹Ø·ÛĮÙĦÛĮ":6709,"Ú©ÙĪØ³":6710,"ĠØ´ÙĨØ§Ø³ÛĮ":6711,"ĠÚ¯Ø±ÙħØ§":6712,"ĠØ±Ø§Ø¯ÛĮÙĪÛĮÛĮ":6713,"ĠÛ±Û³Û¹Û¹":6714,"Ù¾Ø°ÛĮØ±Ø¯":6715,"ĠÛ¸Û°Û°":6716,"ĠØ¨Ø§Ø¨Ø§":6717,"ĠÛ·Û°Û°":6718,"ĠØŃÙģØ±Ùĩ":6719,"ĠØ³Ø§Ø±":6720,"Ú©ÛĮÙĪ":6721,"ĠØ¬Ø¯Ø§ÛĮÛĮ":6722,"ĠØ±ÙģØ§Ùĩ":6723,"ĠÙħÙĪØ¬ÙĪØ¯Ø§Øª":6724,"ĠØ¨ÛĮØ³ØªÙħ":6725,"ÛĮØ¯Ø±":6726,"ĠØ¬Ø²Ø§ÛĮØ±":6727,"ĠØ¯Ø±Ø¨Ø§Ø±":6728,"ÙħØ¬ÙħÙĪØ¹Ùĩ":6729,"ĠÙ¾Ø§ÛĮØ´":6730,"ÙģØ³ÛĮ":6731,"ĠÙĨÙħÙĪØ¯Ø§Ø±":6732,"ĠØ®Ø¯Ø§ÙĪÙĨØ¯":6733,"ĠÙĩÙĪØ±ÙħÙĪÙĨ":6734,"ĠØ§ÙĦÙĤØ§":6735,"ĠÚ©ÙĨÚ©ÙĪØ±":6736,"ĠÛ±Û³Û³Û":6737,"Ġr":6738,"ĠÙģÙĪØ±ÛĮ":6739,"ĠØ¶Ùħ":6740,"ĠÙģØ´":6741,"ĠÚĺÙĨØªÛĮÚ©ÛĮ":6742,"ĠØ§Ø±Ú©":6743,"ĠØŃÙĪØ§Ø³":6744,"ĠÙħØ±Ø²ÙĩØ§ÛĮ":6745,"ĠØªØ±Ø¯ÛĮØ¯":6746,"ĠÙĩÚ©":6747,"Ù¾Ø±Ø¯Ø§Ø®Øª":6748,"ĠÙĨØµÙģ":6749,"ĠØ®ÛĮØ±Ùĩ":6750,"ĠØ³Ø¨Ø²ÛĮØ¬Ø§Øª":6751,"ĠØªØ§Ú©":6752,"Ø¯Ø§ÙĨÙħ":6753,"ĠÙħØªØ¯Ø§":6754,"ĠØ·ÙĦØ¨":6755,"ÙĪÛĮØ§ÙĨ":6756,"ĠØ³Ú©ÙĪØª":6757,"ĠÚ¯ÙĪÛĮØ§":6758,"ĠÚ©ÛĮØ´":6759,"ĠØ·Ø±ÙģØ¯Ø§Ø±":6760,"ĠÚ¯Ø³Øª":6761,"ĠØ§Ø¯ÛĮ":6762,"ĠØ¯Ø±ÙĨÙĩØ§ÛĮØª":6763,"ÙĪØ³Ùĩ":6764,"Ø·ÙĪØ¨":6765,"ĠÚ©ÙĨØ³Ø±":6766,"ĠØ§Ø¨Ø¯Ø§":6767,"ĠØ¨ÙģÙĩÙħ":6768,"ĠØ§Ø¯Ø±":6769,"ĠÙĤÙĩØ±ÙħØ§ÙĨØ§ÙĨ":6770,"ĠØªØ±Ø§Ú©ÙĨØ´":6771,"ĠÚ©Ø´ÛĮ":6772,"ÙģÙĪØ±Ø¯":6773,"ĠØªØºÛĮÛĮØ±ÛĮ":6774,"ØºÛĮØ¨":6775,"ĠØ·Ø±ÙģÛĮÙĨ":6776,"ÙħØ§Ø±":6777,"ĠØ§Ø³ØªÙĤØ±Ø§Ø±":6778,"ĠÙ¾ØªÙĨØª":6779,"ĠÚ¯ÙħØ§ÙĨ":6780,"omp":6781,"ĠØ¨Ø±Ø³ÛĮØ¯":6782,"ĠØ§Ø±ØªÙĤØ§Ø¡":6783,"ĠØªØ®ØµÛĮ":6784,"ÙĪÛĮØ¯ÛĮØ§":6785,"ĠÙ¾Ø±ÙĪØ³Ùĩ":6786,"ĠÚ©Ø¬Ø§Ø±ÙĪ":6787,"ĠÙħØŃÙħØ¯Ø±Ø¶Ø§":6788,"ite":6789,"Ú©Ø±ÛĮÙ¾Øª":6790,"ĠÙħÙĨØµÙĪØ¨":6791,"Ġ25":6792,"ĠÙģØ±Ø§Ú¯ÛĮØ±":6793,"ĠØ§ÛĮØ³ÙĪØ³":6794,"ĠÙĩÙĨØ¯ÙĪ":6795,"ĠØ²Ø±":6796,"ĠÙĩÙĪØ§Ø¯":6797,"ĠØ¨Ø§Øª":6798,"ĠØ¹Ø¶ÙĦØ§Øª":6799,"ĠØªØŃØ³ÛĮÙĨ":6800,"Ú¯Ø±Ø¯ÙĨØ¯":6801,"ĠØ§Ø³Ú©Ø±":6802,"ĠØ§ÙĨÙĤ":6803,"ĠØ¹ÙĨØ§ÙĪÛĮÙĨ":6804,"ĠØ¢Ø´Ù¾Ø²Ø®Ø§ÙĨÙĩ":6805,"ĠÙĨÙĤØ´ÛĮ":6806,"ĠAd":6807,"ĠØ³ÙĪÙĨ":6808,"ĠÙħÙĦØ§ØŃ":6809,"ÛĮØ¯ÙĪÙĨ":6810,"ĠØªØ¹ÙħÛĮØ±Ø§Øª":6811,"ĠØ§ØŃØªÛĮØ§Ø¬":6812,"ĠÚ©ÙĪÚĨÙĩ":6813,"ĠØ³ÙĦÙĪ":6814,"ĠØ®Ø±ÛĮØ¯Ø§Ø±":6815,"ĠØ§ÙĨÙĤÙĦØ§Ø¨ÛĮ":6816,"ep":6817,"ĠØ´Ø±ÛĮÚ©":6818,"ĠØ³ÛĮØ³ØªÙħÛĮ":6819,"ĠØªØ³ÙĦØ·":6820,"ĠÙĤØ§Ø±":6821,"Ø§ÙĤØª":6822,"ĠØŃØ¯ÙĪØ¯Ø§":6823,"ĠØ±Ø§Ø¨Ø±Øª":6824,"40":6825,"ĠØªÙĨÙģØ³":6826,"Ø³Ø§ÙĦÛĮ":6827,"ĠÙ¡Ù":6828,"ĠÙĨÙħØ§ÛĮØ§ÙĨ":6829,"Ú©ÙĨØ¯Ùĩ":6830,"ĠÚ¯Ø±Ø¨Ùĩ":6831,"ĠÙħÛĮØ²Ø¨Ø§ÙĨÛĮ":6832,"ĠÚ©ÙħÚ©ÛĮ":6833,"Ø¨Ø²Ø±Ú¯":6834,"ĠÙ¾Ø±Ø·Ø±Ùģ":6835,"ĠØ¨ØªÙĪÙĨ":6836,"ĠØ§Ø³Ú©Ø§Øª":6837,"ĠÙħÙĪØ±Ø¯ÙĨØ¸Ø±":6838,"ÙĨÛĮØ§Ø²":6839,"ĠÙħØ«Ø¨ØªÛĮ":6840,"ĠØ§Ø³ØªØ¯ÙĦØ§ÙĦ":6841,"ĠÚ©Ø´ÙĪØ±ÙĩØ§ÛĮÛĮ":6842,"ĠÙģØ±Ø³ØªØ§Ø¯":6843,"ĠÙħØ´Ø®ØµÙĩ":6844,"Ø§Ú©Ø±":6845,"ĠØ²ÛĮØ³ØªÛĮ":6846,"ĠØ¯ÛĮÙ¾ÙĦÙħØ§Øª":6847,"ĠØ±Ø§Ø³":6848,"ĠØ±Ø§Ø²":6849,"Ø¬ÙħÙĩÙĪØ±ÛĮ":6850,"ĠØ¨Ù¾Ø±Ø¯Ø§Ø²ÛĮØ¯":6851,"ĠÙĩØ³ØªÛĮ":6852,"ĠÚ©Ø§Ø±Ø´":6853,"ĠØ§ÙĨÙĪÛĮØ¯ÛĮØ§":6854,"ĠØ´ÙĦÛĮÚ©":6855,"ĠÙħÛĮØ§ÙĨÛĮ":6856,"Ø³Ø§ÙĦÙĩ":6857,"ĠØ¨Ú©Ø´Ø¯":6858,"ĠØ§Ø¹Ø¶Ø§":6859,"Ú©ØªØ§Ù¾":6860,"Ø®ÙĪØ§ÙĨØ¯":6861,"ĠØªÙģÚ©ÛĮÚ©":6862,"ĠØ¢Ø±Ø§ÛĮØ´":6863,"ĠØ§ÙĨØªØ®Ø§Ø¨Ø§ØªÛĮ":6864,"12":6865,"ĠØ¨Ø´ÙĨØ§Ø³":6866,"Ġfor":6867,"ĠØ¨Ø±ÙĪÙĨØ¯":6868,"Ø³Ø§ÙĨØ³":6869,"ÙĨÙĪÙĪ":6870,"ĠØ§Ø«Ø±ÛĮ":6871,"ĠØ¨Ø±Ùħ":6872,"ĠÙħÙĪØ¨Ø§ÛĮÙĦÛĮ":6873,"ĠÙĩÙĪÙħ":6874,"ĠØ§ÙĨØµ":6875,"ĠØ¯Ø±ÙĨØ¸Ø±":6876,"ĠÙħØ¹ÛĮØ§Ø±":6877,"ĠØ§Ø²Ø´":6878,"CD":6879,"ice":6880,"Û°Û´":6881,"ĠÙĪÙĤØ§ÛĮØ¹":6882,"Ù¾Ø²Ø´":6883,"ĠÙĨÚ¯Ø±ÙģØªÙĩ":6884,"Ø§Ø¨ÛĮØ¯":6885,"ĠØªÙĪÛĮÙĪØªØ§":6886,"ĠÙĨØ§ÙĪÚ¯Ø§ÙĨ":6887,"ĠØªÙĪÙĦÛĮØ¯Ø§Øª":6888,"ĠÙĨØ§Ø´ÙĨ":6889,"ĠØ®ÙĪØ¯Ú©Ø´ÛĮ":6890,"ĠÙħØ±Ø§ÙĤØ¨":6891,"ĠÙĨØŃÙĪÛĮ":6892,"ĠØ¢Ø³ÛĮØ§ÛĮÛĮ":6893,"ĠÙħØŃÙĦÙĪÙĦ":6894,"ĠØ¯Ø§Ø¯ÛĮÙħ":6895,"ĠÛ´Û´":6896,"ĠØŃØ§ÙģØ¸":6897,"ĠØŃØ§ÙĦÛĮÚ©Ùĩ":6898,"ĠØ¬Ø§Ø¨Ùĩ":6899,"ĠØ§ÙĪÙĦÛĮ":6900,"ĠÙħÙĤØ±Ø±":6901,"ĠÙ¾Ø±ÙĨØ¯Ú¯Ø§ÙĨ":6902,"ĠØ¨Ø¯Ø§ÙĨÛĮÙħ":6903,"ĠØ«Ø±ÙĪØªÙħÙĨØ¯":6904,"ĠØ²ÛĮØ§ÙĨ":6905,"ÙģÙĩÙħ":6906,"ĠØªØ´Ø¯ÛĮØ¯":6907,"ĠØ±Ø³Ø§ÙĨØ¯ÙĨ":6908,"ĠØ±ÙģØªÙħ":6909,"ĠØ§Ø³Ø¨Ø§Ø¨":6910,"Ø§ÙĦÛĮØ³Øª":6911,"ĠØ§ÙĪÚ©Ø±":6912,"ØŃØ¯ÙĪØ¯":6913,"ĠCore":6914,"ĠØ¢Ø±ÛĮ":6915,"Ú¯ÙĪØ³Øª":6916,"ĠØªØ®ØµÛĮØµ":6917,"ĠÙ¾ÛĮØ¬":6918,"ĠØ¯Ø³Ú©ØªØ§Ù¾":6919,"ĠØ¨ÙħØ§ÙĨ":6920,"ĠØ¯ÙĩØ³ØªØ§ÙĨ":6921,"Û±Û¶":6922,"ĠØªÙĪØ¯Ùĩ":6923,"ĠÚĨÛĮØ²ÙĩØ§ÛĮ":6924,"ĠØ¨ÙĦÚ©":6925,"ĠØªØ±Ø§Ú©Ùħ":6926,"ÙĨÙĪÛĮØ³Ø¯":6927,"ĠØ³Ø±Ø´Ø§Ø±":6928,"ÙĪÙģØ§ÙĨ":6929,"ĠÙĪØ§ÙĦÛĮ":6930,"ĠØ¨Ø±Ø¢ÙĪØ±Ø¯Ùĩ":6931,"ÙĪÙĨØ²":6932,"ĠØ±Ø§ÙĩÚ©Ø§Ø±ÙĩØ§ÛĮ":6933,"ĠÚ©Ø¯ÙĩØ§ÛĮ":6934,"Ù¾Ø±ÛĮØ§":6935,"ĠÙĨØ§ØµØ±":6936,"Ø§Ø¨Ø§ÙĨÛĮ":6937,"ĠÙ¾ÛĮÚĨÛĮØ¯Ú¯ÛĮ":6938,"ĠÙħØ¯Ø§ÙģØ¹":6939,"ĠØ´Ú©Ø³ØªÙĩ":6940,"ĠØ¨Ø¯ØªØ±":6941,"ĠÙĦÙĨ":6942,"ĠÚ©ÙĨÙĨ":6943,"ØªØ±Ø³":6944,"ĠÙħÛĮØ´Ø¯":6945,"ĠØ³Ø§Ø®ØªÙħØ§ÙĨÛĮ":6946,"ĠÙħÙĨØ·ÙĤ":6947,"ĠØ§Ø®ØªÙĦØ§ÙĦØ§Øª":6948,"Ġ(ØĽ":6949,"Ø¬Ø³ØªØ§ÙĨ":6950,"ĠØ¨Ø²Ø±Ú¯Ø³Ø§ÙĦ":6951,"ĠÙħØ¯ÛĮØ±ÛĮØªÛĮ":6952,"ĠØ³ÙĪÙĦ":6953,"ĠØ´Ø§Ø±ÚĺØ±":6954,"ook":6955,"ĠØŃØ³Ø§Ø¨ÛĮ":6956,"ĠØ¨Ø§Ú©ÛĮÙģÛĮØª":6957,"ĠØ¨ÙĨØ§Ùħ":6958,"ĠÙĦØ§ØªÛĮÙĨ":6959,"ĠØ§ØµÙĦØ§ØŃØ§Øª":6960,"ØªØ²":6961,"ĠØ´ÙĨØ§Ø®ØªÛĮ":6962,"Ù¾ÙĦØ§Ø³":6963,"ĠØ¨Ø¯ÙĨÛĮ":6964,"ĠÙĨØ¯Ø§Ø´ØªÙĨ":6965,"ĠØ²ÙĪÙħ":6966,"ĠAn":6967,"ĠÙĨÚ¯ÙĩØ¨Ø§ÙĨ":6968,"Ø²ÛĮØ³Øª":6969,"ĠØ¯Ø±ÛĮØ§ÙģØªÛĮ":6970,"ĠØªÙĩÙĪÛĮÙĩ":6971,"Ù¾ÛĮØ´":6972,"ĠØ§Ú©Ø³ÛĮØ¯":6973,"ÙĨÙĩØ§":6974,"ĠØ§ÙĨØ¯ÙĪÙĨØ²ÛĮ":6975,"Ø²ÛĮÙħ":6976,"ĠØªÙĨÛĮ":6977,"ĠØ±ÛĮÚĨ":6978,"ĠØ§Ø´ÛĮØ§Ø¡":6979,"ĠØ¨Ø§Ùħ":6980,"ĠØªØ³ÙĦÛĮÙħ":6981,"ĠÙħÙĪÙĨØª":6982,"ĠÙĨÙĪØ±ÙĪØ²":6983,"ĠØ®ÙĦØ§ÙĤØ§ÙĨÙĩ":6984,"ĠØ§Ø²Ø·Ø±ÛĮÙĤ":6985,"Ø§ÛĮØ§Øª":6986,"ĠÚ©ÛĮÚ©":6987,"ĠÙĨØ§Ø±Ø§ØŃØª":6988,"ĠÙĤØ¯Ø±ÛĮ":6989,"ĠØ³Ø§Ø¹ØªÙĩ":6990,"ĠÙħÛĮØ´":6991,"ĠÙĦÙĩØ³ØªØ§ÙĨ":6992,"ĠØ®ÙĪØ¯Ø±ÙĪÛĮÛĮ":6993,"ĠÙģÛĮØ±":6994,"ĠØ²Ø¨Ø§ÙĨÛĮ":6995,"ĠÙĨÚ©ÙĨÙĨØ¯":6996,"Ø´Ø¯Øª":6997,"ĠHTC":6998,"ĠÙĨØ´Ø§ÙĨÛĮ":6999,"ÙģÛĮÙĦ":7000,"ĠØ³Ø±ØªØ§Ø³Ø±":7001,"ĠØªÙĪÙħØ§ÙĨÛĮ":7002,"ĠØªÙĨÙģØ³ÛĮ":7003,"ĠÙĩÚ©ØªØ§Ø±":7004,"ĠØªÙħØ±ÛĮÙĨØ§Øª":7005,"ĠØ¯Ø±Ø®Ø´":7006,"ĠÙĨØ§ÙħÛĮ":7007,"ĠÚĨÙĩØ§Ø±ÙħÛĮÙĨ":7008,"ĠÙĨØ¨Ø§Ø´ÛĮØ¯":7009,"ĠÙħÙĪØ§ÙģÙĤ":7010,"ĠØ§Ø³Ø§Ø³Ø§":7011,"ĠØ¨Ø¹ÛĮØ¯":7012,"ĠÙĨÙĪØ¬ÙĪØ§ÙĨØ§ÙĨ":7013,"ĠÙĪØ±Ø¯Ù¾Ø±Ø³":7014,"ĠØ³Ø§Ø²Ú¯Ø§Ø±ÛĮ":7015,"ĠÙģÙĦÙĪØ±":7016,"ĠÚ¯Ø²":7017,"ĠÙħØªØ¯Ø§ÙĪÙĦ":7018,"Ø´Ú©Ø±":7019,"ĠÛĮÙĩÙĪØ¯ÛĮØ§ÙĨ":7020,"ĠØ§Ø³ØªØ±ÛĮÙħ":7021,"ĠØªØ±ØºÛĮØ¨":7022,"ĠØ³ÙĦØ·ÙĨØª":7023,"ĠØ®ÙħÛĮÙĨÛĮ":7024,"ĠØ¯Ø§Ø±ÙĪÛĮ":7025,"ĠØ´ÙĪÙĩØ±":7026,"Ø¨Ø§Ø³":7027,"ĠÚ©ÙĨØ§Ø±Ùĩ":7028,"ĠÛ¸Ûµ":7029,"ĠÙħØ¯ÙĨØ¸Ø±":7030,"ĠØªØ¹Ø±ÙģÙĩ":7031,"ĠÙĦÙĨÙĪÙĪ":7032,"ĠÙ¾Ø§Ø¯Ø§Ø´":7033,"ĠØ¢ÛĮÚ©":7034,"ĠØ®ÙĪØ±Ø§Ú©":7035,"ĠØ¯Ø³ØªÚ¯Ø§ÙĩÛĮ":7036,"ĠÙĨØ¨ÙĪØ¯ÙĨ":7037,"ĠØ¯ÙĪØ´":7038,"ĠØºÛĮØ±ÙĤØ§ÙĨ":7039,"ĠÙĩÙħØ¯":7040,"ĠÙĦØ§ÛĮØª":7041,"ĠØ³Ø±Ø´ÙħØ§Ø±ÛĮ":7042,"ĠØ±ÙħØ²ÙĨÚ¯Ø§Ø±ÛĮ":7043,"ĠÚ¯Ø§Ø²Ø±Ø³Ø§ÙĨÛĮ":7044,"Ø§ÙĦÙĪÚ¯":7045,"ĠØªØ«":7046,"ĠØ¯Ø±ÙĨØªÛĮØ¬Ùĩ":7047,"eg":7048,"ĠÙĩÙĪØ§Ø¯Ø§Ø±Ø§ÙĨ":7049,"ĠÙĨØ³Ø¨ÛĮ":7050,"ĠÙĨÚ©Ø³ÙĪØ³":7051,"ĠÙħØºÙĨØ§Ø·ÛĮØ³ÛĮ":7052,"ĠÙħÙĪÙĦÚ©ÙĪÙĦ":7053,"ĠØºÛĮØ±ÙĤØ§ÙĨÙĪÙĨÛĮ":7054,"ĠÙĩØ±ÙħØ²":7055,"Ø¢ÙĪÛĮ":7056,"ĠÚĨØ±Ø¨":7057,"ĠÚ¯Ø°Ø§Ø±Ø§ÙĨ":7058,"ĠØ¢ÙĨØ±Ø§":7059,"ĠÙĪØ§Ø±ÛĮ":7060,"ĠØªØ³ÙĦÛĮ":7061,"ĠØ¨Ù¾Ø±Ø¯Ø§Ø²Ø¯":7062,"PI":7063,"Û°Û¸":7064,"ĠÙħØ§Ø±Ú©ØªÛĮÙĨÚ¯":7065,"ĠÙģØ§Ø¶":7066,"ĠØ³Ø§Ø²Ø¯":7067,"ĠÙ¾ÙĨØ¬Ø§Ùĩ":7068,"ĠØ¨Ø§ØªÙĪØ¬Ùĩ":7069,"ĠØ®ÙĪÙĨÛĮ":7070,"ĠÛ²Û°Û°Û´":7071,"ĠØºØ±ÙĤ":7072,"ĠØ§ÛĮÙĪØ§ÙĨ":7073,"ĠÙģØª":7074,"ĠÙħÙħÚ©ÙĨÙĩ":7075,"ĠØ³Ø¨Ø¯":7076,"ĠØ´ÙĪØ±Ø§":7077,"ĠØ¯ÙĦÙħ":7078,"ĠÙĨØ¯Ø§Ø¯":7079,"ĠÚ©Ø§Ø´Ø§ÙĨ":7080,"ĠÙ¾Ø±Ø·Ø±ÙģØ¯Ø§Ø±":7081,"ĠØ¨Ø±Ø¹Ú©Ø³":7082,"ĠØ¬Ø³Ùħ":7083,"ĠØ§Ú©Ø³Ù¾Ø±ÛĮØ§":7084,"ĠØ³ØªÛĮ":7085,"ĠÙħØ±Ø·ÙĪØ¨":7086,"ĠØ¨ÙĦÙĪÚ©":7087,"ĠØ±Ø³ÛĮØ¯ÙĨØ¯":7088,"Ø§Ø±ØªØ§ÙĨ":7089,"Ø·ÙĨ":7090,"ĠØ®ØµÙĪØµÛĮØ§Øª":7091,"ĠÙĨÚ¯Ø§Ø±Ø´":7092,"ĠØ§Ú©ÙĪØ³ÛĮØ³ØªÙħ":7093,"ĠØ§Ø³ØªØ§ÛĮÙĦ":7094,"ÙħÚ©ÙĨ":7095,"ĠÙħÛĮÚ©Ø±Ø¯":7096,"ĠØ¨ÙĦØ§":7097,"ĠØ¨Ø§Ø²ÙħÛĮ":7098,"ĠØªÛĮÙ¾":7099,"Ø§ÙĦØªØŃØµ":7100,"ĠÙħÙĪØ¯Ùħ":7101,"ĠØ¨Ø±ÛĮØªØ§ÙĨÛĮØ§ÛĮÛĮ":7102,"Ø³Ùģ":7103,"ĠÙĨÙħØ§Ø²":7104,"ĠÙĪÙĨØ²":7105,"ust":7106,"ĠØ´ÙħØ§Ø±ÛĮ":7107,"ĠØ¨ÙĨÚĨ":7108,"ĠÙģÛĮÙĨØ§ÙĦ":7109,"ĠØ§Ø±Ø²ÙĩØ§ÛĮ":7110,"ĠØ¯Ø±Ú¯Ø°Ø´ØªÙĩ":7111,"ĠØ¢ÙĨØª":7112,"ies":7113,"ĠÙħÙĨÙģ":7114,"ĠÚ©ÙĪÙĩØ³ØªØ§ÙĨÛĮ":7115,"ĠØ¯Ø®ØªØ±Ø§ÙĨ":7116,"ĠØ¯ÙĪØ±ÛĮ":7117,"ĠØ¨Ù¾Ø±Ø¯Ø§Ø²ÙĨØ¯":7118,"ĠÙĨÛĮØ´":7119,"ĠÙħØ±Ø¬Ø¹":7120,"âĢĭ":7121,"ĠØªØ§Ø±ÛĮØ®ÚĨÙĩ":7122,"Ø±Ø§Ø±ØªÛĮ":7123,"ĠØ§ÛĮÙĨØ·ÙĪØ±":7124,"ĠØ±ØŃÙħ":7125,"Ø§ÙĪØ²":7126,"ĠØ±ÙĪØ§ÙĨØ´ÙĨØ§Ø³ÛĮ":7127,"ĠÙĨØ§ÙĨÙĪÙħØªØ±ÛĮ":7128,"ĠÙĨØ§Ø¯Ø±Ø³Øª":7129,"ĠØ§Ø¦ØªÙĦØ§Ùģ":7130,"ĠÙĦÛĮÙĨ":7131,"ey":7132,"ĠØ¨Ú©Ø´ÛĮØ¯":7133,"ĠÙ¾Ø§Ø±Ø³ÛĮ":7134,"ĠØ§ÙģØ±Ø§":7135,"ĠØ¢Ø¦":7136,"ĠØŃØ§ÙĦØªÛĮ":7137,"ĠØ§Ø³ÙĦØŃÙĩ":7138,"ĠÚ¯ÙĪÙĨØ§Ú¯ÙĪÙĨÛĮ":7139,"ĠØ³ØªØ§Ø±":7140,"ox":7141,"ĠØ§Ø±ÙĤØ§Ùħ":7142,"ĠØµØ¯Ùħ":7143,"ĠÙħØ®Ø¯Ø±":7144,"ĠØªØ§Ø«ÛĮØ±Ú¯Ø°Ø§Ø±":7145,"ĠØ¹Ø§Ø·":7146,"ÙĦÛĮØªÛĮ":7147,"ÙĩØ§Ø´":7148,"ĠØ§Ø¶Ø·Ø±Ø§Ø±ÛĮ":7149,"ĠØ§ÙĨØªØ´Ø§Ø±Ø§Øª":7150,"ĠØ¯Ø§ÙĨØ´Ø¬ÙĪÛĮÛĮ":7151,"Ø±Ø§Ø²":7152,"Û¶Û°":7153,"ĠØªØ±Ø³ÙĨØ§Ú©":7154,"ĠÚ¯ÛĮÚ¯Ø§ÙĩØ±ØªØ²":7155,"ĠØ®ÙĪØ¯Ø±ÙĪØ³Ø§Ø²Ø§ÙĨ":7156,"ĠÙħØ´ÙĪØ±Øª":7157,"ĠÙĨØ§ÙħÙĨ":7158,"ĠØ¢ÙĨØ±":7159,"ĠØ§ÙĨØªØ¸Ø§ÙħÛĮ":7160,"ĠÙĤØ§Ø¦ÙĦ":7161,"ĠØ³Ø§ÛĮØ¨Ø±ÛĮ":7162,"ĠÚ¯ÙĪÛĮØ´":7163,"ĠÙħØ±Ø¯Ùĩ":7164,"ÚĺÛĮÚ©ÛĮ":7165,"ĠØªÙĤÙĪÛĮÙħ":7166,"Ø¨Ø¹Ø¯ÛĮ":7167,"ĠÚ©Ø±Ø§Ø³":7168,"ÙħØµ":7169,"ĠØŃØ±Ø§Ø±ØªÛĮ":7170,"ÙĨÙĪÙĨ":7171,"ĠØ®ÙĪØ¯ÙħÙĪÙĨ":7172,"ĠÙĪÙĨØ²ÙĪØ¦":7173,"ĠØ³ÙĩÙħÛĮÙĩ":7174,"ĠÚ©ÙĦÛĮØ³Ø§":7175,"Ø¶ÙĦ":7176,"pt":7177,"Ø¸ÛĮ":7178,"Ø¨Ø§Ø¹":7179,"ĠÚ©ÙĩÚ©Ø´Ø§ÙĨ":7180,"ĠØ¨Ø§Ø²ØªØ§Ø¨":7181,"ĠÙ¾Ø§ÛĮÛĮÙĨÛĮ":7182,"ĠØªÙĪØ§ÙĨØ³ØªÙĨØ¯":7183,"ĠÚ©Ø§Ø±Ø§Ú©ØªØ±":7184,"Ø³ØªÙĪÙĨ":7185,"ĠØ¨Ø¯Ùħ":7186,"ss":7187,"ĠØµÙĨÙģÛĮ":7188,"Ø³ÙħÛĮ":7189,"ĠØ¯ÙĤÛĮÙĤÛĮ":7190,"ĠÙ¾ÙĪØ¯Ø±":7191,"ĠØ®ÙħÛĮØ±":7192,"ĠÚ©ÙħØ§":7193,"ĠØ¨Ø±ÙĦÛĮÙĨ":7194,"Ù¾Ø²ÛĮ":7195,"ĠØ±ÙĪÙĦ":7196,"ĠÙĪØ³Ø¹Øª":7197,"ĠÙħÙĩÙĨØ¯Ø³Ø§ÙĨ":7198,"ÙģØ±ÙĪØ´ÛĮ":7199,"ØªØ±ÙĪ":7200,"ĠÚĨØ±Ø®Ø´":7201,"ĠÚ¯ÙĪØ§Ùĩ":7202,"ĠÙ¢":7203,"ÛĮØ§Ø·":7204,"ĠÙģÛĮÙĦÙħØ¨Ø±Ø¯Ø§Ø±ÛĮ":7205,"ork":7206,"ĠØŃØ±ÙĪÙģ":7207,"ĠÙ¾Ø§Ø±Ú©ÛĮÙĨÚ¯":7208,"ĠØ®Ø§Ú©Ø³ØªØ±ÛĮ":7209,"ĠØ´ÙĪØ±Ø´":7210,"ĠÛ±Û°Û°Û°":7211,"70":7212,"ĠØ³ÙĪØ¦ÛĮØ³":7213,"ĠØ§Ø³Ù¾Ø§ÙĨÛĮØ§ÛĮÛĮ":7214,"ail":7215,"ĠØ§ØŃØ³Ø§Ø³ÛĮ":7216,"ĠÛ²ÛµÛ°":7217,"ĠÙ¾ÙĪØ³ØªÛĮ":7218,"Ø±Ø³ÛĮØ¯Ùĩ":7219,"ĠØ§ÙĦÙħØ§ÙĨ":7220,"ĠØ¯Ø§ÙĪØ·ÙĦØ¨":7221,"ĠÙ¾ÚĺÙĪ":7222,"ĠØªØ±ÙĪØ±ÛĮØ³Ùħ":7223,"ĠØ¨Ù¾Ø±Ø³ÛĮØ¯":7224,"ĠÙĪÛĮØ²Ø§":7225,"ÙĪÙĨÛĮÚ©":7226,"ĠØ³Ø§Ø®ØªØ§Ø±ÛĮ":7227,"ÙħØ§ÙĩÙĩ":7228,"ĠÙĪÛĮÚ©":7229,"ĠÙħØ³ØªÙħØ±":7230,"Ú¯ÛĮÙĦ":7231,"ĠÙħØ¬ÙĦ":7232,"Ø§ØªØ§":7233,"ĠAr":7234,"St":7235,"ĠØ¯ÙģØ¹":7236,"ĠÙħÚ¯Ø§Ø¨":7237,"ĠÙ¾ÙĦØ§Ú©":7238,"ĠØ¨Ø±ÙĪ":7239,"ĠØ§ÙĪÙħØ¯":7240,"ĠÚ¯ÙĪÛĮÛĮ":7241,"Ġ2017":7242,"ĠØ´ÙĦ":7243,"ĠØ¹ÙħÙĪØ¯ÛĮ":7244,"ĠØ´Ø±ÛĮ":7245,"ĠLED":7246,"ĠÚ©Ø±Ø¯ÛĮ":7247,"ĠÚĨØ´ÙħÚ¯ÛĮØ±":7248,"ĠØ³ÙĪÛĮÛĮ":7249,"ĠÙĩÛĮØ¨Ø±ÛĮØ¯ÛĮ":7250,"ĠØ¯Ø§ÙĦ":7251,"ĠØ§Ø³ØªØ¹Ø¯Ø§Ø¯":7252,"Ø§Ø¹":7253,"ĠØ¹ØµØ¨Ø§ÙĨÛĮ":7254,"ĠÚ¯Ø§ÙĦØ±ÛĮ":7255,"ĠØ§ÙĦØªÙĩØ§Ø¨":7256,"ĠØ®ÙĪØ´ÙħØ²Ùĩ":7257,"ĠØŃØ³ÛĮÙĨÛĮ":7258,"Ù¾Ø±Ø¯Ø§Ø²ÛĮ":7259,"ĠÙģØ¶Ø§ÙĨÙĪØ±Ø¯":7260,"ĠØ®Ø´Ú©ÛĮ":7261,"ĠØªÙĦÙĩ":7262,"ĠÙħÛĮØ®":7263,"Ø®ÙĪØ§Ø³ØªÙĩ":7264,"ĠØªØ§Ø¨ÙĦÙĪ":7265,"ĠOne":7266,"ĠØ¨Ø§ÙĩÙħ":7267,"ĠÙĨØ§Ø±Ø§ØŃØªÛĮ":7268,"ĠØªØ§ÛĮÙĦÙĨØ¯":7269,"Ø¢ÙħÙĪØ²Ø§ÙĨ":7270,"ĠØªÙĩØ§":7271,"ĠØ±ÛĮØ®ØªÙĩ":7272,"ĠØ§Ø³ØªØ±Ø§ØªÚĺÛĮÚ©":7273,"ĠÙ¾Ø±Ú©":7274,"ĠÚ¯Ø´ÙĪØ¯":7275,"ĠÚ©Ø§ÙħÙĦÛĮ":7276,"ĠØ¯Ø±Ø§ÛĮÙĨ":7277,"ĠÙħØ¹Ø¨Ø¯":7278,"out":7279,"ĠÙħØ®Ø§Ø¨Ø±Ø§ØªÛĮ":7280,"ĠØªÙĦØ®":7281,"ÙĪØ§Ø±Ø¯":7282,"ĠØ§Ø³ÛĮ":7283,"ØªÙĪØ§ÙĨÙħ":7284,"ĠÙħØªØŃØ±Ú©":7285,"ĠÙĪØ§ØªØ³":7286,"ĠØ¯ÙĪØ§Ø²Ø¯Ùĩ":7287,"Ù¾Ø±Ø¯Ø§Ø²ÙĨØ¯":7288,"ĠÚ©Ø§Ø±ØªØ§ÙĨ":7289,"ĠÙħØ§Ø±ØªÛĮÙĨ":7290,"ØªØ±Ùĩ":7291,"Ø§ÙĦØ¨Ø§":7292,"ĠÚ¯ÙĦÙĪÙĦÙĩ":7293,"ĠØŃØ§Ø¬":7294,"ĠØ¹ÙĦÛĮØ±Ø¶Ø§":7295,"ĠÙħÚ©Ø¹Ø¨":7296,"ĠØªÙĦØ³":7297,"ĠÙĦØ±Ø²Ø´":7298,"ĠÙħØ¬Ø±ÙĪØŃ":7299,"ĠÚ¯Ø±Ø¬Ø³ØªØ§ÙĨ":7300,"ĠØªØ«Ø¨ÛĮØª":7301,"Ø®ÛĮÙĦÛĮ":7302,"ĠØ®ÙĨØ¯Ùĩ":7303,"ĠÚ©ÙĦÛĮÙĨ":7304,"ĠØ§Ø®ÙĦØ§ÙĤ":7305,"ĠÙħÙĨØªÙĤØ¯":7306,"ĠÙħØªØ¯":7307,"ĠØ¨Ø§Ø²Ø®ÙĪØ±Ø¯":7308,"ĠÙĨÙħØ§ÛĮØ´ÛĮ":7309,"ĠØ±ÛĮØª":7310,"ĠÚ©ÙħØ¯ÛĮ":7311,"ĠÚ©ÛĮÙĩ":7312,"ĠÙģÙĪØ±":7313,"ĠÙħÛĮØªÙĪÙĨÙĩ":7314,"ĠÙħØ¹ÛĮÙĨ":7315,"ĠØ´Ø®ØµÛĮØªÛĮ":7316,"ØµØ±Ùĩ":7317,"ĠØ¨Ø±ÛĮØ²ÛĮØ¯":7318,"ĠØ¨Ø§ÛĮØ¯ÙĨ":7319,"ĠØ§ÛĮØ³ØªØ§Ø¯Ùĩ":7320,"ĠÚ©ÛĮÙĨ":7321,"ĠØ´Ø±ÛĮÙģ":7322,"ĠØ³ÙħÙĨ":7323,"ĠÙĦØ³":7324,"ĠØ±Ø¤":7325,"ĠÙĨØ§Ø²Ú©":7326,"ĠÙĪÙĨØ²ÙĪØ¦ÙĦØ§":7327,"Û±Û´":7328,"Û±Û·":7329,"ian":7330,"Ġ40":7331,"ĠÙ¾ÛĮØª":7332,"ĠÙħØ³ÙĪ":7333,"Ø¹ÙģÙĪÙĨÛĮ":7334,"ĠIP":7335,"ĠÙ¾Ø±Ø§Ú©ÙĨØ¯Ùĩ":7336,"ĠØªØ¨Ø¹":7337,"ĠCl":7338,"ĠÙ¾ÙĪØ±Ø´Ùĩ":7339,"ĠØªÙĪØ¦ÛĮ":7340,"PU":7341,"ÚĺØ§ÙĨØª":7342,"ĠÛ²Û°Û°Û³":7343,"ĠØ¹Ø±Ùģ":7344,"ĠÙħØªÙĨÛĮ":7345,"ĠØ®Ø±ÛĮ":7346,"ĠÙĨÚ©Ø±Ø¯ÙĨ":7347,"99":7348,"ĠÙĨØ§Ø´":7349,"ĠÚ©ÙħÙ¾":7350,"ĠÙħØ®Ø±Ø¨":7351,"ly":7352,"ĠØºÙĦØ§Ùħ":7353,"ĠÙħÙĨØŃØµØ±Ø¨Ùĩ":7354,"ĠÙĨÙħØ§ÛĮØ´Ú¯Ø±ÙĩØ§ÛĮ":7355,"ĠØ¨ÙĤØ§ÛĮ":7356,"edia":7357,"ĠØ¯ÙģØ§ØªØ±":7358,"ĠÚ©ÙĨØ³Ø±Øª":7359,"ĠÙ¾ÛĮØ§Ø²":7360,"ĠØ³Ø±Ø¯Ø±":7361,"ĠÙĤÙĪØ§":7362,"ĠÙħØ±Ø§Ø¬Ø¹":7363,"ĠÚ©Ø§Ø±Ø¨Ø±Ø§ÙĨÛĮ":7364,"ĠØ¹Ø¨Ø§Ø±ØªÛĮ":7365,"ĠØ¢ÙħÛĮ":7366,"ĠØµÙĦÛĮ":7367,"ĠÙħÚ©Ø§ÙĨÛĮÚ©ÛĮ":7368,"ĠÙĩØ§ÙĦÛĮ":7369,"ĠØ§ÙĨØ¯ÛĮØ´":7370,"ÛĮØ§ÙģØªÙĩ":7371,"ĠÛ±Û³Û¹Ûµ":7372,"ĠÙĦØ¨Ø®ÙĨØ¯":7373,"ĠØ±ÛĮØ²Ø´":7374,"Ø²ÙĦÛĮ":7375,"ĠÙģØ§Ø¶ÙĦ":7376,"Ø´ÙĪÛĮ":7377,"ĠÚ©Ø§Ø´Øª":7378,"ĠØ§ÙħØ±ÛĮÚ©Ø§":7379,"ĠØ±Ø§Ú©Øª":7380,"ĠØºØ§ÙĦØ¨Ø§":7381,"ĠØ·ÙĦØ§ÙĤ":7382,"ĠØ¯ÙĪØ³ØªØ§ÙĨÙĩ":7383,"Ø®Ø¨":7384,"ĠØ¨Ø®ØªÛĮ":7385,"Ø¨Ø±Ø²":7386,"ĠØ§ÛĮÙģØ§ÛĮ":7387,"iew":7388,"Ġx":7389,"ĠØ¹Ø§Ùħ":7390,"ĠÙĦØ§ÙħÙ¾":7391,"Ø·Ø¨":7392,"ĠØ¨Ø§Ø®":7393,"ĠÙħØ®Ø§Ø¨Ø±Ø§Øª":7394,"ĠØ¯Ø§Ø¦Ùħ":7395,"ĠØ¨Ø§Ø²Ø¯ÛĮØ¯Ú©ÙĨÙĨØ¯Ú¯Ø§ÙĨ":7396,"ĠØ§Ø¨Ùĩ":7397,"ĠÙĤØ¨Ø§ÙĦ":7398,"Ø§ÛĮØªØ§ÙĨ":7399,"Ø³ÙĪØ²":7400,"ĠØ¯Ø´ÙĪØ§Ø±ÛĮ":7401,"ÙĪÙĦØ§ÛĮ":7402,"ĠÙ¾ÙĪØ³ØªÙĩ":7403,"ĠØ§ÙĦÚ©ÙĦ":7404,"ĠØ´ÙģØ§ÙģÛĮØª":7405,"ĠØºÙĦØ¨Ùĩ":7406,"ĠØ³Ø§ÙĨØ¯":7407,"ĠØ¯Ø±Ø¢ÙħØ¯Ùĩ":7408,"ĠØ±Ø¬":7409,"ÙĨÚ¯Ø±ÛĮ":7410,"ĠÙĨØ§ÛĮØ¨":7411,"Ġ0":7412,"ĠØ¨Ø§ÛĮØ³ØªÛĮ":7413,"ĠÚĨØª":7414,"ĠÂ·":7415,"ĠÚ©Ø§Ø±ÙĨØ§ÙħÙĩ":7416,"ĠØ¹Ø°":7417,"ĠÛ²Û°Û²Û±":7418,"ĠØŃØ§Ú©ÙħÛĮØª":7419,"ĠØªÙ¾":7420,"ĠØŃØ±ÛĮÙģ":7421,"ĠÛ±Û¹Û¹Û°":7422,"ĠÙĤÙĦÙħØ±ÙĪ":7423,"Ø§Ø¦ÙĪ":7424,"Ú©Ø¨":7425,"ØªØ³":7426,"ĠØ¨Ø§ÙĨÙĪØ§ÙĨ":7427,"ĠØ¹Ø²ÛĮØ²Ø§ÙĨ":7428,"ĠØ§ÙĨØŃ":7429,"Â»)":7430,"ĠØ§ÙħÙ¾Ø±Ø§ØªÙĪØ±":7431,"ÙĩÙħØ§ÙĨ":7432,"ĠÙħÙĩØ±ÙħØ§Ùĩ":7433,"ĠÙĨØ§Ø¸Ø±":7434,"ĠØ±Ú¯":7435,"ÙĤÙĪÙĦ":7436,"Û´Û°":7437,"ÙħØ§Ø¹ÛĮÙĦ":7438,"ĠÙĩÙħØª":7439,"ĠÙħØŃØªÙĪØ§ÛĮÛĮ":7440,"ĠÙħÛĮØªÙĪÙĨÛĮØ¯":7441,"ĠØ¯Ø³ØªØ§ÙĪØ±Ø¯ÙĩØ§ÛĮ":7442,"Û²Ûµ":7443,"ĠØ§ÙĨØªØ¸Ø§Ø±Ø§Øª":7444,"ĠØ¬ÛĮÙĨ":7445,"ĠØ¶Ø¯Ø¹ÙģÙĪÙĨÛĮ":7446,"ĠØªØ¯Ø§Ø±":7447,"ĠÚ¯Ø§ÙĪ":7448,"ĠÙĨÙħØ§ÙĨØ¯":7449,"Û°Û±":7450,"Ú¯Ø´Øª":7451,"Ġk":7452,"ĠØ¨ÙĦÙĪÚĨ":7453,"ĠØ¢ÙĪØ§Ø²":7454,"ĠÚĺÙĨØ±Ø§ÙĦ":7455,"ĠØ§ÙĨØ¯Ø§Ø®ØªÙĩ":7456,"ĠØ³ÛĮÙħØ§":7457,"ÛĮØªØ§ÙĨ":7458,"ĠØ³ÙģØ§Ø±Ø´ÛĮ":7459,"Ø§ÙĦØ«":7460,"ĠÙħØŃÙģ":7461,"ĠÙħÙĪØ§Ø¬ÙĩÙĩ":7462,"ÙĪØ±ÙĩØ§":7463,"Û°Û·":7464,"ĠÚ©ÙĪØ§ÙĨØªÙĪÙħÛĮ":7465,"ÙĪÙĩØ§":7466,"ĠØ¨ÙĪØ´ÙĩØ±":7467,"ĠØ±ÛĮÙħ":7468,"ame":7469,"ĠØ¢ÙħØ±ÛĮÚ©Ø§Ø¦ÛĮ":7470,"ĠÙħÙĤØ±ÙĪÙĨ":7471,"ĠØ±ÙĪØŃÛĮÙĩ":7472,"ĠØ¢Ú¯ÙĪØ³Øª":7473,"ĠØªØ±Ùħ":7474,"ĠÙĨÙĤØ¯ÛĮ":7475,"ĠÚ¯ÙĦØ³ØªØ§ÙĨ":7476,"ĠØªÚ©Ø±Ø§Ø±ÛĮ":7477,"ĠÙĪØŃØ´ÛĮ":7478,"ØªØ§Ø²Ú¯ÛĮ":7479,"Ø¸Ùģ":7480,"ĠØ¨Ø§Ø´ÛĮ":7481,"ĠØ¨Ø®ØµÙĪØµ":7482,"ĠØ¢Ø¨Ø±":7483,"ĠÛĮØ§Ø²Ø¯ÙĩÙħ":7484,"ĠØµØ®Ø±Ùĩ":7485,"ĠØ¢Ø±ÚĺØ§ÙĨØª":7486,"ĠØ¢ÙģØ±ÛĮÙĤØ§ÛĮ":7487,"ĠØ¨Ø§Ø²ÛĮØ§Ø¨ÛĮ":7488,"ÙĨÙĤ":7489,"ĠÚ¯ÙĦÙĪ":7490,"ĠÙĨØ§Ú¯ÙĩØ§ÙĨ":7491,"ĠÚ©Ø§ÙģÛĮØ³Øª":7492,"ial":7493,"ØŃØ³ÛĮÙĨ":7494,"Ø¬Ú©":7495,"ĠØ¨ÛĮØ§ÛĮÛĮØ¯":7496,"ÙĪØªÛĮÚ©":7497,"ĠÙĩÛĮÙĦ":7498,"ÚĨÙĨØ§ÙĨ":7499,"ĠÚĨØ§ÙĤ":7500,"ĠØ§ÙħØ¯Ø§Ø¯":7501,"Û³Ûµ":7502,"ĠÙĤØ·Ø¹ÙĨØ§ÙħÙĩ":7503,"ĠØ¬Ø§Ø¨Ø¬Ø§ÛĮÛĮ":7504,"ĠÙĩÙħÚ©Ø§Ø±":7505,"ĠØ§Ø¹Ùħ":7506,"ĠÙħØ³Ø§ÙģØ±Øª":7507,"ĠØŃØµ":7508,"ĠØŃØ³Ø§Ø¨Ø¯Ø§Ø±ÛĮ":7509,"ĠÙģØ§Ø¬":7510,"ĠØ¬Ø°Ø§Ø¨ÛĮ":7511,"ĠØ³ÙħÛĮ":7512,"Ø¢ÙĩÙĨ":7513,"ĠØ³ÙĨØ§Ø±ÛĮ":7514,"Ø§ÙĨØ¯Ø§Ø²Ø¯":7515,"ĠØ¬ÙĪÛĮÛĮ":7516,"yn":7517,"ĠØ±ÙĪØ§Ø¬":7518,"Ù¾ÙĨ":7519,"ĠÙħØ§Ø¨":7520,"ĠØ¨Ø§Ø±Ú¯Ø°Ø§Ø±ÛĮ":7521,"ĠØ·Ø¨ÛĮØ¹ØªØ§":7522,"ĠÚ©ÙħØ±":7523,"ĠTr":7524,"ĠÙ¾Ø§ÛĮØªÙĪÙĨ":7525,"ĠØ²Ø®ÙħÛĮ":7526,"ĠØ§ÙģØ²ÙĪØ¯ÙĨ":7527,"ĠÙ¾ÙĨÛĮØ±":7528,"ĠÙĤØ±Ø§Ø±Ø¯Ø§Ø¯ÙĩØ§ÛĮ":7529,"ĠØ§Ø¸ÙĩØ§Ø±Ø§Øª":7530,"ĠÙħØŃØ±":7531,"ĠSE":7532,"Ø¢Ù¾":7533,"ĠØµÙĦØ§ØŃÛĮØª":7534,"ĠØ´Ø±Ú©":7535,"ĠÙ¾ÙĪÛĮØ§":7536,"Ø§Ø³Ø§Ø²ÛĮ":7537,"ith":7538,"ĠÙĤØ§Ø¹Ø¯Ùĩ":7539,"ĠØ¯ÙĦØ§ÛĮÙĦÛĮ":7540,"ĠÚ¯Ø´ØªÙĩ":7541,"ĠÙĩØ±ÛĮ":7542,"ĠØ§Ø¹ØªÛĮ":7543,"ĠÙģØ±ÙĪØ´ÙĨØ¯Ú¯Ø§ÙĨ":7544,"ĠApp":7545,"ĠØªØ·Ø¨ÛĮ":7546,"ĠÚ©ÙħÙĪÙĨÛĮ":7547,"ĠÙħÙĪØ¸Ùģ":7548,"ĠÙĤÙĨ":7549,"ĠÙħØŃÙħØ¯ÛĮ":7550,"ĠÙħÙĪØªÙĪØ±ÙĪÙĦØ§":7551,"ĠÙĨØ§Ø¨ÙĪØ¯ÛĮ":7552,"ff":7553,"ĠØ§ÙĩÙĪØ§Ø²":7554,"ĠÙħÙħÙĨÙĪØ¹ÛĮØª":7555,"ĠÙ¾Ø±ØªÙĪ":7556,"Ġis":7557,"ide":7558,"ĠØ²ÙĪØ±":7559,"orm":7560,"!Â»":7561,"ĠÙģØ§Ø¬Ø¹Ùĩ":7562,"pe":7563,"ĠÙĨÙĪØ¯":7564,"Ø±Ø§ÙĤ":7565,"ĠÚ©Ø§ÙĦØ§ÙĩØ§":7566,"ĠØ´ÙĩØ±ÙĪÙĨØ¯":7567,"ĠÚ©Ø§ÙĦØ¬":7568,"Ø§Ø¹Øª":7569,"Ø±Ø¯ÛĮ":7570,"ĠØŃØ§Ø¦":7571,"ĠØ³ÛĮÙĦÛĮÚ©":7572,"ĠØªÙĨØ§Ø³Ø¨":7573,"ĠØ¯Ø§ÙĨØ´ÙħÙĨØ¯":7574,"ĠSc":7575,"ĠÙħØ®Ø§ÙĦÙģØ§ÙĨ":7576,"ĠØ§Ø³ØªØ§Ø¯ÛĮ":7577,"ÙĦØ§ÙĨØ¯":7578,"ĠÛ³Û³":7579,"ld":7580,"ÙģØ±ÛĮ":7581,"ĠOLED":7582,"ime":7583,"ĠÙħØ§Ø´ÛĮÙĨÛĮ":7584,"ĠØ¨Ø®Ø±ÛĮØ¯":7585,"ØŃÙĤ":7586,"ĠØ¨ÛĮÚ©Ø§Ø±ÛĮ":7587,"ĠØªØ¸Ø§ÙĩØ±Ø§Øª":7588,"ĠÙħÙĨØ¸Ø±Ùĩ":7589,"ĠØ®ÙĪØ¯Ø´ÙĪÙĨ":7590,"ĠØŃØ¨Ø³":7591,"ĠÙĩÙĪØ¢ÙĪÛĮ":7592,"ĠØ²ÛĮØ±ÙħØ¬ÙħÙĪØ¹Ùĩ":7593,"ĠÚ©Ø§ÙħÛĮÙĪÙĨ":7594,"ĠØ´Ú©ÙĨ":7595,"ØŁØŁ":7596,"ĠÛ±Û³Û¹Û¸":7597,"ost":7598,"ĠÛĮØ¯":7599,"ĠâĢı":7600,"ĠÚ©ÙħØ±Ø¨":7601,"ĠØ§Ú©Ø´ÙĨ":7602,"ĠØ¬Ø²ÛĮÛĮØ§Øª":7603,"ĠÙĨØ±Ø³ÛĮØ¯Ùĩ":7604,"ĠÙħØ¬Ø±ÛĮ":7605,"ÙħÚ©Ø¹Ø¨":7606,"ĠØ¹Ø§ÙĦÙħ":7607,"Ú©Ø±Ø¯ÙĩØ§ÛĮ":7608,"ĠÙħØ¹Ø§Ø¯ÙĨ":7609,"Ø¬ÙĪØ±ÛĮ":7610,"Ø§Ø¯Ø§Øª":7611,"ĠÙ¾Ø±ÙĪÙģØ§ÛĮÙĦ":7612,"Ø·Ø±ÛĮ":7613,"ĠÙĤØ±Ø§Ø±Ø¯Ø§Ø¯ÛĮ":7614,"ĠÚ¯Ø±ÛĮÙĩ":7615,"ĠØªØ¹ÙĩØ¯Ø§Øª":7616,"ĠØ±Ø§Ø¯":7617,"ĠÚ¯ÙĨØ¯Ùħ":7618,"ĠØ¶ÙħÙĨØ§":7619,"ĠØ´Ú©Ø§Ùģ":7620,"ĠÚ¯ÛĮÙħÛĮÙĨÚ¯":7621,"ĠØ¨Ø¨ÛĮÙĨØ¯":7622,"ĠØ¹ÙħÙĦÚ©Ø±Ø¯ÛĮ":7623,"ĠÙĩÙħØ¬":7624,"ĠÙĨÙĪØ³Ø§Ø²ÛĮ":7625,"ĠÙħÚ©Ø±Ø±":7626,"ĠÙ¾ÛĮØ§ÙħØ¨Ø±":7627,"ĠØ±Ø¯ÛĮØ§Ø¨ÛĮ":7628,"ÙħØ¯Ø§ÙĨ":7629,"Ù¾ÙĪÙĦ":7630,"ĠØªÚ©Ø§ÙĨ":7631,"ĠØ§Ø³ØªÙĪØ¯ÛĮÙĪÛĮ":7632,"ĠÙħØ°ÙĩØ¨":7633,"Ø¨ÙĪØ¯ÙĨ":7634,"Ø¹ÙĦØ§ÙĪÙĩ":7635,"Ø¨ÛĮÙĨÙĨØ¯":7636,"Ġ24":7637,"ĠØ¹Ø§Ø·ÙģÛĮ":7638,"ĠÙĦÚ©Ùĩ":7639,"ĠÙĩÙĪØ§Ù¾ÛĮÙħØ§ÙĩØ§ÛĮ":7640,"ĠØ¨Ø²ÙĨÙĨØ¯":7641,"Ú©Ø§ÙĨÛĮ":7642,"Û°Û¶":7643,"ÙħÛĮØªÛĮ":7644,"ĠÙĤØ§Ø¦":7645,"Ú©Ø¯Ø§Ùħ":7646,"ĠØ°Ø±Ùĩ":7647,"ĠÙĨÛĮØ³ØªÛĮØ¯":7648,"ĠØ´ÙĪØ±Ø´ÛĮØ§ÙĨ":7649,"ĠÙħØªØ¹ÙĩØ¯":7650,"ĠÙĦÛĮØ²Ø±":7651,"Ø§ÙĨØ¯Ø§Ø²Ùĩ":7652,"ÙĨØ´ÛĮÙĨÛĮ":7653,"ĠØ¢Ø³Ø§ÙĨÛĮ":7654,"ĠØ¨Ø¯ØªØ±ÛĮÙĨ":7655,"ĠØ§ÙħÚ©Ø§ÙĨØ§ØªÛĮ":7656,"ĠØ§ÙĨØªÙĩØ§":7657,"Ø±ØºÙħ":7658,"ĠØ¯Ø´ÙħÙĨØ§ÙĨ":7659,"Ø§ÛĮØ´ÛĮ":7660,"ĠÛµÛ·":7661,"ĠØ§ÙħØªØ¯Ø§Ø¯":7662,"ĠØ§Ø¹ØªÛĮØ§Ø¯":7663,"Ġj":7664,"ĠØ³ÙĪØ¦ÛĮ":7665,"ĠÙĩØ§Ø´ÙħÛĮ":7666,"ĠÙĨØ§ÙħÚ¯Ø°Ø§Ø±ÛĮ":7667,"ĠØ§Ø³ØªÙģ":7668,"Ø·ÙĦØ¨":7669,"ĠØ·Ø±ØŃÛĮ":7670,"ĠÂŃ":7671,"ĠÙħØªÙĪÙĨ":7672,"ĠÙ¾Ø±ÙĪØ§Ø²ÙĩØ§ÛĮ":7673,"ĠÙħØ¹ÙĨÙĪÛĮ":7674,"Ġ2020":7675,"ĠÙ¾ÙĩÙĨØ§ÛĮ":7676,"ÙĦÙģÙĦ":7677,"Ø§ÙĨØ¯Ø±":7678,"Ø§ÙĦÛĮØ³Ùħ":7679,"Ġ2018":7680,"ĠØªØŃÙĪÙĦØ§Øª":7681,"ÙģØªÛĮ":7682,"ÙĩÙĪØ´ÙħÙĨØ¯":7683,"ĠÚ©Ø§Ø±ÙĦ":7684,"ĠÚ©ÛĮÙħ":7685,"ĠÙģØ±ÙĨÚ¯ÛĮ":7686,"ĠÙħÚ©Ø§ÙĨÛĮØ²Ùħ":7687,"ĠØ¯Ø±Ø³ÛĮ":7688,"int":7689,"ĠØ¨Ø§Ú¯":7690,"ĠÙģØ±Ø§ÙĨÚ©":7691,"ĠØŃÛĮØ§Ø·":7692,"ĠÙĨØ´ÙĪÙĨ":7693,"ĠÙĪØ±ÙĤ":7694,"ØªÙĪØ±ÛĮ":7695,"ĠÙħØŃØ³ÙĨ":7696,")}":7697,"Ø§ØµØ±Ùĩ":7698,"ĠØ§Ø³ÙħØ§Ø¹ÛĮÙĦ":7699,"ĠØªØ¯Ø§ÙĪÙħ":7700,"ĠØ§ÛĮØ±Ø§ÙĨØ³ÙĦ":7701,"ĠØ¯Ø§ÙĨØ´Ø¬ÙĪÛĮ":7702,"ĠØ¨Ø§Ø¯ÛĮ":7703,"Ġ2016":7704,"ĠØ¨Ø§Ø±Ø³ÙĦ":7705,"ĠÙ¾Ø§Ø±Ùĩ":7706,"ÙĨÛĮÚ©":7707,"ĠØªØ§ÛĮÙħØ²":7708,"ĠØªØ§ÙĦØ§Ø±":7709,"ĠÚ¯ÙĨØ¨Ø¯":7710,"ĠÚ©Ø±ÛĮÙħ":7711,"Ú¯Ø³ØªØ±ÛĮ":7712,"ĠØ§Ø·ÙĦØ§Ø¹ÛĮÙĩ":7713,"ĠÙħÙĪØ¶Ø¹":7714,"ÙĪØ¯ÙĨ":7715,"ĠØ§ÙĤÙĦØ§Ùħ":7716,"ĠÙħØ³Ø§ÙģØ±ØªÛĮ":7717,"ĠØ¨ÙĪØ¬ÙĪØ¯":7718,"ĠÚ©Ø§ÙħÙĨØª":7719,"ĠØ¨ÛĮØ§ÙĪØ±ÛĮØ¯":7720,"ĠØ¬ÛĮØ¨":7721,"ick":7722,"ĠØ§Ø³Ù¾ÛĮØ³":7723,"Ø³ÙĪØ²ÛĮ":7724,"ĠØ§ÙĪÙħ":7725,"Ø§ÙĦÙħÙĦÙĦ":7726,"ĠâĢĭ":7727,"ĠØ¨ÙĪÙħ":7728,"ĠØªØ£Ø®ÛĮØ±":7729,"az":7730,"ĠØ²Ø§Ø¦":7731,"ĠÙĨØ§ÙħÙĨØ§Ø³Ø¨":7732,"ĠØ®ØªÙħ":7733,"ĠÙħØŃØªÙĪÛĮ":7734,"ĠØ²ÙĨØ¬Ø§ÙĨ":7735,"ĠØ¨ÙĨÚĨÙħØ§Ø±Ú©":7736,"ÙĪÚ¯Ø±Ø§ÙģÛĮ":7737,"ĠÙĪØ§Ú¯ÙĨ":7738,"ĠØ¨Ú¯":7739,"ÛĮØ§ÛĮ":7740,"ĠØ²ÙĨØ¯Ø§ÙĨÛĮØ§ÙĨ":7741,"Ú¯ÛĮØ±ÛĮÙħ":7742,"ĠØ§ØŃØ±Ø§Ø²":7743,"ĠÙħØ·ÙĦÙĤ":7744,"ĠØªÙĦØ³Ú©ÙĪÙ¾":7745,"ĠØ«ÙħØ±":7746,"ĠÚ©Ø§Ø±ÙĪØ§ÙĨ":7747,"Ø§ØµØ¯":7748,"ĠÚ¯ÛĮØ±ÙĨØ¯":7749,"ĠØ³Ø§ÛĮÙ¾Ø§":7750,"ĠÙħØªØ±ÙħÚ©Ø¹Ø¨":7751,"ĠÙĪØ§Úĺ":7752,"ĠØ¨Ø¨ÛĮÙĨÙĨØ¯":7753,"ĠÙĨÙģØ±ÛĮ":7754,"ĠØªØ±Ø§ÙĨ":7755,"ĠØ±ÙĨØ¯Ø±":7756,"icro":7757,"ĠÙħÙĪØ³Ø³Ø§Øª":7758,"ĠÙĦØ²ÙĪÙħØ§":7759,"ĠØ¨Ø±Ø§ÛĮØ´Ø§ÙĨ":7760,"ĠÙĨØªÙĪØ§ÙĨØ³ØªÙĩ":7761,"ĠØ²Ø±Øª":7762,"ĠÙĩÛĮÙĪÙĨØ¯":7763,"ĠÙħØ±Ø¯ÙħØ§ÙĨ":7764,"ĠØ±ÛĮÙĩ":7765,"ĠÛ¸Û¸":7766,"ĠØ¹ÛĮØ¯":7767,"ĠPh":7768,"ĠÙħØ§Ø¬Ø±Ø§ÛĮ":7769,"ĠÚĨÛĮÙĩ":7770,"ĠØ¨ÛĮÙģØªØ¯":7771,"ØªÙĪØ§ÙĨØ³ØªÙĨØ¯":7772,"ĠØºÛĮØ±ÙģØ¹Ø§ÙĦ":7773,"ĠÙģØ§ÙĦÙĪ":7774,"ÙĨÚĺØ§Ø¯":7775,"Ø³ÙģØ§ÙĨÙĩ":7776,"ĠØ³ÙĪØ±Ø§Ø®":7777,"ÙĦÛĮØ³":7778,"ĠØ¯Ø§Ø¯Ú¯Ø³ØªØ±ÛĮ":7779,"ĠÛ´Û·":7780,"ĠØŃÙĪØµ":7781,"ÙĨØ§ÛĮÛĮ":7782,"ĠÙħÛĮØ´ÙĨ":7783,"ĠØ¢Ø±Ø§ÙħÚ¯Ø§Ùĩ":7784,"ĠÙħØ´ÙħÙĪÙĦ":7785,"ĠÙħØ³ÙĦÙħØ§":7786,"ĠØ§Ø³ØªØŃÚ©Ø§Ùħ":7787,"ĠØ±ÛĮÙĨÚ¯":7788,"ĠØ¢ÛĮÚ©ÙĪÙĨ":7789,"ĠÙħØŃØªØ±":7790,"Ø²ÛĮØ¯":7791,"ĠØ§Ø¹ØµØ§Ø¨":7792,"ĠØªØ´Ú©Ø±":7793,"ĠØ¯Ø³ØªÙĪØ±Ø§Øª":7794,"Ġ2019":7795,"ĠØ¢ÙħÙ¾Ø±":7796,"ĠØ¹Ø§Ø´ÙĤØ§ÙĨÙĩ":7797,"Ø§ÚĨ":7798,"ĠØ¬ÙĦÙĪÛĮÛĮ":7799,"ĠØ®Ø·Ø§Ø¨":7800,"ĠØ¹Ø²":7801,"ĠØ±ÙģØªÙĨØ¯":7802,"ĠÙĩÙĪØ´ÙħÙĨØ¯Ø§ÙĨÙĩ":7803,"Ù¾ÙĨØ¬":7804,"ĠØ§Ú©ØªØ´Ø§Ùģ":7805,"ĠØ¨Ø±Ø§Ø´":7806,"ĠÙħØ¹Ú©ÙĪØ³":7807,"ĠØ³Ø±Ø´":7808,"ĠØªÙĪÛĮÛĮØª":7809,"ĠØ§Ø³ØªÙĨØ§Ø¯":7810,"ĠÙħØŃØ§ØµØ±Ùĩ":7811,"ĠØ¬ÙĪØ§Ùĩ":7812,"Ø³ÙħØª":7813,"HD":7814,"ĠØ§ÙĦØ§":7815,"ĠØ¢Ø±Ùħ":7816,"ĠÙĨÙĪØ²Ø§Ø¯Ø§ÙĨ":7817,"ĠØ«Ø§ÙĨ":7818,"ĠØ®Ø·Ø±Ø§Øª":7819,"ĠÙħÙĪØ¬ÙĪØ¯ÛĮ":7820,"Ú¯Ø±ÙģØªÙĨ":7821,"ĠÚĨØ§ÙĦ":7822,"ÙĪØªÛĮÙĨ":7823,"ĠØ¨ÙĦØ¯":7824,"ĠØ¨ÙĩØ§ÛĮ":7825,"ĠØ®ÙĦØ¨Ø§ÙĨ":7826,"Ø§ØŃØ¨":7827,"ĠÙĩØ§ÙĦ":7828,"ĠØ§Ø³ØªÛĮÙĪ":7829,"ĠØ§ÙģØ²Ø§Ø±ÙĩØ§ÛĮ":7830,"ĠØ´ÙĨØ§ÙĪØ±":7831,"Ø³ÛĮÚ©ÙĦØª":7832,"ĠÙĨØ¸Ø±Ùħ":7833,"ĠØ¯ÙĩØ§ÙĨÙĩ":7834,"ĠØŃØ¶Ø±Øª":7835,"ÙĪØ²ÙĨ":7836,"ĠØ§ÙĨØŃØµØ§Ø±ÛĮ":7837,"ĠØªÚ¯":7838,"ash":7839,"ĠÙĨØ´Ø¯ÙĨ":7840,"ens":7841,"ĠØ·ÙĪÙģØ§ÙĨ":7842,"Ø§ÙģØ±Ø§":7843,"ĠÙĨÚ©Ø§ØªÛĮ":7844,"Ø§ÙĦØªØŃØµÛĮÙĦ":7845,"ĠØªÙģØ§ÙĪØªÛĮ":7846,"ĠØ¯ÛĮÙĪØ§ÛĮ":7847,"Ø²ÙĪØ¯ÛĮ":7848,"ĠØ¨Ø¯ÙĩÛĮÙħ":7849,"ĠÙħØºØ°ÛĮ":7850,"ĠÙģÙĤØ±":7851,"ĠØ¬Ø§ÙĩØ§ÛĮ":7852,"ĠÙģÙĦÙģÙĦ":7853,"ĠÙ¾Ø³ØªÛĮ":7854,"ĠÙħÛĮÚ©ÙĨÛĮØ¯":7855,"ĠÙĪØ§Ú¯Ø°Ø§Ø±ÛĮ":7856,"ĠÙ¾Ø§Ø³Ø®Ú¯ÙĪÛĮÛĮ":7857,"ĠØ³ÙģØ±ÛĮ":7858,"ĠÚ¯ÙĨØ§Ùĩ":7859,"ĠÚ©ÛĮÙģÛĮ":7860,"ĠÚ¯Ø§Ø²ÙĩØ§ÛĮ":7861,"ĠØªØ±Ø§Ø²":7862,"Ø²Ø¨Ø§ÙĨ":7863,"ĠØ§ÙĪÚ©Ø±Ø§ÛĮÙĨ":7864,"ĠØ§Ø¹ØªØ±Ø§Ùģ":7865,"ĠØ¢Ø³ÛĮØ§ÛĮ":7866,"ĠÙģÙĦØ§":7867,"ĠØªÛĮØ±ÙħØ§Ùĩ":7868,"ĠCES":7869,"ĠÛĮÙĪÙĨÛĮ":7870,"ĠØªØ¬Ø§ÙĪØ²":7871,"ĠØ«Ø§ÙĦØ«":7872,"ĠØ¯Ø±ÙħÛĮ":7873,"Ú¯Ø±Ø¯ÛĮØ¯":7874,"ĠØ§Ø±Ø²Ø´ÛĮ":7875,"ÛĮØ§Ø±":7876,"ĠØ¨Ø¯ÛĮÙĩ":7877,"ĠØ§Ø±Ø¯Ø¨ÛĮÙĦ":7878,"ĠØ³ÛĮØ³ØªØ§ÙĨ":7879,"Ú¯Ø±Ø§ÛĮ":7880,"Ø¢ÙħØ¯Ùĩ":7881,"Ø¨Ø§Ø¯":7882,"ĠØ¢ÙĨØ¬":7883,"ĠÙ¾Ø±ÙĩÛĮØ²":7884,"ĠÙħÚ©Ø³":7885,"ÙĪÚ©Ø±Ø§Ø³ÛĮ":7886,"ĠÙħØ§ÙĦØ²ÛĮ":7887,"Ú¯Ø±Ø§Ùģ":7888,"ĠØ¹Ø¸ÛĮÙħÛĮ":7889,"Ġ80":7890,"ĠÚ©Ø§Ø±Ø¢ÙģØ±ÛĮÙĨÛĮ":7891,"ĠØ§ÙĪØ¨Ø§ÙħØ§":7892,"ĠØ¨Ø³Ø§Ø²Ø¯":7893,"ĠÙħÙĩÙħØ§ÙĨØ§ÙĨ":7894,"ĠØ¨ÛĮØªÛĮ":7895,"ĠÙĨØ§Ø´ÙĨØ§Ø®ØªÙĩ":7896,"ĠØªÛĮÚ©":7897,"ĠØ±ÛĮÚĨØ§Ø±Ø¯":7898,"ĠØ®ÙĪÛĮ":7899,"ĠØ¹Ø¬ÛĮØ¨ÛĮ":7900,"ID":7901,"ĠØŃØ³ÛĮ":7902,"ĠÙĪØ²ÛĮØ±Ø§ÙĨ":7903,"ĠÙħØªØ£Ø³ÙģØ§ÙĨÙĩ":7904,"ĠØªØ¹ÙĪÛĮÙĤ":7905,"ĠØ´ÛĮØ¨":7906,"AM":7907,"ĠÙĨØ±ÙĪÚĺ":7908,"ĠØ¨ÛĮÙĩ":7909,"ĠØ¯ÛĮÙĪØ§Ø±ÛĮ":7910,"ĠØ¨Ø±Ø§Ùħ":7911,"ĠØ±Ø´Øª":7912,"ĠÙĤØ±Ø¨Ø§ÙĨÛĮØ§ÙĨ":7913,"ĠØ²Ø§Ø¯":7914,"ÙħØ¯Ø§Ø±":7915,"ĠØªØ¬Ø§Ø±":7916,"ĠÛ²Û°Û°Û±":7917,"ĠØ±Ø²ÙĪÙħÙĩ":7918,"ĠÙħÙĪØªÙĪØ±Ø³ÛĮÚ©ÙĦØª":7919,"ĠØ¬Ø§Ø¯":7920,"ĠØªØ§Ø±ÛĮÚ©ÛĮ":7921,"Ø³Ø±Ø¹Øª":7922,"ĠØªØ±ÙĪÛĮØ¬":7923,"ĠØ³ÙĪØ§ÙĦÛĮ":7924,"ĠÙĨØ§Ù¾Ø°ÛĮØ±":7925,"ĠØ´Ø¯ÛĮØ¯ÛĮ":7926,"ĠÙģÙĪÙĦÚ©Ø³":7927,"ĠÙħØ³Ø¹ÙĪØ¯":7928,"ĠÙĦØ§Ùħ":7929,"ÙĨÛĮØ²":7930,"ĠUn":7931,"ĠØ¨Ø§Ø¯Ø§Ùħ":7932,"ĠÙ¾Ø´ØªÛĮØ¨Ø§ÙĨ":7933,"ĠØ±Ø¨Ø·":7934,"ĠÛĮÙħÙĨ":7935,"ĠØ´Ø§ÙĩØ²Ø§Ø¯Ùĩ":7936,"ĠØ´ÛĮÚ©":7937,"ĠÚ¯Ø±ÙħØ§ÛĮ":7938,"atch":7939,"ĠØ§Ø´Ø¹Ø§Ø±":7940,"ĠØ±ØºÙħ":7941,"ĠÙħØµØ·":7942,"ĠØ¨Ø±Ø§ØªÙĪÙĨ":7943,"Ú¯Ø°Ø§Ø´Øª":7944,"Ø¨Ø§ÛĮÛĮ":7945,"ĠØ§Ø³Ø§Øª":7946,"ĠØ³ÙĪØ³ÛĮ":7947,"ĠÙĩØ¯Ø±":7948,"Ø°Ú©Ø±":7949,"ĠØ¢ÙĪ":7950,"Û²Û°Û±Û":7951,"ĠÙĨØ¨ÙĪØ¯ÙĨØ¯":7952,"ÙĤØ§Ø¨":7953,"ÙĨÚ¯Ø§Ø±":7954,"ĠØªØ§Ø¨Ø´":7955,"Ø³Ø§Ø¹Øª":7956,"ĠØ§ÙĦØ¨Ø±Ø²":7957,"ĠÙĨÙĪÛĮØ³ÙĨØ¯Ú¯ÛĮ":7958,"ĠØ¨Ú¯ÙĪÛĮØ¯":7959,"ĠÙħØ§ÛĮÚ©":7960,"ĠØ±ÛĮØ´":7961,"ĠÙĪØ²Ø§Ø±ØªØ®Ø§ÙĨÙĩ":7962,"ĠÙħØ±ØªØ¨Ùĩ":7963,"Ù¾ÛĮÙĪÙĨØ¯":7964,"ĠÙĪÙĦØªØ§Úĺ":7965,"ĠØ§ÙħØ§Ú©ÙĨ":7966,"ĠÛ²Û°Û°Û²":7967,"ĠØ¨Ø³Ø§Ø²ÛĮØ¯":7968,"ĠØªØ²ÛĮ":7969,"ĠØ¨ÙĨÛĮØ§Ø¯ÛĮ":7970,"ĠÚ¯ÙĦÛĮ":7971,"ÙħØ«ÙĦ":7972,"ĠØ®ÛĮØ§Ø¨Ø§ÙĨÛĮ":7973,"ĠÙĦÛĮÙĪØ§ÙĨ":7974,"ĠØ§Ø±ØªÙģØ§":7975,"ĠØ³ØŃ":7976,"ĠÙĩØ±Ø¯":7977,"ĠÙħØ´Ú©ÙĪÚ©":7978,"ĠØ§Ú©Ø¨Ø±":7979,"ĠØ¢ÙĪÛĮ":7980,"ĠÚ¯ÙĪÛĮ":7981,"ØŃØ³Ø§Ø¨":7982,"ĠØ¯Ø§Ø±ÙĪÙĩØ§":7983,"ĠØ¨Ù¾Ø±Ø¯Ø§Ø²ÛĮÙħ":7984,"ÙħØ³":7985,"ĠØ³ÙĨÚ¯ÛĮÙĨÛĮ":7986,"ĠØ®Ø±Ùħ":7987,"ĠØ¯Ø±ÛĮÚĨÙĩ":7988,"ĠØªØ¬ÙĪÛĮØ²":7989,"ĠÙħØ§ÙĩÛĮÚĨÙĩ":7990,"her":7991,"ĠEd":7992,"ĠÙĪÛĮØ¯ÛĮÙĪÙĩØ§ÛĮ":7993,"ĠØ³ØªØ§Ø±Ú¯Ø§ÙĨ":7994,"ĠÙ¾Ø§Ø±Ø³Ø§ÙĦ":7995,"ĠØªØ§ÛĮÙħ":7996,"ĠØ§Ø³Ú©Ø±ÛĮÙ¾Øª":7997,"Ø³ÙĪØ§Ø±ÛĮ":7998,"ĠØ§Ø´ØªØ¨Ø§ÙĩØ§Øª":7999,"ĠØ¨ØŃØ±Ø§ÙĨÛĮ":8000,"ject":8001,"ĠÙħÙĦÚ©Ùĩ":8002,"Ø§ØªÙĪØ±ÛĮ":8003,"ĠØ±ÙĨ":8004,"ĠØ§Ø±Ø§Ø¯Ùĩ":8005,"ĠØªØ£Ø«ÛĮØ±Ú¯Ø°Ø§Ø±":8006,"ĠØ²Ùĩ":8007,"ĠØªØ¹ÙĤÛĮØ¨":8008,"Ġde":8009,"ĠÙĩÛĮÙĪÙĨØ¯Ø§ÛĮ":8010,"ĠØ§ÛĮÙħØ§ÙĨ":8011,"AR":8012,"ĠØ¨ÙĨØ¯Ùĩ":8013,"Ø§Ø±ÛĮØ¯":8014,"ĠØ¢Ø´Ù¾Ø²ÛĮ":8015,"ĠÙĪØ¬":8016,"ØªÚ©":8017,"ĠÙ¾Ø§Ø´":8018,"ĠÙģØ±Ùĩ":8019,"ĠØ±Ø¶ÙĪÛĮ":8020,"ĠÛ±Û³Û±Û":8021,"ĠÙĤØ¯Ø±Ø¯":8022,"ĠØ³ÛĮÚ©":8023,"ĠØªØ²Ø¦ÛĮÙĨ":8024,"ĠØ®ÙĪØ§ÙĩÙħ":8025,"ĠØ¯Ø±Ø¢ÙħØ¯ÙĩØ§ÛĮ":8026,"ĠÙĨÛĮØ³Ø§ÙĨ":8027,"ĠØ¶Ø±Ø¨Ø§ÙĨ":8028,"ĠØ¯Ø±Ø¯Ø³Ø±":8029,"Ú©Ø±Ø¯ÛĮÙħ":8030,"ĠÙĦØŃØ¸Ø§Øª":8031,"ĠØ¨Ø±Ú¯Ø±ÙģØªÙĩ":8032,"ÙĩÙħÙĩ":8033,"ÙĪÙħØªÛĮ":8034,"ĠÙĨØ§Ø¯":8035,"ĠÙĤØ´":8036,"ment":8037,"ĠØ¯ÛĮÙĪØ§Ø±Ùĩ":8038,"Ġ60":8039,"ĠÙĤØ§Ø±ÚĨ":8040,"ØªÙĪÙĨÙĩ":8041,"ĠØªÙĦÙģØ§Øª":8042,"ĠÚĺØ§ÙĨØ±":8043,"ĠÙħÙĤØ¯ÙħØ§ØªÛĮ":8044,"ĠÛ±Û¹Û¸Û°":8045,"ĠØ¨Ø§ÙĦÛĮÙĨÛĮ":8046,"ÙĨØ¯ÙĪ":8047,"ĠØ³ÙĨØ§ØªÙĪØ±":8048,"Ø§Ø³ØªØ§ÙĨ":8049,"ĠÙĩÙĪÙĦ":8050,"Û±Û±":8051,"Ø¦ÙĪØ³":8052,"ĠÙĨØŃÙĪ":8053,"ĠÙģØ±Ø¢ÛĮÙĨ":8054,"ĠÙ¾ÛĮÙĨ":8055,"ĠÙħØ§Ø³Ø§Úĺ":8056,"ĠÙĤÛĮØ¯":8057,"ĠÙ¾ÙĪØ´ÛĮØ¯ÙĨÛĮ":8058,"ĠÙħÚ©Ø§ÙĨÛĮÚ©":8059,"ĠØªÙĪÚ©ÛĮÙĪ":8060,"ĠØ±ÙĨÙĪ":8061,"ĠÙĦÙĪÚ©":8062,"ĠØªÚ©ÙĦÛĮÙģ":8063,"ĠÙħÙĤØ¯ÙħÙĩ":8064,"ĠØªØ±Ø³ÛĮÙħ":8065,"Ú©Ø³ÙĪÙĨ":8066,"ĠØ¯Ø±Ø§ÛĮÙĪ":8067,"Ø®ÙĪØ±ÛĮ":8068,"Ġon":8069,"ĠØ¨ÙģØ±Ø³Øª":8070,"ĠØ§ØµØ±Ø§Ø±":8071,"ĠÙģØ±ÛĮØ¨":8072,"ĠØ¨ÙħØ§ÙĨÙĨØ¯":8073,"ĠÙģØ§Ø¶ÙĦØ§Ø¨":8074,"ĠÙĤØ¨ÙĪÙĦÛĮ":8075,"ĠÛ±Û¸Û¸":8076,"ĠØ´Ø§ÛĮØ³ØªÙĩ":8077,"Ø§ÛĮÙ¾":8078,"ĠØ²ØŃÙħØª":8079,"Ø¨ÙĨÛĮ":8080,"ĠØ¨ÙĨØ§ÙĩØ§ÛĮ":8081,"Ø²Ø§ÙħÛĮ":8082,"ĠÙĪÚ©":8083,"ĠÙĨØ¸Ø±ØªØ§ÙĨ":8084,"ĠÙĨÚ¯Ø±Ø´":8085,"ĠÙ¾Ø§Ø¦":8086,"Ø¨ÙĦÙĨØ¯":8087,"ĠØ¨Ø§Ø²ÛĮÚ¯Ø±ÛĮ":8088,"ÙĪÚ©Ø§Ø±ÙĩØ§ÛĮ":8089,"ext":8090,"ĠÙħÙĦØ§ØŃØ¸Ùĩ":8091,"ĠØ¯Ø³ØªÚ¯ÛĮØ±ÛĮ":8092,"ĠÚ¯ÙĪØ¯":8093,"ÛĮØ§Ø¨ÛĮ":8094,"ĠØ¯Ú©ÙĪØ±Ø§Ø³ÛĮÙĪÙĨ":8095,"ĠØ³ØªÛĮØ²Ùĩ":8096,"Ø¹ÛĮØ§ÙĨ":8097,"ĠØ§Ø¨ÙĩØ§Ùħ":8098,"ĠØ§ÙģØªØ§Ø¯ÙĨ":8099,"ĠØ¹Ø§Ø¯ÙĦ":8100,"Ø®ÙĪØ´":8101,"Ø¬ÙĨÚ¯":8102,"ĠÙģØ§ÙĨØª":8103,"Ø®ÛĮØ²":8104,"ĠØ®Ø´ÙĨ":8105,"Ø¯Ø³ØªÛĮ":8106,"ĠØ³ÙĦÙĪÙĦÛĮ":8107,"ĠØ¨Ø§Ø®Øª":8108,"ĠØ§ÛĮÙĨÙģ":8109,"ĠØ±Ø³ÙħÛĮØª":8110,"ĠØ¨ÙĦÙĨØ¯ÙħØ¯Øª":8111,"ĠØ§Ø³Ú©ÛĮ":8112,"ĠØ¯ÛĮÙĪØ§ÛĮØ³":8113,"ĠØ¢Ø±Ø§ÙħÛĮ":8114,"ĠØºØ±ÛĮØ¨":8115,"ĠÚ©Ø¨Ø¯":8116,"ÙģÛĮÚ©":8117,"ĠØ§ÙģÙĤÛĮ":8118,"ĠØ¨Ø§Ø²ÛĮØ§ÙģØª":8119,"SL":8120,"ĠÙħØŃØ§Ú©":8121,"ĠÚ¯Ø§Ø±Ø¯":8122,"ĠØ²ÛĮØ¨Ø§ØªØ±ÛĮÙĨ":8123,"Û°Û³":8124,"ĠØ±Ú©ÙĪØ¯":8125,"ĠØŃØ§Ø¦Ø²":8126,"ÛĮÙĨÙĪØ³":8127,"ĠØ³ÙħÙĨØ§ÙĨ":8128,"ĠØ¯ÙģÙĨ":8129,"ĠÙģØ§Ø·":8130,"ĠÛ¹Û²":8131,"Ø¹Ø¨Ø§Ø³":8132,"Ø³ØªÙĨ":8133,"ĠØªØ±ÙĪØ±":8134,"ĠØ§Ø·Ø±Ø§ÙģÛĮ":8135,"ĠÙĤÙģ":8136,"ĠÙħÙĨØªØ®Ø¨":8137,"ĠØ¢ÛĮØªÙħ":8138,"ĠÙĩÛĮØª":8139,"ĠØºØ±ÛĮ":8140,"ĠÙħÙī":8141,"rom":8142,"ĠÙĨÛĮÙĪØªÙĨ":8143,"ĠØ§ÙĦÚ¯ÙĪÙĩØ§ÛĮ":8144,"Ø«Ùĩ":8145,"ĠÙħÚ©ØªØ¨":8146,"ÙĦÛĮÚ©Ø³":8147,"ĠÙĨØ§ÙĤ":8148,"ĠØ¯Ø³ØªØ§ÙĪØ±Ø¯":8149,"ĠØ¨Ø±Ø³Ø§ÙĨÙĨØ¯":8150,"ÙĦÛĮÙħÛĮ":8151,"ĠÙĩÙĪØ´ÙħÙĨØ¯ÛĮ":8152,"ĠØ¨Ø³ØªÙĨ":8153,"ĠØ¨Ø²Ø±Ú¯Ø±":8154,"ĠÚ©Ø§Ø´ÛĮ":8155,"ĠÙħÛĮÚ©ÙĨÙĨ":8156,"ĠÙħÙĤØ§ØµØ¯":8157,"ĠØ¸Ø±ÙĪÙģ":8158,"ĠØ´Ø±Ú©ØªÙĩØ§ÛĮ":8159,"ĠØªØ¹Ø§":8160,"ĠÙħØ¨ÙĦØºÛĮ":8161,"ĠØ¨Ø¯ÛĮØ¯":8162,"ĠÙĨØ§Ø²ÛĮ":8163,"ØªØ§Ø±ÛĮ":8164,"ĠØ¢ÙħØ¯ÙĨØ¯":8165,"ĠÙĩÛĮØ¯Ø±ÙĪÚĺÙĨ":8166,"ĠØ§Ø¨Ø²Ø§Ø±ÙĩØ§":8167,"Ø³ÙĪÛĮ":8168,"ĠØ¨ÙĦÙĨØ¯ÛĮ":8169,"ĠØªÙĪØ§ÙĨÙħÙĨØ¯ÛĮ":8170,"Ø®ÙĪØ±ÙĨØ¯":8171,"ĠÙ¾ÙĨØ¬ÙħÛĮÙĨ":8172,"âĢĮâĢĮâĢĮâĢĮ":8173,"ĠØªÛĮØ±Ø§ÙĨØ¯Ø§Ø²ÛĮ":8174,"ĠØ±ÙĪØ²Ú¯Ø§Ø±":8175,"Ø§ÙħØªÛĮ":8176,"ĠØ¨Ø¯Ø§ÙĨÙĨØ¯":8177,"ĠÙħØ¶Ø±":8178,"ĠÚ©ÙĪØ±Øª":8179,"ĠÙħÚĨ":8180,"ĠØ¢Ø¬":8181,"ĠØ³Ø³":8182,"ĠÙ¾Ú©ÙĨ":8183,"ĠØ¢ÙĨØªÙĨ":8184,"ĠØ¹ÙĩØ¯":8185,"ĠØ¨ÛĮØ§Ùħ":8186,"ĠÛ´Û¶":8187,"ĠÙħØ±Ø³ÙĪÙħ":8188,"ĠØºØ§ÙĦØ¨":8189,"ĠØ³Ø§ÙħØ§ÙĨØ¯ÙĩÛĮ":8190,"ĠØ¨Ø¯ÛĮÙĩÛĮ":8191,"ĠØ´ÙĪÙħ":8192,"RM":8193,"ĠØ¢ÙĪØ±Ø¯ÙĨØ¯":8194,"ĠØ§ÙħÙĪØ§ÙĦ":8195,"ĠÙĩØ§Ø±ÙĪ":8196,"ĠÚ©ÙħØ±Ø¨ÙĨØ¯":8197,"ĠÚ©ÙĪØ±Ùĩ":8198,"ĠÙħÙģØµÙĦ":8199,"ĠØ¨Ø§Ø²Ø¯ÙĩÛĮ":8200,"ata":8201,"ĠØŃØ±ÙģÛĮ":8202,"ĠØ®ÙĪØ§ÙĨÙĨØ¯Ú¯Ø§ÙĨ":8203,"ĠÙĤØ±Ùĩ":8204,"ÙĨØ¸Ø§ÙħÛĮ":8205,"ĠØ§ÙĤØ¯Ø§ÙħØ§ØªÛĮ":8206,"ĠØŃÙĪØµÙĦÙĩ":8207,"ĠØ§ÙħÛĮÙĨ":8208,"ĠØ¹Ø§ÙħÙĦÛĮ":8209,"ug":8210,"Ø§ÙħÚ©Ø§ÙĨ":8211,"ĠØ¬ÙĪØ±Ø¬":8212,"IS":8213,"ĠØ°Ø®Ø§ÛĮØ±":8214,"ĠØ¯Ø§ÙĨØ³ØªÙĨ":8215,"ÙĪØ²ÛĮØ±":8216,"able":8217,"ĠÙģØ±Ø¹ÛĮ":8218,"ĠØªÙĪØ±ÙĩØ§ÛĮ":8219,"ĠØ¨Ø®ØªÛĮØ§Ø±ÛĮ":8220,"19":8221,"ĠØ³ÙĨÚ¯Ø§Ù¾ÙĪØ±":8222,"ÛĮÙĨØ§ÙħÙĩ":8223,"ĠÛ¹Û´":8224,"ber":8225,"ĠÙħÙĨØ¸Ø±":8226,"oun":8227,"ĠÛĮÙĪÙĨØ³Ú©ÙĪ":8228,"ĠÙħØ´ØªØ§ÙĤ":8229,"ĠØªÙĦÙģÛĮ":8230,"ĠØ®ÙĨØ«ÛĮ":8231,"Ø±Ø¶Ø§":8232,"ĠÙħØ¹Ø§Ùģ":8233,"ĠØ¢Ù¾Ø§Ø±ØªÙħØ§ÙĨ":8234,"ĠØ¨ÙĪÙĦ":8235,"ĠØ³Ø§ÙĨØª":8236,"ĠØ¶ÙĦ":8237,"ĠÙħØŃÙħÙĪÙĦÙĩ":8238,"ĠØ§Ø³ØªØ§ÙĨÛĮ":8239,"ĠÚ©ÙĦÙħØ¨ÛĮØ§":8240,"ĠØªØµØ§ØŃØ¨":8241,"ĠØ¨Ø±Ø§Ø¯Ø±Ø´":8242,"ĠÛµÛ´":8243,"ĠÙĩØ§Ùħ":8244,"ĠÚ¯Ø±Ø³":8245,"ĠØ¢Ø±ÚĺØ§ÙĨØªÛĮÙĨ":8246,"ĠØ§ÛĮÙĨÚ©Ø§Ø±":8247,"ĠØ¯Ø²":8248,"ĠPC":8249,"ØªØ¹":8250,"ĠÙ¾Ø³Ø±Ø´":8251,"ĠÛ±Û¹Û·Û°":8252,"ĠÙħØ¯Ø§Ø®":8253,"ĠØ§Ø¹ÙĦØ§ÙĨ":8254,"ĠÙħØ¨Ø§Ø±Ø²":8255,"ech":8256,"ĠØ§Ø³ØªÛĮØ´ÙĨ":8257,"ĠØŃÚ©ÙĪÙħØªÛĮ":8258,"ĠÛµÛ²":8259,"Ø±ÙĪÛĮØ¯":8260,"ĠÙĨÙĪÛĮØ²":8261,"ÛĮØ±ÙĪ":8262,"ØªÙĪÙĨÛĮØ¯":8263,"ĠØ¢ÙĤ":8264,"ĠÚ¯Ø±Ø¯Ø´Ú¯Ø±":8265,"ĠØ¬Ø§Ø³ÙĪØ³ÛĮ":8266,"ĠÙĩØ³ØªØ´":8267,"ĠØ®Ø·Ø§ÛĮ":8268,"ĠÙħØªÙĪØ§ÙĦÛĮ":8269,"ĠØªÙĪÙħ":8270,"ĠÙĨØ´ÙĪÙĨØ¯":8271,"ĠÙħÙĪØ´Ú©ÛĮ":8272,"ĠØªØ±ÙħÛĮÙħ":8273,"ĠÙĤØ·Ø±Ùĩ":8274,"ĠÛ±Û³Û¹Û·":8275,"ĠÙħØ®Ø§Ø·Ø¨ÛĮÙĨ":8276,"ĠØªÙĤØ¯ÛĮØ±":8277,"ĠÙĦØ·ÙģØ§":8278,"ĠØªØ§Ø¨Ø³ØªØ§ÙĨÛĮ":8279,"ĠØ§ÙĤÙĪØ§Ùħ":8280,"ĠâĢĭâĢĭ":8281,"old":8282,"ower":8283,"AT":8284,"ĠÙħÚ¯Ø§Ù¾ÛĮÚ©Ø³ÙĦ":8285,"ĠÙĦØ§ÙĨ":8286,"ĠÚ©Ø±Ø³ÛĮ":8287,"Ø±Ø§ÙģØª":8288,"ome":8289,"ĠÙ¾ÛĮÙĪØ³ØªÙĨ":8290,"Ø§ÙĤØ¨":8291,"ĠÙ¾ÙĩÙ¾Ø§Ø¯":8292,"ĠÙĨØ§Ø®ÙĪØ¯":8293,"ĠÙĨØ´ÙĪÛĮØ¯":8294,"Ø±ÙħØ§Ùĩ":8295,"ĠØ¬Ø§ÙħØ¯":8296,"ĠÙħØ§Ø¯Ø±Ø§ÙĨ":8297,"ĠÙģØ±Ø§ÛĮÙĨØ¯ÙĩØ§ÛĮ":8298,"ĠØªØ§ÚĨ":8299,"ĠÚĨØ±Ùħ":8300,"ĠØªØ®ØªÙĩ":8301,"ĠØ³Ø§ÙĤ":8302,"ĠØ§Ø³Ø§ÙħÛĮ":8303,"ĠÙħØ´ØªØ±Ú©Ø§ÙĨ":8304,"ĠÙĦØ§Ø³ØªÛĮÚ©":8305,"Ø±ÙĪØ¨":8306,"ĠØºØ°Ø§Ø®":8307,"Ø§Ø¸Ø±":8308,"ĠÙĨØ´Ø³ØªÙĨ":8309,")Â»":8310,"ĠØµØ±Ø§ÙģÛĮ":8311,"ĠÙħØ¹ÛĮØ§Ø±ÙĩØ§ÛĮ":8312,"ĠØªÙĪÙĤÛĮ":8313,"ink":8314,"ĠÚ©ØªÛĮ":8315,"ĠØ¨Ø¨ÙĨØ¯":8316,"cess":8317,"ĠØ§Ø³ØªÙĪØ±ÛĮ":8318,"ĠÙħÙĩÙĦØª":8319,"ĠÙģØ±ÙħØ§ÙĨØ±ÙĪ":8320,"ĠÙĦØ§Ø²":8321,"ĠØ§Ø¨ÛĮ":8322,"ĠØ§ÙģØ´Ø§":8323,"ĠÙħÙĩØ±Ùĩ":8324,"ok":8325,"ĠÙħÙĨØ§Ø·ÙĤÛĮ":8326,"ĠØºØ¨Ø§Ø±":8327,"ĠØ¨ÙĩØ´Øª":8328,"ĠÙ¾Ø§Ø³Ø¯Ø§Ø±Ø§ÙĨ":8329,"ĠØ®Ø¨Ø±ÙĩØ§ÛĮ":8330,"ĠØ¨Ø±Ø§ÛĮÙħ":8331,"ĠØ¨Ø²Ø±Ú¯Ø§ÙĨ":8332,"ĠÚ©Ø§Ø±ÙģØ±ÙħØ§":8333,"ĠÙħÙĪÙģ":8334,"ĠÙĤØ´Ø±":8335,"ĠÚ©ÙĨØ³":8336,"ĠØªØ§Ø´ÙĪ":8337,"ĠÙĪØ§Ø¯Ø§Ø±":8338,"ĠÙĨØ§ÙĨÙĪ":8339,"ĠÙĨØ§Ø§ÙħÛĮØ¯":8340,"ĠØ³ÛĮØ±ÛĮ":8341,"ĠâĢ¢":8342,"ĠPr":8343,"ĠØ¨ÙĪØ¦":8344,"ĠØ¨ÙĩÚ©":8345,"ĠÙĤØ¨ÛĮÙĦÙĩ":8346,"ĠÚ©Ø´ØªÙĨ":8347,"ĠØ¹ÙĪØ§ÙħÙĦÛĮ":8348,"ĠØªÙĪØ§ÙĨÙħÙĨØ¯":8349,"ÛĮØ´ÙĨÛĮ":8350,"Ġ17":8351,"ĠØ§Ø³Ø§ØªÛĮØ¯":8352,"ĠÚ¯ÙĪØ§ÙĩÛĮÙĨØ§ÙħÙĩ":8353,"ĠÙħÛĮØ³Ø±":8354,"ĠÙĨØ²":8355,"ØªØ±ÙĩØ§":8356,"Ù¾Ø´Øª":8357,"ĠØ¨Ø±Ø§Ø¯Ø±Ø§ÙĨ":8358,"ll":8359,"ĠÚĨØ§Ø±Ùĩ":8360,"ence":8361,"ÙĪØ¬Ùĩ":8362,"ĠØ¢ÙĨØ§ÙĦÛĮØ²":8363,"ree":8364,"ĠØ¨Ø±Ø¯Ø§Ø´ØªÙĨ":8365,"ĠØ³Ø±Ø¯Ø§Ø±":8366,"ĠÙĤØ§Ø¨ÙĦÛĮØªÛĮ":8367,"ĠÚ©Ø´ØªØ§Ø±":8368,"ĠÛ¸Û¶":8369,"ĠÙĨØ§ÙħÛĮØ¯":8370,"Ø±ÙģØªÙĩ":8371,"ĠÚ¯Ø±Ø¯Ùĩ":8372,"ĠØ³ÙĨÛĮÙĨ":8373,"ĠÙģØ¶Ø§Ù¾ÛĮÙħ":8374,"ĠØ±Ø§ÙĩØ¨Ø±Ø¯ÛĮ":8375,"ĠØ¨ÛĮÙĨÙĨØ¯Ùĩ":8376,"Ø¬ÙħÛĮ":8377,"ĠÙĩÚ©Ø±ÙĩØ§":8378,"ĠÚ©Ø±Ø¬":8379,"ĠØ¨ÙĨÚ¯Ø§Ùĩ":8380,"ĠÙ¾ÛĮØ§ÙħÛĮ":8381,"ĠÚ¯Ø±ÙģØªÛĮÙħ":8382,"ĠÛĮØ§ÙģØªÙĨØ¯":8383,"ĠØ§Ø®ØªÙĦØ§ÙģØ§Øª":8384,"ĠØ¨ÙĩØ§Ø¯Ø§Ø±":8385,"Ø§Ø¦ÙĦÛĮ":8386,"ĠÙĨÙĪØ²Ø¯ÙĩÙħ":8387,"Ø´ÙĨØ§Ø³ÙĨØ¯":8388,"ĠØ¨Ú¯Ø°":8389,"ĠÙħÙĤØµ":8390,"ĠÙĨØ§ÚĨØ§Ø±":8391,"aw":8392,"Ø³Ø±Ø§":8393,"Ø¦Ø§ÙĦ":8394,"ĠÚ©ÙĪÛĮØª":8395,"ĠØ¹ÙĤØ¯":8396,"ĠØ§Ø³Ø±Ø§Ø¦ÛĮÙĦÛĮ":8397,"ĠÙħÛĮØ´ÙĪÙĨØ¯":8398,"ĠÙĦØ´Ú©Ø±":8399,"Ø§ÙĦØ§":8400,"Ø§ÛĮÙĨØ¯ÛĮ":8401,"ĠØ¨Ø±Ø§ÙĨÚ¯ÛĮ":8402,"ĠÙĨÛĮØ³ØªÙħ":8403,"ĠÛµÛ¶":8404,"ĠÙĨÙĪØ¨ÙĦ":8405,"ĠØ¨Ø§Ø²ÙĨØ´Ø³ØªÚ¯ÛĮ":8406,"ĠØ¨ÙĦÙĪÚĨØ³ØªØ§ÙĨ":8407,"ĠØ¯Ø³ØªÙħØ²Ø¯":8408,"ĠØ§Ø±Ø¬Ø§Ø¹":8409,"ĠØ§Ø¯Ø±Ø§Ø±":8410,"ĠØªØµÙĪÛĮØ±Ø¨Ø±Ø¯Ø§Ø±ÛĮ":8411,"ĠÙ¾ÙĪÙĨØ¯":8412,"ĠÙĨØ´Ø§ÙĨÚ¯Ø±":8413,"ĠØ¨Ø²Ø±Ú¯Ø±Ø§Ùĩ":8414,"ĠØ³Ø¯Ø§ÙĨ":8415,"SM":8416,"ĠØ§Ø±Ø§Ø¶ÛĮ":8417,"ĠØ¬ÙĨØ¬":8418,"ĠÚ©ÙĦØ³ÛĮÙħ":8419,"Ø¯Øª":8420,"alax":8421,"ÙĪÙĨÙĤÙĦ":8422,"ĠÙĤÙģØ³Ùĩ":8423,"ĠØ§ÙĨÚ©Ø§Ø±":8424,"ĠÙĩØ§Ø¦ÛĮ":8425,"ĠÚ©ÙĪÙ¾Ø±Øª":8426,"ĠØªØ±Ùģ":8427,"Ø·Ø§ÙĨÛĮ":8428,"ĠØ¹Ø¨Ø§Ø³ÛĮ":8429,"ĠØ§Ø¬ÙĦØ§Ø³":8430,"ĠÙħØ³Ø¦ÙĪÙĦÛĮÙĨ":8431,"Ø¬ÙĪØ±":8432,"ĠÙħØ¹Ø§ÛĮ":8433,"ĠÛĮØ§Ø±Ø§ÙĨÙĩ":8434,"ĠÛ·Û²":8435,"ĠØºØ±ÙģÙĩ":8436,"ĠÙħØ§Øª":8437,"Ø¶Ø±":8438,"ĠØ¨Ø¯ÛĮÙħ":8439,"ĠÙħÙĨØ§ÙĤ":8440,"ĠØ¯Ø§Ø¹Ø´":8441,"ĠØ¬ÙħÙĦØ§Øª":8442,"Ø¯Ø§Ø¯ÙĨ":8443,"ĠÙĨØ§Ú¯ÙģØªÙĩ":8444,"Ø´ÙħÙĩ":8445,"ĠÙģØ±Ø¶ÛĮÙĩ":8446,"alaxy":8447,"Ú¯Ø°Ø´Øª":8448,"ory":8449,"ĠØ®Ø²Ø§ÙĨÙĩ":8450,"ĠØ¯Ø±Ø¢ÙħØ¯ÛĮ":8451,"ĠØ§ÙĦÙĩÛĮ":8452,"ĠØºÛĮ":8453,"ÙĤÙĦÛĮ":8454,"ĠÙģÙĨØ¬Ø§ÙĨ":8455,"ĠØ¨Ø§Ø±Ø²":8456,"ĠØ¢Ø°Ø±ÙħØ§Ùĩ":8457,"ÙĪÙħØªØ±":8458,"ØªÛĮÙħ":8459,"ĠØ±ÛĮØ§Ø¶ÛĮØ§Øª":8460,"ÙģÚ©Ø±":8461,"ĠÙĤØ±Ø§Ø±Ú¯ÛĮØ±ÛĮ":8462,"ÙħØ±Ø¨":8463,"ĠØ¨Ù¾ÙĪØ´":8464,"Ú©Ø´ÛĮØ¯":8465,"ÚĨÛĮØ²ÛĮ":8466,"ĠQu":8467,"ĠØ¹ÙħØ§Ø±Øª":8468,"ĠÙħØ§Ø¯ÛĮ":8469,"ĠØ´ÙĨÛĮØ¯":8470,"Ø¸ÙħÛĮ":8471,"ĠÙĪÙĤÙģÙĩ":8472,"Ø±ÙĪÙĨ":8473,"ĠØºØ°Ø§ÙĩØ§":8474,"ĠÙģÙĨÙĦØ§ÙĨØ¯":8475,"ĠØ²ÛĮÙĨ":8476,"ÙģÙĨ":8477,"ÚĨÙĩØ§Ø±":8478,"ĠØ¨ÙĦÛĮØª":8479,"ĠØ¨ÙĦÚĺÛĮÚ©":8480,"ĠØ¯Ø§Ø¯Ø³ØªØ§ÙĨ":8481,"Ù¾ÛĮÚĨ":8482,"ĠØ³Ø§ÙĦÛĮØ§ÙĨÙĩ":8483,"ĠLCD":8484,"ĠÙħØ±ÙĪ":8485,"ĠØªØ·Ø¨ÛĮÙĤ":8486,"Û°Û¹":8487,"Ø¬Ø§ÙĨØ¨Ùĩ":8488,"ĠØ¨Ø²Ø±Ú¯Ø³Ø§ÙĦØ§ÙĨ":8489,"Ø§Ø¨ÙĪØ±":8490,"Ø²ÛĮØ³ØªÛĮ":8491,"ĠDNA":8492,"ĠØ§Ø°ÛĮØª":8493,"Ûķ":8494,"ĠØ¯Ø§Ø´ØªÛĮØ¯":8495,"ĠÛĮÙĪÚ¯":8496,"ĠÙģÙĦØ§ÙĨ":8497,"ĠÚ¯Ø°Ø±Ø§ÙĨØ¯ÙĨ":8498,"Û¹Û°":8499,"ĠØ¢Ø±Ø§ÛĮØ´ÛĮ":8500,"ĠÙħØµØ·ÙģÛĮ":8501,"ĠØªØ¯Ø§Ø±Ú©":8502,"ĠØ§Ø¹Ø¸Ùħ":8503,"Ġyou":8504,"Ø±ÛĮØ¶":8505,"ĠÙħÛĮØ¯ÙĪÙĨ":8506,"ØµØª":8507,"ĠØ§Ø³Ú©ÙĨØ¯":8508,"ĠØŃÙħÛĮØ¯":8509,"ĠÙĨÙħØ§ÛĮØ´Ú¯Ø±ÛĮ":8510,"ĠCon":8511,"ĠÙħÙĪØ§Ø²ÛĮ":8512,"MI":8513,"Ø¨ÙĦØª":8514,"ĠØªÙĪØª":8515,"ĠØ´Ú©ÙĦØ§Øª":8516,"ĠØ³Ø§Ø³Ø§ÙĨÛĮ":8517,"ĠÙģØµÙĦÛĮ":8518,"ĠØ§Ø¨Ø¯Ø§Ø¹":8519,"ĠÙ¾Ø§ÛĮØ§ÙĨÙĩ":8520,"ØªÙĪØ¬ÙĩÛĮ":8521,"Ú¯ÛĮØ±Ø§ÙĨÙĩ":8522,"ĠÙħÙĪØ³ÙĪÛĮ":8523,"ĠÙħØ¹ÙĨØ§Ø³Øª":8524,"ĠÙ¾Ø±ÚĨÙħØ¯Ø§Ø±Ø§ÙĨ":8525,"ĠØ¨Ø±Ù¾Ø§":8526,"ĠØªÙĪÙĨÙĦ":8527,"ĠÚ©ÙħØ§Ú©Ø§ÙĨ":8528,"ĠØ¢Ø±Ø¯":8529,"ØºØ±ÛĮ":8530,"ÙħØ§Ø³ÛĮ":8531,"ĠØ¬Ø¯ÛĮØ¯Ø´":8532,"ĠÙĩØ±ÛĮÚ©":8533,"ÛĮØ´ÛĮ":8534,"Ø¯Ø§ÙĨØ´":8535,"ĠÙħØ§ÙĨØ¯Ú¯Ø§Ø±":8536,"ÙĪÙĦÙĪÚĺÛĮÚ©ÛĮ":8537,"ĠØªÙĪÙĤÛĮÙģ":8538,"ĠØ·ÙĨØ²":8539,"Ø®ÙĪØ§Ø¨":8540,"ach":8541,"ĠÙĨØ¨Ø§Ø´ÙĨØ¯":8542,"The":8543,"ĠØ§ÙĦÙĨ":8544,"ĠÙģØ±Ø¯ÙĪØ³ÛĮ":8545,"90":8546,"ĠÛĮØ§Ø²Ø¯Ùĩ":8547,"ĠØ¨ÛĮØ§ÙĪØ±ÙĨØ¯":8548,"ĠÚ©ÙĪØ´Ø´":8549,"ÛĮØ§Ø¯":8550,"ĠÙħÙĨØ¸ÙĪÙħÙĩ":8551,"ĠØ¬Øª":8552,"ĠØ¯Ú©ØªØ±ÛĮ":8553,"ĠÛ±Û°Û¸":8554,"ĠÙħÙĩØ§Ø¬Ùħ":8555,"ĠÙĨØ¯ÙĩØ¯":8556,"ĠØ±ÙĪØ§ÙĦ":8557,"ĠØªÚ©ÙħÛĮÙĦÛĮ":8558,"ĠÙħØŃØªØ±Ùħ":8559,"Ġ&":8560,"ĠÙħÙĪØ±Ø¯ÛĮ":8561,"ĠØªØ³Ø±ÛĮ":8562,"ee":8563,"ull":8564,"ĠØªÙħØ§ÛĮØ²":8565,"ĠØªØŃÙħÛĮÙĦ":8566,"ĠÚ¯Ø´":8567,"ÙĤØ§Ø¹Ø¯":8568,"ĠØ¨Ø±Ú¯Ùĩ":8569,"ĠÙĤØ¯Ø±Ø¯Ø§ÙĨÛĮ":8570,"ĠÙĪÛĮØ±Ú¯ÙĪÙĦ":8571,"ĠÙĩÙģØªÚ¯ÛĮ":8572,"ĠÙ¾Ø®ØªÙĩ":8573,"ĠØ§ÙĨØ¬Ø§ÙħÛĮØ¯":8574,"ĠÙ¾Ø±ÛĮÙĨ":8575,"ĠÙħØ²Ø§Ø±":8576,"ĠID":8577,"Ú¯ÙĪØ´":8578,"ĠÙĩØ§ÛĮØ´Ø§ÙĨ":8579,"ĠÙĨÙħÙĪØ¯ÙĨØ¯":8580,"ĠÛµÛ¸":8581,"ĠÙ¾Ø±Ø¯Ø§Ø®ØªÙĨØ¯":8582,"ĠÙĩÙģØªØ§Ø¯":8583,"ĠÚ©ÙĪØ¨":8584,"ĠØ¹ÙħØ§ÙĨ":8585,"ĠØ³ÛĮÙĨØ§":8586,"ĠÙĨÛĮÙĨØª":8587,"ĠØ¬ÙĨØ§":8588,"ĠÙħÛĮÚ©Ø±Ø¯Ùħ":8589,"ĠÙħØ³Ø§Ø¦ÙĦÛĮ":8590,"Ø§ÙĤØ¹ÛĮ":8591,"ĠÙ¾ÙĪØ´Ùĩ":8592,"ÙĦÚ©":8593,"ĠÙħØ¨Ø¯ÙĦ":8594,"Ø§ÛĮØ§":8595,"DR":8596,"ÃĹ":8597,"ĠØ¯Ø§ÙĪØ·ÙĦ":8598,"ĠÙħÛĮÚ¯ÙĪÛĮÙĨØ¯":8599,"ĠÚ¯Ø±Ø¯ÙĪ":8600,"ĠØ§ÙĤØ§ÙħØªÚ¯Ø§Ùĩ":8601,"ĠÙħØ´ÙĩÙĪØ±ØªØ±ÛĮÙĨ":8602,"ĠØ§ÛĮÙĦØ§Ùħ":8603,"ĠÙĤØ±ÙĪÙĨ":8604,"ĠØ¨Ø§Ø²Ú¯Ø´Ø§ÛĮÛĮ":8605,"ĠØ®Ø²Ø±":8606,"ÙħÙĦÚ©":8607,"ĠÚĺÙĪØ±ÙĨ":8608,"ÙĦØ§ÙĤ":8609,"ĠÙ¾Ø±Ø³ÙĨÙĦ":8610,"Ø¬Ø§ÙħØ¯":8611,"roid":8612,"Ù¾Ø§Ø´ÛĮ":8613,"ĠØ²ÙĨØ§ÙĨÙĩ":8614,"ĠØ¯ÛĮØ§ÙģØ±Ø§":8615,"ĠØ¬ÙĨÚ¯ÙĦÛĮ":8616,"ake":8617,"ĠÙģÙĪØ§ÛĮØ¯":8618,"ĠÙĨÙħÙĪØ¯ÙĨ":8619,"ĠÙĨÙĩØ§Ø¯Ùĩ":8620,"ĠØ¹Ø§ÛĮÙĤ":8621,"ett":8622,"ÙĪØ¶":8623,"ings":8624,"ction":8625,"ĠØ¹ÙģÙĪÙĨÛĮ":8626,"ĠÙ¾ÛĮØªØ±":8627,"Ø¨Ø§Ø±Ø§ÙĨ":8628,"ĠØ±Ø§ÙĩÙĨÙħØ§":8629,"ĠSSD":8630,"ĠØ¹ÙħØ±Ø§ÙĨ":8631,"ĠØ¯Ø§ÙĪØ±ÛĮ":8632,"ĠÙĦØ±Ø³ØªØ§ÙĨ":8633,"ĠØ¹Ø¯Ø¯ÛĮ":8634,"ĠÙĪØ®":8635,"ĠÙ¾ÛĮØ´ÙĨÙĩØ§":8636,"ĠØ§ÙĤÙĦÛĮÙħÛĮ":8637,"ors":8638,"ĠÙĦÛĮØ¨ÛĮ":8639,"ÙĨØ§ÙĦ":8640,"ĠÙĪØ§ÙĤØ¹Ùĩ":8641,"Ø³Ø§Ø²Ø§ÙĨ":8642,"ĠØ¹ÙĦÙĨÛĮ":8643,"ĠÙħØ§Ø¯Ø±ÛĮ":8644,"ĠÙħÙĪÙģÙĤÛĮ":8645,"ĠØ¨ÙĨÚ¯":8646,"ĠØ¢Ø«Ø§Ø±ÛĮ":8647,"ĠØ¢Ø¦ÙĪØ¯ÛĮ":8648,"21":8649,"ĠÙĤØ§ÙĦÛĮ":8650,"ĠÙħÛĮÚ¯Ùĩ":8651,"ĠÚ¯ÙĪØ¬Ùĩ":8652,"ĠÙģØ±ÙĤÛĮ":8653,"ÛĮÙħÙĨ":8654,"Ú©Ø¯":8655,"ĠØ¯Ø§ÙħÙĨ":8656,"ĠØ§ØµÙĪÙĦÛĮ":8657,"ĠÙģÙĤÛĮØ±":8658,"ĠØ§Ø¹Ø·Ø§":8659,"ĠØ¢ÙĦÙĪÙħÛĮÙĨÛĮÙĪÙħ":8660,"ĠØªÙĤÙĦÛĮØ¯":8661,"ĠØ·ÙĦØ§ÛĮ":8662,"ĠÛ±Û¹Û¶Û°":8663,"Ù¾Ø³ÙĨØ¯":8664,"Û±Û³":8665,"ĠÙĨÛĮÙĨØªÙĨØ¯ÙĪ":8666,"ĠØµØ§Ø¯Ø±Ø§ØªÛĮ":8667,"Ø³Ø±Ø§ÛĮ":8668,"ĠØ²ÛĮØ±Ø²ÙħÛĮÙĨÛĮ":8669,"ĠÙĨÙĪØ´ÛĮØ¯ÙĨ":8670,"Ġ=":8671,"ĠØ±ÛĮÙĦ":8672,"Ú¯ÙĪØ§Ø±":8673,"ĠÙ¾ÛĮØ´Ø±ÙĪ":8674,"ĠØªØ±Ø§Ø¨":8675,"ĠØ³Ø±ÛĮØ¹ØªØ±":8676,"ĠØ±ÙĪÙħÛĮ":8677,"ĠÚ©ÙĨØ¬Ú©":8678,"ĠÙĪØ§Ø³Ùĩ":8679,"ĠØ§Ø±Ø¯ÙĪÚ¯Ø§Ùĩ":8680,"ĠÚ©Ø¯ÙĪÙħ":8681,"ong":8682,"ĠØ§Ø·Ø±Ø§ÙģÛĮØ§ÙĨ":8683,"ĠØ§Ø±Ú¯Ø§ÙĨÛĮ":8684,"ave":8685,"Ú¯ÙĪÛĮÛĮÙħ":8686,"ĠØ¹ÙĤØ§ÛĮØ¯":8687,"ĠØ±Ø§Ø³ØªÛĮ":8688,"ĠÙħØªÙĤØ§Ø¹Ø¯":8689,"Ø³Ø§Ø·":8690,"ĠØ±Ø§ÙĨØ¯":8691,"ĠÚ©ÙĪÙĦØ±":8692,"ĠÚ©ÙĪÙĩØ³ØªØ§ÙĨ":8693,"ĠØ§Ø´Ø¹Ùĩ":8694,"ĠØ§Ø³ØªØ§Ø±":8695,"ĠÚ©ÙĨØ¯ÛĮ":8696,"ÙĦØ±Ø²Ùĩ":8697,"ĠØ±ÙĤÙħÛĮ":8698,"Ø³ÙģØ±":8699,"Ø²ÛĮØª":8700,"ML":8701,"Ø±ÛĮØ±":8702,"ĠÙħØ²ÙħÙĨ":8703,"ÙĨÙĪØ¹":8704,"Ø§ÙĨÛĮØ¯":8705,"ĠÙĤØµ":8706,"ult":8707,"und":8708,"ĠØ´Ø¹ÙĦÙĩ":8709,"ĠØ§ØµØ§ÙĦØª":8710,"ĠØªÙħÙĪÙħ":8711,"ĠØªØ§Ø«ÛĮØ±ÛĮ":8712,"ØªØ§ÛĮÛĮ":8713,"ĠØ¨ÛĮÙĨØ§ÛĮÛĮ":8714,"ĠÙħØµØ§ÙĦØŃ":8715,"ĠÛ·Û´":8716,"Û¹Ûµ":8717,"ĠØ¢Ø²ÙħØ§ÛĮØ´Ú¯Ø§ÙĩÛĮ":8718,"ĠÙĨØ§Ø®Ø§ÙĦ":8719,"ĠØªØ±ÙĪ":8720,"ĠÛ¸Û´":8721,"ĠØ¬Ø§Ø¨Ø²":8722,"ĠÛ¶Û·":8723,"ĠÙĪÛĮÚ©ÛĮ":8724,"ĠØ§ÙĦØ¬Ø²":8725,"ĠÙĨØ§Ø®ÙĪØ¯Ø¢Ú¯Ø§Ùĩ":8726,"Ø±Ø³ÛĮÙħ":8727,"ĠÙĪØ§ÙĦÛĮØ¨Ø§ÙĦ":8728,"ĠØ§ÙĦØ¯ÛĮÙĨ":8729,"Ø®ÙĪØ±Ø¯Ú¯ÛĮ":8730,"ĠÙĨØ§Ø®ÙĪØ´":8731,"ĠØªØ±ÛĮÙĦØ±":8732,"Ø§Ø¯Ø§Ø±ÛĮ":8733,"ĠÙĨØ¸Ø§Ø±ØªÛĮ":8734,"ĠÙĨÚ©ÙĨÛĮÙħ":8735,"ĠÙĨØ¸Ø§ÙħÛĮØ§ÙĨ":8736,"ĠÚĨØ§ÙĤÛĮ":8737,"Ø³Ø§Ø¨ÙĤÙĩ":8738,"ĠAnd":8739,"Ù¾ÙĦÙĪØ¯":8740,"ĠØ¯Ø³ØªØ§ÙĨ":8741,"Ø³Ø§Ø²ÙĨØ¯":8742,"ĠÙħØ§ÙħÙĪØ±Ø§ÙĨ":8743,"ign":8744,"ĠÙģØ±Ø§Ø®ÙĪØ§ÙĨ":8745,"ĠØºØ°Ø§Ø®ÙĪØ±ÛĮ":8746,"ĠØ¨Ú©ÙĨÛĮØ¯":8747,"ĠÛ±Û³Û¸Ûµ":8748,"ĠØµÙģÙĪÛĮ":8749,"ĠØ®ÙħÛĮØ¯Ùĩ":8750,"ĠÙħØ²Ø§ØŃ":8751,"ĠØ¨Ø±ÛĮÙħ":8752,"ØªØ±Ø§ÙĨÙĩ":8753,"Ø±Ø§Ø¨":8754,"ĠØ¨Ø±ÙĪÛĮÙħ":8755,"ĠØ³ÙģØª":8756,"Ø¯Ø±ØµØ¯":8757,"ĠÚ©ÙĪÛĮØ±":8758,"ÙħÙħ":8759,"ĠÙħØªØ±Ø¬Ùħ":8760,"FC":8761,"ĠØ¢Ø¯ÙħÛĮ":8762,"ĠØªÙĪØ¦ÛĮØªØ±":8763,"ĠØ¯ÛĮØ§ÙģØ±Ø§Ú¯Ùħ":8764,"ĠÙĨÙħØ§ÛĮØ´ÙĨØ§ÙħÙĩ":8765,"Ø¢ÛĮØ§":8766,"ĠÙĪØ§Ø±ÛĮØ²":8767,"ĠØ§ÙĩØ±":8768,"ĠÚ©Ø§Ø±Ú¯Ø±ÙĪÙĩ":8769,"ĠÚ©ÙĪÙĩÙĨ":8770,"ĠÙĤØ§Ø¹Ø¯":8771,"ĠÙĨÛĮØ³ØªÛĮÙħ":8772,"ĠÙħÙĩÛĮØ§":8773,"ĠÙĩØ§ÙĨ":8774,"ÙĦÙĪØ¨ÛĮ":8775,"ĠÙ¾Ø´":8776,"ĠØ§ØŃÛĮØ§":8777,"ĠØ§Ø³ØªØ¹ÙģØ§":8778,"ĠØ§Ø¬ØªÙħØ§Ø¹":8779,"ram":8780,"ĠÚ©Ø±Ø§":8781,"ĠØ®Ø±Ø§Ø¨ÛĮ":8782,"ĠØ¢ÙĪØ±ÙĨØ¯":8783,"ĠÛ³Û¶Û°":8784,"ĠÛ±Û³Û¹Û¶":8785,"ĠØ§Ø³Ø¯":8786,"ĠØ§ØŃÛĮØ§ÛĮ":8787,"ĠMi":8788,"Ø§ÙĨÛĮÙĪÙħ":8789,"Ø±ÙĤ":8790,"ĠØ³ÙĨØ§":8791,"ĠØªÙĪØ±ÛĮØ³ØªÛĮ":8792,"ĠÚ¯Ø±ÙģØªØ§Ø±":8793,"ĠÙĩØ´ØªÚ¯":8794,"ÙħØ±Øº":8795,"ĠÙ¾ÛĮÚ©Ø±":8796,"ĠÚĨÙĨÚ¯":8797,"Ø´Ø¯ÙĨÛĮ":8798,"ĠØ¢ÙĩØ³ØªÙĩ":8799,"ĠÙħØ¹Ø·":8800,"ĠÛ±Û¸Û·":8801,"ĠØ§ÙĨØ¯Ø§Ø®ØªÙĨ":8802,"ĠØ¢ÙģØ±ÛĮÙĨ":8803,"ĠÙħØ¯ÙĦÛĮ":8804,"ĠÙĦÛĮØ³Ø§ÙĨØ³":8805,"ĠÙĩØ§Ø¯ÛĮ":8806,"ĠØ¯Ø®ØªØ±ÛĮ":8807,"ĠØ´Ú©ÙĨØ¬Ùĩ":8808,"ĠØ§Ø´ØªÛĮ":8809,"Ø§ØªÚ©":8810,"ĠØ¯Ø³ØªÚ©Ø§Ø±ÛĮ":8811,"ition":8812,"ÙĨØ§ÙħÙĨØ¯":8813,"ĠÙħØŃØ§Ú©ÙħÙĩ":8814,"ĠÙĤØ§Ø¦Ùħ":8815,"Ø®ÙĪØ±Ø¯Ùĩ":8816,"ĠÚ¯ÙħØ§ÙĨÙĩ":8817,"ĠØŃØ§Ø¬ÛĮ":8818,"ĠØ²Ø¹":8819,"ĠØ®ÛĮØ±ÛĮÙĩ":8820,"ĠÚ©ÙħÙĪÙĨÛĮØ³Øª":8821,"ĠÙĨÙħÛĮØ´Ùĩ":8822,"Ø§ÙĦÙģ":8823,"ĠÙ¾ÙĪØ´Ø§Ú©":8824,"ĠÙħÙĪÛĮ":8825,"ĠÙħÙĨØ§Ø¸Ø±":8826,"ĠØªØ¨Ø¹ÛĮ":8827,"ĠÙħØªÙĤØ§Ø¨ÙĦ":8828,"ÙĨØ§Ù¾Ø°ÛĮØ±":8829,"ĠÙħØ´Ø§ÙĪØ±Ø§ÙĨ":8830,"ress":8831,"ÙģØªÚ¯ÛĮ":8832,"ĠÛ±Û¹Û¹Û¹":8833,"ÙĦÛĮÙĪÙĨ":8834,"ĠØ¨Ø²ÙĨÛĮÙħ":8835,"ĠØªØ§Ø«ÛĮØ±Ø§Øª":8836,"ĠØ®Ø§Ú©ÛĮ":8837,"ĠØ§Ø·ÙĦØ§ÙĤ":8838,"ĠÙĪØ§ØŃØ¯ÛĮ":8839,"ĠÙħÙħØª":8840,"Ø¢ÙĦØ§Øª":8841,"ĠØ¨ÙĨÙĪÛĮØ³Ùħ":8842,"ĠÙĤØµØ±":8843,"ÛĮØ³Ùħ":8844,"ÙĩÙħÛĮÙĨ":8845,"ĠÙĨÙħÛĮØª":8846,"ĠÙĦÙĪÙħÛĮ":8847,"ÙĪØ¬ÙĪ":8848,"ĠØ¢Ù¾ÙĦÙĪØ¯":8849,"ØªØµ":8850,"ÙĦØ§ÙĨÛĮ":8851,"ĠÙħØ¨Ùĩ":8852,"Ø³ÙĨÚ¯":8853,"ĠÙħØ²Ùĩ":8854,"ĠÚ©ØªÛĮØ¨Ùĩ":8855,"ĠØ¨ÚĨ":8856,"ĠÙĪÛĮØ±Ø§ÙĨ":8857,"ĠØ§Ù¾ØªÛĮ":8858,"ĠÚ©Ø§Ø³ØªÙĩ":8859,"ÙģÛĮÙĤ":8860,"ĠÙ¾ÚĺÙĪÙĩØ´Ú¯Ø±":8861,"ĠØ¨Ø¹Ø¶Ø§":8862,"Ø¹Ø§Ø¹":8863,"ĠÙ¾ÛĮØ¯Ø§ÛĮØ´":8864,"ĠÚ¯Ø±ÙħÛĮ":8865,"ĠÙĨØ§Ø®ÙĪØ§Ø³ØªÙĩ":8866,"ĠÙĨØ¹ÙħØª":8867,"ĠØ§Ø±ÙĪÙħÛĮÙĩ":8868,"ĠÙĩØ®":8869,"ĠÚ¯Ø§":8870,"Ø±ÛĮØ´":8871,"ĠÛĮÚ©ØµØ¯":8872,"Ø±Ø§Ø³Øª":8873,"ĠØ¨Ù¾Ø°ÛĮØ±":8874,"ĠØªÚ¯Ø²":8875,"Ø§ÛĮÙĨØ¯Ùĩ":8876,"ĠÙĪØŃØ¯Øª":8877,"Ø§ÙĦØ¨ØªÙĩ":8878,"ĠØ®ÙĪØ§Ø±":8879,"ĠÙĨÛĮÙĪØ²":8880,"ĠÙĩÙĨØ¯ÙĪØ³ØªØ§ÙĨ":8881,"SI":8882,"ĠØ¢ÙĨØ·ÙĪØ±":8883,"ĠÙħØ±ÛĮÙħ":8884,"ĠÚ©Ø§Ø²":8885,"ĠØ¨ÙĦÙĪÙħ":8886,"ÙĪØ¦ÙĦ":8887,"Ø°ÛĮØ¨":8888,"ĠØ·Ø§Ùĩ":8889,"ĠÙĤÙĪÙħ":8890,"ĠØ¬ÙĪØ§Ø¯":8891,"Ø¢ÙģØ±ÛĮÙĨÛĮ":8892,"ĠØ²ÛĮØªÙĪÙĨ":8893,"ĠÙħØ§ÛĮÙĩ":8894,"ÛĮÙĨØ²":8895,"Ø´ÙĨÙĩ":8896,"ĠÙħØŃÙģØ¸Ùĩ":8897,"ĠØ§Ø´ØªÛĮØ§ÙĤ":8898,"Ù¾Ø§ÛĮØ§ÙĨ":8899,"ĠØ¯ÙħÙĪÚ©Ø±Ø§Ø³ÛĮ":8900,"ĠØ¨Ø¯Ø§ÙģØ²Ø§Ø±":8901,"ĠÙģØ¨ÙĦØª":8902,"ĠØ§Ø±Ø´Ø§Ø¯":8903,"ÙĪÙĦÙĪÚĺÛĮÚ©":8904,"ĠØ¢ÙħØ§Ø±ÙĩØ§ÛĮ":8905,"Ø³ÙĦØ§Ùħ":8906,"ĠØ²Ø¯ÙĨØ¯":8907,"ĠÛ·Û¶":8908,"ÙĪÙģÛĮ":8909,"ĠÚ©Ø±Ú©":8910,"Ø§Ø¨ÙĪÙĨ":8911,"ĠÙ¾ÛĮØ±Ø§Ùĩ":8912,"ĠÛĮÛĮ":8913,"ĠÙģØ§ÙĨ":8914,"ĠÙ¾Ø°ÛĮØ±Ø§ÛĮÛĮ":8915,"Ø®ÙĪÙĨ":8916,"ics":8917,"ĠØ³Ø±Ø³":8918,"Ø§ÙģØªÙĩ":8919,"ĠÙħÙĦØ§ÛĮÙħ":8920,"ĠØ¯Ø¹Ø§":8921,"ĠØ¨Ø®Ø´ÛĮØ¯ÙĨ":8922,"Ø²Ø§Ø¨":8923,"ĠÙģØ±ÙĪÙĨØ¯":8924,"ĠØ´Ú©Ø³ØªÙĨ":8925,"ĠØªÛĮØªØ±":8926,"ĠÙĨÛĮØ§Ùħ":8927,"ÙģØ±Ø§Ø¯ÛĮ":8928,"ĠÙĪØ±Ø²Ø´Ú©Ø§Ø±Ø§ÙĨ":8929,"Ø¢Ø¯":8930,"ĠØ³Ø±Ù¾Ø±Ø³ØªÛĮ":8931,"ĠØ§Ø³ØªØ¹ÙĦØ§Ùħ":8932,"ĠØ·Ø§ÙĤ":8933,"ĠØ§ÙģØªØ®":8934,"ĠØ¢Ø±Ø§ÛĮÙĩ":8935,"ĠØ§ÙħÛĮØ¯ÙĪØ§Ø±ÛĮ":8936,"ĠÙĪØŃØ´":8937,"Ø§ÙĨØ³ÙĪÙĨ":8938,"ĠÙĨØ¯Ø§Ø´ØªÙħ":8939,"ĠÙħØ³Ø§ÙĪÛĮ":8940,"ÙĨÙħØ§ÛĮÙĨØ¯":8941,"ÙĨÛĮÙĨÚ¯":8942,"Ø·ÙĪØ±Ùĩ":8943,"ĠØ¨Ø®ÙĪÙĨ":8944,"ĠÙĪÛĮØ¯Ø¦ÙĪÛĮ":8945,"ÛĮÛĮ":8946,"Ú©ÙĪÙĨ":8947,"ÙħØ«ÙĦØ§":8948,"ĠØ§ÙĨØ³":8949,"ĠØ§ÙĪØ¨Ø±":8950,"ĠØ°ÛĮ":8951,"ĠÙĦÙĪÚ¯ÙĪÛĮ":8952,"ĠØ¢Ø¨ÛĮØ§Ø±ÛĮ":8953,"ĠØ¬Ø§ÙĨÙĪØ±Ø§ÙĨ":8954,"ĠØ¯Ø±Ø²":8955,"ĠÙħØ±ØªÙģØ¹":8956,"ĠFl":8957,"ĠØ¯Ø²Ø¯":8958,"ĠÙħÙĪØ±Ø®":8959,"ÙĪØ¬ÛĮ":8960,"Ø¹Ø§Ø¨":8961,"Ø¨Ø±ÛĮØ¯":8962,"ĠØªØ³Ø±ÛĮØ¹":8963,"Ø±Ø¯Ø§Ø¯":8964,"ĠØ¨Ø±Ø³ÛĮÙħ":8965,"ĠØªØ±ÙģÙĨØ¯":8966,"ÙĪØ¦ÛĮØ¯":8967,"ĠÚ©Ø§Ø¨ÛĮÙĨÙĩ":8968,"ÙħØµØ±Ùģ":8969,"ĠÙģØ§Ú©Ø³":8970,"ĠØ¨Ø§Ø²Ø¯Ùĩ":8971,"ĠØ§ÙĨØªÙĤØ§Ùħ":8972,"Ø®Ø§Ø±Ø¬Ùĩ":8973,"ĠÙ¾Ø§ÙĩØ§ÛĮ":8974,"ĠÙħÙĪÙĩØ§":8975,"Ú¯ÛĮØ±Ùĩ":8976,"ĠÚ©Ø³Ø±ÛĮ":8977,"ĠØ¨Ø´Ø±ÛĮ":8978,"ĠØ¨Ø±Ø®ÙĪØ±Ø¯Ø§Ø±ÛĮ":8979,"ĠØ¨Ø±Ø´Ùħ":8980,"ĠII":8981,"ĠØ³Ø±Ø¹ØªÛĮ":8982,"ĠØªØŃÙĦÛĮÙĦÚ¯Ø±Ø§ÙĨ":8983,"ĠÙĦØ§ÛĮÚ©":8984,"ĠØ³Ø§Ø²ÙħØ§ÙĨØ¯ÙĩÛĮ":8985,"ĠÙĨØ§Ø±ÙĨØ¬ÛĮ":8986,"ĠØ¨ÙĨØ´ÛĮÙĨ":8987,"ĠÙĨØ§Ø®ÙĨ":8988,"ØªØ±ØªÛĮØ¨":8989,"ĠØ¹Ø§Ø±":8990,"ÙħØ±Ø¨Ø¹":8991,"ĠØ¯Ø±ÙĩÙħ":8992,"ĠÚ¯Ø§ÙĨÙĩ":8993,"ÙĩØ¯":8994,"ĠÙĩÙħØ¯ÛĮÚ¯Ø±":8995,"ĠØ®Ø§ØªÙħÙĩ":8996,"ĠØ¯Ø§ÙĨÙħØ§Ø±Ú©":8997,"ĠÚ¯Ø°Ø±Ø§ÙĨØ¯":8998,"ĠÙģØ±ÛĮØ§Ø¯":8999,"Ø¢ÙĨØ¬":9000,"ĠØ¨Ú¯ÛĮØ±Ùħ":9001,"ĠÙĩØ®Ø§ÙħÙĨ":9002,"ĠØ´ØµØª":9003,"ĠÚ¯ÙĦØ®Ø§ÙĨÙĩ":9004,"ĠÙħØ¤ÙĦÙģ":9005,"ĠÙħØ¨Ø§Ø¯ÙĦÙĩ":9006,"ĠÙ¾Ø±ØªØºØ§ÙĦ":9007,"ual":9008,"ĠÚ©Ø±Ø§ÛĮÙĩ":9009,"ĠAPI":9010,"ĠØ¬ÙĪÙĨ":9011,"ĠÙĦÙĪÚ¯ÙĪ":9012,"ĠØ®Ø§ÙħÙĨÙĩ":9013,"ĠØ¯ÛĮÙĪØ§Ø±ÙĩØ§ÛĮ":9014,"ĠØ¨Ø¬Ø§ÛĮ":9015,"ĠØ³Ø§ÙĦÙĩØ§":9016,"ĠØ¨ÙĦÙĪØº":9017,"ĠÙĦØºØª":9018,"ĠØ§ØµÛĮÙĦ":9019,"ĠÙĪÛĮØªÙĨØ§Ùħ":9020,"ĠÙĤØ±ÛĮØ¨":9021,"ĠØ±Ø§ÛĮØª":9022,"ĠØ³ÙĪØ§Ø¨ÙĤ":9023,"Ġ90":9024,"ĠØ§Ø¯ÙĪØ§Ø±Ø¯":9025,"cl":9026,"ĠÙĪØ±ÛĮ":9027,"ÙĪÙĨØ¯Ø§":9028,"SS":9029,"ĠÙħÙĨÙĤ":9030,"ĠØ¬Ø¹ÙĦÛĮ":9031,"ĠÙĨØ§ÛĮ":9032,"ĠØ§Ø³ØªÛĮÙĦ":9033,"ĠÙĩØ¯ÙģÛĮ":9034,"ĠØ¬ÙĨØ³ÛĮØª":9035,"ĠØ«Ø§ÙĨÙĪÛĮÙĩ":9036,"ĠØ§ÙĪÙĦØªØ±Ø§":9037,"ĠØ¢ÙģÛĮØ³":9038,"ĠØ¢Ø®":9039,"ĠØ¨ÙĦØº":9040,"ĠØ´ÙĪØ®ÛĮ":9041,"ĠØ´Ø·Ø±":9042,"ĠÚĨØ§Ø¯Ø±":9043,"ĠØ§ÛĮØ±ÙĦÙĨØ¯":9044,"ĠØ¯Ø±Ú©ÙĨØ§Ø±":9045,"ĠØªÚ¯Ø²Ø§Ø³":9046,"ĠØ¬Ø§ÙĨØ¨Ùĩ":9047,"man":9048,"ÙĨÛĮÙĩ":9049,"ĠÚ¯Ø±Ú¯":9050,"ĠØ¯ÙĨÛĮØ§ÛĮÛĮ":9051,"ĠÙĨØ´ÛĮÙĨ":9052,"ĠSu":9053,"ĠØ¢ÙĨÚ¯Ø§Ùĩ":9054,"ĠØ§Ø±ØªÙģØ§Ø¹Ø§Øª":9055,"Ø¨Ø¹ÛĮ":9056,"ĠØ§ÙĪØ±Ø§ÙĨÛĮÙĪÙħ":9057,"ĠÚ©Ø§Ø±Ø¢ÙģØ±ÛĮÙĨØ§ÙĨ":9058,"ĠØªÙĪØ±Ø¨ÙĪ":9059,"Ú©ÙĪÙĦÛĮ":9060,"ĠØ®ÙĪØ¯ÛĮ":9061,"Û³Û²":9062,"ĠØ§Ø°Ø¹Ø§ÙĨ":9063,"ĠÙģÛĮÙģØ§":9064,"Ø³ÙĨØ¬ÛĮ":9065,"ÙĩØ§ÛĮÙħ":9066,"ĠÚ¯Ø±Ø¯Ø¢ÙĪØ±ÛĮ":9067,"AC":9068,"ĠÚ¯Ø§Ø±":9069,"ÛĮØ¹ÙĨÛĮ":9070,"ĠØ±ÙĨÚ¯Ø§Ø±":9071,"ĠÙĩÙģ":9072,"ĠÛ·Û·":9073,"ÛĮØªÙĪ":9074,"ĠØ§Ø¯ÙĪÛĮÙĩ":9075,"Ø³Ù¾":9076,"ĠGalaxy":9077,"ĠÙĩÛĮÚĨÚ¯Ø§Ùĩ":9078,"ĠØ°ÛĮÙĦ":9079,"ĠÙĩØ¬ÙĪÙħ":9080,"In":9081,"ĠÙĦÛĮØ³ØªÛĮ":9082,"ĠØ®Ø³Ø±ÙĪ":9083,"Ø³ÙĨØ¬":9084,"!!!":9085,"ĠØ¯ÛĮØ²ÙĨÛĮ":9086,"ĠÛĮØ§ÙĩÙĪ":9087,"ĠØ¨ÛĮØ§Ø¯":9088,"Ø§Ù¾ÛĮ":9089,"ase":9090,"ÛĮØ§ÙģØª":9091,"ĠØ§ÙĤÙĦÛĮØª":9092,"ance":9093,"ĠÙģØ±ÙħØ§ÙĨØ¯Ø§Ø±":9094,"Ø®ÙĪØ§Ø±":9095,"Ø±Ø§Ø¶":9096,"ade":9097,"ĠÙ¾ÛĮØ§ÙħØ¯ÙĩØ§ÛĮ":9098,"Ø§ÙĨÛĮØ§":9099,"ĠÙĤØ±Ø§Ø±Ùĩ":9100,"ĠÛ¶Û²":9101,"ĠØ¯ÙĪØ²":9102,"ĠÚ©Ø§ÙĨØ¯ÛĮØ¯":9103,"ĠØ¨Ø¨Ø±ÛĮÙħ":9104,"ĠÙģÙĦØ²Ø§Øª":9105,"ĠØ¢ÙĨØ²ÛĮÙħ":9106,"ĠØ¨Ø±Ø¯Ø§Ø±ÛĮØ¯":9107,"ĠØªØ¹Ø¨ÛĮØ±":9108,"Ġ2015":9109,"ĠÙħÙĤØ¨Ø±Ùĩ":9110,"Ú©Ø§Ø¨":9111,"ĠÚ¯Ø³ØªØ±Ùĩ":9112,"ĠÙ¾ÙĪØ´ÛĮØ¯ÙĨ":9113,"ĠØ¨ÙĪØ±Ø³ÛĮ":9114,"Ø±Ø§Ø¬ÙĪÛĮÛĮ":9115,"ĠØªØ§ÙĦØ§Ø¨":9116,"ĠØ¨Ø±Ø¯ÙĨØ¯":9117,"ĠÚ¯ÚĨ":9118,"ĠØºÛĮØ±ÙħÙħÚ©ÙĨ":9119,"ĠØªØ²ÛĮÛĮÙĨ":9120,"Ø´Ø§Ø±ÛĮ":9121,"ÚĨØ§ÙĦÙĩ":9122,"ĠÛ±Û¹Û¹Û¸":9123,"ĠÛ¶Û¸":9124,"ĠÙħÙĨØ³":9125,"ĠØ§Ø³Ø·ÙĪØ±Ùĩ":9126,"ĠÙħÙĪØ±Ø¯ÙĨÛĮØ§Ø²":9127,"ĠØŃØ³Ø¨":9128,"AN":9129,"ĠØºÙĦØ¸Øª":9130,"Ø§ÛĮØ¯Ø±":9131,"ĠÙħÙĨØªØ´Ø±Ø´Ø¯Ùĩ":9132,"ah":9133,"ĠÙħÛĮÚ¯ÛĮØ±Ø¯":9134,"ĠØ¯Ø±Ø¹":9135,"ĠØ³ÛĮØªÛĮ":9136,"ĠÙħÙĩÙħØ§ÙĨÛĮ":9137,"ĠÙĤØ§ÙĨØ¹":9138,"ĠÙħØ²Ø§ÛĮØ§":9139,"Ø·ØŃ":9140,"ĠØ³Ø§ÙĨØ³":9141,"ĠØ²ÛĮØ§Ø±Øª":9142,"Ø¨ÛĮØ´":9143,"ĠØªÚ©Ø°ÛĮØ¨":9144,"Ø¨Ø®ØªÛĮ":9145,"ĠÚ©Ù¾Ø³ÙĪÙĦ":9146,"Ø¯Ø§Ø¯Ùĩ":9147,"ØªÙĪÙĦ":9148,"ĠØ¬Ø§Ø¯ÙĪ":9149,"ĠÙĤÙĪÙħÛĮ":9150,"ĠØ¨ÙĩØ´ØªÛĮ":9151,"ĠØªÙĪÙĩ":9152,"ĠÙ¾ÛĮØ´Ø¨Ø±Ø¯":9153,"ĠØ§ÙĩÙħÛĮØªÛĮ":9154,"ĠØªØ§Ø¦ÛĮØ¯":9155,"ĠØ®ÙĦØ§ÙĦ":9156,"ĠÙ¾Ø±ÙĪÙģØ³ÙĪØ±":9157,"ĠØ¯Ø§ÙĪØ·ÙĦØ¨Ø§ÙĨ":9158,"ĠAir":9159,"ĠØ¢ÙģØ±ÛĮÙĤØ§ÛĮÛĮ":9160,"ĠØ¯Ø§Ø´":9161,"yst":9162,"Ø«Ø±Ø§":9163,"ĠÙĨÛĮØª":9164,"ØµÙģ":9165,"ĠØ³Ø§ÙĦÚ¯Ø±Ø¯":9166,"ĠÚ©Ø§ØºØ°ÛĮ":9167,"ĠØ³ÙĦØ·Ùĩ":9168,"ĠØ°ÙĩÙĨÙħ":9169,"Ø¶Ùħ":9170,"ÙģØ§ÙĦ":9171,"ÙħØ¯ÛĮØ±":9172,"ĠÙĩÙħÚ¯Ø§Ùħ":9173,"Ø¦ÛĮÙĨÛĮ":9174,"ows":9175,"ĠÙģØ§ÙĨØªØ²ÛĮ":9176,"ĠÛ¸Û·":9177,"ĠØ¬Ø³Ø¯":9178,"ĠÙĤÙĪØ§Ø¹Ø¯":9179,"port":9180,"ĠØŃØ±Ùħ":9181,"ĠØ¹Ø±ÛĮØ¶":9182,"Ø§ÙĦÛĮØ³ØªÛĮ":9183,"ĠÙĨØ§ÙĩØ§Ø±":9184,"ĠØ¢Ø¬Ø±":9185,"ĠØ¯ÙĤØ§ÛĮ":9186,"ĠÙħØ¹Ø§ÛĮØ¨":9187,"ĠØ³ÙĪØ²ÛĮ":9188,"ĠØ¯ÛĮØªØ§":9189,"Ø´ÙĩØ±ÛĮ":9190,"Ú©Ø´ÙĨØ¯":9191,"ĠØ¹Ø¬":9192,"ĠÚ©ÙĨÚ¯":9193,"ĠÙĪÙģØ§Ø¯Ø§Ø±":9194,"ĠÛ¶Û¶":9195,"ĠØ§ÙĪÙĨÙĩØ§":9196,"ĠÙħÙĩØ§Ø¬Ø±Ø§ÙĨ":9197,"ĠØ²ÙħØ³ØªØ§ÙĨÛĮ":9198,"ĠØ§Ø¨ØªÚ©Ø§Ø±":9199,"ĠØ±ÛĮØ®Øª":9200,"ĠÙħØ§ÛĮØ¹Ø§Øª":9201,"Ø¯Ø§ÙĨØ³ØªÙĨØ¯":9202,"ĠMan":9203,"ĠÙĨØ¨Ø§":9204,"Ø¢ÙĩÙĨÚ¯":9205,"ĠØªÙģÙĨÚ¯":9206,"ĠØ¨Ø§ÙħØ¯Ø§Ø¯":9207,"Û³Û¶":9208,"ØµÛĮÙĦ":9209,"ĠØ±ÙĩØ§ÛĮÛĮ":9210,"ĠØ²Ø¨":9211,"ĠØ¨Ø±Ø®ÙĪØ±Ø¯Ø§Ø±ÙĨØ¯":9212,"Ø®ÙĪØ§Ø³ØªÙħ":9213,"Ø¨Ø³ØªÙĩ":9214,"ĠÙģÛĮÙĦÙħÙĨØ§ÙħÙĩ":9215,"ĠØ®ÛĮØ§ÙĦÛĮ":9216,"ĠØ³ÙĦÛĮÙħØ§ÙĨ":9217,"âĢĮâĢĮâĢĮ":9218,"ĠØ§Ø³Ù¾Ø±":9219,"ĠØ§ÙĪÙĨØ¬Ø§":9220,"ĠÙħØ±ØªÚ©Ø¨":9221,"ĠÙĩØ±ÙħØ²Ú¯Ø§ÙĨ":9222,"ÙħØ§ÙĨØª":9223,"ĠÚ©ÙĪÛĮ":9224,"Ø´ÙĨØ§Ø®ØªÛĮ":9225,"ĠÙĨÚĺ":9226,"ĠØ´Ø¯Ú¯Ø§ÙĨ":9227,"ĠØ³Ø±ÙĪØ±ÙĩØ§ÛĮ":9228,"ĠØ§ØŃØªÛĮØ§Ø·":9229,"ĠÚ©ÛĮØ§":9230,"Ġ500":9231,"Ù¾Ø§ÙĦ":9232,"ĠØ®Ø±Ø³":9233,"ĠØ§ØŃØ²Ø§Ø¨":9234,"ĠÙģÙĦØ³Ø·ÛĮÙĨ":9235,"ĠØ¨Ø³Ú©Øª":9236,"ĠÙģØ§ÛĮØ¯Ùĩ":9237,"ĠÙħÙĨØŃÙĨÛĮ":9238,"ÙħØŃÙħØ¯":9239,"ĠØ¹ÙĦÙĦ":9240,"ĠÙĨÙĪØ§Ø²ÙĨØ¯Ùĩ":9241,"ĠÙĩØ§ÙĦÛĮÙĪÙĪØ¯":9242,"ĠÙ¾Ø±Ø´":9243,"ĠØ³Ø±ÚĨØ´ÙħÙĩ":9244,"ĠÙħØ¹ØªØ±Ø¶Ø§ÙĨ":9245,"ĠØ³ÙĪØ¯Ø§ÙĨ":9246,"ĠØªØ³Ø®ÛĮØ±":9247,"ĠÙĤØ¯Ø±ØªÙħÙĨØ¯ÛĮ":9248,"ÙģØ§ÙĦØª":9249,"ĠØ§ÛĮÙĦØ§ÙĨ":9250,"ĠÛĮØ§Ø¯Ùħ":9251,"ĠØ¨Ú©Ø±":9252,"ĠÙģØ¬Ø±":9253,"ĠØ³ÙĨØ³ÙĪØ±ÙĩØ§ÛĮ":9254,"ĠÙģÛĮÙĦØ³":9255,"Ø®Ø±ÛĮØ¯":9256,"ĠØªÙĨÚ¯Ùĩ":9257,"ĠØªØ¨Ø¹ÛĮØ¯":9258,"ĠÚ©Ø¨Ø§Ø¨":9259,"Ø¯ÛĮÙĨÚ¯ÛĮ":9260,"ĠØªØµÙħÛĮÙħÛĮ":9261,"ĠØ¯Ø§Ø±ÙĨØ¯Ú¯Ø§ÙĨ":9262,")ØĽ":9263,"ĠØºØ±ÙĪØ¨":9264,"Ø§Ø±Ø§ÙĨØªÛĮ":9265,"ĠØ¢ÙģÙĦØ§ÛĮÙĨ":9266,"ĠÙħØ¹Ø¯ÙĪØ¯":9267,"ĠØ±Ø¨":9268,"omm":9269,"Ø§ÙģØ²Ø§ÛĮØ¯":9270,"ĠØ¨Ø§Ø´ÙĨ":9271,"ĠÛ¸Û²":9272,"ĠØµØ¯Ø§ÛĮÛĮ":9273,"ĠÛ·Û¸":9274,"ote":9275,"Ù©":9276,"ĠØ³ÙĪØº":9277,"ĠØªØ§ÛĮØ±":9278,"ĠØ¨Ø§ÙĩØ§Ø´":9279,"ĠØ¹Ø±ÙĤ":9280,"ĠÙħØ§Ø¯Ø±ÛĮØ¯":9281,"ĠØ¨Ø¨ÛĮÙĨÙħ":9282,"ĠØ¬Ø¹ÙģØ±":9283,"ĠØŃÙħØ§ÛĮØªÛĮ":9284,"ĠÙĤÙĪØ§ÛĮ":9285,"ĠØ±ÙĪÛĮØ¯Ø§Ø¯ÙĩØ§":9286,"ĠÙĨÙĤØ¯ÛĮÙĨÚ¯ÛĮ":9287,"ĠØ±ÙħØ¶Ø§ÙĨ":9288,"ĠØªØ¶Ø¹ÛĮÙģ":9289,"ĠÙĨØ§ÙĩÙħ":9290,"Ø±Ø¹Ùĩ":9291,"ĠÚĺÙĪØ±ÙĨØ§ÙĦ":9292,"Ø§ÙħÛĮÚ©ÛĮ":9293,"ĠØ¨ÛĮØ§ÙĨÚ¯Ø±":9294,"ET":9295,"ĠÚ¯ÙĪØ³Ùģ":9296,"ÙĤØ§ÙĦ":9297,"ĠÙ¾ÙĨØ¬Ùĩ":9298,"Ù¡":9299,"ĠØ®ÙĪØ´Ùĩ":9300,"ĠØ¯Ø±ÙĪØ³":9301,"ĠØ±ÙĪØ³ØªØ§ÙĩØ§":9302,"MS":9303,"Ù¾ÙĪØ³Øª":9304,"ĠLTE":9305,"ĠÙħØ¹Ø§ÛĮÙĨÙĩ":9306,"Ø§Ø¨ÛĮØ³":9307,"Ø§ÙĦØ¯ÙĪÙĦÙĩ":9308,"Ġ32":9309,"ĠØ¹ÙħØ±Ø§ÙĨÛĮ":9310,"ĠØ§Ú©Ø«Ø±Ø§":9311,"ĠØ§Ø±Ø¯ÙĨ":9312,"ĠØ¨Ù¾":9313,"ĠØ¯Ø§Ø±ÛĮÙĪØ´":9314,"ĠØ¢ÙĨØ¬ÙĦØ³":9315,"ĠØ±ÛĮÙĦÛĮ":9316,"ĠÙĦÛĮØ²":9317,"ĠÙħØ¹ÙĦÙħØ§ÙĨ":9318,"ĠØ§ØµÙĨ":9319,"ĠØªÙĤØ¯ÛĮÙħ":9320,"Ø¨Ø±Ø¯Ø§Ø±":9321,"ype":9322,"ĠÙĦØ°ÛĮ":9323,"ĠØ®ÙĦÛĮÙģÙĩ":9324,"ĠÙħÙĨÚĨ":9325,"ĠØ¹Ø±ÙĪØ³":9326,"ĠÙħØ±ÙħØª":9327,"ĠØ§ØµÙĪÙĦØ§":9328,"ĠÙģÚ©":9329,"ĠØ§Ø³ØªÙĪÙĨ":9330,"ĠÙ¾ÛĮØ§":9331,"ĠØŃØ¨Ø§Ø¨":9332,"ĠÙħØªØµ":9333,"Ù¾ÛĮØ´Ùĩ":9334,"ĠÙħØªØ®ØµØµÛĮÙĨ":9335,"ĠÚ©Ø±ÙĪÙĨØ§ÛĮÛĮ":9336,"ĠÙħÙĪØªÙĪ":9337,"ĠÙħØ®ØªØµØ±":9338,"ĠØ¬ÙĨØ§ÛĮØª":9339,"ÙĪÙĩÛĮØ¯":9340,"ĠØ§Ø¹ØªØµØ§Ø¨":9341,"ĠÛ±Û´Û°Û°":9342,"ÙģØ§ÙĨ":9343,"ÛĮØ±Øª":9344,"ĠÛĮØ§ÙĨÚ¯":9345,"ĠØ§ØªÙģØ§ÙĤØ§":9346,"ĠØŃÙĪÙĦ":9347,"ÙĪØ±Ùĩ":9348,"Ú¯Ø±Ø§ÙģÛĮ":9349,"ĠÙħØºÙĪÙĦ":9350,"ĠÙĩØ§Ø¨":9351,"ĠØ³Ú©ØªÙĩ":9352,"ÙĪÙĩØ§ÙĨ":9353,"ĠØ¹ÛĮØ³ÛĮ":9354,"ĠÙĨØ¯ÛĮØ¯Ùĩ":9355,"ĠÙ¾ÛĮØ±Ø§ÙĩÙĨ":9356,"ĠÙ¾ÛĮØ´ÛĮÙĨÙĩ":9357,"ĠØ¨ÛĮØ§ÙħÙĪØ²":9358,"Ø§Ø§":9359,"ĠØ´Ø§Ú¯Ø±Ø¯Ø§ÙĨ":9360,"ĠØ¨Ø§Ø±Ø³ÙĦÙĪÙĨØ§":9361,"ĠÙħÙĪØ²":9362,"ĠØ§ÙĪÙĨØ§":9363,"ÙħØ§ÛĮÛĮØ¯":9364,"ĠÙħÙĪØ²ÛĮ":9365,"ĠÛ±Û¸Û¶":9366,"ary":9367,"ĠÙħØ¯Ø§Ø®ÙĦÙĩ":9368,"ĠØ³Ø±Ø³Ø¨":9369,"ĠÙĨÙĪØ¬ÙĪØ§ÙĨÛĮ":9370,"ĠMI":9371,"ĠØ´ÛĮØ¹ÛĮØ§ÙĨ":9372,"Ø¨ÛĮÙĨÙħ":9373,"ĠØ³ÙģØ±Ùĩ":9374,"ĠØ²ÙĨØ¨ÙĪØ±":9375,"ĠÙħÙĪØ§Ø¯ÛĮ":9376,"ØºØ§ÙĦÛĮ":9377,"ĠÙģØ¹Ø§ÙĦÛĮ":9378,"ĠØ³ÙĪÙĤ":9379,"ĠÛ±Û³ÛµÛ·":9380,"ØªÛĮØ´ÙĨ":9381,"ĠØ´ÙĦÙĪØ§Ø±":9382,"ĠÙĨØªÙĪØ§ÙĨØ¯":9383,"ĠØ§Ø³ØªÙĪØ§Ø±":9384,"Ú¯ÙģØªÙĨØ¯":9385,"ĠØªØ¨Ø¹ÛĮØ¶":9386,"ÛĮÙħÙĩ":9387,"ĠÙĦØ§Ø±ÛĮ":9388,"ĠØ§ÙĤÙĦÛĮÙħ":9389,"ĠÙĨØ§Ø´ÙĨØ§Ø³":9390,"ĠØ§ØŃÚ©Ø§Ùħ":9391,"ĠØ³ÙĩÙĪÙĦØª":9392,"Ø´Ú©Ø¯Ùĩ":9393,"ĠÙħØ¨ÙĦÙħØ§ÙĨ":9394,"ĠØ®ÙĪÙĨØ±ÛĮØ²ÛĮ":9395,"Ø¹ÙĪØ¯ÛĮ":9396,"Û³Û·":9397,"ĠØ¨ÙĪØ³ÛĮÙĦÙĩ":9398,"Ø°Ø¨":9399,"ĠÙħØ®Ø§Ø²ÙĨ":9400,"ĠÙħØ±ØªØ¶ÛĮ":9401,"uc":9402,"ĠØ§ÙĦÙĤØ§Ø¹Ø¯Ùĩ":9403,"ĠÙģÙĤØ¯Ø§ÙĨ":9404,"ÙģÙĦÛĮÚ©Ø³":9405,"ĠÙģØ¶Ø§ÙĨÙĪØ±Ø¯Ø§ÙĨ":9406,"ĠØ¨Ø§Ø²ÙĨØ´Ø³ØªÙĩ":9407,"ĠØ¯Ø§ÙĪØ±Ø§ÙĨ":9408,"ĠÙħØ¹Ø·ÙĪÙģ":9409,"ĠÙħØ§ÛĮÙĨ":9410,"ĠÙĩØ¯ÙģÙħÙĨØ¯":9411,"ĠØºØ²Ùĩ":9412,"ĠÙĩÙħÚ¯Ø§ÙĨ":9413,"ĠØ§ÙģÙĤ":9414,"ĠÚ¯ÙģØªØ§Ø±":9415,"ĠÙħØ§Ø¬Ø±Ø§Ø¬ÙĪÛĮÛĮ":9416,"ĠÙĪÛĮØ±ÙĪØ³ÛĮ":9417,"ĠØ¨ØªÙĨ":9418,"ĠØ¨Ø®Ø´ÛĮØ¯Ùĩ":9419,"ĠØ®Ø§Ø±ÙĤ":9420,"ĠÙģÙĩÙħÛĮØ¯":9421,"ĠØ¨Ø±ÙĨØ²":9422,"ĠØªØ±ÙħÛĮÙĨ":9423,"ator":9424,"ĠØ¢ÙĨÙĩØ§Ø³Øª":9425,"ĠØ®ÛĮØ§ÙĨØª":9426,"Ø³ØªØ±ÙĪÙĦ":9427,"ĠØ®ÛĮØ³":9428,"ĠØ³Ø§Ø®ØªØ§Ø±ÙĩØ§ÛĮ":9429,"ĠÙħÙĨÙħ":9430,"oft":9431,"Ø¯Ø§Ø¯ÛĮ":9432,"ÛĮØ§Ø¨ÙĨØ¯":9433,"ĠØ´ÛĮÙĦ":9434,"ĠØ·ÙĨ":9435,"ĠØ§ÙĨØŃØµØ§Ø±":9436,"ĠØªÙĤØ±ÛĮØ¨ÛĮ":9437,"ÚĨÙĪÙĨ":9438,"ĠØ¯ÙĪØ§Ø²Ø¯ÙĩÙħ":9439,"ĠØ¢ÙĤØ§ÛĮØ§ÙĨ":9440,"ĠØ³Ø§Ø¹Ø§ØªÛĮ":9441,"ĠØ³Ø¦":9442,"ĠØ§ØªÙĩØ§ÙħØ§Øª":9443,"ĠØ¨Ø±Ø³Ø§ÙĨÛĮØ¯":9444,"ĠØ¹ÛĮØ¨":9445,"ĠÙħØ±Ø¯Ø§ÙĨÙĩ":9446,"Ġ21":9447,"ĠØ¯Ø±Ø¯Ø³Øª":9448,"ĠØ§Ø¹Ø·Ø§ÛĮ":9449,"ĠÙĤØ§Ø³Ùħ":9450,"ĠØ¯ÛĮØ²":9451,"ĠÙ¾Ø§ÙĨØ²Ø¯Ùĩ":9452,"ĠÚ¯Ø±ÛĮÙĨ":9453,"Ø¯Ø§Ø±ÙĨØ¯":9454,"ØªÙĤ":9455,"Ø¢Ø²":9456,"ĠØªØ±ÙĪØ±ÛĮØ³Øª":9457,"ĠÙħØ³Ùħ":9458,"ĠØ¯Ø§Ø¦ÙħØ§":9459,"ĠØªØ±Ø´ØŃ":9460,"ĠÙĨØ¯Ø±":9461,"ĠØ¹Ø±ÙĪØ³ÛĮ":9462,"ØµØ¨":9463,"ÙĤÛĮÙĨ":9464,"ĠØ¨Ø±Ø§ÙĨÚ¯ÛĮØ²":9465,"ĠØ³Ø±ÙĨØ´ÛĮÙĨØ§ÙĨ":9466,"ĠØ¯Ø§ÛĮÙĨ":9467,"Ø·Ø¦Ùĩ":9468,"ĠØ²Ø¯Ùħ":9469,"ĠØ¢Ø³ÙģØ§ÙĦØª":9470,"ich":9471,"Ġ(Â«":9472,"ĠØ¨Ø§ÙĦØ§Ø³Øª":9473,"Ø³Ø§Ø±":9474,"ĠÙĨÙĪØ¢ÙĪØ±":9475,"ĠÙħØ²Ø±Ø¹Ùĩ":9476,"ØªØ§Ø±ÛĮØ®":9477,"ĠØ¬ÙĦØ§ÙĦ":9478,"ĠÙħØŃÙħØ¯Ø¹ÙĦÛĮ":9479,"ĠÙħØ¯ÛĮØªØ±Ø§ÙĨÙĩ":9480,"ĠÙĨÚ¯Ø±ÙģØª":9481,"Ú©ØªØ§Ø¨":9482,"Ù¾Ø²Ø´Ú©ÛĮ":9483,"ĠØ±ÙĨÚ¯Ø§Ø±ÙĨÚ¯":9484,"ĠØ¬Ø±Ø§ÛĮ":9485,"ĠØŃÙĪØ§ÙĦÛĮ":9486,"ĠØ±ÙĤÛĮ":9487,"ĠØŃÙĪÙħÙĩ":9488,"ĠÚ¯Ø±Ø§":9489,"ĠÚ©ÙĪÙĦÙĩ":9490,"Ø§Ú©ÙĪ":9491,"ĠÙģØ±ÙĤÙĩ":9492,"ĠÛ´Û³":9493,"ĠØ·Ø¹":9494,"erv":9495,"ron":9496,"ĠÛĮØ§Ø³":9497,"ĠÙģØ³ØªÛĮ":9498,"tern":9499,"ĠÚ©Ø§Ø±Ø´Ø§ÙĨ":9500,"ĠÙĪØ§Ø±Ø¯Ø§ØªÛĮ":9501,"Ú©Ø±Ùĩ":9502,"ĠÙħÚ¯Ø§Ø¨Ø§ÛĮØª":9503,"ĠØ§Ù¾ØªÛĮÚ©Ø§ÙĦ":9504,".)":9505,"ĠÚ©Ø§ØªÙĪ":9506,"ĠØ¬ÙħØ¹ÛĮØªÛĮ":9507,"ĠØ¯Ø³ØªØ´":9508,"ĠØ¯Ú©ØªØ±Ø§ÛĮ":9509,"ĠÙģÙĦØ³ÙģÛĮ":9510,"ĠØ¨Ø³Ú©ØªØ¨Ø§ÙĦ":9511,"ĠØµÙĦÛĮØ¨ÛĮ":9512,"ĠÚ¯Ø§Ø±Ø§ÙĨØªÛĮ":9513,"ĠØªÙĪÙħØ§Ø³":9514,"ĠÚ©ÙĪØ¦":9515,"ĠÚ¯ÛĮØ¬":9516,"ĠØªØ¨ØµØ±Ùĩ":9517,"ĠØªØ¹Ø¯ÛĮÙĦ":9518,"ĠØ±Ø¯ÙħÛĮ":9519,"ĠÚĨÛĮØ¯":9520,"ĠRT":9521,"Ø¢ÙħÙ¾Ø±":9522,"ĠØ¯ÙĩÚ©Ø¯Ùĩ":9523,"ĠÙĨØ¬Ùģ":9524,"ĠØ§ÙģØ±Ø§Ø·ÛĮ":9525,"ĠØ´Ø·Ø±ÙĨØ¬":9526,"ĠØ¯Ø¨":9527,"Ú¯Ø±Ø§ÛĮØ§ÙĨ":9528,"ĠØ¢ÙħÙĪØ®Øª":9529,"ĠÚĨØ§Ø±ÙĦØ²":9530,"ĠØ¢ÙĨÛĮ":9531,"ĠÚ¯ÛĮØªØ§Ø±":9532,"ĠÙĩÛĮÚĨÚ¯ÙĪÙĨÙĩ":9533,"ĠÙ¾ÙħÙ¾Ø¦ÙĪ":9534,"Ú©Ø´ÙĨ":9535,"Ø¨Ø±Ø§ÙĨÚ¯ÛĮØ²":9536,"ĠÙħØ¸ÙĨÙĪÙĨ":9537,"ĠØ®Ø¬":9538,"ĠØ²Ø§ÙĨÙĪ":9539,"ĠÚĨÙħÙĨ":9540,"ĠComp":9541,"Ġex":9542,"ĠÙĪÙĦÙĪ":9543,"ĠÙħØ¹ÙĦÙĤ":9544,"ĠÙĨØ§Ù¾Ø¯ÛĮØ¯":9545,"ĠÙħØŃØ§Ø³Ø¨Ø§ØªÛĮ":9546,"ĠØ±ÙĪØ´ÙĨÛĮ":9547,"Ø¨Ø¯ÛĮ":9548,"ĠÙ¾Ø±Ú©Ø§Ø±":9549,"Ġcont":9550,"ĠÚ©Ø«":9551,"Ø§ÙĩØ¯ÛĮ":9552,"ĠØªØ§ÛĮÙĪØ§ÙĨ":9553,"ĠÙĦÙĪÙħÛĮØ§":9554,"ĠÚĨÚ¯":9555,"ĠØªØ±Ø®ÛĮØµ":9556,"Ø®ÙĦ":9557,"ĠØ¯Ø§Ú©":9558,"ĠØ¨ÙĩØ±Ø§Ùħ":9559,"Ø§Ø¯ÙĪØ±":9560,"ĠÙħØ³ÙĦØ·":9561,"ĠÙģÙĩØ±Ø³ØªÛĮ":9562,"ĠPlay":9563,"Ø¯ÙĨØ¯Ùĩ":9564,"ĠÚ©Ø±ÙĪØ²":9565,"ĠØ¨Ø§Ú©ÙĪ":9566,"ĠÙ¾Ø§Ú©Ø³Ø§Ø²ÛĮ":9567,"ĠØ§Ø³ÛĮØ±":9568,"ĠØ¢Ø±Ø²ÙĪ":9569,"ÙħÙĪØ³":9570,"ÛĮÙħØ§ÙĨ":9571,"enc":9572,"ĠØ³ÛĮÙĦÛĮÚ©ÙĪÙĨ":9573,"ĠHe":9574,"Ø¶Ø§ÛĮØªÛĮ":9575,"Ø¨ÙĨÛĮØ§ÙĨ":9576,"ĠÙĤØ±Ø¹Ùĩ":9577,"ĠØ¨Ø²ÙĨÙħ":9578,"ĠØ¢Ø±Ø²ÙĪÛĮ":9579,"ĠØ³Ú©Ø§ÙĨ":9580,"ÙħØ§ÙĤ":9581,"ĠØµØ¯Ø§Ùħ":9582,"ĠØ³Ø±ÙģÙĩ":9583,"ĠØ³Ø±ÛĮØ¹Ø§":9584,"ĠØ¬Ø±Ø§ØŃ":9585,"ĠØ¬ÙħØ´ÛĮØ¯":9586,"ĠØ¨Ø±Ø¯Ø§Ø±Ø¯":9587,"ĠØ§ÛĮØ§ÙĦØªÛĮ":9588,"ĠÙħØ¬ÛĮØ¯":9589,"ĠØ¢Ø±ÙħØ§ÙĨ":9590,"ĠÙħØŃØ§ÙģØ¸Ùĩ":9591,"ÙĨØ§Ø¹":9592,"ication":9593,"ĠÚ©ÙĦÛĮØ¯ÙĩØ§ÛĮ":9594,"ĠØ´Ú©ÙĪÙĩ":9595,"ph":9596,"ĠÙĨÙĪØªÛĮ":9597,"ĠÙ¾Ø³Ø±Ø§ÙĨ":9598,"ĠÙħØ§ÙĩØ±":9599,"ĠØ§Ø¯Ø§Ø±Ø§Øª":9600,"ĠØ¢Ù¾Ø´ÙĨ":9601,"ĠÙħØŃØ¨Øª":9602,"ĠØ¯ÛĮØªØ§Ø¨ÛĮØ³":9603,"ĠØ¨ÙħØ§ÙĨÛĮØ¯":9604,"ĠØ¨ØªØ§":9605,"ĠÙĨÙĤØ§Ø´":9606,"ÙĨÚ¯Ø§Ùħ":9607,"Ù¾Ú©":9608,"Ø§ÙĪØ±Øª":9609,"ĠÙ¾Ø§Ø³Ø®ÛĮ":9610,"ĠÙĩÙħØ¬ÙĨØ³":9611,"ĠÙĤØ²Ø§ÙĤ":9612,"ĠØ³Ø§ÙĦÛĮØ§ÙĨ":9613,"Û²Û´":9614,"Ø´Ø±Ú©Øª":9615,"ĠÙĨØ§ØªÙĪ":9616,"ĠØ¨Ø§Ø²ÙĨÚ¯Ø±ÛĮ":9617,"ØŁ}":9618,"ĠÙĩÙĦÛĮ":9619,"ĠÙħØªÚ©ÛĮ":9620,"ÚĨÛĮØ§ÙĨ":9621,"ÙĨØ§Ú©ÛĮ":9622,"ĠØ¯Ø±Ø¨ÛĮ":9623,"âĢıâĢĮ":9624,"Ġ'":9625,"ĠØªØ§ÙĨÚ©":9626,"ĠÙħØ¹ÙħØ§Ø±":9627,"ĠØ¬Ø±Ø¬":9628,"Ú©Ø§Ø±Ú¯ÛĮØ±ÛĮ":9629,"ĠØ¬ÙĨÚ¯ÙĨØ¯Ùĩ":9630,"ĠØ´Ø±Ú©Ø§ÛĮ":9631,"ĠØ±ÛĮÚ©":9632,"ev":9633,"ĠÚ©Ø§ÙĨØ§Ø¯":9634,"SP":9635,"Ø§Ø±Ø²Ø´":9636,"ĠØªÙĦÙģØ¸":9637,"ĠÛĮÙĪØ³Ùģ":9638,"ĠÙĪØ¶Ø¹ÛĮØªÛĮ":9639,"ĠØ¯ÙģØªØ±ÚĨÙĩ":9640,"ĠØ¨ÙĪØ¦ÛĮÙĨÚ¯":9641,"ĠØ¨ÙĪØ¯ÛĮØ¯":9642,"ĠÛ´Û±":9643,"ĠÙĤØ·Ø¨ÛĮ":9644,"Ø¨Ø³ØªÚ¯ÛĮ":9645,"ĠÙħØŃØ±ÙħØ§ÙĨÙĩ":9646,"ĠØ±ÙħØ²Ú¯Ø°Ø§Ø±ÛĮ":9647,"ĠÙģØ³ØªÛĮÙĪØ§ÙĦ":9648,"ĠØ®ÙĦÙĪØª":9649,"ĠØ¹Ø±ÙĪØ³Ú©":9650,"ĠÚ¯Ø±Ø§Ùħ":9651,"Ù¾ÛĮØ±":9652,"anc":9653,"ĠÙħØ§ÙĨØ¯Ú¯Ø§Ø±ÛĮ":9654,"ÙĪØ¯ÛĮÙĨ":9655,"ĠØ²ØºØ§ÙĦ":9656,"ĠÙĤÙĦÛĮ":9657,"ĠØ¨Ø¨Ø®Ø´":9658,"ĠØ¨ÙĩØªÙĪÙĨ":9659,"ĠÚ¯Ø±Ø§ÛĮÛĮ":9660,"ĠØªÙĨÛĮØ³":9661,"ĠØ¨Ø±ÙĩÙħ":9662,"Ø±Ø³Ùĩ":9663,"ĠØ¨ÙĨØ¯Ø±Ø¹Ø¨Ø§Ø³":9664,"ĠØ¨Ø§ÙĩÙĪØ´":9665,"ĠÛĮØ§Ø¨ÛĮ":9666,"ĠÙģÙĪÙĨØª":9667,"ÙĩÛĮÚĨ":9668,"ĠØ¢ÙĦØ§ÛĮÙĨØ¯Ùĩ":9669,"ĠØ§Ø±Ú©Ø³ØªØ±":9670,"ĠØ¹Ú©Ø³ÛĮ":9671,"ĠCont":9672,"ĠØ¢Ø¨Ø§Ø¯Ø§ÙĨ":9673,"ĠÙħÙĨØ²":9674,"ÙĤØ§ÛĮÛĮ":9675,"ĠÙħØ§ÙħØ§ÙĨ":9676,"ĠØ³Ú©ÙĪ":9677,"Ġ\"":9678,"ĠâĢ¦)":9679,"ĠÙģÛĮØ´":9680,"ĠÙģÙĦÙĪ":9681,"ĠØ¢ÙĨØªÙĪÙĨÛĮ":9682,"ĠÚ©ÙħÙ¾Ø±Ø³":9683,"ĠØ§ÙĦÛĮØ§Ùģ":9684,"own":9685,"Ø§Ø®ØªÛĮØ§Ø±":9686,"ĠÙĩÙĨØ±Ù¾ÛĮØ´Ùĩ":9687,"ĠÙħØ·ÙĦÙĪØ¨ÛĮ":9688,"ĠØªØ¨Ø±ÛĮÚ©":9689,"ĠÛ±Û¹Û¹Û·":9690,"ĠØ±ÛĮØ§Ø¶":9691,"Ø§ÛĮØ³Øª":9692,"ĠÙĪÙĩ":9693,"ĠÙ¾ÛĮØ±ÙĪØ§ÙĨ":9694,"ĠØºÛĮØ±ÙĨØ¸Ø§ÙħÛĮ":9695,"ĠLG":9696,"ĠØ³Ø±Ø¹ØªÙĩ":9697,"ĠØ§Ø±Ø«":9698,"ĠØ³ÙĪØ§Ø¯":9699,"ØªØ±ÛĮØ³":9700,"ĠÙħÙĩØ¯":9701,"ĠÙħÙĨÙģØ¬Ø±":9702,"ĠÙ¾Ø±Ø³ÛĮØ¯":9703,"ĠØ§Ø´ØªØ¨Ø§ÙĩÛĮ":9704,"ĠØ¢ÙĪØ±ÛĮØ¯":9705,"oy":9706,"ĠØ§ÙĨØ²":9707,"ĠÙĦØ§Ø²ÙħÙĩ":9708,"ĠØ¶Ø®ÛĮÙħ":9709,"Ø¨Ú©Ø³":9710,"ĠÙĩØ§ÙĪ":9711,"ĠÛĮÙĦ":9712,"ĠØ±ÙĪØª":9713,"ĠØ¯Ø±ØµÙĪØ±ØªÛĮ":9714,"ER":9715,"ÙĪÛĮØ±ÙĪØ³":9716,"ĠØŃØ´Ø±":9717,"ĠÙ¾Ø§ØªØ±":9718,"ĠØ§ÙģÚ©Øª":9719,"ĠÙħØ¬Ø§ÙĪØ±":9720,"ĠØ´Ø§ØºÙĦ":9721,"ĠÙħÙħÙĦÙĪ":9722,"ĠĠĠĠ":9723,"ĠÙħÙĪØ±ÛĮ":9724,"Ø¨Ø³Øª":9725,"ĠØªÚ©Ø«ÛĮØ±":9726,"ĠØ¨Ø§Ø¨ÙĦ":9727,"ĠØ§ÙĦØ²Ø§ÙħÛĮ":9728,"ĠØ´ÙĪÚ©":9729,"Ø³ÛĮØ§":9730,"ĠØ¨ÛĮØ§Ø¨Ø§ÙĨ":9731,"Ø¯Ø§ÙĨØ§ÙĨ":9732,"Ø§Ø·Ùĩ":9733,"ĠÙħØ·Ø¨ÙĪØ¹Ø§Øª":9734,"ĠØ§ÛĮÙħÛĮ":9735,"ĠØ¨Ø§Ø´Ú©ÙĪÙĩ":9736,"ĠHDR":9737,"ĠØ¹Ø¶ÙĦØ§ÙĨÛĮ":9738,"ĠØ¨Ø³Ø§Ø²ÙĨØ¯":9739,"ĠØ¬ÙĪØ±ÛĮ":9740,"ĠÚ©Ø§Ø±ÙģØ±ÙħØ§ÛĮ":9741,"ĠÙĨÛĮØ§ÙħØ¯Ùĩ":9742,"ĠØ§Ù¾ÙĦÛĮÚ©ÛĮØ´ÙĨÛĮ":9743,"ĠØ§ØµØ·ÙĦØ§ØŃØ§":9744,"ĠØ´Ø§ÙĩÛĮÙĨ":9745,"ĠØ§Ù¾Ø±Ø§ØªÙĪØ±ÙĩØ§ÛĮ":9746,"ĠØ¢ÛĮØ±":9747,"ĠØªÙĪØ·Ø¦Ùĩ":9748,"15":9749,"ĠØ¨ÙĪØ³":9750,"ĠÙĦØ°ÛĮØ°":9751,"att":9752,"ĠØ¨Ø§ÙĪØ±ÙĨØ¯":9753,"ĠÛ±Û³Û¹Û´":9754,"ĠØ´Ø§ÛĮØ§ÙĨ":9755,"Û²Û²":9756,"Û³Û±":9757,"ĠAm":9758,"let":9759,"Ø³Ø§ÛĮÛĮ":9760,"ĠØ±Ø³ÙĪØ¨":9761,"co":9762,"ĠÙĤÛĮØ§Ø³":9763,"ĠØ´ÙĪØ´":9764,"ĠØ§ÙĨØ§Ø±":9765,"Ø§Ú©Ø³ÛĮØ¯":9766,"ĠØ³ÙĨØ¯Ø±Ùħ":9767,"ĠÙĩÙĪØ§Ø´ÙĨØ§Ø³ÛĮ":9768,"ĠØ¨ÙĩØªØ±Ùĩ":9769,"ĠÛ±Û¹Û¹Û´":9770,"ĠØ¯Úĺ":9771,"ĠÙĩÙħÙĪØ§Ø±":9772,"ĠØ¯ÙĪÙħÛĮ":9773,"ĠÛĮØ§Ø¯ØªØ§ÙĨ":9774,"ØªÙĪØ³":9775,"ĠÛ¹Û°Û°":9776,"ÙĦØ²Ùħ":9777,"ĠØµØ¯ÙħÙĩ":9778,"ĠÙħØ·ÙĦØ¨ÛĮ":9779,"ĠÙ¾Ø±Ø¯ÛĮØ³":9780,"ĠÙħØªØ§ÙĦ":9781,"ĠÙĨØ¯Ø±Øª":9782,"ĠØ¢Ø¦ÛĮÙĨ":9783,"Ø¬Ø±Ø¨Ùĩ":9784,"ÙĪØ²Ùģ":9785,"ĠØ¨Ú¯Ø°Ø§Ø±ÛĮÙħ":9786,"ĠÛ³Û¹":9787,"ood":9788,"ĠÚ©Ø§ØªÙĪÙĦÛĮÚ©":9789,"ĠÙ¾ÛĮØ´Ú¯Ø§Ùħ":9790,"ĠÙģØ±Ø³ÙĪØ¯Ùĩ":9791,"ĠÙĩØ±ØªØ²":9792,"ĠÙ¾Ø±ÙĪÛĮØ²":9793,"sh":9794,"ĠØ§ØªÙģØ§ÙĤØ§ØªÛĮ":9795,"ĠÙħØ³ØªÙĦØ²Ùħ":9796,"ĠØ³Ø±Ø´ÙĨØ§Ø³":9797,"ĠØ°Ø§ØªÛĮ":9798,"ĠØ¬ÙĪÙĦØ§ÛĮ":9799,"ĠÙģØ±Ø§Ø®ÙĪØ§ÙĨÛĮ":9800,"ĠÚ©Ø§Ø±Ú¯Ø±ÛĮ":9801,"ÛĮØ±Ø§":9802,"ĠØ¨Ø¯Ø§ÙĨØ¯":9803,"Ġ1080":9804,"ĠÙĩÙħÚ¯Ø§ÙĨÛĮ":9805,"Ø§ØŃØ§Ùģ":9806,"ĠØ¬ÙĦÙĪØªØ±":9807,"ĠØ¹ÙĦÛĮØ±ØºÙħ":9808,"ĠØªØŃØ±Ú©":9809,"ĠÛ±Û¹Û¹Û±":9810,"ri":9811,"Ú¯Ø±Ø§ÙħÛĮ":9812,"ĠØ¨ÛĮÚ¯":9813,"ĠÛ±Û¹Û¹Û¶":9814,"ĠØ¹Ø§Ø±Ø¶Ùĩ":9815,"ĠÚ©ÙĦØ³ØªØ±ÙĪÙĦ":9816,"ÙĪÙĩÛĮØ¯Ø±Ø§Øª":9817,"ĠÙħØ¹Ø§Ø¨Ø±":9818,"ĠØªØŃØ±ÛĮØ±":9819,"ĠÙħØµØ§Ø±Ùģ":9820,"Ø§ÙĪØ±ÛĮ":9821,"ĠØ²Ø¹ÙģØ±Ø§ÙĨ":9822,"ĠÚ©Ø±ÛĮØ³":9823,"ĠØ±Ø¯Ùħ":9824,"ÙĪÚ©Ø§Ø±ÙĩØ§":9825,"ĠÙģØ§Ú©ØªÙĪØ±ÙĩØ§ÛĮ":9826,"Ø·Ø§Ø±":9827,"Û¹Û¸":9828,"ÙĩØ§ÙĦ":9829,"Ú©Ø§Ø³":9830,"ĠÙĦÛĮÙħÙĪ":9831,"ĠØ´ÙħØ§Ø±Ø´":9832,"ĠØ¨Ø§Ø²Ø±Ú¯Ø§ÙĨ":9833,"ĠØ¢ÙĦÙĪ":9834,"ĠØ¯Ø±Ø´Øª":9835,"ĠÚ©Ø´Ø§ÙĪØ±Ø²Ø§ÙĨ":9836,"ĠÙ¾Ø§Ø±Ø§ÙħØªØ±":9837,"ĠØ§ÙĦØªØŃ":9838,"ĠØªØ£Ø«ÛĮØ±Ø§Øª":9839,"ĠØ§Ø³ØªØ§Ø¯Ø§ÙĨ":9840,"Ø¬ÙħØ§ÙĨ":9841,"ĠØ§ØŃØ§Ø·Ùĩ":9842,"ÙĶ)":9843,"ĠÙħØ¹Ø¬":9844,"ĠÙħØ¬Ø§ÙĪØ±Øª":9845,"ĠØ¢ÙĦÙĨ":9846,"ĠØªÙĪØ±Ø¨":9847,"ĠØµÙĪØª":9848,"ĠÚ©Ø§ÙħÙ¾Ø§ÛĮÙĦ":9849,"ĠÙĦØ§ÛĮÙĨ":9850,"ĠÙ¾Ø±ÙĪÚĺ":9851,"ĠÚ¯ÛĮØªØ³":9852,"Ø¯Ø§Ø±ÙĨØ¯Ùĩ":9853,"ĠÙĨÙĪÛĮØ¯":9854,"ĠØ³Ú©ÙĪÛĮ":9855,"ĠÙ¾Ø§ÙĨØ¯":9856,"Ø¨Ø±ÙĨØ§ÙħÙĩ":9857,"ĠØªØ±Ø§ÙĨØ³":9858,"FA":9859,"ĠÚ¯ÛĮØ±Ø¨Ú©Ø³":9860,"ĠDis":9861,"ĠØªÙĪÙĩÛĮÙĨ":9862,"ĠÚ©ÙĦÛĮÙ¾":9863,"ĠÙĩØ±Ø¯ÙĪ":9864,"ØªÙĦÛĮ":9865,"ĠÙĦÛĮØ¨Ø±":9866,"ĠÙħØŃØªÙĪÛĮØ§Øª":9867,"ÙģØ§Ø±":9868,"Ø³ÛĮÙĦÛĮ":9869,"ĠÙħØ§ÙĪØ³":9870,"ÙģÙģ":9871,"ĠÙĨÙħØ§ÛĮÛĮ":9872,"ĠØªÙĤÙĦØ¨":9873,"ĠØ¯Ø±ØµÙĪØ±Øª":9874,"ĠÙħÙĪØ¶ÙĪØ¹Ø§ØªÛĮ":9875,"ÙłÙł":9876,"ĠØ¢Ø¯Ø§Ø¨":9877,"ĠØ§Ø´ØªØ±Ø§Ú©ÛĮ":9878,"BM":9879,"ĠØ£":9880,"ÛĮÚ©Ø§ÙĦ":9881,"ĠØ³Ø§Ø±ÛĮ":9882,"Ø§Ø¯Ùģ":9883,"Ch":9884,"ĠWar":9885,"ĠØ§ÙĪØ±ÛĮ":9886,"ĠÙĦØ±Ø²Ùĩ":9887,"ĠØ¬Ø¹Ùģ":9888,"ĠRed":9889,"ÙĦØ§Ø·":9890,"ĠØ¨Ø§Ø±ÙĨØ¯Ú¯ÛĮ":9891,"ĠÙħØªØ§Ø¨":9892,"ĠÛ±Û¹Û¹Û²":9893,"ĠÛ±Û¹Û¹Ûµ":9894,"ĠÙĨØ§Ø±Ø¶Ø§ÛĮØªÛĮ":9895,"ĠÙĨØ´Ø±ÛĮ":9896,"ĠØ¬Ø§ÙĨÛĮ":9897,"ÙĪÙģØ±":9898,"ĠØ¬ÙĨØ±Ø§ÙĦ":9899,"ĠØ³ÙĤØ·":9900,"ĠØ´ÙĨØ§Ø³Ùĩ":9901,"ert":9902,"ĠÙĤÛĮØ§Ùħ":9903,"ĠØ³Ø±ÙĨÚ¯":9904,"ĠØ§Ù¾ÛĮØ²":9905,"ĠØªØ³ÙĦÛĮØŃØ§Øª":9906,"ĠÙħÛĮÙĦØ§ÙĨ":9907,"ĠØ¬Ø§Ø¯ÙĪÛĮÛĮ":9908,"ĠÙĩÙĦØ§ÙĦ":9909,"ĠÙĨÙĪØªÛĮÙģÛĮÚ©":9910,"ĠÙħÙĦØ²Ùħ":9911,"ĠÙħØªØŃÙħÙĦ":9912,"ĠØ¢ÙĨÙģ":9913,"ĠÚĨÛĮØ²ÙĩØ§":9914,"Û¹Û¶":9915,"ĠØ§ÙĨÙģØ±Ø§Ø¯ÛĮ":9916,"ĠØ¨Ø±ÛĮØ¯Ú¯ÛĮ":9917,"ĠØ§Ø³Ú©Ø±ÛĮÙĨ":9918,"ĠÙĪÛĮÙĦØ§":9919,"ÙģØ±Ø´":9920,"ĠÙ¾ÛĮØ±ÙĪ":9921,"ĠÙħØªØ¹Ø§Ø¯ÙĦ":9922,"ĠØ±ÙĪÚ©Ø´":9923,"ĠÙĩÙĪØ§ÙĨ":9924,"ĠÚ©ÛĮÙĩØ§ÙĨ":9925,"ĠØ¯ÙĪØ±Ú©Ø§Ø±ÛĮ":9926,"ĠÚ¯Ø±ÙĪÚ¯Ø§ÙĨ":9927,"ĠØ³ÙĨØ¬ÛĮ":9928,"Ø²ÙĨÛĮÙħ":9929,"ĠØ´ÙĩØ§Ø¯Øª":9930,"ĠÙħØ¬Ø±":9931,"ĠMot":9932,"ĠØ¹ÙĦØ§ÙĤÙħÙĨØ¯":9933,"ĠÙ¾ÛĮØ§Ù¾ÛĮ":9934,"ĠÙ¾ÛĮØºØ§Ùħ":9935,"ĠØ¨Ø§ÙĪØ¬ÙĪØ¯":9936,"ĠØ´ÙĩØ±ÙĪÙĨØ¯ÛĮ":9937,"ĠØ¨Ø·Ø±ÛĮ":9938,"ĠÙ¾ÛĮØ´ÙĨÙĩØ§Ø¯Ø§Øª":9939,"ĠØ¬Ø±Ø§ÛĮÙħ":9940,"Ø²ÙħØ§ÙĨÛĮ":9941,"form":9942,"ĠØ¨Ø§Ø²Ø§Ø±ÙĩØ§":9943,"ĠÚ©Ø§Ø³Ùĩ":9944,"ĠÙģØ§Ø·ÙħÙĩ":9945,"ĠØµÛĮ":9946,"Ø±Ø³ÙħÛĮ":9947,"ĠÙ¾Ø±ØªØ±Ùĩ":9948,"ĠÙħØ¹Øµ":9949,"ĠØ§ÛĮØ±ÙĦØ§ÛĮÙĨ":9950,"ĠÙħØ¹ØªØ±Ø¶":9951,"ĠØ¹Ø²Øª":9952,"Ġap":9953,"ĠÙĨÛĮÙĦ":9954,"Ġ2014":9955,"ĠÛ¹Û³":9956,"ĠØªÙĪØ±Ø¨ÛĮÙĨ":9957,"Ø¯Ø§Ø´ØªÙĨ":9958,"ĠÙħØ¨ØŃØ«":9959,"ĠØ¬Ø§Ø¨Ø¬Ø§":9960,"ĠØ¶ÙĦØ¹":9961,"ĠÚ¯Ø±Ø§ÙĨÛĮ":9962,"Ø¬Ø§Ø²":9963,"ĠØ´ÙħØ´ÛĮØ±":9964,"ĠØ³ØªØ§ÛĮØ´":9965,"Ø·Ùģ":9966,"ĠÙħÙĤØµØ±":9967,"ÙĤØ¯Ø±Øª":9968,"ĠÙĨØ¨Ø±":9969,"ĠÙģÙĤÙĩ":9970,"ĠÚ¯Ø²Ø§Ø±Ø´Ø§Øª":9971,"ĠØ¬ÙĨØ§ØŃ":9972,"ĠØ³ÙĪØ³":9973,"ĠÚ©ÙĪØ¨Ø§":9974,"Ú©ÙĨÙĨØ¯Ú¯ÛĮ":9975,"ĠÚ©ÙĪØ±ÙĪØ´":9976,"ĠØŃØ¨ÛĮ":9977,"ĠØ§Ø´Ø¨Ø§Ø¹":9978,"ĠØŃØ¯Ø§Ú©Ø«Ø±ÛĮ":9979,"âĢĮ.":9980,"ĠØ¯ÛĮÙ¾ÙĦÙħØ§ØªÛĮÚ©":9981,"ĠÙĨØ§ØªÙĪØ§ÙĨÛĮ":9982,"ĠØ¨ÙĤØ§ÛĮØ§ÛĮ":9983,"ØŃØ§ØªÛĮ":9984,"ĠÚ¯Ø°Ø§Ø´ØªÙĨØ¯":9985,"Ú¯Ø±ÙģØªÙĨØ¯":9986,"ĠWi":9987,"ĠØ§Ø²Ø¨Ú©":9988,"ĠØ¶ÙħØ§ÙĨØª":9989,"ĠÙģØ¶Ø§Ù¾ÛĮÙħØ§":9990,"ĠÚ¯Ø°Ø±Ø§ÙĨ":9991,"ĠÚ©ÙĦØ±":9992,"ĠÙĦØ¨ÙĨÛĮ":9993,"ÙĦÙĪÚ©":9994,"ĠØ³ÙģØ§ÙĦ":9995,"Ø§Ú¯ÙĪÙĨ":9996,"ĠØ§Ø±ÙĪÙ¾Ø§ÛĮ":9997,"ĠØ¨ÙĦÙĪÙħØ¨Ø±Ú¯":9998,"af":9999,"ĠÙ¾ÛĮØ´Ø±ÙĪÛĮ":10000,"ÙĨØ§Ø³":10001,"ĠØ³ÙĪØ±Ùĩ":10002,"ĠØ¨Ú©ÙĨØ¯":10003,"ÛĮØ±Ø§ÙĨÛĮ":10004,"ĠÙĪØ±ÚĺÙĨ":10005,"ÙĨØªÙĪ":10006,"ĠÙ¾Ø±Ø±ÙĨÚ¯":10007,"ĠÛĮØ§Ø¨ÙĨØ¯":10008,"ĠØ³ÙĩØ§ÙħØ¯Ø§Ø±Ø§ÙĨ":10009,"ÙħØ§Ø¯ÛĮ":10010,"ĠÙ¾Ø±Ø®":10011,"ĠÙħÙĤÙĪÙĦÙĩ":10012,"ĠÙĨÙĪØ³Ø§ÙĨØ§Øª":10013,"25":10014,"Ø§Ø«Ø±":10015,"ps":10016,"Ú¯ÛĮØ±ÙĨØ¯Ùĩ":10017,"Ø³ÛĮØ±ÛĮ":10018,"Ù¾Ø§ÙĨ":10019,"ĠØŃØ°ÙģÛĮ":10020,"ĠØªØ§Ø¬ÛĮÚ©":10021,"ĠÙĩØ´ØªØ§Ø¯":10022,"ĠØ³Ø¤Ø§ÙĦØ§Øª":10023,"ĠØ¨ØŃØ±ÛĮÙĨ":10024,"ĠØ¢Ø¯Ø§Ùħ":10025,"ĠSD":10026,"ĠÙĨÙĪØ±Ù¾Ø±Ø¯Ø§Ø²ÛĮ":10027,"ĠØ®ÙĪØ±Ø¯Ú¯ÛĮ":10028,"ĠÙĨØ§ÙħØ²":10029,"ĠÙħØºÙĦ":10030,"ĠØµØ§Ø¯Ø±Ú©ÙĨÙĨØ¯Ùĩ":10031,"Ø¢Ø¨Ø§Ø¯ÛĮ":10032,"ĠØ¨ÛĮØ§ÛĮÙĨØ¯":10033,"ĠÙ¾ÛĮØ´Øª":10034,"ĠÙħØ±Ø§Ø³ÙħÛĮ":10035,"ĠØ§Ø¨ØªÙĦØ§ÛĮ":10036,"ĠØ§ÙħØªÛĮØ§Ø²Ø§Øª":10037,"Ġit":10038,"35":10039,"ĠÙħØ·Ø§ÙĦØ¨ÛĮ":10040,"ĠÙħØ¬Ø§Ø±Ø³ØªØ§ÙĨ":10041,"ĠÙħØ§Ø²Ø§Ø¯":10042,"ĠØ¯ÙĩÙĦÛĮ":10043,"ath":10044,"ĠØ´Ø´ÙħÛĮÙĨ":10045,"ĠØ¨Ø¹Ø¯Ø´":10046,"Ø±Ø¨ÙĨØ¯ÛĮ":10047,"ÙĨÙħÙĪØ¯":10048,"ĠØ¢ÙħÙĪØ®ØªÙĩ":10049,"ĠØ³ÙĦØ¨":10050,"ĠØ¨Ø±ÙĨØ¯ÙĩØ§":10051,"Ø²ÙĨÛĮØ¯":10052,"ĠØªØ±ÙħÛĮÙĨØ§ÙĦ":10053,"ØªØ´":10054,"ĠÙħÙĩØ±Ø¨Ø§ÙĨ":10055,"ĠÚ©ÙĩÙĨÙĩ":10056,"ÙĪØ³ØªÙĪÙĨ":10057,"ĠØ²Ø±ØªØ´ØªÛĮ":10058,"ĠÙħÛĮØ®ÙĪØ§Ùħ":10059,"Ø§Ø¨ÙĤØª":10060,"ĠÙħØ´Ø±ÙĪØ·Ùĩ":10061,"ĠÙĨØ§Ø®Ø§ÙĦØµ":10062,"ÙħÙĪÙĨÛĮ":10063,"ÙĪØ¦ÙĨ":10064,"ĠØ¨Ø³Ù¾Ø§Ø±":10065,"ĠÙĩÙĪÛĮ":10066,"ĠÚĨÙĦ":10067,"ĠÚ©Ø´Ø´":10068,"orld":10069,"ĠÙħÙģÛĮØ¯ÛĮ":10070,"ĠÚ©Ø±Ø§ÙĨÙĩ":10071,"ĠØ³Ø±Ø¯Ø±Ø¯":10072,"ĠÙħØ¨Ø§ÙĦ":10073,"ĠØµØ±Ø¨":10074,"ĠÙħØ£ÙħÙĪØ±":10075,"ĠÚ©Ø«ÛĮÙģ":10076,"ĠØ§Ø¹Ø±Ø§Ø¨":10077,"ĠÙħØ§Ø³Ùĩ":10078,"ĠØ´Ø§Ø¹Ø±Ø§ÙĨ":10079,"ĠÙ¾ÛĮØ§ÙĨÙĪ":10080,"Ø³ÛĮØ³Ú©ÙĪ":10081,"indows":10082,"ĠØ®Ø¯Ø§ØŃØ§Ùģ":10083,"ĠØ§Ø±Ú¯Ø§ÙĨ":10084,"ĠÚ¯Ø±ÙģØªÚ¯ÛĮ":10085,"ĠØ§ÙĨÙĤØ¯Ø±":10086,"ĠØ´Ø§ÙĩÚ©Ø§Ø±":10087,"oad":10088,"ĠAut":10089,"ĠÙģØ¶Ø§Ù¾ÛĮÙħØ§ÛĮ":10090,"ĠÙģØ±Ø²ÙĨØ¯ØªØ§ÙĨ":10091,"ĠÙģØ´Ø§Ø±ÙĩØ§ÛĮ":10092,"ĠÛ±Û³Û¹Û²":10093,"ĠÙĨØ·":10094,"ĠØªØŃÙĦÛĮÙĦÛĮ":10095,"ĠØ¯Ø¨ÛĮØ±Ú©ÙĦ":10096,"ĠØ§ÛĮÙĨÙĤØ¯Ø±":10097,"ĠÚĨÙħØ¯Ø§ÙĨ":10098,"ĠØ§Ø³Ú©ÙĪ":10099,"Ø§ÛĮÙħØ±":10100,"ĠÛ±Û³Û¹Û°":10101,"ĠÙĦÙĩØ¬Ùĩ":10102,"ĠÙģØ±ÙĪÙ¾Ø§Ø´ÛĮ":10103,"ĠÛ±Û¹Û²Û°":10104,"ĠØªÙĦØ§Ø´ÛĮ":10105,"Ø·Ø±Ø§ØŃÛĮ":10106,"ĠØªØ§ÛĮÙĪØ§ÙĨÛĮ":10107,"ĠiP":10108,"ystem":10109,"ÙħØ§Ø±ÛĮ":10110,"ĠCO":10111,"ĠØ¯Ù¾":10112,"ĠÙģÙĪØªÛĮ":10113,"ÙĪÛĮÛĮØ¯":10114,"Ø§ÙĩÛĮØ±":10115,"ĠØŃØ§Ø¯":10116,"ĠØ§ÙħÙĪØ±Ø®Ø§Ø±Ø¬Ùĩ":10117,"ĠØ¨Ø¹Ø¯Ø§Ø²":10118,"ĠØ§Ø®ØªØ±":10119,"ĠØ§ÙĪÙ¾ÙĪ":10120,"ĠÚĨÛĮØ¯ÙħØ§ÙĨ":10121,"ĠÙħÙĪÙĤØ¹ÛĮØªÛĮ":10122,"Ø¨Ø§Ùģ":10123,"ond":10124,"ĠØ¨Ø§ÙĤÛĮÙħ":10125,"ĠÚ©Ø±ÛĮØ³Ùħ":10126,"ĠØ§Ø³ØªØ±ÛĮ":10127,"ĠÙħÙĪÙĨØªØ§Úĺ":10128,"Ø§ÙĤØ¶":10129,"ĠÚ¯ÙĦØ¯Ø§ÙĨ":10130,"Ø³ÙĦØ·":10131,"ĠÙĨÙħÛĮØ¯ÙĪÙĨ":10132,"ĠØ¨ÙĨÙģØ´":10133,"ĠØ´Ú©ÛĮ":10134,"ÚĨØ±Ø§":10135,"ĠÙħØ·Ø§ÙĦØ¨Ø§Øª":10136,"ØŃØ³":10137,"ĠØ¯ÛĮÙĪØ§ÙĨÙĩ":10138,"ĠØ³Ø§ÛĮØ±ÛĮÙĨ":10139,"ĠØ´Ø§ØªÙĦ":10140,"ĠØŃÙħØ§Ø³":10141,"ĠØ§ÙħØ´Ø¨":10142,"Û³Û¸":10143,"ĠØ¨Ø³Ø²Ø§ÛĮÛĮ":10144,"Ø§Ø±Ø¶":10145,"ÙĩØ§Ø¨ÛĮ":10146,"ĠØªØ¬Ø§Ø±Ø¨":10147,"ÙĪØ¯Ø§":10148,"ĠØ¢Ø¨Ø§Ø¯ÛĮ":10149,"ĠØ¢Ú¯Ø§ÙĩØ§ÙĨÙĩ":10150,"SO":10151,"ÙĪØ§Ø¨Ø·":10152,"Ø®Ø·":10153,"ĠØ±ÙħØ²Ø§Ø±":10154,"olog":10155,"ĠØ±Ø¬ÛĮ":10156,"ĠSm":10157,"ĠØŃØ§ÙħÛĮØ§ÙĨ":10158,"Ú©ÙĨØ´ÛĮ":10159,"ĠØ¬Ø¯ÛĮØ¯ØªØ±":10160,"ĠÙħÙĨÙĩ":10161,"ĠØ§ÙĨÚ¯Ø´ØªØ§ÙĨ":10162,"ØªÛĮÙĪÙħ":10163,"Ø¨Ø§ÙĨÚ©":10164,"ĠØ¬Ø§ÛĮÚ¯Ø§ÙĩÛĮ":10165,"ĠOS":10166,"ĠØ°ÙĪÙĤ":10167,"ĠØ¢ØºÙĪØ´":10168,"ĠÙħÙĪÙĨÛĮ":10169,"ĠØ§ÙĨØªÙĤØ§Ø¯Ø§Øª":10170,"ĠØ§Ù¾ÛĮØ²ÙĪØ¯":10171,"ÙĨÙĪØ±":10172,"ĠØ§Ø±ÛĮÚ©":10173,"ÙĪÛĮÙĪ":10174,"ĠÛ±Û¸Û°":10175,"ĠÛ±Û¹ÛµÛ°":10176,"ĠÙĪÛĮØ¯Ø¦ÙĪÙĩØ§ÛĮ":10177,"ĠØ§ØªÛĮ":10178,"ĠØ´Ø§ÙĦ":10179,"ĠÙħØªÙĨØ§":10180,"ĠØ§ØµÙĨØ§Ùģ":10181,"ĠØŃØ´Ø±Ø§Øª":10182,"ĠÙħØ¯ÛĮØ§ØªÚ©":10183,"ĠØªÙĪØ§ÙĦÛĮ":10184,"Ø¬Ø±ÛĮÙĩ":10185,"ÙĦÙĨØ¯ÛĮ":10186,"ĠÙĨÙĩÙģØªÙĩ":10187,"ĠØ³Ø§Ø²ÙĨØ¯":10188,"ĠÚ©ÙĨØªØ±ÙĦØ±":10189,"ĠØ¬ÙħØ§ÙĩÛĮØ±":10190,"ĠÙħÛĮÚ¯Ùħ":10191,"Ø§Ø¶Ø¹":10192,"Ø¢Ø¯Ø±Ø³":10193,"ĠØ¨Ø²Ø§Ø±":10194,"ĠÙĪØ§ÙĨØª":10195,"Û³Û´":10196,"65":10197,"SA":10198,"ĠØ³Ø±Ø¯Ø¨ÛĮØ±":10199,"Ġ70":10200,"ĠÛ³ÛµÛ°":10201,"ĠÙĤÙģÙĤ":10202,"Û¹Û²":10203,"ĠØªØ±ÙĨØ¯":10204,"ĠØŃÙĪØ¶":10205,"ĠÙħØ·Ø§Ø¨ÙĤØª":10206,"ĠÙĤÙĦÙħØ¯Ø§Ø¯":10207,"))":10208,"ĠÛµÛ±":10209,"Ø§Ø¡":10210,"Ġ64":10211,"ĠÙĪÙģØ§Ø¯Ø§Ø±ÛĮ":10212,"ĠØ¹Ø°Ø±":10213,"ĠØ§ØªØµØ§ÙĦØ§Øª":10214,"Ġbe":10215,"ĠØ²Ø§Ú¯Ø±":10216,"Ø¨ÙĤ":10217,"ĠØ±ÙģØ§ÙĩÛĮ":10218,"ĠÙĨÙħØ§ÙĨØ¯Ùĩ":10219,"ĠØªØ¹Ø§ÙħÙĦÛĮ":10220,"ĠÙĦØ§Ø±":10221,"ĠÙĩÛĮØ±":10222,"ĠØ§Ø±Ø²Ø´ÙħÙĨØ¯ÛĮ":10223,"ĠÙħÙĪØ¹Ø¯":10224,"ish":10225,"Ú¯Ø±ÙĩØ§ÛĮ":10226,"ĠØºÛĮØ±Ø¹":10227,"ĠÙĩØ§Ø±ÙĪØ§Ø±Ø¯":10228,"ĠØ³Ø§Ú©":10229,"ĠØ§Ø±Ø³":10230,"ĠÙĩÙĦÙĨØ¯ÛĮ":10231,"Ġus":10232,"ÙħÙĪØ¯":10233,"ĠÙħØ³ØªØŃ":10234,"Ø§ÛĮÙģÙĩ":10235,"ĠØºÙĦØ§Øª":10236,"ĠØ¶ÙĪØ§Ø¨Ø·":10237,"ĠØ¯ÙģØ¹Ùĩ":10238,"oot":10239,"ĠØ¬ÙĩØ±":10240,"ĠÙ¾Ø±Ø¯Ø§Ø®ØªÛĮ":10241,"ĠØ³Ø§Ú©ÙĨÛĮÙĨ":10242,"ĠØ¢Ø°Ø±ÛĮ":10243,"Ġ99":10244,"Ġan":10245,"ĠÙ¾Ø§Ø³Øª":10246,"ĠØ¨Ø±Ø®Ø§Ø³Øª":10247,"ĠØ§Ø¨Ø²Ø§Ø±ÙĩØ§ÛĮÛĮ":10248,"ĠØ§Ø®ØªØµØ§Ø±":10249,"ĠØ³ÛĮØ§Ø±":10250,"ĠÚ©Ø±Ø¨ÙĪÙĩÛĮØ¯Ø±Ø§Øª":10251,"ĠÛ´Û¹":10252,"ĠÛĮØ§Ø¯Ø¨ÙĪØ¯":10253,"ÛĮÚ©Ø§Ú¯ÙĪ":10254,"ical":10255,"ÙĨÙĩØ§ÛĮØª":10256,"Ø²Ø§ÛĮÙĨØ¯Ùĩ":10257,"ĠÙħÛĮÚ©Ø±ÙĪÙģÙĪÙĨ":10258,"ĠÙĪØ§Ø¬Ø¯":10259,"ÛĮÙĨÚ¯ØªÙĨ":10260,"Ø¨Ø§Øº":10261,"ÙĪØ¨Ø±ÛĮ":10262,"ĠÚ¯ÛĮÙħØ±ÙĩØ§":10263,"ĠÚ©Ø±ÛĮØ³ÙħØ³":10264,"ĠÙĩÙĪÙĨØ¯Ø§":10265,"ĠØ¨ÙĩØ¨ÙĪØ¯ÛĮ":10266,"ĠØ´Ø®ØµØ§":10267,"Ø±Ø¹":10268,"pen":10269,"Ø¯Ø§ÙĨÛĮ":10270,"ĠØ³Ø±Ø¨Ø§Ø²ÛĮ":10271,"ĠØ¬Ø¯Ø§Ø³Ø§Ø²ÛĮ":10272,"ĠØ¨Ø§ÙĤÛĮÙħØ§ÙĨØ¯Ùĩ":10273,"ĠØ¯ÛĮØ³":10274,"ĠÙĩÛĮØ¬Ø§ÙĨÛĮ":10275,"ĠØ³ÛĮØ§":10276,"ĠØªØ¶Ø§Ø¯":10277,"Ø§Ø®ØªÙĨ":10278,"ĠÙĩÙħÚĨÛĮÙĨ":10279,"ĠØ³Ù¾Ø§ÙĩÛĮ":10280,"TP":10281,"ĠØ¯Ø±Ø¯Ø³ØªØ±Ø³":10282,"ĠØ§ÛĮÙĨØ§":10283,"ĠØ§Ø¨Ø±ÛĮØ´Ùħ":10284,"ĠØ·Ø¨ÙĤØ§Øª":10285,"ÙģØ´Ø§ÙĨ":10286,"ĠØ§ÙĦÚ©Ø³Ø§ÙĨØ¯Ø±":10287,"ĠØ¢ÙĨÙĩØ§ÛĮÛĮ":10288,"ĠÙĤØ´Ùħ":10289,"ĠØ²ÙĨÚ¯ÙĨÙĩ":10290,"ĠØ¨Ø®Ø´ÛĮØ¯":10291,"ĠÙĤØ¯Ø±ØªÛĮ":10292,"ĠØ¨Ø®ÙĪØ±Ø¯":10293,"Ø§Ø±Úĺ":10294,"ĠØ¯Ø±Ø¯ÙĨ":10295,"ĠÙĪØ±Ø´Ú©":10296,"ĠÚ©ØªØ¨":10297,"Ú¯Ø§Ø³":10298,"13":10299,"ĠÙģØ²Ø§ÛĮÙĨØ¯Ùĩ":10300,"ÙħØ±ÛĮ":10301,"Ø£Øª":10302,"ĠÙħÛĮØ¯Ø§ÙĨÛĮ":10303,"ÚĨÙĨØ¯Ø§ÙĨ":10304,"ĠÙĨÛĮØ¬Ø±ÛĮÙĩ":10305,"ĠØ¨ÙĨÛĮØ§ÙĨÚ¯Ø°Ø§Ø±":10306,"ĠØ§Ø±Ø³Ø§ÙĦÛĮ":10307,"ĠØ¨Ø¯ÙĪ":10308,"ount":10309,"ĠÙĪØ³Øª":10310,"ĠÙĩØ²Ø§Ø±Ùĩ":10311,"ĠÙĨÙĪØ±ÙĪØ²ÛĮ":10312,"ĠØ°Ø§Øª":10313,"ĠÚ¯ÙģØªÚ¯ÙĪÛĮ":10314,"ĠØªØ¯Ø§Ø¨":10315,"ĠØ±ÙĪÛĮØ¯Ø§Ø¯ÛĮ":10316,"Ø§ÙĨÚ¯ÛĮØ²ÛĮ":10317,"ĠØ¨Ø®ÙĪØ±ÛĮØ¯":10318,"ĠÙħØ³ÛĮØŃÛĮØª":10319,"ĠØ´Ø§ÙħÙ¾":10320,"ĠÙģÛĮØ±ÙĪØ²":10321,"Ø²Ø¯Ø§ÛĮÛĮ":10322,"ild":10323,"Ġ199":10324,"ĠØ§Ø³ØªØ±ÛĮØª":10325,"ĠØ§Ø¹ÙĦØ§ÙħÛĮÙĩ":10326,"ĠØ®Ø¯ÙħÙĩ":10327,"Ġwith":10328,"ĠØ§Úĺ":10329,"ĠØ¢ÛĮÙĩ":10330,"Ø±Ø§Ú©":10331,"ĠØ§Ø¬Ø³Ø§Ùħ":10332,"ĠØ§ÙĨØ³ÙĪÙĦ":10333,"Fi":10334,"ĠÚ©ÙĨØ´":10335,"Ø®Ø¯Ùħ":10336,"ÛĮØªØ§":10337,"Ø±ÙĪØ²ÛĮ":10338,"ĠÙħØ¹Ø§ÙģÛĮØª":10339,"ĠÙħØ¨ÙĩÙħ":10340,"ĠØ´Ø¬Ø§":10341,"ĠØ¯ÙĪÚ©":10342,"Ø§ÙĨØ¯Ø§Ø±Ø§ÙĨ":10343,"ĠÙħØ¨Ø§Ø±Ø²Ø§Øª":10344,"ĠØ´Ø¹Ø§Ø¹":10345,"ĠØ§Ø±Ø§Ú©":10346,"ĠØ³ÙħØ¹":10347,"ĠÙ¾Ø³ÙĨØ¯":10348,"ĠÙĨÙħÛĮØ´":10349,"ÙĩÛĮØ¯":10350,"ĠØŃØ´":10351,"ĠÙħÙĨÛĮ":10352,"ung":10353,"ĠÛ±Û³Û¸Û¸":10354,"oud":10355,"ĠÛĮÚ©Ø³Ø§ÙĨÛĮ":10356,"ĠØ±ÙħØ²Ø§Ø±Ø²":10357,"ĠÚ©ÙĦÙĩ":10358,"ĠØªØµØ¯ÛĮ":10359,"ÙĪÚĨ":10360,"ĠØ³ÛĮØ²Ø¯Ùĩ":10361,"ĠÙģØ±ÙĩØ§Ø¯":10362,"ØªØ±Ø§Ú©":10363,"Ú¯ÙĪØ±":10364,"ĠÙĤØ§ØªÙĦ":10365,"ĠØ¬Ø¹ÙģØ±ÛĮ":10366,"Ø±ÙĪÚ©":10367,"ĠØ¹ÙĪØ§ÙĤØ¨":10368,"ĠØ§Ø·ÙĦØ³":10369,"ĠØ¹ØµØ¨":10370,"ĠØµØŃÙĨ":10371,"ĠØ¢ÙĦÙģØ§":10372,"ĠØ§ÙħÙ¾Ø±Ø§":10373,"Ø¹Ø¯Ø§Ø¯":10374,"ĠØµÙħÛĮÙħÛĮ":10375,"ĠÚĺÙĨØªÛĮÚ©":10376,"ĠØºÛĮØ±Ø±Ø³ÙħÛĮ":10377,"ĠØ³ÙĪØ¡Ø§Ø³ØªÙģØ§Ø¯Ùĩ":10378,"ĠØ´ÛĮÚ©Ø§Ú¯ÙĪ":10379,"ĠØ·Ø§ÛĮÙģÙĩ":10380,"ĠØ´ÛĮØ·Ø§ÙĨ":10381,"Ø¸Ø±Ùĩ":10382,"ĠÙħØ§ÙĦÚ©Ø§ÙĨ":10383,"ool":10384,"ĠØ¨ÛĮØ§":10385,"Ø®ÙĪØ§Ùħ":10386,"Ø¢Ø´":10387,"ĠÚ©Ø§ÙĨØ§Ø¯Ø§ÛĮÛĮ":10388,"Ø¢ÙħØ¯ÛĮ":10389,"Ġ()":10390,"ĠØ®ÙĦØ§ÙģÛĮ":10391,"ys":10392,"ĠDr":10393,"ĠØ¨ÙģØ±ÙĪØ´":10394,"ĠBr":10395,"ĠØ¯Ø§Ø´ØªÙĨÛĮ":10396,"ĠØ§Ø®ØªÛĮØ§Ø±ØªØ§ÙĨ":10397,"ound":10398,"ĠØ¯Ø±ÙĩØ§ÛĮ":10399,"ĠØ¯Ø³ØªÙħØ§ÙĦ":10400,"ĠÚ©ÙĪÙ¾Ùĩ":10401,"ĠØ¯ÙĪØ¯ÙħØ§ÙĨ":10402,"ĠØ²Ø±Ùĩ":10403,"ĠÚĨØ´ÙħÛĮ":10404,"ÙħÙĨØ·":10405,"Ø²ÙĨÙħ":10406,"ĠÙ¾ÙĩÙ¾":10407,"ĠØ®Ø¨Ø±ÙĩØ§":10408,"Ø§ÙģÙĤÛĮ":10409,"ĠÙħØ®ØªÙĦ":10410,"ĠØ§ÙĪÙħØ¯Ùĩ":10411,"ĠAndroid":10412,"Ø¦ÙĦ":10413,"ĠØªØ¯Ø±ÛĮØ¬ÛĮ":10414,"ĠØ¯ÙĪÛĮØ¯ÙĨ":10415,"ĠØ¨Ø®ÙĪØ§ÙĩÙĨØ¯":10416,"ĠGr":10417,"ĠÙĨØ§ÙħØ²Ø¯ÛĮ":10418,"ĠÙĪØ§ÛĮØª":10419,"Ø³ØªÛĮÙĨ":10420,"ĠÙĩÛĮÚĨÙĪÙĤØª":10421,"ĠÚ¯Ø±Ø¯Ø§ÙĨ":10422,"ĠÙħØ´ØªØ±Ú©ÛĮ":10423,"Ø·Ø¨ÛĮØ¹ÛĮ":10424,"ĠØ±Ø¦Ø§ÙĦ":10425,"ĠØ§ÙĦÚ©ØªØ±ÙĪÙħ":10426,"eed":10427,"ĠÚ¯Ø±Ø§ÙħÛĮ":10428,"ĠÙħØ³ØªÙĨØ¯Ø§Øª":10429,"ĠØ§ÙĦØ¬Ø²Ø§ÛĮØ±":10430,"ĠØ§Ø³ØªØ¹Ùħ":10431,"Ġ300":10432,"ĠØ¨Ø§ÙĪØ±ÙĩØ§ÛĮ":10433,"ĠØªÙĩØ§Ø¬ÙħÛĮ":10434,"ĠÙĨØ±Ø³ÛĮØ¯":10435,"ĠØ¯Ø±Ø¢ÙħØ¯Ø²Ø§ÛĮÛĮ":10436,"ĠØ¯ÙħÙĪÚ©Ø±Ø§ØªÛĮÚ©":10437,"ĠÙ¾Ø³ÙĪÙĨØ¯":10438,"ÙĪØ±ÛĮØ§ÙĨ":10439,"Ø§Ø®ÙĦ":10440,"ĠØ¨ÛĮÚ¯Ø§ÙĨÙĩ":10441,"ĠØµÙħØª":10442,"ÙĪØ´Ø§Ø±Úĺ":10443,"ĠØªØ¨Ø§Ø±":10444,"ĠNew":10445,"Ø¨ÙĩØªØ±ÛĮÙĨ":10446,"ĠÙĨØµÛĮØ¨":10447,"ĠÙģØ±Ø¢ÛĮÙĨØ¯ÙĩØ§ÛĮ":10448,"ĠØ¨ÙĩØª":10449,"ĠØªØ£ÙĦÛĮÙģ":10450,"ĠÙĩØ¶Ùħ":10451,"ĠØ®ÙĪÙĨØ¯ÙĨ":10452,"ĠÙħØ§ÙħÙĪØ±":10453,"ĠØ§Ø³ØªØ«ÙĨØ§ÛĮÛĮ":10454,"ĠÙĨØ¦":10455,"ĠØ³Ù¾Ø±":10456,"Ø¨ÙĪØ³":10457,"ĠØ¯ÛĮØ¯ÛĮÙħ":10458,"ĠÙħØ·Ø¨ÙĪØ¹Ø§ØªÛĮ":10459,"Ø®Ø§ÙĨÛĮ":10460,"ĠÙ¾ÙĪØªÛĮÙĨ":10461,"ĠØ±Ø³Ø§ÙĦÙĩ":10462,"ĠÙĪØ³ÙĪØ³Ùĩ":10463,"ĠØ§ÙĨØŃØ±Ø§Ùģ":10464,"ĠÙģÙĪØ§":10465,"ĠØ¬Ø§ÙĨÙĪØ±":10466,"ÙĨÙĪØ§Ø®Øª":10467,"Ø§ÙĪØ§":10468,"ĠÙĨØ±ÙħØ§ÙĦ":10469,"ĠÙħØ´Ø±Ùģ":10470,"ĠØ´Ø³ØªØ´ÙĪ":10471,"ÙģØ§Øª":10472,"ĠØªÛĮÙĦ":10473,"ĠÚ©Ø§Ù¾ÛĮØªØ§ÙĨ":10474,"ĠØ§ÙĦÚ©":10475,"ÙĩØ±ÛĮ":10476,"Ú¯Ø´Ø§ÛĮÛĮ":10477,"Ø§Ø¦ÛĮÙĩ":10478,"ĠÙģÙĪÙĦØ§Ø¯ÛĮ":10479,"ĠÙħÙĨØ´Ø§":10480,"ĠÙħØ¹ÙĨØ§ÛĮÛĮ":10481,"ĠØµØ¯Ø§ÙĩØ§ÛĮ":10482,"ĠÛ³Û°Û°Û°":10483,"ĠÙĪØ²ÙĨÙĩ":10484,"ĠØ²ÙĨØ§ÙĨÛĮ":10485,"ĠÙĤØ±Ø¶":10486,"ĠÙģÙĩÙħÛĮØ¯Ùħ":10487,"ĠÙħØ³ØªÙĤ":10488,"ØªÙħØ§Ùħ":10489,"Ø§ÙĦØ§ÙĨ":10490,"Ú©ÙĦØ§ÛĮ":10491,"ĠÛ±Û¸Ûµ":10492,"ĠÛ±Û³Û°":10493,"ĠÙģØ§ÙĦÙĪÙĪØ±":10494,"Ø³ØªÙĤÛĮÙħ":10495,"ĠØ¯Ø±Ø§Ø®ØªÛĮØ§Ø±":10496,"ĠØ¨Ø±Ø§ÛĮÙĨ":10497,"ĠØªÙĪØ¶ÛĮØŃØ§ØªÛĮ":10498,"ĠÙģØ¹ÙĦ":10499,"ĠØ§Ø³ØªØ«ÙĨØ§":10500,"ĠÙĩÙħØ¯ÙĦÛĮ":10501,"ĠÙĨØ§ÙĤØµ":10502,"Ø±ÙĪÛĮÙħ":10503,"ĠØ§ÙĨØ³ÙĪÙĦÛĮÙĨ":10504,"ĠÙħÙĨØµÙĪØ±":10505,"ier":10506,"ĠÙħÙĪÙĦÚ©ÙĪÙĦÛĮ":10507,"ÙĨÙĪØ§Ø²":10508,"ĠØ¯ÙģØ¹Ø§Øª":10509,"Cl":10510,"ĠØªÙĩÙĪØ¹":10511,"ĠØ´ÛĮØ±Ø§Ø²ÛĮ":10512,"ĠØ§ÙĩØ¯Ø§ÛĮ":10513,"ĠÛ±Û¹Û¹Û³":10514,"ĠÚ¯ÙĨØ¬Ø§ÙĨØ¯Ùĩ":10515,"ĠØªØ³Ø§ÙĪÛĮ":10516,"ĠÙħØ³ÛĮØŃÛĮØ§ÙĨ":10517,"ØŃØ§Ø¶Ø±":10518,"ĠÙĩÙħØ³Ø§ÛĮ":10519,"ĠØ§ØŃÙĪØ§ÙĦ":10520,"ÙĪØªØ±":10521,"Ġ139":10522,"ĠØ¢ÙĦØ§Øª":10523,"ĠRes":10524,"ĠÙĨÙĪØªÛĮÙģÛĮÚ©ÛĮØ´ÙĨ":10525,"ĠÙħÙĪØ§ÙĤØ¹ÛĮ":10526,"ĠØ±Ø³ÙĪÙĦ":10527,"ĠÙĩØ§Øª":10528,"Ø§Ø³ÛĮÙħ":10529,"ĠØµØ¹ÙĪØ¯ÛĮ":10530,"ĠØ¨Ø³ÛĮØ¬":10531,"ĠÚ©Ø§ÙĦØ¨":10532,"ĠÙĨØ´Ø±ÛĮØ§Øª":10533,"ĠÙĨÛĮØ§ÙĪØ±":10534,"ÙħØŃÛĮ":10535,"ĠØ±ÙĪØ¨Ø±":10536,"ÙħØ®":10537,"ĠÚĺÙĦ":10538,"ĠÛ±Û±Û°":10539,"ĠØ§ØµØ·ÙĦØ§ØŃØ§Øª":10540,"Ø²ÛĮØ±":10541,"ĠÙģØªÙĪ":10542,"ĠÙĨÙģØªÚ©Ø´":10543,"ĠØ§ÙĦÙħØ§Ø³":10544,"ĠÙĩÛĮØªÙĦØ±":10545,"ÙĪÛĮÚ©":10546,"Ú©Ø³ÛĮÙĪÙĨ":10547,"ĠØ¨ØºÙĦ":10548,"ĠÚ¯Ø±ÙħØ§ÛĮØ´":10549,"ĠÙħÙĪÙĨÛĮØ®":10550,"ĠÙħÛĮÙĦÙĩ":10551,"cr":10552,"ĠÛ±ÛµÛ°Û°":10553,"ĠØ³Ø¯ÛĮÙħ":10554,"Ø³ÙĦÛĮ":10555,"ĠÙ¾Ø§Ø²ÙĦ":10556,"ĠØ¹ÙĦØ§ÛĮÙĤ":10557,"ĠØ§ÛĮÙĨÚ©":10558,"ĠØ§Ø³Ø±Ø§Ø±":10559,"ĠÙħÙĨØ§Ø³Ø¨Ø§Øª":10560,"ĠØ³ÛĮÙħØ§ÙĨ":10561,"ĠØ§ØªÙħØ³ÙģØ±":10562,"ÙĤÙĩØ±":10563,"Ø¬ÙħØ¹ÛĮØª":10564,"ØµØ±ÙģÙĩ":10565,"ĠÙħÙĨØ§Ø²ÙĦ":10566,"ĠØ¢ÙĦÛĮØ§Úĺ":10567,"ÛĮÙħÛĮØ±":10568,"ĠÙģÛĮØª":10569,"ĠØ¬Ú©Ø³ÙĪÙĨ":10570,"ĠÙĨÙħØ§ÛĮÛĮÙħ":10571,"ĠØ®ÙĨØ¯":10572,"ĠÙĩÙĪØ´ÛĮ":10573,"ĠGear":10574,"ĠÚ¯Ø±Ø³ÙĨÚ¯ÛĮ":10575,"ĠØ±Ø³ÛĮØ¯ÛĮÙħ":10576,"ĠØ´Ø§Ø±Ù¾":10577,"ĠÙĨØ®ÙĪØ§ÙĩÛĮÙħ":10578,"ĠLe":10579,"ĠØ§Ø³ÙħØ´":10580,"ĠÙħØ¬ÙĦØ³ÛĮ":10581,"ĠØ¢ÙĦØ²":10582,"ĠØ¯Ø§Ø±ÙĨØ¯Ùĩ":10583,"ĠØ§Ø³Ú©Ø§ØªÙĦÙĨØ¯":10584,"Ġwh":10585,"ĠÚ©ÙĨØªØ±ÙĦÛĮ":10586,"Ø¨Ø§ÛĮØ¯":10587,"ĠÙĨÛĮÙģØª":10588,"ĠØªØµØŃÛĮØŃ":10589,"ĠØ³Ø±Ø³Ø¨Ø²":10590,"ĠÙĨÚ©Ø±Ø¯ÙĨØ¯":10591,"ĠÙħÙĨØ´Ø£":10592,"ĠÙ¾Ø§ÛĮØ¨ÙĨØ¯":10593,"ĠÚ©Ø±ÛĮÙħÛĮ":10594,"ĠØ®ÙĪØ§Ø¨ÛĮ":10595,"Ġ22":10596,"Ø§ÙĩÛĮÙħÛĮ":10597,"ĠØµÙħÛĮÙħ":10598,"lt":10599,"ĠÙĨÙĪÙ¾Ø§":10600,"ĠØ¨Ø±Ø§ÙĤ":10601,"ĠÙģÙĩ":10602,"ĠÚ©ÙĪÚĨÚ©ØªØ±ÛĮÙĨ":10603,"ĠÙģÛĮÙĦÛĮÙ¾":10604,"ĠØªÙĪØ§ÙģÙĤÛĮ":10605,"ĠØ¢Ø³Ø§ÛĮØ´":10606,"ĠÙħÛĮÚ¯ÙĨ":10607,"ĠÛĮÚ©Ø³Ø§ÙĦ":10608,"ĠØ§ÛĮØ³ÙĨØ§":10609,"ĠÙģØ±Ø§ÙħÙĪØ´ÛĮ":10610,"ĠØ³ÙĪØ¦Ø¯ÛĮ":10611,"ĠØ²ÙĩØ±Ø§":10612,"ÙħÙĦÛĮ":10613,"ĠØ¯Ø®ÛĮÙĦ":10614,"ĠÙħØ´Ø®ØµØ§":10615,"ÛĮØ±Ø§ÙĨ":10616,"ĠØ¨ÙĩØ²ÛĮØ³ØªÛĮ":10617,"ĠØ¶Ø§ÛĮ":10618,"ĠÙħÙĨÛĮØ²":10619,"ĠØ¨ÛĮØ§Ø¨ÛĮØ¯":10620,"ĠØªÙĪØ±Ø¨ÙĪØ´Ø§Ø±Úĺ":10621,"ĠÙĪØ±Ú©":10622,"ĠÙĪÙĨÛĮØ²":10623,"ĠØ´ÛĮÙĦÛĮ":10624,"Û¹Û·":10625,"ĠØ¢Ø±Ø´ÛĮ":10626,"ĠØ¨ÙĦÙĨØ¯ØªØ±ÛĮÙĨ":10627,"ĠØ´ÙĨÙĪØ§ÛĮÛĮ":10628,"ĠÙĦØ´Ú©":10629,"ĠØªÛĮÙħØ´":10630,"ĠØªÙħØ§ÛĮÙĦÛĮ":10631,"ĠØŃØ§ÙĦØ§Øª":10632,"ĠØ´Ø§ÙĨÚ¯":10633,"ÙĨØ³Ø±":10634,"ĠØ®ÙĪØ´ØŃØ§ÙĦÛĮ":10635,"Ø´ÙħØ§":10636,"¹Û¹":10637,"ĠØ¢ÙĩÙĨÚ¯Ø³Ø§Ø²":10638,"ĠÚ©Ø§ÙĪØ±":10639,"ĠØ¨Ø§Ø²ÙĩÙħ":10640,"ĠÙ¾Ø§Ø±Ø§":10641,"ĠØ±Ø´Ø¯ÛĮ":10642,"ĠÚ©Ø´ÙĪØ±Ø´":10643,"ĠØ¨Ø±Ø´ÙħØ±Ø¯":10644,"Ø§ØªØŃ":10645,"ium":10646,"ĠØ²Ø±Ø§":10647,"Û²Û¸":10648,"ĠØ±ÙĪÛĮÚ©Ø±Ø¯ÛĮ":10649,"Ù¾Ø±Ø³ÛĮ":10650,"ĠÙħÙĪØªÙĪØ±Ø²":10651,"ĠØ§Ø³Ù¾Ø±ÛĮ":10652,"ĠÛµÛ³":10653,"ĠØ§ÙĪØ±ÚĺØ§ÙĨØ³":10654,"ĠÙ¾ÛĮÚ©Ø±Ø¨ÙĨØ¯ÛĮ":10655,"ĠÙ¾ÙĦØ§Ú¯ÛĮÙĨ":10656,"ĠØ¹ÙĦØ§ÙĤÙħÙĨØ¯Ø§ÙĨ":10657,"ĠÙħØ§Ø¨ÙĤÛĮ":10658,"ĠÙħÛĮØ¯ÙĩÙĨØ¯":10659,"ĠÙħØªØ±ÙħØ±Ø¨Ø¹":10660,"ĠØ¬Ø³ÙħØ§ÙĨÛĮ":10661,"ĠØŃÛĮØ±Øª":10662,"ĠÙĪØ§Ø´ÛĮÙĨÚ¯ØªÙĨ":10663,"ĠØ¬Ø§ÙĨØ³ÙĪÙĨ":10664,"ĠØ§Ø³ÙĦÙĪ":10665,"rans":10666,"ĠØ¨ÛĮÙĨØ¯Ø§Ø²ÛĮØ¯":10667,"ĠØ´ÙĩØ§Ø¨":10668,"ĠØ¨ÙĨØ§Ø¯Ø±":10669,"ĠÙĨØ§Ø®ÙĪØ´Ø§ÛĮÙĨØ¯":10670,"ÙĪÙĦØªÛĮ":10671,"ĠÙĨØ®ÙĦ":10672,"ĠÚ©Ø±ÛĮØ³ØªØ§ÙĦ":10673,"ĠØªØ®ÙĦÙģØ§Øª":10674,"ĠÚ©ÙĨØ¯Ùĩ":10675,"ĠÙ¾ÚĺÙĪÙĩØ´Ú¯Ø§Ùĩ":10676,"ĠÙģØµÙĪÙĦ":10677,"Ø¨Ø±Ø§":10678,"ĠÙħÙĤØª":10679,"ĠØŃÙĦØ§ÙĦ":10680,"ĠÛ±Û³Û¹Û³":10681,"DA":10682,"ĠØ®ÙģÛĮÙģ":10683,"ĠØ¨Ø§Ø²Ø¨ÛĮÙĨÛĮ":10684,"Ø§ÛĮØªØ¯":10685,"ĠÙħØ´Ø§ÙĩØ¯":10686,"oll":10687,"ĠÚ©Ø§ÙģØ¦ÛĮÙĨ":10688,"ĠØ®Ø¯Ø§ØŃØ§ÙģØ¸ÛĮ":10689,"ĠÙħØ³ØªØ¹Ø¯":10690,"ĠØ§ÙĨØ´":10691,"ĠØ¯Ø³ØªØ®ÙĪØ´":10692,"ĠÙħØ±Ú©Ø¨":10693,"ĠØ§Ø¹ØªØ¨Ø§Ø±Ø§Øª":10694,"ÙħØ§Ùħ":10695,"ĠØ¨Ø±ÙĪÙħ":10696,"ĠØ¨ÛĮØ³":10697,"ĠÛ±Û¹Û¸Û¹":10698,"ĠÙħÛĮÚ©Ø±ÙĪØ¨":10699,"ĠØ´Ú¯ÙģØªÛĮ":10700,"Ø²Ø¯ÙĨ":10701,"ĠÛ²ÛµÛ¶":10702,"Ø§ÙģØªÙĨØ¯":10703,"ĠÛ³Û³Û":10704,"ĠØ³ØŃØ±":10705,"ĠØ¢Ú©ÙĪ":10706,"ĠØªØ¹Ø§ÙħÙĦØ§Øª":10707,"ĠØ¢Ø³ÛĮØ§Ø¨":10708,"ĠÙĨÙħØ§Ø¯ÙĩØ§ÛĮ":10709,"ĠØ§ÛĮØ¯Ø¦":10710,"Ú©Ùģ":10711,"ĠÙģØ¯":10712,"ĠØ±Ø¨ÙĪØ¯":10713,"ĠÚ¯ÙĪÛĮÙĨØ¯":10714,"ĠØ§Ø³ÙģÙĨØ¯ÙħØ§Ùĩ":10715,"ĠÚ©Ø¨ÛĮØ±":10716,"ĠØ±Ø§Ø¯Ø§Ø±":10717,"ÛĮØ´ÙĪÙĨ":10718,"ÙĪØ³Ø§Ø²ÛĮ":10719,"ĠÙħÙĦØŃÙĤ":10720,"ĠØªÙĤÙĦØ¨ÛĮ":10721,"ĠÛĮÙĪØ±":10722,"ĠÙĦÙĪØ¯":10723,"ĠÙĨÛĮØ±ÙĪÙĩØ§":10724,"UI":10725,"ĠÚ©Ø§Ú©":10726,"ĠØ´Ø§ÛĮØ¹Ø§ØªÛĮ":10727,"ĠØ´Ø§Ù¾":10728,"ĠØ¯ÛĮÙĪ":10729,"ĠÚĺÙĨÙĪ":10730,"ĠØ§Ø³Ù¾Ø±Ùħ":10731,"ĠØ§ÙĦÙħÙĦÙĦ":10732,"ĠÙĨÙĪØ±Ø¯":10733,"ĠØ§Ø®ØªÛĮØ§Ø±Ø§Øª":10734,"ĠÙħØ¹ÙĤÙĪÙĦ":10735,"ĠØµØ¯ÙĤ":10736,"ĠÙħÚ©Ø§ÙĨÛĮØ³Ùħ":10737,"ĠØ¯ÙĪÙĤ":10738,"OM":10739,"ĠÚ©ÙĨØªØ±Ø§Ø³Øª":10740,"Ø¯Ø±Ø§Ú¯ÙĪÙĨ":10741,"ĠÙħØŃÙĪØ±ÛĮ":10742,"ĠØ§ØªÚ©Ø§":10743,"ĠØ§Ø³ØªØ§Ø±ØªØ§Ù¾ÛĮ":10744,"Ġas":10745,"ĠØ®Ø±ÛĮØ¯Ùĩ":10746,"ĠÚ¯ÙĦÙĩ":10747,"ĠØ³Ø±Ø·Ø§ÙĨÛĮ":10748,"ĠHTML":10749,"ĠØ¨Ø§ÛĮØ±":10750,"ĠÙĨÙħÛĮØªÙĪØ§ÙĨ":10751,"ĠÚ©ÙħØ§ÙĨ":10752,"ÙĦÛĮÙĨÚ¯":10753,"ĠÚĨÙĨ":10754,"ĠØ§Ø¬Ø²Ø§":10755,"ĠØ¹Ø¨Ø§Ø±Ø§Øª":10756,"ĠØªÙĨØ§Ø³":10757,"Ø¢ÙħÙĪØ²ÛĮ":10758,"ĠØ§Ø¯Ø¨":10759,"ĠâĢ¬":10760,"ĠØ±ÙģØªÛĮÙħ":10761,"Ø§Ø¯Ø±ÛĮ":10762,"ĠØ§ÙĪÙĦØ¯":10763,"ĠÙĨØµØ±":10764,"ĠØ®ÙĦØ§Øµ":10765,"ĠÚ¯Ø±Ú¯Ø§ÙĨ":10766,"ĠÙĪØ±Ø²Ø´Ú©Ø§Ø±":10767,"ĠØ¯Ø®ØªØ±Ø´":10768,"ĠØ¨ÙĦÙĪØ§Ø±":10769,"ĠÙħØ±Ø¨ÛĮØ§ÙĨ":10770,"ĠÚ¯ÙĦÙĪØ¨":10771,"ĠÙĪØ§ØªÛĮ":10772,"Ġch":10773,"ĠÙħÙĨØ¯ÛĮ":10774,"ĠØ¹Ø§Ø´":10775,"ĠÚ©ÙĪÙĩÛĮ":10776,"ĠØ§ØŃØªØ³Ø§Ø¨":10777,"ĠBe":10778,"ĠØ¨ÙĤ":10779,"ĠÚ¯ÙĪØ§Ø±Ø´":10780,"ĠÙħØŃÙĤÙĤÛĮÙĨ":10781,"ĠØ§ÙħÛĮ":10782,"Ú©Ø§Ø±Ø§":10783,"ĠØ®ÙĪØ¨Ùĩ":10784,"ĠÙģØ³Øª":10785,"ØªÙĪØ§ÙĨÛĮ":10786,"ĠWik":10787,"Ø¯ÙĪÙħ":10788,"ĠÙħØ®ÙģÙģ":10789,"ĠØ§Ø´ÛĮØ§ÛĮ":10790,"500":10791,"ĠÙ¾ÛĮØ¯Ø§Ø³Øª":10792,"ĠØªØ®ÛĮÙĦÛĮ":10793,"ĠÙĪÛĮÙĪ":10794,"ĠÙ¾ÛĮØ±ÛĮ":10795,"ipedia":10796,"ĠØ¯Ø±ØµØ¯Ø¯":10797,"ĠØ±Ø¬ÙĪØ¹":10798,"ĠÙĤØ¶Ø§Ø¦ÛĮÙĩ":10799,"ĠÙĨØ§ÚĨÛĮØ²":10800,"Ø´ÙĪÙħ":10801,"ÚĨÙĤØ¯Ø±":10802,"ĠØ·Ø±ÛĮ":10803,"ĠÙĪÛĮÙĨØ¯ÙĪØ²ÛĮ":10804,"ĠØ¯Ø±Ø¨Ø±Ø§Ø¨Ø±":10805,"ĠØ¬ÙĪØ¬Ùĩ":10806,"ĠÙ¾Ø§Ø¯Ø´Ø§ÙĩØ§ÙĨ":10807,"ĠÙ¾ÛĮÙĦ":10808,"ĠØ¢ØºØ§Ø²ÛĮÙĨ":10809,"ĠØ¨Ø±Ø±ÙĪÛĮ":10810,"ĠØ²Ø§Ø¯Ú¯Ø§Ùĩ":10811,"ĠØŃÙģØ§Ø¸":10812,"ÙĨØ®":10813,"Â»Â»":10814,"ĠØ¬ÙĪÙĦÛĮ":10815,"ĠÙħØŃÙĪØ±ÛĮØª":10816,"ĠAc":10817,"ĠÙĦØ§ØºØ±ÛĮ":10818,"ĠØŃÛĮÙĪØ§ÙĨÛĮ":10819,"ĠÙĤØ§Ø·Ø¹":10820,"ĠØ³ÙĦØ¬ÙĪ":10821,"ĠÙĩØ±Ú©Ø³ÛĮ":10822,"ĠÙģØ§ÛĮØ±Ùģ":10823,"ĠØ®Ø¯Ø§ÛĮØ§ÙĨ":10824,"Ø§Ø¯Ø´":10825,"ĠØ¯ÙħÚ©Ø±":10826,"ØªØ¨Ø§Ø±":10827,"Ø±ÛĮÚ©Ø§ÛĮÛĮ":10828,"ĠØ§Ø³Ú©ÙĨØ¯Ø±":10829,"ĠØ¨Ø±ÙĪØ¬":10830,"ĠØ´ÙħØ³":10831,"ĠØ¨ÛĮØ²ÛĮÙĨ":10832,"ĠÙ¾Ø±Ø³ÛĮØ¯Ùĩ":10833,"ĠÙĨÙĪÛĮØ³Ø§ÙĨ":10834,"ĠØ§ØµÙģÙĩØ§ÙĨÛĮ":10835,"ĠÙ¾Ø³ØªÙĩ":10836,"ĠØ¯ÙĪØ³ØªØ´":10837,"ĠÙĨÙĪØ¢ÙĪØ±Ø§ÙĨÙĩ":10838,"ĠØ®ÙĪØ´ÛĮ":10839,"ĠÙħØ³Ø§ÛĮÙĦ":10840,"ĠØ¢Ø³ØªÛĮÙĨ":10841,"ĠØ®Øµ":10842,"ĠØ¨ÙĨØ²ÛĮÙĨÛĮ":10843,"Ø³ÙĪØ±ÛĮ":10844,"ÙĪÙģØ§ÛĮÛĮ":10845,"ĠØªØ±ÛĮÙĦÛĮÙĪÙĨ":10846,"ĠSuper":10847,"ÙĪÙĤØªÛĮ":10848,"ĠÙĪØ²ÙĨÛĮ":10849,"ĠÙ¾Ø§Ø±ÙĦÙħØ§ÙĨÛĮ":10850,"ĠØ³Ø§Øª":10851,"ĠÚ©ÙĨØ§Ø±ÛĮ":10852,"ĠØ´ÙĪØ§ÙĩØ¯ÛĮ":10853,"ĠØ³Ø±ÙħØ§Ø®ÙĪØ±Ø¯Ú¯ÛĮ":10854,"ĠØªÙĦÙģÛĮÙĤ":10855,"ÚĨÙĨ":10856,"BA":10857,"ĠÚ©Ø§Ø±Ú¯ÛĮØ±ÛĮ":10858,"ĠÙ¾ÙĪÛĮ":10859,"ĠØ¹Ø§Ø¯Ø§Øª":10860,"ĠØªÙĪØ´":10861,"ĠÙģÛĮÙĦØ³ÙĪÙģ":10862,"Ġor":10863,"ÙħØ¯Ø§Ø±Ø§ÙĨ":10864,"ĠØ³ÙĦÛĮÙħØ§ÙĨÛĮ":10865,"ĠØªÙħØ§Ø´Ø§Ú¯Ø±Ø§ÙĨ":10866,"ĠÙħÚ©Ø§ÙĦÙħØ§Øª":10867,"ĠÚĨØ§Ø¨":10868,"Ø§ÙģØ±ÛĮ":10869,"ĠARM":10870,"ĠØ¹Ø§ÙħÙĩ":10871,"ĠÙħÙĨØ¹Ú©Ø³":10872,"ĠÙĪØ§Ú©ÙĨØ´ÛĮ":10873,"ĠØ§Ø³ØªØ§ÙĨØ¯Ø§Ø±ÛĮ":10874,"ĠÙ¾ÙĨØ¨Ùĩ":10875,"ĠÙħØ¹Ø¶ÙĦ":10876,"ift":10877,"ĠØ³Ø§ÙĤÙĩ":10878,"ÙĪØ´Ø§Ù¾":10879,"row":10880,"ÙħØ¬":10881,"ĠØ´Ø¯ÛĮØ¯Ø§":10882,"ÚĺØ§ÙĨ":10883,"ĠÚ¯Ø±ÙĨØ¯":10884,"ĠØªØ´Ú©ÙĦ":10885,"ĠØ§Ø³ÛĮØ¯ÙĩØ§ÛĮ":10886,"ĠØ³Ø§ÛĮØªÛĮ":10887,"ĠØ®ÙĪØ§Ø¬Ùĩ":10888,"ĠØ³Ø§Ø³Ø§ÙĨÛĮØ§ÙĨ":10889,"ØªØ£":10890,"ĠPower":10891,"ĠÙħØªÙĪÙĦÛĮ":10892,"Ø±ÙĪÙģÛĮ":10893,"Ø¨ÛĮØ¯Ùĩ":10894,"ĠÙģØ±Ø¶ÛĮ":10895,"ĠØ´ÙĪÙĨØ¯Ùĩ":10896,"ĠØ§ÙĨÙĤØ±Ø§Ø¶":10897,"ons":10898,"ĠÙħØ¬ÙĪØ²ÙĩØ§ÛĮ":10899,"ĠÙħØ±Ø¬":10900,"ĠÙĩÙģØªÙħÛĮÙĨ":10901,"ĠØ¨ÙĪÛĮÚĺÙĩ":10902,"ÙħÛĮØª":10903,"ĠÙ¾Ø§ÙĩØ§":10904,"ĠÙĤÙģÙĤØ§Ø²":10905,"ĠØ§ÙĨÚ¯ÙĪØ±":10906,"ĠØ¬ÙħÙĩÙĪØ±ÛĮØ®ÙĪØ§Ùĩ":10907,"ĠØªØ¹Ø§ÙĪÙĨ":10908,"ĠÚ©Ø§ÙħÙ¾ÛĮÙĪØªØ±ÙĩØ§":10909,"ĠÙħØ«ÙĦØ«":10910,"ĠØ¨Ú©Ø§Ø±Ú¯ÛĮØ±ÛĮ":10911,"ĠØ§Ø³ØªÛĮÙĪÙĨ":10912,"ĠÙ¾Ø§Øª":10913,"Ø¨Ø±Ø§Ø¨Ø±":10914,"ĠÙĩØ±Ø§Øª":10915,"Ú¯Ø°Ø§Ø±ÛĮØ¯":10916,"ĠØ¨Ø±Ø³Ø§ÙĨÛĮÙħ":10917,"ĠÙĪÚ©Ø§ÙĦØª":10918,"ĠØ±Ø®Øª":10919,"Ø´ÙĨØ§Ø³ÛĮÙħ":10920,"ĠÙĩØ§Ùģ":10921,"ĠÙĨÛĮØ§Ø²ÙĩØ§":10922,"ĠÙ¾Ø±Ú©Ø§Ø±Ø¨Ø±Ø¯":10923,"ĠÙħÙĪØ§Ø¶Ø¹":10924,"ĠÙ¾Ø¯ÛĮØ¯Ø§Ø±":10925,"ÙħÛĮÙĦØ§Ø¯ÛĮ":10926,"ĠÙħØ§ÙĩÛĮØ§ÙĨÙĩ":10927,"ĠØ§ÙģØ²Ø§ÛĮØ´ÛĮ":10928,"Û²Û±":10929,"ĠØŃÙĦÛĮ":10930,"ĠØ´Ø±Ø·ÛĮ":10931,"ÙĤØ§ÛĮØ³Ùĩ":10932,"ÙħØŃÙĪØ±":10933,"ĠÚĨÚ¯Ø§ÙĦÛĮ":10934,"ĠØ¯Ø¹ÙĪØ§":10935,"ĠÙĪØ§Ø±Ø¯Ùĩ":10936,"Ù¢":10937,"ĠØ¯ÛĮÙħ":10938,"Ø§ÛĮÚ©Ø³":10939,"ĠÚĨØ³":10940,"IP":10941,"ĠØ³ÙĪØ¯ÙħÙĨØ¯":10942,"ĠØ§Ø±Ø¨Ø§Ø¨":10943,"ĠÙ£":10944,"ĠØŃØ¬Ø§Ø¨":10945,"ĠÙħÛĮØ±Ùĩ":10946,"ĠÙĩÙħÙĪØ·":10947,"ĠØµØ±ÛĮØŃ":10948,"ĠÙ¾ÙĪØ´Ø§ÙĨØ¯Ùĩ":10949,"ions":10950,"ĠÚ©ÙĪÙĨ":10951,"ĠÙĩÙħÚ©Ø§Ø±Ø§ÙĨØ´":10952,"ĠØ§Ø¨Ø±ÙĪ":10953,"!)":10954,"Ø²ÙĪÙĨ":10955,"ĠØ±Ø³ØªÙħ":10956,"ĠØ¯Ø§Ø´Ø¨ÙĪØ±Ø¯":10957,"ĠØªÙĨØ¨ÛĮÙĩ":10958,"ĠØ³ÙĪØ§ÙĦØ§ØªÛĮ":10959,"ĠÙħÙĨÛĮØ²ÛĮÙħ":10960,"ĠÙĩÙħØ§ÙĨÚ¯ÙĪÙĨÙĩ":10961,"ÙħÙĪØ²":10962,"ĠÙħÛĮØªÙĪØ§ÙĨÙĨØ¯":10963,"ĠØªÙĪØ±ÛĮØ³Øª":10964,"ĠØ§ÙĤØ¨Ø§ÙĦ":10965,"ĠÚ©ÙĪÙħ":10966,"ĠØªØ°Ú©Ø±":10967,"ĠÚ¯ÙĦØ³":10968,"ĠØ¨Ø³ØªÙĨÛĮ":10969,"ĠÙĨÙĪØ´ØªÙħ":10970,"ÙĨØ¬Ø±":10971,"Û²Û·":10972,"ĠInt":10973,"ĠÙģØ±ÙĪØ´Ú¯Ø§ÙĩÛĮ":10974,"ÙĪØ´ÙĨØ¨Ùĩ":10975,"Û¹Û´":10976,"Ø®ÙĪØ¯Ø±ÙĪ":10977,"ĠØ§ÛĮÙĨØ³Øª":10978,"ĠØ³Ø§ÙĦØ§Ø¯":10979,"ĠØ±Ø§ÙĩÚ©Ø§Ø±ÛĮ":10980,"ĠÚ©Ø§ÙĨÙĨ":10981,"Ø³ÙĦØ·ÙĨÙĩ":10982,"ĠÙĦÙĤ":10983,"Ú©ÛĮÙĨÚ¯":10984,"Ø´ØªÛĮÙĨ":10985,"ĠØ¢Ø³Ø§ÙĨØ³ÙĪØ±":10986,"ĠØ¨ÙĦÙĨØ¯Ú¯ÙĪ":10987,"ĠØ§Ø´Ø±Ø§Ùģ":10988,"Ú¯ÙħÛĮ":10989,"Ø§ØŃÙħØ¯":10990,"ĠØŃÛĮØ«":10991,"ĠÚ©Ø§Ø¨ÛĮÙĨØª":10992,"ĠÙĨØ´Øª":10993,"ĠMar":10994,"ĠØªØ´Ú©ÛĮÙĦØ§Øª":10995,"ÙĤÛĮÙĤÛĮ":10996,"ĠÙħØ³ØªØ«":10997,"orce":10998,"ĠÙĤØ²Ø§ÙĤØ³ØªØ§ÙĨ":10999,"ĠÙħÙĪÚ©ÙĪÙĦ":11000,"Ø£ÙĦÙĩ":11001,"ĠÙħØ¤Ø³Ø³Ø§Øª":11002,"ĠØ§Ø³ØªØ§Ø¯ÛĮÙĪÙħ":11003,"ĠØªØ±Ø§ÙģÛĮÚ©ÛĮ":11004,"ĠÚ¯ÙģØªÚ¯ÙĪÙĩØ§ÛĮ":11005,"ĠØ´Ø¬":11006,"Ø¯ÙĪØ´ÙĨØ¨Ùĩ":11007,"ĠØ¨ÙĩØ´ÙĪÙĨ":11008,"ĠÙ¾ÙĪØ³ØªØ±":11009,"ĠPre":11010,"ĠÚ©ÙĨÙģ":11011,"ĠØ®ÙĪØ´ÙĨ":11012,"ĠØ¢ÙĦÙĪÙħÛĮÙĨÛĮÙĪÙħÛĮ":11013,"ĠÚĨÙħ":11014,"ĠÙħØ¹Ø§Ø´":11015,"ĠØ¯ÛĮØ²Ø§ÛĮÙĨ":11016,"ĠÚ©ÙĦØ§ÙĨØ´ÙĩØ±":11017,"ĠÚ©Ø§ÙĨØ³":11018,"ØªØ±ÛĮÙĪÙħ":11019,"Ø§Ø¯ÙĦØ§Øª":11020,"ĠØ³Ø±Ú©Ùĩ":11021,"ĠÙ¾ØªØ§Ø³ÛĮÙħ":11022,"ĠØ³ÙĨÙĨØ¯":11023,"ĠÙħØ¹Ø§Ø¯ÙĦÙĩ":11024,"ero":11025,"ĠÙĦØ§ÛĮÙĪ":11026,"OLED":11027,"ĠÙħÛĮÚ©Ø±ÙĪØ³":11028,"ĠÙĦØ¦ÙĪÙĨ":11029,"ĠØ¯Ø³ØªÙĪØ±ÛĮ":11030,"ĠØ²ÛĮØ³ØªÚ¯Ø§Ùĩ":11031,"ĠØ²ÙħØ±Ùĩ":11032,"ĠØ±ÙĪÛĮØ§ÛĮÛĮ":11033,"Ø§ØŃØªÙħØ§ÙĦ":11034,"ĠÙħÛĮÚ¯ÙģØª":11035,"ĠØ¨Ø§Ø±ÙĪØ±ÛĮ":11036,"ĠWikipedia":11037,"ĠØ¹Ø¬ÙĦÙĩ":11038,"CC":11039,"ĠCre":11040,"Ø¶Øª":11041,"ĠÙħØ¨Ø§Ø±Ú©":11042,"ĠÛ±Û¶Û°":11043,"ĠØ®ÙĪØ´Ø§ÛĮÙĨØ¯":11044,"Ø«Ø§ÙĨÛĮÙĩ":11045,"ĠØ´Ú©ÙĪÙģØ§ÛĮÛĮ":11046,"Ø§ÙģØ²Ø§Ø±ÙĩØ§":11047,"ĠÙģÙĦÙĪØ±ÛĮØ¯Ø§":11048,"ØªÙĪÙĦÛĮØ¯":11049,"ĠÚ¯ÙĪØ³ÙģÙĨØ¯":11050,"ĠØ¢ÙĦØ²Ø§ÛĮÙħØ±":11051,"ĠÙħÛĮØ¯ÙĨ":11052,"Ø³ÙĪÙħ":11053,"ĠÙĤÙħØ±":11054,"Ø§Ø¯ÙĩØ§ÛĮÛĮ":11055,"ØŃÙĦÛĮ":11056,"ĠÚ©Ø´ÙĨØ¯Ùĩ":11057,"ĠØ¯Ú©ÙĦ":11058,"Ø´ÙĤ":11059,"ĠÙģØ§ÛĮØ±ÙģØ§Ú©Ø³":11060,"ĠÛ³Û±Û":11061,"ĠÚ©ÙĦÛĮÙĨÛĮÚ©":11062,"ĠØ³Ø±ÙĩÙĨÚ¯":11063,"Ø±Ø¯Ø§Ùħ":11064,"ĠÙ¾Ø§ÙĪÙĦ":11065,"ĠÙħØ±Ø®ØµÛĮ":11066,"ĠØ±Ø§Ø³ØªØ´":11067,"ĠØ§ÛĮÛĮ":11068,"Ġsh":11069,"Ø¨ÙĦÙĩ":11070,"ĠØ¢ÙĨÚĨÙĨØ§ÙĨ":11071,"ĠÙħØ³Ø§ÙģØ±Ø¨Ø±ÛĮ":11072,"ĠÛĮÙĪÚ¯Ø§":11073,"ĠØ¨ÙĦØ§Ú©ÚĨÛĮÙĨ":11074,"ĠÙģØ´Ø±Ø¯ÙĨ":11075,"ĠÙħÛĮØ¯Ùħ":11076,"ĠØ¨Ø§Ú©":11077,"ĠÛĮÚ©Ø³Ø±ÛĮ":11078,"ĠØ´Ø§ØªØ±":11079,"ÛĮÙĪ":11080,"ĠÙĦÛĮÙĨÚ©Ø¯ÛĮÙĨ":11081,"ĠØ³Ø§Ø²ÙĩØ§ÛĮ":11082,"ĠÙħÙĤØ§ÙĪÙħØªÛĮ":11083,"ĠØ¢Ø³Ùħ":11084,"ĠØ¢ÙĨØ§Øª":11085,"ĠØ¨ÛĮØ§ÙĨØ¯Ø§Ø²":11086,"ous":11087,"ĠØ´Ø§ÙĩÙĨØ§ÙħÙĩ":11088,"ĠØ¢Ú©Ø³":11089,"ÙħÛĮÙĦÛĮÙĪÙĨ":11090,"ĠØ¨Ú¯Ø°Ø±":11091,"ĠØ±Ø§Ø¨ÛĮÙĨ":11092,"ĠØ§Ø³ÙħÛĮØª":11093,"ĠÙĦÙĨØ¯":11094,"Ø§ÙĦÛĮÙĩ":11095,"ĠØ±Ø¶Ø§ÛĮÛĮ":11096,"ĠÙħØ³Ø£ÙĦÙĩ":11097,"ĠØ´ÛĮØ¡":11098,"Ø±Ø³Ø§ÙĨÙĨØ¯":11099,"ative":11100,"ĠØªØ³Ú©ÛĮÙĨ":11101,"ĠØ¯Ø±Ø¯ÙĨØ§Ú©":11102,"ĠØªØ´Ø±ÛĮÙģ":11103,"ĠØºÛĮØ±ÙħØ³ØªÙĤÛĮÙħ":11104,"ĠØ¨Ø´ÙĨØ§Ø³ÛĮØ¯":11105,"14":11106,"Ø¸ÙĩØ±":11107,"ĠØ¢Ø´Ø§Ùħ":11108,"ĠØºÙĪØ§":11109,"ĠÙħØµØ§Ùģ":11110,"ĠØ¯Ø³Ø±":11111,"ĠØµØ§ÙĦØŃ":11112,"ĠÙģØ±ÙħØ§ÙĨØ¯ÙĩØ§ÙĨ":11113,"Ø³ØªÙĨØ¯":11114,"Ù¾ÙĨØ¯":11115,"ĠÙħØ§ÙĨÙĪØ±":11116,"ĠØ¨ÛĮÙħØ§Ø±Ø³ØªØ§ÙĨÛĮ":11117,"Û²Û¶":11118,"ĠÙģÙĪØ§ØµÙĦ":11119,"oh":11120,"ĠØ´Ø±Ùħ":11121,"Ø§ÛĮØ±Ø§ÙĨ":11122,"ĠÙħÚ©ÙĦ":11123,"ĠØ¹Ø§Ø²Ùħ":11124,"ĠÙĨÛĮÙĪ":11125,"ĠÙĨÙĪÙĩ":11126,"ĠØ±ÛĮØªÙħ":11127,"ĠØ±Ø²ÙħÛĮ":11128,"Ø§Ø±Ø¯Ø§Ø´Øª":11129,"ĠÙħØ²Ø§Ø±Ø¹":11130,"ÚĺÙĨÛĮ":11131,"ern":11132,"ĠØ¢Ø±Ú©":11133,"ĠPH":11134,"ĠØ¨Ø´ÙĪÛĮÛĮØ¯":11135,"ĠÙħÙĩÙĨØ¯Ø³ÛĮÙĨ":11136,"ĠØ¢Ø³ÙħØ§ÙĨÛĮ":11137,"ĠØ¹ØµØ§Ø±Ùĩ":11138,"ĠØ¨Ø§ÙĦÛĮ":11139,"ĠØ²Ø§Ùħ":11140,"ĠØµØ§Ø¨ÙĪÙĨ":11141,"Ú©ÙĪØ¨":11142,"ĠÙĤØ§Ø¹Ø¯Ú¯ÛĮ":11143,"ĠØªØ´ÙĨ":11144,"Ø¬ÙĦ":11145,"ĠØ§ÙĤØªØ¨Ø§Ø³":11146,"ĠØªØ¯Ø¨ÛĮØ±":11147,"ĠÙħØ¹Ø¬Ø²Ùĩ":11148,"ÙĩØ²ÛĮÙĨÙĩ":11149,"ĠØ¬Ø§Ø±ÙĪ":11150,"ÙĪØ§ÙĨØ³ÛĮÙĪÙĨ":11151,"ĠØŃØ³Ú¯Ø±ÙĩØ§ÛĮ":11152,"ÙĦØ§ÙĤÛĮ":11153,"ĠØ¨Ø®Ø´Ø¯":11154,"ĠÙħØ±Ø§Ú©Ø´":11155,"ĠVR":11156,"ĠØ³Ø§Ø¨":11157,"ĠÙħÛĮÙĦÛĮÙĪÙĨÛĮ":11158,"ĠÙĩÛĮÚĨÚ©Ø³":11159,"ouch":11160,"ĠØ´ÙĩØ±ÛĮÙĪØ±ÙħØ§Ùĩ":11161,"ĠÚ¯Ø²ÛĮÙĨ":11162,"ĠÛ±Û´Û°":11163,"ĠÙ¾ÙĦÛĮÙħØ±":11164,"ĠÙħÙĨØ·Ø¨ÙĤ":11165,"ĠØ§Ø±Ú¯Ø§ÙĨÛĮÚ©":11166,"obile":11167,"ĠMicro":11168,"ÙĪÙĦÙģ":11169,"ĠØ±ÙĪÙħØ§ÙĨÛĮ":11170,"Ø§Ø±Ø¯ÙĪ":11171,"ĠØ±Ø³ÛĮØ¯Ùħ":11172,"ĠÙģÛĮØ¨":11173,"ĠØºÛĮØ±ÙħØ¬Ø§Ø²":11174,"ĠÙĦÙĨØ²ÙĩØ§ÛĮ":11175,"ĠØ¨ÙģØ±ÙĪ":11176,"ĠØ´Ø§Ú¯Ø±Ø¯":11177,"ĠØ¯Ø§Ø±ÙĪØ®Ø§ÙĨÙĩ":11178,"ĠÙħÛĮÚ©Ø±":11179,"ĠGl":11180,"ĠØªØ¨ÛĮ":11181,"ĠÙģØ±Ø²":11182,"ĠØ³Ù¾Ø±Ø¯":11183,"ĠÙħÙĪØ§Ø²":11184,"ĠØ±Ø³ÙĪÙħ":11185,"ÙĤÛĮØ±":11186,"ĠÙ¾Ø³ØªØ§ÙĨ":11187,"ĠØ®ÙĪØ¯Ø±ÙĪÙĩØ§ÛĮÛĮ":11188,"ĠØ³Ø²Ø§Ø±":11189,"200":11190,"ÙĩØ§ÛĮÙħØ§ÙĨ":11191,"Ø¢Ú¯Ø§ÙĩÛĮ":11192,"ĠØ¨ÙħØ¨Ø§Ø±Ø§ÙĨ":11193,"ĠØ³Ø¹Ø¯ÛĮ":11194,"ĠÙģÙĪØ±Ø§":11195,"ĠÙĩØ±Ùħ":11196,"ĠÙħØ´Ø±ÙĪØ·":11197,"ĠØ³ÙĪØ¦ÛĮÚĨ":11198,"ĠØ¨Ø®Ø´ÙĨØ§ÙħÙĩ":11199,"ĠØ²ÛĮØ§Ø¯Ùĩ":11200,"ĠÚ¯ÙĦØ¯":11201,"ĠØªÙħØ§ÙħØ§":11202,"ĠØ±Ø¨Ø·ÛĮ":11203,"Ø§Ø±ÙĪÛĮÛĮ":11204,"ĠÙģØ±ÙĨ":11205,"ĠØ¨Ø§Ø¬":11206,"ÙĪØ´ÛĮØª":11207,"ĠØ³Ø±ÙĪØ¯":11208,"Ø¯Ø§Ø´ØªÙĨÛĮ":11209,"ĠØ³ÙĨÙĨØ¯Ø¬":11210,"ĠØ¨Ø±Ù¾Ø§ÛĮÙĩ":11211,"ware":11212,"ĠØ¢ÙĦØ±ÚĺÛĮ":11213,"ĠØ´Ø¹Ø¨":11214,"ĠØ´Ø§ÙĨÚ¯ÙĩØ§ÛĮ":11215,"ÙĪØ¯ÙĪ":11216,"Ø±ÛĮØ²Ø¯":11217,"ise":11218,"ĠÚ©Ø§Ø±ØªÙĪÙĨ":11219,"Ø¨ÛĮÙĪØªÛĮÚ©":11220,"ĠÙħØ±Ú¯Ø¨Ø§Ø±":11221,"Ø§ÙĨØ¬Ø§ÙħØ¯":11222,"ØŃØª":11223,"ÙĪØ§Ø´":11224,"ĠØ¯Ø³ØªØ¨ÙĨØ¯":11225,"ĠØ³Ø§Ø±Ø§":11226,"Ġ|":11227,"ĠØ§Ø³ÙħÛĮ":11228,"earch":11229,"ĠØ´ÙħØ§ÛĮ":11230,"ÙĪØ·ÛĮ":11231,"ĠÙħÛĮØ´ÛĮ":11232,"Ø«Ø§Ø±":11233,"ØªØ±ÛĮÙĨÚ¯":11234,"ĠØ¢Ø³ÛĮØ¨ÛĮ":11235,"ĠÙģØ±Ø²ÙĨØ¯Ø´":11236,"ĠØ¬Ùģ":11237,"ĠØ³Ø§ÙĨØªÛĮÙħ":11238,"ĠÚ©ÙĪÙ¾Ø±ØªÛĮÙĨ":11239,"ĠDes":11240,"Ú©ÙĦØ§":11241,"ĠÚ©ÙĨØª":11242,"ĠØŃÛĮØ·Ùĩ":11243,"ĠØ¯ÛĮØ¯Ø§Ø±ÛĮ":11244,"100":11245,"ĠÙģØ±ÛĮØ¯ÙĪÙĨ":11246,"Ø§Ø¨ÛĮÙħ":11247,"Ú©Ø§Ú©":11248,"ĠÙħÙĪØ¶Ø¹ÛĮ":11249,"ĠØ§Ø³Ú©Ø§ÙĨ":11250,"ĠÙħÙĨØ¯Ø§ÙĨ":11251,"ĠÚ©Ø§ÙĦØ§ÛĮÛĮ":11252,"ĠÙħØ¹ÙĦÙĪ":11253,"ĠØ´Ú©ÙĪ":11254,"ational":11255,"ĠØ§Ø¬Ø¨Ø§Ø±":11256,"ĠØ´Ø§ÙĨØ²Ø¯ÙĩÙħ":11257,"ĠÙħØ¤Ø³Ø³":11258,"ĠÙĤÙĨØ§Øª":11259,"ĠÙģÛĮÙĦØ¯":11260,"ĠØ¹Ú©Ø§Ø³Ø§ÙĨ":11261,"Ġ2013":11262,"Ø¨Ø®Ø§Ø±":11263,"ĠÙģÛĮÙĦØªØ±ÙĩØ§ÛĮ":11264,"ĠÙĨØ§ÙħÙĪ":11265,"ĠÙĪÚ¯Ø±":11266,"ĠØ¨Ø®Ø§Ø±ÛĮ":11267,"ĠÙģÛĮÙĦÛĮÙ¾ÛĮÙĨ":11268,"ĠØ¨Ø¯ÙĩÙħ":11269,"ĠØ¨Ø±Ø§ÛĮÙħØ§ÙĨ":11270,"Ú¯Ø±Ø§ÛĮØ§ÙĨÙĩ":11271,"ĠØ§ÙĪØ±Ø´":11272,"ĠØ¬Ø§Ùĩ":11273,"ĠÙħÚ©Ø§Øª":11274,"ĠØ³Ø±Ø¨":11275,"Ø¨Ø±Ø±Ø³ÛĮ":11276,"Ø®ÙĪØ§Ø³ØªÙĨØ¯":11277,"16":11278,"ĠØ¹Ø§Ø¨Ø±":11279,"ĠØ¹Ø¶ÙĦÙĩ":11280,"ĠØ§Ø±Ú¯":11281,"ĠØ§ÛĮØ²Ø¯":11282,"ĠÙĩØ§ÛĮØªØ§ÙĨ":11283,"ĠÙģØ§Ùħ":11284,"ĠØ´ÛĮØ±ÛĮ":11285,"ĠÙĪØ·ÙĨ":11286,"ĠØ¯Ø³ØªÚ©Ø´":11287,"âĢŃ":11288,"ÙĤØ§ÙĨÛĮ":11289,"ĠÙĦØŃÙĨ":11290,"ĠØ³Ø§Ø®ØªÙĨØ¯":11291,"ĠØ¨Ø§ÙĨÚ©Ø¯Ø§Ø±ÛĮ":11292,"ÙģÛĮÙĦÙħ":11293,"ĠØ®Ø³Ø§Ø±Ø§Øª":11294,"Ù¾ÛĮÙĪÙĨØ¯Ø¯":11295,"ĠÙ¾Ø§Ø³Ø®Ú¯ÙĪÛĮ":11296,"ĠÙĨÚĺØ§Ø¯ÛĮ":11297,"ĠØ§ÛĮØ¯Ø²":11298,"ĠØ¯ÙĪÛĮØ³Øª":11299,"Ø§ÙĦØ³":11300,"ĠÚ©ÙĨØ¬Ú©Ø§ÙĪÛĮ":11301,"ĠØ¨Ø§Ø±Ú¯ÛĮØ±ÛĮ":11302,"ĠÙĨØªÙģÙĦÛĮÚ©Ø³":11303,"ĠØ®Ø§ÙĦÙĤ":11304,"ĠØ¨Ø±ÙĨØ¯Ú¯Ø§ÙĨ":11305,"ĠØ§ÙĤØ³Ø§Ø·":11306,"ĠØ¯Ø±Ø¢ÙĪØ±Ø¯Ùĩ":11307,"ĠØ¨Ø±Ø§ÙĪÙĨ":11308,"bo":11309,"Ø²ÙĨØ¯Ú¯ÛĮ":11310,"ĠØ²ÙĪØ§ÛĮ":11311,"ĠØ¯Ø±ÛĮØ§ÙģØªÙĨØ¯":11312,"ĠÚ¯Ø±Ø¯ÙĩÙħØ§ÛĮÛĮ":11313,"ĠØ§Ø±Ø¯Ø´ÛĮØ±":11314,"ĠØ¢Ø²Ø§Ø±Ø¯ÙĩÙĨØ¯Ùĩ":11315,"Pro":11316,"Ø®ÙĪÙĨÙĩ":11317,"ĠÙģØ§ÛĮÙĨ":11318,"box":11319,"Ù¨":11320,"Ú©ØªØ§ÙĨ":11321,"ĠÙĨÙĩØ¶Øª":11322,"ames":11323,"ĠÙĪØ§ÛĮØ±":11324,"ĠÙĨÛĮØ´Ø§Ø¨ÙĪØ±":11325,"ĠÙħØ·Ø§ÙĦØ¹Ø§ØªÛĮ":11326,"ĠØ¯ÛĮØ´":11327,"ĠØ§Ø³ÙħØ§":11328,"ĠÚ¯ÙĪØ±Ø³ØªØ§ÙĨ":11329,"Sh":11330,"ĠØ¯ÛĮÙģØ±Ø§ÙĨ":11331,"ĠÙ¾Ø§Ø¦ÛĮÙĨ":11332,"ĠØºÛĮØ±Ø¯":11333,"ĠØ¬Ø±ÛĮ":11334,"ĠÙ¾Ø§Ø³Ù¾ÙĪØ±Øª":11335,"ÙĪÛĮÙĨØª":11336,"ĠÙħØ§Ú©Ø±ÙĪ":11337,"Ġthat":11338,"ĠÙĪØ§ÚĺÚ¯Ø§ÙĨ":11339,"ĠØ§Ø²Ø¨Ú©Ø³ØªØ§ÙĨ":11340,"ĠØ®ÙĪØ§Ø¨ÛĮØ¯ÙĨ":11341,"ÙĪÙĨØ¯Ùĩ":11342,"ĠIBM":11343,"Ø§ÙĨØ¯ÛĮØ´":11344,"ĠØ¨ÛĮØ²Ø§ÙĨ":11345,"Ø²ÙĨØ´":11346,"ĠApple":11347,"ÙĪØ¸":11348,"ĠØ¯Ø¨ÙĦÛĮ":11349,"ĠØ¨Ú¯ÛĮØ±Ùĩ":11350,"ĠÙħØ§Ø¯Ø±Ùħ":11351,"Ø§Ø¨ÙĩØ§Ø±":11352,"ĠÚ©ÙĪØ¯Ú©Ø§ÙĨÛĮ":11353,"Ø§ÛĮØ§ÛĮ":11354,"ĠØ±ÙĪÙĨØ¯ÛĮ":11355,"ĠØ¢Ø¯Ø±":11356,"ĠSk":11357,"ĠÙ¾Ø±Ø¯Ø§Ø®ØªÙĨ":11358,"Ù¾ÛĮÙħØ§ÛĮÛĮ":11359,"ĠØ²ÙĨØ¬ÛĮØ±":11360,"ams":11361,"over":11362,"Ø³ÙĨØª":11363,"ĠØ²ÛĮØ±ÛĮÙĨ":11364,"ĠWindows":11365,"ĠÙħØŃØªÙħÙĦ":11366,"ĠÙĨØ§ØªÙĪØ§ÙĨ":11367,"IN":11368,"Ø§ÙĩÙĩ":11369,"ĠØªÙĨØ¯ÛĮØ³":11370,"ĠØ¯Ú¯Ø±Ú¯ÙĪÙĨ":11371,"Ø¶Ø§Ø±":11372,"ÚĨÚ¯ÛĮ":11373,"ĠÙħØ¬ÙĦØ§Øª":11374,"Ø¯ÛĮØ¯ÛĮ":11375,"ĠØ§Ø³Ù¾Ø§ØªÛĮ":11376,"ĠØ®ÙĪØ¯ÙħØ®Øª":11377,"ĠØ¯Ø³ØªÙħ":11378,"ĠØ¨ÙĨØ¸Ø±":11379,"ĠØ³Ø¨Ú©ÛĮ":11380,"ĠØ¯ÙĪØ±Ø¨ÛĮÙĨÛĮ":11381,"ĠÙħÙĪÙĤØªÛĮ":11382,"ĠÙģÙĪÙĤØ§ÙĨÛĮ":11383,"ĠØºØ±ÛĮØ¨Ùĩ":11384,"ÙĤØ¯Ùħ":11385,"ĠØ¯ÙĦØ´":11386,"ĠØ´Ø§Øª":11387,"ĠØ¨Ø±Ø¢ÙħØ¯":11388,"ÙħØªÙĪÙĦØ¯":11389,"Ġ360":11390,"ĠÙħØŃØ¯ÙĪØ¯ÛĮØªÛĮ":11391,"ĠØ§Ø¨Ø¯":11392,"ĠØ³Ø§Ùģ":11393,"ĠØ§ÙĪØ±Ø´ÙĦÛĮÙħ":11394,"ĠÚ¯Ø±ÛĮØ²":11395,"ĠÙħØ§Ø±ÙĪÙĦ":11396,"ĠØ¯Ø±Ø®Ø´Ø´":11397,"ĠÚ©Ø¬Ø§Ø³Øª":11398,"ĠØªØŃÙĦÛĮÙĦÚ¯Ø±":11399,"ÙĩÙĪ":11400,"ĠØ¨Ø´Ùħ":11401,"ele":11402,"ĠÚ©ÙĨÙĪØ§ÙĨØ³ÛĮÙĪÙĨ":11403,"ĠÙĨØ¬ÙĪÙħÛĮ":11404,"ĠÙģÙĪØ¯":11405,"ĠØ§Ú¯Ø²ÛĮÙĨÙĪØ³":11406,"ĠÙĩÙħØ®ÙĪØ§ÙĨÛĮ":11407,"ĠØ¹ÙĦØ§ÛĮÙħ":11408,"ĠÙħØ´ÙĩÙĪØ¯":11409,"ĠÙĨÙģØ±Øª":11410,"ĠØ§ÙĨØªØŃ":11411,"ĠØªÙģØª":11412,"ĠØ¢Ø²ÙħØ§ÛĮØ´Ø§Øª":11413,"ĠØ´ÙĦÙĪØºÛĮ":11414,"ÙĩØ±ØŃØ§ÙĦ":11415,"ĠÙĤØ¯Ø³":11416,"ĠÛ±Û²Ûµ":11417,"ĠÙħØ³ØªØ±":11418,"ĠÙĨØ§Øµ":11419,"ĠÙħÛĮØ¯Ø§Ø¯":11420,"ĠØŃÙĪØ§":11421,"ĠÙħØ¹ØªØ¯ÙĦ":11422,"ĠØ·Ø¨Ø§Ø·":11423,"ĠØ±Ø§ÛĮØ³":11424,"ĠÙ¾Ø±ÙĪØ§Ø²ÛĮ":11425,"ĠÙģØ±Ø³ØªØ§Ø¯ÙĨ":11426,"ĠÙģÙĦØ¬":11427,"ĠØ±Ø¨Ø§ØªÛĮÚ©":11428,"GB":11429,"ĠÚ©ÙĦÛĮØ´Ùĩ":11430,"ĠÙĨØ§ÙħÙĪÙģÙĤ":11431,"WC":11432,"ĠØªØ±Ú©ÙħÙĨØ³ØªØ§ÙĨ":11433,"Ú©ÙĦÛĮÙĨ":11434,"ÙĨØ´Ø§ÙĨÛĮ":11435,"ĠÙ¾ÛĮØ´ÛĮ":11436,"ĠÙħØ³ÙĨ":11437,"ĠÙ¾ÛĮØ´ÙĨÙĩØ§Ø¯ÙĩØ§ÛĮ":11438,"ĠÙģÙĪÙĦØ¯":11439,"ĠØ±ÙģØ³":11440,"ĠÙħÙĤÛĮÙħ":11441,"Ġyour":11442,"ĠÙĨØ§Ø§ÙħÛĮØ¯ÛĮ":11443,"ÙĦÙĨØ³Ø±":11444,"ĠÙĨØ§Ø´Ø±":11445,"ĠÙĦØ¨Ø§Ø³Ø´ÙĪÛĮÛĮ":11446,"Ø¨ÛĮØªÛĮ":11447,"ĠIM":11448,"ĠÛ±Û°Û¸Û°":11449,"ĠØ¹ÛĮÙĨÛĮ":11450,"ĠØ±ÙĪØ¨Ø§Øª":11451,"ĠÙĨØ§ÙħØŃØ¯ÙĪØ¯":11452,"ĠØ§Ø®ØªÛĮØ§Ø±ÛĮ":11453,"ĠÙħØ³ÙĦÙħ":11454,"ĠÙħÛĮÚ©ÙĨÛĮ":11455,"ĠÙĪØ§Ú©":11456,"ĠØ±Ø´":11457,"ĠÙģØ±Ø§Ú¯ÛĮØ±ÛĮ":11458,"ĠÙħÛĮÙħÙĪÙĨ":11459,"ĠÙħØ¨Ø§Ø¯ÙĦØ§Øª":11460,"ĠNet":11461,"ĠØ±Ø§Ø¯ÛĮÚ©Ø§ÙĦ":11462,"ĠØ·ÙĨØ§Ø¨":11463,"ĠØŃØ±Ø§Ø¬":11464,"ĠØºØ§Ø±Øª":11465,"Ø§Ø³ÙĪÙĨÛĮÚ©":11466,"ĠÚĨØ§Ø¨ÙĩØ§Ø±":11467,"ĠØ´ÙĨØ§Ø³ÙĨØ§ÙħÙĩ":11468,"ai":11469,"ĠÙħØ³ØªÙĤÛĮÙħÛĮ":11470,"Ø±ÛĮÙģÛĮ":11471,"ÙħØ±Ø§ÙĨÛĮ":11472,"ĠÙĪÙĦØ§Ø¯":11473,"ĠØ§Ø²Ø§ÛĮÙĨ":11474,"ĠØ§Ù¾Ø±Ø§":11475,"ĠØªØŃÙĤÛĮÙĤÛĮ":11476,"ĠØ±ÙĪØ§ÙĨØ´ÙĨØ§Ø³":11477,"ĠAT":11478,"ĠÙħÚ¯Ø§ÙĪ":11479,"ĠØ±ÛĮØ§ÙĦÛĮ":11480,"ĠØ§ÙħØ§ÙħØ²Ø§Ø¯Ùĩ":11481,"ĠÙĨØ§ØµØ±Ø§ÙĦØ¯ÛĮÙĨ":11482,"ĠÛ±Û¸Û´":11483,"ĠØ³ÙĪÛĮÛĮÚĨ":11484,"ĠØ³Ø§ÙĨØ³ÙĪØ±":11485,"Ø§Ø³ÛĮØ±":11486,"ann":11487,"ĠÛĮÙĪØª":11488,"ĠØ±ÙĪÛĮØ§":11489,"ĠÛ¹Û±":11490,"ĠØ¨ÙĦØ§Ú¯":11491,"Ø§Ø³Ù¾":11492,"ĠØ¨Ø§Ø²ÙħØ§ÙĨØ¯":11493,"eng":11494,"ĠÚ©ÙĦØ§ÙĩØ¨Ø±Ø¯Ø§Ø±ÛĮ":11495,"ĠØ¨Ø±ÛĮØ¯":11496,"Ø§Ù¾ÙĪ":11497,"ĠØ§Ø¸ÙĩØ§Ø±Ø¯Ø§Ø´Øª":11498,"ĠÙĪÚ¯Ø±ÙĨÙĩ":11499,"ĠÛĮÚ©ÙĨÙĪØ§Ø®Øª":11500,"Ø³ÙĪØ§Ø±":11501,"ĠÚ©Ø¯ÙĨ":11502,"ĠØ®Ø·Ø±ÛĮ":11503,"ĠÛ±Û¹Û¸Û´":11504,"ĠÙħÙĨØ¹ÙĤØ¯":11505,"ĠÙħÙģØª":11506,"ÙģØµÙĦ":11507,"ĠØ§Ø³Ú©ÙĨØ±":11508,"ĠÙħÙĪØªÙĪØ±ÛĮ":11509,"ĠØ¨Ø§Ø²Ú¯ÙĪ":11510,"ĠÙģÙĦØ§Øª":11511,"ĠÙĩØ´":11512,"ĠØ§Ø³ØªØ¹Ùģ":11513,"ĠÙ¾ÛĮÙħØ§ÙĨÚ©Ø§Ø±":11514,"ĠÙĦØ§ÙĦÙĩ":11515,"ĠØ¨Ø§Ø²Ú¯Ø±Ø¯Ø¯":11516,"ĠØ¢Ø±Øª":11517,"ĠØŃØ§ÙĦÛĮØ³Øª":11518,"ĠÙĩÙĨØ¯Ø³ÛĮ":11519,"Ġare":11520,"ĠØ§ÙĦÛĮØ²":11521,"ĠØ´Ø¬Ø§Ø¹":11522,"ĠØŃØ§ÙħØ¯":11523,"ĠØ¹Ø§Ø¯ÙĦØ§ÙĨÙĩ":11524,"ĠØ³ÙĪØ±ÛĮ":11525,"ĠÛĮÙĩÙĪØ¯":11526,"ĠÚ©ÛĮÙģØ±ÛĮ":11527,"Ø¢Ø±Ø§ÙħÛĮ":11528,"ĠØ¨Ú¯ÙĪÛĮÙĨØ¯":11529,"ĠCort":11530,"ØŃØ¶":11531,"ĠØ²Ø§Ú©Ø±":11532,"ĠØ´ÙĪØ±Ø´ÛĮ":11533,"tr":11534,"ĠÙħØµØ±ÛĮ":11535,"Û³Û¹":11536,"ĠØ§Ø³Ù¾Ø§ØªÛĮÙģØ§ÛĮ":11537,"Ã©":11538,"ĠØªØ¹ÙĦÛĮÙħ":11539,"reen":11540,"ÙĩØ§ÙĨ":11541,"ĠØªØ·":11542,"ĠØªÙĪÚ©ÙĨ":11543,"Ø®ØªØ±":11544,"ĠÚĨÙĩØ§Ø±Ø¯Ùĩ":11545,"ĠØ·Ø¨Ø®":11546,"ĠØ²ÛĮÙħ":11547,"ĠØ²ÛĮØ¨Ø§ØªØ±":11548,"ĠÛ±Û¹Û¸Û¸":11549,"ĠØªØ¯Ø§Ø¨ÛĮØ±":11550,"ÙĪØ´ÛĮØªØ¯":11551,"ĠØ±ÙĩÙĨ":11552,"ĠÙħØ§Ø±Ø´":11553,"ĠÙ¾ÙĨØ§ÙĦØªÛĮ":11554,"ĠPlus":11555,"ĠÙĨØ§ÙĪØ¨Ø±ÛĮ":11556,"ĠØ´Ø§Ù¾ÙĪØ±":11557,"ĠÙĦÙģ":11558,"ĠÙ¾Ø¯Ø±Ùħ":11559,"Ù£":11560,"ĠØ¬ÙĩØ§Ø¯":11561,"ĠÚ¯Ø°Ø§Ø´ØªÙħ":11562,"ĠØ¯Ø§ÛĮØ±Ú©Øª":11563,"Ø§ÙĦÛĮÙĨ":11564,"86":11565,"Ø³ØªÚ¯Ø§ÙĨ":11566,"ĠÚ©ÙĦØ§ÙħÛĮ":11567,"ĠÙħÙĦØ§Ú©":11568,"ĠGPS":11569,"ĠØ§ÙĨØªÙĤØ§Ø¯ÛĮ":11570,"Ø®ÙĪØ§ÙĨÙĨØ¯":11571,"ĠØ¯Ø±Ø®ØµÙĪØµ":11572,"ÙħÙĨÛĮ":11573,"ĠÙħÙĤØ§Ø·Ø¹":11574,"ĠÙħØŃØ±ÙĪÙħÛĮØª":11575,"ĠØ³Ø±Ø¯Ø±Ú¯ÙħÛĮ":11576,"ĠØ¨Ø§ÙĤ":11577,"DC":11578,"ĠÙĩÙħØ¨Ø³ØªÚ¯ÛĮ":11579,"Ø¨Ø¹Ø¯":11580,"ĠÙĪØ³ÙĪØ§Ø³":11581,"ĠÛ±Û³Û¸Û¹":11582,"ĠØ§ÛĮØ³ØªØ§Ø¯":11583,"ĠØºÙģ":11584,"Ø¨Ø±ÛĮØ¬":11585,"ĠØ§Ø¸ÙĩØ§Ø±ÙĨØ¸Ø±":11586,"vel":11587,"Ø§Ø³Ø¯":11588,"ĠØ§ØŃÙħÙĤ":11589,"ĠÚ©ÛĮØ³Øª":11590,"ĠÚĨØ±ÙħÛĮ":11591,"ĠØ®ÙĪØ§ÙĩÛĮ":11592,"uct":11593,"Ø¨ÙĪØ±Ú¯ÛĮÙĨÛĮ":11594,"ĠØ±Ø§Ø²ÛĮ":11595,"ĠÙĨØ¸Ø§ÙģØª":11596,"ØĮÂ»":11597,"ĠØ±ÙĪØ§ÛĮØ§Øª":11598,"Ø¦ÛĮØª":11599,"ĠÙĤØ´ÙĨÚ¯":11600,"ĠØ³Ø§Ú©Øª":11601,"ĠØ¯Ø§Ø±Ø§ÙĨ":11602,"ĠÚĺØ³Øª":11603,"ĠØºØ°Ø§ÙĩØ§ÛĮÛĮ":11604,"Ø®ÙĦÙģ":11605,"ĠØ´Ø±Ø¨Øª":11606,"ĠÙ¾Ø±Ø³Ø±":11607,"Ø°Ø±":11608,"ĠÙħØªØ§ÙĨ":11609,"ÙĪØ³Ø§Ø²":11610,"ĠÙħØªØŃÙĪÙĦ":11611,"Ġ)":11612,"to":11613,"ĠÙħØŃØ±Ùħ":11614,"ĠØ·Ø±ÙģÙĩ":11615,"Û³Û³":11616,"ĠØ§ÙĦØ²Ø§ÙħØ§Øª":11617,"ĠÙ¾ÛĮØ´ØªØ§Ø²":11618,"ĠØ²Ø§Ú¯Ø±Ø³":11619,"Ú©Ø§Ùĩ":11620,"ĠÙĨÛĮÙĪØ²ÛĮ":11621,"ĠÙģØ±Ø§ÛĮÙĨØ¯ÛĮ":11622,"ĠØ¨Ø±Ú¯Ø²ÛĮØ¯":11623,"ØµØ§Ùģ":11624,"ĠÙĨÛĮØªØ±ÙĪ":11625,"ĠÚ©Ø§Ø±ÙģØ±ÙħØ§ÛĮØ§ÙĨ":11626,"ĠØ¨Ø§ÙĦÙĩ":11627,"Ø§ÙĦÙĪ":11628,"ÙĪØ§ÙĨØ§":11629,"ĠÚ©Ø³Ø±":11630,"ĠØ¨Ø´ÛĮØ¯":11631,"ÙĪØ§ÙĦÛĮ":11632,"ĠØ¹Ø¶ÙĪÛĮ":11633,"ĠØ¨ÛĮØ´ÛĮÙĨÙĩ":11634,"ĠFree":11635,"ĠÙħØ¹Ø§ÙħÙĦØ§ØªÛĮ":11636,"ĠØ±Ø¯ÙħÙĪÙĨØ¯ÛĮ":11637,"ĠØ¨Ø§Ø´ÛĮÙĨ":11638,"AP":11639,"Ø´ÙĨØ§Ø®Øª":11640,"ĠØ¬ÙħØ§ÙĦ":11641,"ĠØ§ÙĤØ´Ø§Ø±":11642,"ĠÛ±Û¹Û¸Û¶":11643,"ĠÙĨØ§Ú©Ø§Ùħ":11644,"AS":11645,"ĠÙħÛĮØ±ÙĪØ¯":11646,"ĠØ§Ù¾Ø±Ø§ØªÙĪØ±ÙĩØ§":11647,"ÙĨÚ¯Ø±":11648,"ux":11649,"ĠØ¨ÙĤØ§":11650,"ĠØªØ´ÛĮ":11651,"Ø¢ÙħÛĮØ²ÛĮ":11652,"ĠØ¨Ø®Øª":11653,"ĠÙĤØ¯Ø±ØªÙħÙĨØ¯ØªØ±ÛĮÙĨ":11654,"ĠØ§ÙĦØªØŃØµÛĮÙĦ":11655,"ĠØªÙĪÙĨÛĮ":11656,"ĠØ§Ø³ÙĩØ§ÙĦ":11657,"ĠÙħØ®Ø±ÙĪ":11658,"ĠØ³ÛĮØ§Ø±Ú©":11659,"ĠØ®ÙĦØ§ÙģØª":11660,"ĠÙĤÙĪØ³":11661,"ÙĪØ²ÙĪÙħ":11662,"ĠØ§Ø¬ÙĨØ§Ø³":11663,"ĠØ§Ù¾ÛĮØ¯":11664,"BC":11665,"Ġ23":11666,"ĠØ¢ÙħÙĪØ²Ø´Ú¯Ø§Ùĩ":11667,"Ú¯ÛĮÙħ":11668,"ĠØ³ÛĮØ§ÙĦ":11669,"ĠÙĨÙħØ§Ø¯ÛĮÙĨ":11670,"ĠÚ©ÛĮÙĨÚ¯":11671,"ĠØ¢ØªÙĨ":11672,"ÙħØ¹ÙĨØ§ÛĮ":11673,"ĠØ¯ÙĨØ¯":11674,"Ø§Ø¨Ø¹ÛĮ":11675,"ÙħØŃÛĮØ·ÛĮ":11676,"ĠØ´ÙħØ¹":11677,"ĠØ¯ÛĮÙģØ±Ø§ÙĨØ³ÛĮÙĦ":11678,"ÙĪØ®ØªÙĩ":11679,"ÙĦÛĮÙĨÚ©":11680,"ĠØ§ÙĨØ³Øª":11681,"ĠÙħØŃØµÙĪÙĦØ§ØªØ´":11682,"ĠØ¹ÙħÛĮÙĤÛĮ":11683,"ĠØ¨ÛĮØ²ÛĮÙĨØ³":11684,"ĠØ§ØµØºØ±":11685,"ĠÙĪÛĮØ¯ÛĮÙĪÙĩØ§":11686,"ĠØ¹ØµØ¨Ø§ÙĨÛĮØª":11687,"ÙģØ§Ø¹ÛĮ":11688,"ĠØ¢ÛĮÙĦ":11689,"ĠÚ©ÙĦØ§ÛĮÙĨ":11690,"Ġcl":11691,"ĠÙĩØ®Ø§ÙħÙĨØ´ÛĮ":11692,"ÙģÙĪØ±Øª":11693,"ĠÙħÛĮÚ©":11694,"ĠØ¯ÛĮÙĪØ§Ø±ÙĩØ§":11695,"ĠØ¯Ø¨ÛĮØ±Ø®Ø§ÙĨÙĩ":11696,"ĠÙĦÙĪØ¦ÛĮ":11697,"Ø¨Ø¯ÙĪÙĨ":11698,"ĠHDMI":11699,"ĠØŃØ¬Øª":11700,"ĠØ³ÙĪØ¯Ø¢ÙĪØ±ÛĮ":11701,"ĠÙĩØ±ÚĨÙĤØ¯Ø±":11702,"ĠâĢ¦..":11703,"ĠÙħÙĨØ§Ø¸":11704,"ĠTech":11705,"ĠØ¨ÙĦØºØ§Ø±Ø³ØªØ§ÙĨ":11706,"ĠÙĦØ§ÙħØ¨ÙĪØ±Ú¯ÛĮÙĨÛĮ":11707,"ĠØ³Ø±Ø²ÙĨØ´":11708,"ĠØ´Ú©Ø³ØªÚ¯ÛĮ":11709,"ĠØ§Ø¨ÙĪØ§ÙĦ":11710,"ĠÙĩÛĮÙ¾":11711,"ĠÛ±Û³Û¹Û±":11712,"ĠÙĦÙĨÚ¯":11713,"ĠÙĦÙĪØ¦ÛĮØ³":11714,"ĠØ®ÙĪÙĨØ¯":11715,"ĠÙĨÙĪØ±ÙĪÙĨ":11716,"ÙħØ±Øª":11717,"ĠÙħØªØ±ÛĮØ§ÙĦ":11718,"play":11719,"ĠØŃØ¯ÛĮØ«":11720,"ĠÙĨØ¨Ø§Ø´Ùĩ":11721,"ĠØ³Ø±ÙĪØ¯Ùĩ":11722,"ĠÙħØµÙĪØ¨Ø§Øª":11723,"ĠØ±ÙĪØ²Ø§ÙģØ²":11724,"ĠÙħØ±ØºÙĪØ¨":11725,"ĠÚ¯ÙĦÙģ":11726,"ĠØ±ÙĪÛĮØª":11727,"ĠÙħØŃÙĪØ±ÙĩØ§ÛĮ":11728,"ĠÚ©Ø§ÙĪØ´Ú¯Ø±":11729,"ĠØ§Ø¯ÛĮØ§ÙĨ":11730,"ØµÙĦÛĮ":11731,"ĠØªÙħÙĩÛĮØ¯":11732,"ĠØŃÚ©ÙħØ±Ø§ÙĨÛĮ":11733,"18":11734,"ĠWh":11735,"ĠÚĺØ±Ùģ":11736,"Ø®ÙĪØ§ÙĨÛĮØ¯":11737,"ĠØ³Ú©Ø§ÙĨØ³":11738,"Ø·Ø§ÙĦ":11739,"ĠÙħØ·Ø§ÙĦØ¨Ùĩ":11740,"ĠÙĩÙħØ³Ø±ØªØ§ÙĨ":11741,"Ġhe":11742,"ĠØ´Ø³ØªÙĨ":11743,"ĠÚ¯Ø´Ø§ÛĮØ´":11744,"ĠØªØ§Ø¬ÛĮÚ©Ø³ØªØ§ÙĨ":11745,"ĠØ²ÙĨØ¯Ú¯ÛĮÙħ":11746,"ĠØ²Ø§Ú©Ø±Ø¨Ø±Ú¯":11747,"ĠÙħÙĩÙħØªØ±":11748,"ĠÙĨÙĪØ´ØªØ§Ø±":11749,"IC":11750,"ĠÙħØ³Ø§Ø¹Ø¯":11751,"ĠØ¢Ø²Ø§Ø¯Ø§ÙĨÙĩ":11752,"ĠÙģØ±ÛĮÙĦÙĨØ³Ø±":11753,"ĠØ±ÙĪÛĮØ§ÙĦ":11754,"ĠÚ©ÙĪÚĨÛĮÚ©":11755,"ĠÙħØ´Ø§ÙĩØ¯Ø§Øª":11756,"ĠØµØ¨Ø§":11757,"ĠSM":11758,"ĠØ´ÛĮÙĨ":11759,"ĠØªØ£Ø«ÛĮØ±ÛĮ":11760,"ĠÙ¾ÛĮØ±ÙħØ±Ø¯":11761,"Ġ35":11762,"ĠØ§ÙħØªÛĮØ§Ø²ÛĮ":11763,"ĠÙĨØ§Ú©Ø§Ø±":11764,"ĠØŃØ¨ÛĮØ¨":11765,"Ø§Ø³ÙĨ":11766,"ĠØ§ÙĪÙĨÙħ":11767,"ÚĨÚ©":11768,"ĠÚ©Ø§Ø±Ú¯Ø²Ø§Ø±":11769,"ĠØªØŃÙĤÛĮØ±":11770,"ĠÙĤØ¨Ø§ÛĮÙĦ":11771,"ĠÙħØ²Ø¨ÙĪØ±":11772,"ĠØ³ÛĮØ§Ø³ØªÙħØ¯Ø§Ø±":11773,"ĠÙĪØ¬ÙĪÙĩ":11774,"ĠÙģÙĪÙħ":11775,"ĠØ²ÙĨØ§":11776,"ĠØ±ÙĪÙħÛĮØ²ÛĮ":11777,"ĠOn":11778,"Ø§ØªÙĩ":11779,"ĠÙħØ³ÛĮØ±ÛĮØ§Ø¨ÛĮ":11780,"ĠØ³Ø¹Ø¯":11781,"ivers":11782,"ĠØ®Ø´ÙħÚ¯ÛĮÙĨ":11783,"ĠØ®Ø§ØªÙħÛĮ":11784,"ĠÙĪØ²Ø´":11785,"ĠÛ±Û¹Û³Û°":11786,"ĠØ¶Ø±Ø¨Ø§Øª":11787,"ĠØ±ÙĪÛĮØ§Ø±ÙĪÛĮÛĮ":11788,"ĠHP":11789,"ĠØ¹Ø´Ø§ÛĮØ±":11790,"ĠØªØ®ÙħÚ©":11791,"ĠÚ©ÛĮÙģÛĮØªÛĮ":11792,"ĠØ§Ø³ØªØ±ÙĪ":11793,"ĠÙĦÛĮØªÛĮÙĪÙħ":11794,"QL":11795,"ØµØ¯Ø§":11796,"ĠÙħÙģØ±":11797,"ĠÙ¾ÙĨØ¯":11798,"ĠÙ¾ÙĪØ¯":11799,"ĠÚ©Ø§Ø±Ùħ":11800,"ĠÙģØ±ÙĪØ®Øª":11801,"ĠâĢĶ":11802,"ĠAMOLED":11803,"ĠØ±ÙĪÛĮØ´":11804,"Ú©ÙĪÙ¾ÛĮ":11805,"ĠÙ¾Ø°ÛĮØ±Ø§ÛĮ":11806,"ĠÙĨÚ¯Ø°":11807,"ĠØªØ¯Ø§Ø®ÙĦ":11808,"ĠÙħØ¬Ø§Ùĩ":11809,"ĠØ²Ø±ÛĮÙĨ":11810,"ĠØ§Ø¹ÙħØ§ÙĤ":11811,"ĠØ§ØŃÙħØ±":11812,"ÛĮÙĨÚ¯ÙĨ":11813,"Ġal":11814,"ĠÙĨÛĮØ§ÙģØª":11815,"Ø§ÛĮÙĨØ¯Ú¯ÛĮ":11816,"ĠÙ¾Ø¯Ø±ÛĮ":11817,"ĠØ¹ÛĮ":11818,"ĠÙĤØ§Ø¨ÙĦÙħÙĩ":11819,"ĠÙħÙĪØ³Ø³":11820,"ĠÙħØªÙĪØ³Ø·Ùĩ":11821,"ble":11822,"Ø«ÙĤ":11823,"ĠØ¹ÙģÙĪ":11824,"ĠØªØ§Ø¨Ùĩ":11825,"Ø³Ø±Ø¯":11826,"ĠØªØ§Øª":11827,"Ø³ÛĮØªÙĩ":11828,"ÙĩØ±Ø§ÙĨÛĮ":11829,"ĠØ³ÛĮØ²Ø¯ÙĩÙħ":11830,"ÙģØ´Ø§ÙĨÛĮ":11831,"ĠÙ¾Ú©":11832,"ĠØªÙĪÙĩÙħ":11833,"ĠØŃÙĤØ§ÛĮÙĤ":11834,"Û¹Û³":11835,"ĠØ§ÙĤÛĮØ§ÙĨÙĪØ³ÛĮ":11836,"ÚĨÙĩØ§Ø±Ø´ÙĨØ¨Ùĩ":11837,"Ġ27":11838,"ĠØ¢ØªØ´ÙģØ´Ø§ÙĨ":11839,"ĠØ¢ÙģØ±ÛĮÙĨÛĮ":11840,"ĠØ§ØªØ±ÛĮÙĪÙħ":11841,"ĠØ§ÙĨØªØ²Ø§":11842,"ĠØ¹Ø°Ø±Ø®ÙĪØ§ÙĩÛĮ":11843,"ĠØ¯Ø²Ø¯ÛĮ":11844,"ĠØ²Ø§Ø±":11845,"oom":11846,"ĠØ´ÛĮÙħ":11847,"ĠÙĨØ§Ù¾ÙĦ":11848,"ĠÙ¾Ø§Ø´ÙĨÙĩ":11849,"ĠÙħØ³ØªØŃÚ©Ùħ":11850,"hone":11851,"ĠMy":11852,"ĠØ§Ú©Ø³ÙĦ":11853,"ĠØ§ØªÙĪ":11854,"ĠØ´Ø§ÛĮØ§ÙĨÛĮ":11855,"ĠÙĦÛĮØ²Ø±ÛĮ":11856,"ĠÙĪÚ©ÙĦØ§ÛĮ":11857,"ĠØ§ÙĪÛĮÙĦ":11858,"ĠÙħÙĨØ¬":11859,"ĠÙ¾Ø±ÛĮÙĨØª":11860,"Ġ400":11861,"ĠØ¨Ø³ÙĨØ¯Ùĩ":11862,"ĠÚ¯Ùĩ":11863,"ÛĮØ¹":11864,"ĠØ±ÙĪØªØ±":11865,"Ø§ÙĦÛĮÙģ":11866,"ĠØºØ±Ø¨Ø§ÙĦ":11867,"ĠØ³ÙĪØ²ÙĨ":11868,
[...]
