{
  "version": "1.0",
  "truncation": null,
  "padding": null,
  "added_tokens": [
    {
      "id": 0,
      "content": "[PAD]",
      "single_word": false,
      "lstrip": false,
      "rstrip": false,
      "normalized": false,
      "special": true
    },
    {
      "id": 1,
      "content": "[UNK]",
      "single_word": false,
      "lstrip": false,
      "rstrip": false,
      "normalized": false,
      "special": true
    },
    {
      "id": 2,
      "content": "[CLS]",
      "single_word": false,
      "lstrip": false,
      "rstrip": false,
      "normalized": false,
      "special": true
    },
    {
      "id": 3,
      "content": "[MASK]",
      "single_word": false,
      "lstrip": false,
      "rstrip": false,
      "normalized": false,
      "special": true
    },
    {
      "id": 4,
      "content": "[SEP]",
      "single_word": false,
      "lstrip": false,
      "rstrip": false,
      "normalized": false,
      "special": true
    }
  ],
  "normalizer": {
    "type": "BertNormalizer",
    "clean_text": true,
    "handle_chinese_chars": true,
    "strip_accents": null,
    "lowercase": true
  },
  "pre_tokenizer": {
    "type": "BertPreTokenizer"
  },
  "post_processor": {
    "type": "TemplateProcessing",
    "single": [
      {
        "SpecialToken": {
          "id": "[CLS]",
          "type_id": 0
        }
      },
      {
        "Sequence": {
          "id": "A",
          "type_id": 0
        }
      },
      {
        "SpecialToken": {
          "id": "[SEP]",
          "type_id": 0
        }
      }
    ],
    "pair": [
      {
        "SpecialToken": {
          "id": "[CLS]",
          "type_id": 0
        }
      },
      {
        "Sequence": {
          "id": "A",
          "type_id": 0
        }
      },
      {
        "SpecialToken": {
          "id": "[SEP]",
          "type_id": 0
        }
      },
      {
        "Sequence": {
          "id": "B",
          "type_id": 1
        }
      },
      {
        "SpecialToken": {
          "id": "[SEP]",
          "type_id": 1
        }
      }
    ],
    "special_tokens": {
      "[CLS]": {
        "id": "[CLS]",
        "ids": [
          2
        ],
        "tokens": [
          "[CLS]"
        ]
      },
      "[SEP]": {
        "id": "[SEP]",
        "ids": [
          4
        ],
        "tokens": [
          "[SEP]"
        ]
      }
    }
  },
  "decoder": {
    "type": "WordPiece",
    "prefix": "##",
    "cleanup": true
  },
  "model": {
    "type": "WordPiece",
    "unk_token": "[UNK]",
    "continuing_subword_prefix": "##",
    "max_input_chars_per_word": 100,
    "vocab": {
      "[PAD]": 0,
      "[UNK]": 1,
      "[CLS]": 2,
      "[MASK]": 3,
      "[SEP]": 4,
      "[unused0]": 5,
      "[unused1]": 6,
      "[unused2]": 7,
      "[unused3]": 8,
      "[unused4]": 9,
      "[unused5]": 10,
      "[unused6]": 11,
      "[unused7]": 12,
      "[unused8]": 13,
      "[unused9]": 14,
      "[unused10]": 15,
      "[unused11]": 16,
      "[unused12]": 17,
      "[unused13]": 18,
      "[unused14]": 19,
      "[unused15]": 20,
      "[unused16]": 21,
      "[unused17]": 22,
      "[unused18]": 23,
      "[unused19]": 24,
      "[unused20]": 25,
      "[unused21]": 26,
      "[unused22]": 27,
      "[unused23]": 28,
      "[unused24]": 29,
      "[unused25]": 30,
      "[unused26]": 31,
      "[unused27]": 32,
      "[unused28]": 33,
      "[unused29]": 34,
      "[unused30]": 35,
      "[unused31]": 36,
      "[unused32]": 37,
      "[unused33]": 38,
      "[unused34]": 39,
      "[unused35]": 40,
      "[unused36]": 41,
      "[unused37]": 42,
      "[unused38]": 43,
      "[unused39]": 44,
      "[unused40]": 45,
      "[unused41]": 46,
      "[unused42]": 47,
      "[unused43]": 48,
      "[unused44]": 49,
      "[unused45]": 50,
      "[unused46]": 51,
      "[unused47]": 52,
      "[unused48]": 53,
      "[unused49]": 54,
      "[unused50]": 55,
      "[unused51]": 56,
      "[unused52]": 57,
      "[unused53]": 58,
      "[unused54]": 59,
      "[unused55]": 60,
      "[unused56]": 61,
      "[unused57]": 62,
      "[unused58]": 63,
      "[unused59]": 64,
      "[unused60]": 65,
      "[unused61]": 66,
      "[unused62]": 67,
      "[unused63]": 68,
      "[unused64]": 69,
      "[unused65]": 70,
      "[unused66]": 71,
      "[unused67]": 72,
      "[unused68]": 73,
      "[unused69]": 74,
      "[unused70]": 75,
      "[unused71]": 76,
      "[unused72]": 77,
      "[unused73]": 78,
      "[unused74]": 79,
      "[unused75]": 80,
      "[unused76]": 81,
      "[unused77]": 82,
      "[unused78]": 83,
      "[unused79]": 84,
      "[unused80]": 85,
      "[unused81]": 86,
      "[unused82]": 87,
      "[unused83]": 88,
      "[unused84]": 89,
      "[unused85]": 90,
      "[unused86]": 91,
      "[unused87]": 92,
      "[unused88]": 93,
      "[unused89]": 94,
      "[unused90]": 95,
      "[unused91]": 96,
      "[unused92]": 97,
      "[unused93]": 98,
      "[unused94]": 99,
      "[unused95]": 100,
      "[unused96]": 101,
      "[unused97]": 102,
      "[unused98]": 103,
      "[unused99]": 104,
      "[unused100]": 105,
      "[unused101]": 106,
      "[unused102]": 107,
      "[unused103]": 108,
      "[unused104]": 109,
      "[unused105]": 110,
      "[unused106]": 111,
      "[unused107]": 112,
      "[unused108]": 113,
      "[unused109]": 114,
      "[unused110]": 115,
      "[unused111]": 116,
      "[unused112]": 117,
      "[unused113]": 118,
      "[unused114]": 119,
      "[unused115]": 120,
      "[unused116]": 121,
      "[unused117]": 122,
      "[unused118]": 123,
      "[unused119]": 124,
      "[unused120]": 125,
      "[unused121]": 126,
      "[unused122]": 127,
      "[unused123]": 128,
      "[unused124]": 129,
      "[unused125]": 130,
      "[unused126]": 131,
      "[unused127]": 132,
      "[unused128]": 133,
      "[unused129]": 134,
      "[unused130]": 135,
      "[unused131]": 136,
      "[unused132]": 137,
      "[unused133]": 138,
      "[unused134]": 139,
      "[unused135]": 140,
      "[unused136]": 141,
      "[unused137]": 142,
      "[unused138]": 143,
      "[unused139]": 144,
      "[unused140]": 145,
      "[unused141]": 146,
      "[unused142]": 147,
      "[unused143]": 148,
      "[unused144]": 149,
      "[unused145]": 150,
      "[unused146]": 151,
      "[unused147]": 152,
      "[unused148]": 153,
      "[unused149]": 154,
      "[unused150]": 155,
      "[unused151]": 156,
      "[unused152]": 157,
      "[unused153]": 158,
      "[unused154]": 159,
      "[unused155]": 160,
      "[unused156]": 161,
      "[unused157]": 162,
      "[unused158]": 163,
      "[unused159]": 164,
      "[unused160]": 165,
      "[unused161]": 166,
      "[unused162]": 167,
      "[unused163]": 168,
      "[unused164]": 169,
      "[unused165]": 170,
      "[unused166]": 171,
      "[unused167]": 172,
      "[unused168]": 173,
      "[unused169]": 174,
      "[unused170]": 175,
      "[unused171]": 176,
      "[unused172]": 177,
      "[unused173]": 178,
      "[unused174]": 179,
      "[unused175]": 180,
      "[unused176]": 181,
      "[unused177]": 182,
      "[unused178]": 183,
      "[unused179]": 184,
      "[unused180]": 185,
      "[unused181]": 186,
      "[unused182]": 187,
      "[unused183]": 188,
      "[unused184]": 189,
      "[unused185]": 190,
      "[unused186]": 191,
      "[unused187]": 192,
      "[unused188]": 193,
      "[unused189]": 194,
      "[unused190]": 195,
      "[unused191]": 196,
      "[unused192]": 197,
      "[unused193]": 198,
      "[unused194]": 199,
      "[unused195]": 200,
      "[unused196]": 201,
      "[unused197]": 202,
      "[unused198]": 203,
      "[unused199]": 204,
      "[unused200]": 205,
      "[unused201]": 206,
      "[unused202]": 207,
      "[unused203]": 208,
      "[unused204]": 209,
      "[unused205]": 210,
      "[unused206]": 211,
      "[unused207]": 212,
      "[unused208]": 213,
      "[unused209]": 214,
      "[unused210]": 215,
      "[unused211]": 216,
      "[unused212]": 217,
      "[unused213]": 218,
      "[unused214]": 219,
      "[unused215]": 220,
      "[unused216]": 221,
      "[unused217]": 222,
      "[unused218]": 223,
      "[unused219]": 224,
      "[unused220]": 225,
      "[unused221]": 226,
      "[unused222]": 227,
      "[unused223]": 228,
      "[unused224]": 229,
      "[unused225]": 230,
      "[unused226]": 231,
      "[unused227]": 232,
      "[unused228]": 233,
      "[unused229]": 234,
      "[unused230]": 235,
      "[unused231]": 236,
      "[unused232]": 237,
      "[unused233]": 238,
      "[unused234]": 239,
      "[unused235]": 240,
      "[unused236]": 241,
      "[unused237]": 242,
      "[unused238]": 243,
      "[unused239]": 244,
      "[unused240]": 245,
      "[unused241]": 246,
      "[unused242]": 247,
      "[unused243]": 248,
      "[unused244]": 249,
      "[unused245]": 250,
      "[unused246]": 251,
      "[unused247]": 252,
      "[unused248]": 253,
      "[unused249]": 254,
      "[unused250]": 255,
      "[unused251]": 256,
      "[unused252]": 257,
      "[unused253]": 258,
      "[unused254]": 259,
      "[unused255]": 260,
      "[unused256]": 261,
      "[unused257]": 262,
      "[unused258]": 263,
      "[unused259]": 264,
      "[unused260]": 265,
      "[unused261]": 266,
      "[unused262]": 267,
      "[unused263]": 268,
      "[unused264]": 269,
      "[unused265]": 270,
      "[unused266]": 271,
      "[unused267]": 272,
      "[unused268]": 273,
      "[unused269]": 274,
      "[unused270]": 275,
      "[unused271]": 276,
      "[unused272]": 277,
      "[unused273]": 278,
      "[unused274]": 279,
      "[unused275]": 280,
      "[unused276]": 281,
      "[unused277]": 282,
      "[unused278]": 283,
      "[unused279]": 284,
      "[unused280]": 285,
      "[unused281]": 286,
      "[unused282]": 287,
      "[unused283]": 288,
      "[unused284]": 289,
      "[unused285]": 290,
      "[unused286]": 291,
      "[unused287]": 292,
      "[unused288]": 293,
      "[unused289]": 294,
      "[unused290]": 295,
      "[unused291]": 296,
      "[unused292]": 297,
      "[unused293]": 298,
      "[unused294]": 299,
      "[unused295]": 300,
      "[unused296]": 301,
      "[unused297]": 302,
      "[unused298]": 303,
      "[unused299]": 304,
      "[unused300]": 305,
      "[unused301]": 306,
      "[unused302]": 307,
      "[unused303]": 308,
      "[unused304]": 309,
      "[unused305]": 310,
      "[unused306]": 311,
      "[unused307]": 312,
      "[unused308]": 313,
      "[unused309]": 314,
      "[unused310]": 315,
      "[unused311]": 316,
      "[unused312]": 317,
      "[unused313]": 318,
      "[unused314]": 319,
      "[unused315]": 320,
      "[unused316]": 321,
      "[unused317]": 322,
      "[unused318]": 323,
      "[unused319]": 324,
      "[unused320]": 325,
      "[unused321]": 326,
      "[unused322]": 327,
      "[unused323]": 328,
      "[unused324]": 329,
      "[unused325]": 330,
      "[unused326]": 331,
      "[unused327]": 332,
      "[unused328]": 333,
      "[unused329]": 334,
      "[unused330]": 335,
      "[unused331]": 336,
      "[unused332]": 337,
      "[unused333]": 338,
      "[unused334]": 339,
      "[unused335]": 340,
      "[unused336]": 341,
      "[unused337]": 342,
      "[unused338]": 343,
      "[unused339]": 344,
      "[unused340]": 345,
      "[unused341]": 346,
      "[unused342]": 347,
      "[unused343]": 348,
      "[unused344]": 349,
      "[unused345]": 350,
      "[unused346]": 351,
      "[unused347]": 352,
      "[unused348]": 353,
      "[unused349]": 354,
      "[unused350]": 355,
      "[unused351]": 356,
      "[unused352]": 357,
      "[unused353]": 358,
      "[unused354]": 359,
      "[unused355]": 360,
      "[unused356]": 361,
      "[unused357]": 362,
      "[unused358]": 363,
      "[unused359]": 364,
      "[unused360]": 365,
      "[unused361]": 366,
      "[unused362]": 367,
      "[unused363]": 368,
      "[unused364]": 369,
      "[unused365]": 370,
      "[unused366]": 371,
      "[unused367]": 372,
      "[unused368]": 373,
      "[unused369]": 374,
      "[unused370]": 375,
      "[unused371]": 376,
      "[unused372]": 377,
      "[unused373]": 378,
      "[unused374]": 379,
      "[unused375]": 380,
      "[unused376]": 381,
      "[unused377]": 382,
      "[unused378]": 383,
      "[unused379]": 384,
      "[unused380]": 385,
      "[unused381]": 386,
      "[unused382]": 387,
      "[unused383]": 388,
      "[unused384]": 389,
      "[unused385]": 390,
      "[unused386]": 391,
      "[unused387]": 392,
      "[unused388]": 393,
      "[unused389]": 394,
      "[unused390]": 395,
      "[unused391]": 396,
      "[unused392]": 397,
      "[unused393]": 398,
      "[unused394]": 399,
      "[unused395]": 400,
      "[unused396]": 401,
      "[unused397]": 402,
      "[unused398]": 403,
      "[unused399]": 404,
      "[unused400]": 405,
      "[unused401]": 406,
      "[unused402]": 407,
      "[unused403]": 408,
      "[unused404]": 409,
      "[unused405]": 410,
      "[unused406]": 411,
      "[unused407]": 412,
      "[unused408]": 413,
      "[unused409]": 414,
      "[unused410]": 415,
      "[unused411]": 416,
      "[unused412]": 417,
      "[unused413]": 418,
      "[unused414]": 419,
      "[unused415]": 420,
      "[unused416]": 421,
      "[unused417]": 422,
      "[unused418]": 423,
      "[unused419]": 424,
      "[unused420]": 425,
      "[unused421]": 426,
      "[unused422]": 427,
      "[unused423]": 428,
      "[unused424]": 429,
      "[unused425]": 430,
      "[unused426]": 431,
      "[unused427]": 432,
      "[unused428]": 433,
      "[unused429]": 434,
      "[unused430]": 435,
      "[unused431]": 436,
      "[unused432]": 437,
      "[unused433]": 438,
      "[unused434]": 439,
      "[unused435]": 440,
      "[unused436]": 441,
      "[unused437]": 442,
      "[unused438]": 443,
      "[unused439]": 444,
      "[unused440]": 445,
      "[unused441]": 446,
      "[unused442]": 447,
      "[unused443]": 448,
      "[unused444]": 449,
      "[unused445]": 450,
      "[unused446]": 451,
      "[unused447]": 452,
      "[unused448]": 453,
      "[unused449]": 454,
      "[unused450]": 455,
      "[unused451]": 456,
      "[unused452]": 457,
      "[unused453]": 458,
      "[unused454]": 459,
      "[unused455]": 460,
      "[unused456]": 461,
      "[unused457]": 462,
      "[unused458]": 463,
      "[unused459]": 464,
      "[unused460]": 465,
      "[unused461]": 466,
      "[unused462]": 467,
      "[unused463]": 468,
      "[unused464]": 469,
      "[unused465]": 470,
      "[unused466]": 471,
      "[unused467]": 472,
      "[unused468]": 473,
      "[unused469]": 474,
      "[unused470]": 475,
      "[unused471]": 476,
      "[unused472]": 477,
      "[unused473]": 478,
      "[unused474]": 479,
      "[unused475]": 480,
      "[unused476]": 481,
      "[unused477]": 482,
      "[unused478]": 483,
      "[unused479]": 484,
      "[unused480]": 485,
      "[unused481]": 486,
      "[unused482]": 487,
      "[unused483]": 488,
      "[unused484]": 489,
      "[unused485]": 490,
      "[unused486]": 491,
      "[unused487]": 492,
      "[unused488]": 493,
      "[unused489]": 494,
      "[unused490]": 495,
      "[unused491]": 496,
      "[unused492]": 497,
      "[unused493]": 498,
      "[unused494]": 499,
      "[unused495]": 500,
      "[unused496]": 501,
      "[unused497]": 502,
      "[unused498]": 503,
      "[unused499]": 504,
      "[unused500]": 505,
      "[unused501]": 506,
      "[unused502]": 507,
      "[unused503]": 508,
      "[unused504]": 509,
      "[unused505]": 510,
      "[unused506]": 511,
      "[unused507]": 512,
      "[unused508]": 513,
      "[unused509]": 514,
      "[unused510]": 515,
      "[unused511]": 516,
      "[unused512]": 517,
      "[unused513]": 518,
      "[unused514]": 519,
      "[unused515]": 520,
      "[unused516]": 521,
      "[unused517]": 522,
      "[unused518]": 523,
      "[unused519]": 524,
      "[unused520]": 525,
      "[unused521]": 526,
      "[unused522]": 527,
      "[unused523]": 528,
      "[unused524]": 529,
      "[unused525]": 530,
      "[unused526]": 531,
      "[unused527]": 532,
      "[unused528]": 533,
      "[unused529]": 534,
      "[unused530]": 535,
      "[unused531]": 536,
      "[unused532]": 537,
      "[unused533]": 538,
      "[unused534]": 539,
      "[unused535]": 540,
      "[unused536]": 541,
      "[unused537]": 542,
      "[unused538]": 543,
      "[unused539]": 544,
      "[unused540]": 545,
      "[unused541]": 546,
      "[unused542]": 547,
      "[unused543]": 548,
      "[unused544]": 549,
      "[unused545]": 550,
      "[unused546]": 551,
      "[unused547]": 552,
      "[unused548]": 553,
      "[unused549]": 554,
      "[unused550]": 555,
      "[unused551]": 556,
      "[unused552]": 557,
      "[unused553]": 558,
      "[unused554]": 559,
      "[unused555]": 560,
      "[unused556]": 561,
      "[unused557]": 562,
      "[unused558]": 563,
      "[unused559]": 564,
      "[unused560]": 565,
      "[unused561]": 566,
      "[unused562]": 567,
      "[unused563]": 568,
      "[unused564]": 569,
      "[unused565]": 570,
      "[unused566]": 571,
      "[unused567]": 572,
      "[unused568]": 573,
      "[unused569]": 574,
      "[unused570]": 575,
      "[unused571]": 576,
      "[unused572]": 577,
      "[unused573]": 578,
      "[unused574]": 579,
      "[unused575]": 580,
      "[unused576]": 581,
      "[unused577]": 582,
      "[unused578]": 583,
      "[unused579]": 584,
      "[unused580]": 585,
      "[unused581]": 586,
      "[unused582]": 587,
      "[unused583]": 588,
      "[unused584]": 589,
      "[unused585]": 590,
      "[unused586]": 591,
      "[unused587]": 592,
      "[unused588]": 593,
      "[unused589]": 594,
      "[unused590]": 595,
      "[unused591]": 596,
      "[unused592]": 597,
      "[unused593]": 598,
      "[unused594]": 599,
      "[unused595]": 600,
      "[unused596]": 601,
      "[unused597]": 602,
      "[unused598]": 603,
      "[unused599]": 604,
      "[unused600]": 605,
      "[unused601]": 606,
      "[unused602]": 607,
      "[unused603]": 608,
      "[unused604]": 609,
      "[unused605]": 610,
      "[unused606]": 611,
      "[unused607]": 612,
      "[unused608]": 613,
      "[unused609]": 614,
      "[unused610]": 615,
      "[unused611]": 616,
      "[unused612]": 617,
      "[unused613]": 618,
      "[unused614]": 619,
      "[unused615]": 620,
      "[unused616]": 621,
      "[unused617]": 622,
      "[unused618]": 623,
      "[unused619]": 624,
      "[unused620]": 625,
      "[unused621]": 626,
      "[unused622]": 627,
      "[unused623]": 628,
      "[unused624]": 629,
      "[unused625]": 630,
      "[unused626]": 631,
      "[unused627]": 632,
      "[unused628]": 633,
      "[unused629]": 634,
      "[unused630]": 635,
      "[unused631]": 636,
      "[unused632]": 637,
      "[unused633]": 638,
      "[unused634]": 639,
      "[unused635]": 640,
      "[unused636]": 641,
      "[unused637]": 642,
      "[unused638]": 643,
      "[unused639]": 644,
      "[unused640]": 645,
      "[unused641]": 646,
      "[unused642]": 647,
      "[unused643]": 648,
      "[unused644]": 649,
      "[unused645]": 650,
      "[unused646]": 651,
      "[unused647]": 652,
      "[unused648]": 653,
      "[unused649]": 654,
      "[unused650]": 655,
      "[unused651]": 656,
      "[unused652]": 657,
      "[unused653]": 658,
      "[unused654]": 659,
      "[unused655]": 660,
      "[unused656]": 661,
      "[unused657]": 662,
      "[unused658]": 663,
      "[unused659]": 664,
      "[unused660]": 665,
      "[unused661]": 666,
      "[unused662]": 667,
      "[unused663]": 668,
      "[unused664]": 669,
      "[unused665]": 670,
      "[unused666]": 671,
      "[unused667]": 672,
      "[unused668]": 673,
      "[unused669]": 674,
      "[unused670]": 675,
      "[unused671]": 676,
      "[unused672]": 677,
      "[unused673]": 678,
      "[unused674]": 679,
      "[unused675]": 680,
      "[unused676]": 681,
      "[unused677]": 682,
      "[unused678]": 683,
      "[unused679]": 684,
      "[unused680]": 685,
      "[unused681]": 686,
      "[unused682]": 687,
      "[unused683]": 688,
      "[unused684]": 689,
      "[unused685]": 690,
      "[unused686]": 691,
      "[unused687]": 692,
      "[unused688]": 693,
      "[unused689]": 694,
      "[unused690]": 695,
      "[unused691]": 696,
      "[unused692]": 697,
      "[unused693]": 698,
      "[unused694]": 699,
      "[unused695]": 700,
      "[unused696]": 701,
      "[unused697]": 702,
      "[unused698]": 703,
      "[unused699]": 704,
      "[unused700]": 705,
      "[unused701]": 706,
      "[unused702]": 707,
      "[unused703]": 708,
      "[unused704]": 709,
      "[unused705]": 710,
      "[unused706]": 711,
      "[unused707]": 712,
      "[unused708]": 713,
      "[unused709]": 714,
      "[unused710]": 715,
      "[unused711]": 716,
      "[unused712]": 717,
      "[unused713]": 718,
      "[unused714]": 719,
      "[unused715]": 720,
      "[unused716]": 721,
      "[unused717]": 722,
      "[unused718]": 723,
      "[unused719]": 724,
      "[unused720]": 725,
      "[unused721]": 726,
      "[unused722]": 727,
      "[unused723]": 728,
      "[unused724]": 729,
      "[unused725]": 730,
      "[unused726]": 731,
      "[unused727]": 732,
      "[unused728]": 733,
      "[unused729]": 734,
      "[unused730]": 735,
      "[unused731]": 736,
      "[unused732]": 737,
      "[unused733]": 738,
      "[unused734]": 739,
      "[unused735]": 740,
      "[unused736]": 741,
      "[unused737]": 742,
      "[unused738]": 743,
      "[unused739]": 744,
      "[unused740]": 745,
      "[unused741]": 746,
      "[unused742]": 747,
      "[unused743]": 748,
      "[unused744]": 749,
      "[unused745]": 750,
      "[unused746]": 751,
      "[unused747]": 752,
      "[unused748]": 753,
      "[unused749]": 754,
      "[unused750]": 755,
      "[unused751]": 756,
      "[unused752]": 757,
      "[unused753]": 758,
      "[unused754]": 759,
      "[unused755]": 760,
      "[unused756]": 761,
      "[unused757]": 762,
      "[unused758]": 763,
      "[unused759]": 764,
      "[unused760]": 765,
      "[unused761]": 766,
      "[unused762]": 767,
      "[unused763]": 768,
      "[unused764]": 769,
      "[unused765]": 770,
      "[unused766]": 771,
      "[unused767]": 772,
      "[unused768]": 773,
      "[unused769]": 774,
      "[unused770]": 775,
      "[unused771]": 776,
      "[unused772]": 777,
      "[unused773]": 778,
      "[unused774]": 779,
      "[unused775]": 780,
      "[unused776]": 781,
      "[unused777]": 782,
      "[unused778]": 783,
      "[unused779]": 784,
      "[unused780]": 785,
      "[unused781]": 786,
      "[unused782]": 787,
      "[unused783]": 788,
      "[unused784]": 789,
      "[unused785]": 790,
      "[unused786]": 791,
      "[unused787]": 792,
      "[unused788]": 793,
      "[unused789]": 794,
      "[unused790]": 795,
      "[unused791]": 796,
      "[unused792]": 797,
      "[unused793]": 798,
      "[unused794]": 799,
      "[unused795]": 800,
      "[unused796]": 801,
      "[unused797]": 802,
      "[unused798]": 803,
      "[unused799]": 804,
      "[unused800]": 805,
      "[unused801]": 806,
      "[unused802]": 807,
      "[unused803]": 808,
      "[unused804]": 809,
      "[unused805]": 810,
      "[unused806]": 811,
      "[unused807]": 812,
      "[unused808]": 813,
      "[unused809]": 814,
      "[unused810]": 815,
      "[unused811]": 816,
      "[unused812]": 817,
      "[unused813]": 818,
      "[unused814]": 819,
      "[unused815]": 820,
      "[unused816]": 821,
      "[unused817]": 822,
      "[unused818]": 823,
      "[unused819]": 824,
      "[unused820]": 825,
      "[unused821]": 826,
      "[unused822]": 827,
      "[unused823]": 828,
      "[unused824]": 829,
      "[unused825]": 830,
      "[unused826]": 831,
      "[unused827]": 832,
      "[unused828]": 833,
      "[unused829]": 834,
      "[unused830]": 835,
      "[unused831]": 836,
      "[unused832]": 837,
      "[unused833]": 838,
      "[unused834]": 839,
      "[unused835]": 840,
      "[unused836]": 841,
      "[unused837]": 842,
      "[unused838]": 843,
      "[unused839]": 844,
      "[unused840]": 845,
      "[unused841]": 846,
      "[unused842]": 847,
      "[unused843]": 848,
      "[unused844]": 849,
      "[unused845]": 850,
      "[unused846]": 851,
      "[unused847]": 852,
      "[unused848]": 853,
      "[unused849]": 854,
      "[unused850]": 855,
      "[unused851]": 856,
      "[unused852]": 857,
      "[unused853]": 858,
      "[unused854]": 859,
      "[unused855]": 860,
      "[unused856]": 861,
      "[unused857]": 862,
      "[unused858]": 863,
      "[unused859]": 864,
      "[unused860]": 865,
      "[unused861]": 866,
      "[unused862]": 867,
      "[unused863]": 868,
      "[unused864]": 869,
      "[unused865]": 870,
      "[unused866]": 871,
      "[unused867]": 872,
      "[unused868]": 873,
      "[unused869]": 874,
      "[unused870]": 875,
      "[unused871]": 876,
      "[unused872]": 877,
      "[unused873]": 878,
      "[unused874]": 879,
      "[unused875]": 880,
      "[unused876]": 881,
      "[unused877]": 882,
      "[unused878]": 883,
      "[unused879]": 884,
      "[unused880]": 885,
      "[unused881]": 886,
      "[unused882]": 887,
      "[unused883]": 888,
      "[unused884]": 889,
      "[unused885]": 890,
      "[unused886]": 891,
      "[unused887]": 892,
      "[unused888]": 893,
      "[unused889]": 894,
      "[unused890]": 895,
      "[unused891]": 896,
      "[unused892]": 897,
      "[unused893]": 898,
      "[unused894]": 899,
      "[unused895]": 900,
      "[unused896]": 901,
      "[unused897]": 902,
      "[unused898]": 903,
      "[unused899]": 904,
      "[unused900]": 905,
      "[unused901]": 906,
      "[unused902]": 907,
      "[unused903]": 908,
      "[unused904]": 909,
      "[unused905]": 910,
      "[unused906]": 911,
      "[unused907]": 912,
      "[unused908]": 913,
      "[unused909]": 914,
      "[unused910]": 915,
      "[unused911]": 916,
      "[unused912]": 917,
      "[unused913]": 918,
      "[unused914]": 919,
      "[unused915]": 920,
      "[unused916]": 921,
      "[unused917]": 922,
      "[unused918]": 923,
      "[unused919]": 924,
      "[unused920]": 925,
      "[unused921]": 926,
      "[unused922]": 927,
      "[unused923]": 928,
      "[unused924]": 929,
      "[unused925]": 930,
      "[unused926]": 931,
      "[unused927]": 932,
      "[unused928]": 933,
      "[unused929]": 934,
      "[unused930]": 935,
      "[unused931]": 936,
      "[unused932]": 937,
      "[unused933]": 938,
      "[unused934]": 939,
      "[unused935]": 940,
      "[unused936]": 941,
      "[unused937]": 942,
      "[unused938]": 943,
      "[unused939]": 944,
      "[unused940]": 945,
      "[unused941]": 946,
      "[unused942]": 947,
      "[unused943]": 948,
      "[unused944]": 949,
      "[unused945]": 950,
      "[unused946]": 951,
      "[unused947]": 952,
      "[unused948]": 953,
      "[unused949]": 954,
      "[unused950]": 955,
      "[unused951]": 956,
      "[unused952]": 957,
      "[unused953]": 958,
      "[unused954]": 959,
      "[unused955]": 960,
      "[unused956]": 961,
      "[unused957]": 962,
      "[unused958]": 963,
      "[unused959]": 964,
      "[unused960]": 965,
      "[unused961]": 966,
      "[unused962]": 967,
      "[unused963]": 968,
      "[unused964]": 969,
      "[unused965]": 970,
      "[unused966]": 971,
      "[unused967]": 972,
      "[unused968]": 973,
      "[unused969]": 974,
      "[unused970]": 975,
      "[unused971]": 976,
      "[unused972]": 977,
      "[unused973]": 978,
      "[unused974]": 979,
      "[unused975]": 980,
      "[unused976]": 981,
      "[unused977]": 982,
      "[unused978]": 983,
      "[unused979]": 984,
      "[unused980]": 985,
      "[unused981]": 986,
      "[unused982]": 987,
      "[unused983]": 988,
      "[unused984]": 989,
      "[unused985]": 990,
      "[unused986]": 991,
      "[unused987]": 992,
      "[unused988]": 993,
      "[unused989]": 994,
      "[unused990]": 995,
      "[unused991]": 996,
      "[unused992]": 997,
      "[unused993]": 998,
      "[unused994]": 999,
      "[unused995]": 1000,
      "!": 1001,
      "\"": 1002,
      "#": 1003,
      "&": 1004,
      "'": 1005,
      "(": 1006,
      ")": 1007,
      "*": 1008,
      "+": 1009,
      ",": 1010,
      "-": 1011,
      ".": 1012,
      "/": 1013,
      ":": 1014,
      ";": 1015,
      "<": 1016,
      "=": 1017,
      ">": 1018,
      "?": 1019,
      "@": 1020,
      "[": 1021,
      "\\": 1022,
      "]": 1023,
      "^": 1024,
      "`": 1025,
      "a": 1026,
      "b": 1027,
      "c": 1028,
      "d": 1029,
      "e": 1030,
      "f": 1031,
      "g": 1032,
      "h": 1033,
      "i": 1034,
      "j": 1035,
      "k": 1036,
      "l": 1037,
      "m": 1038,
      "n": 1039,
      "o": 1040,
      "p": 1041,
      "q": 1042,
      "r": 1043,
      "s": 1044,
      "t": 1045,
      "u": 1046,
      "v": 1047,
      "w": 1048,
      "x": 1049,
      "y": 1050,
      "z": 1051,
      "{": 1052,
      "|": 1053,
      "}": 1054,
      "~": 1055,
      "¡": 1056,
      "¢": 1057,
      "¤": 1058,
      "¦": 1059,
      "§": 1060,
      "¨": 1061,
      "©": 1062,
      "ª": 1063,
      "«": 1064,
      "¬": 1065,
      "®": 1066,
      "¯": 1067,
      "°": 1068,
      "±": 1069,
      "²": 1070,
      "³": 1071,
      "´": 1072,
      "µ": 1073,
      "·": 1074,
      "¸": 1075,
      "¹": 1076,
      "º": 1077,
      "»": 1078,
      "¼": 1079,
      "½": 1080,
      "¾": 1081,
      "×": 1082,
      "ß": 1083,
      "æ": 1084,
      "ð": 1085,
      "÷": 1086,
      "ø": 1087,
      "þ": 1088,
      "đ": 1089,
      "ħ": 1090,
      "ı": 1091,
      "ł": 1092,
      "ŋ": 1093,
      "œ": 1094,
      "ƒ": 1095,
      "ƣ": 1096,
      "ƶ": 1097,
      "ǀ": 1098,
      "ǁ": 1099,
      "ǃ": 1100,
      "ǝ": 1101,
      "ȷ": 1102,
      "ɐ": 1103,
      "ɑ": 1104,
      "ɒ": 1105,
      "ɔ": 1106,
      "ɕ": 1107,
      "ɘ": 1108,
      "ə": 1109,
      "ɚ": 1110,
      "ɛ": 1111,
      "ɜ": 1112,
      "ɟ": 1113,
      "ɡ": 1114,
      "ɢ": 1115,
      "ɣ": 1116,
      "ɤ": 1117,
      "ɥ": 1118,
      "ɦ": 1119,
      "ɨ": 1120,
      "ɪ": 1121,
      "ɬ": 1122,
      "ɯ": 1123,
      "ɰ": 1124,
      "ɲ": 1125,
      "ɳ": 1126,
      "ɴ": 1127,
      "ɵ": 1128,
      "ɸ": 1129,
      "ɹ": 1130,
      "ɻ": 1131,
      "ɾ": 1132,
      "ʀ": 1133,
      "ʁ": 1134,
      "ʂ": 1135,
      "ʃ": 1136,
      "ʈ": 1137,
      "ʉ": 1138,
      "ʊ": 1139,
      "ʋ": 1140,
      "ʌ": 1141,
      "ʎ": 1142,
      "ʏ": 1143,
      "ʑ": 1144,
      "ʒ": 1145,
      "ʔ": 1146,
      "ʕ": 1147,
      "ʘ": 1148,
      "ʙ": 1149,
      "ʝ": 1150,
      "ʰ": 1151,
      "ʱ": 1152,
      "ʲ": 1153,
      "ʷ": 1154,
      "ʹ": 1155,
      "ʺ": 1156,
      "ʻ": 1157,
      "ʽ": 1158,
      "ʾ": 1159,
      "ʿ": 1160,
      "ˀ": 1161,
      "˂": 1162,
      "˃": 1163,
      "˄": 1164,
      "ˆ": 1165,
      "ˇ": 1166,
      "ˈ": 1167,
      "ˉ": 1168,
      "ˊ": 1169,
      "ˌ": 1170,
      "ˏ": 1171,
      "ː": 1172,
      "ˑ": 1173,
      "˒": 1174,
      "˓": 1175,
      "˘": 1176,
      "˚": 1177,
      "˛": 1178,
      "˝": 1179,
      "ˢ": 1180,
      "ˤ": 1181,
      "ˮ": 1182,
      "΄": 1183,
      "α": 1184,
      "β": 1185,
      "γ": 1186,
      "δ": 1187,
      "ε": 1188,
      "ζ": 1189,
      "η": 1190,
      "θ": 1191,
      "ι": 1192,
      "κ": 1193,
      "λ": 1194,
      "μ": 1195,
      "ν": 1196,
      "ξ": 1197,
      "ο": 1198,
      "π": 1199,
      "ρ": 1200,
      "ς": 1201,
      "σ": 1202,
      "τ": 1203,
      "υ": 1204,
      "φ": 1205,
      "χ": 1206,
      "ψ": 1207,
      "ω": 1208,
      "ϐ": 1209,
      "ϑ": 1210,
      "ϒ": 1211,
      "ϕ": 1212,
      "ϖ": 1213,
      "ϥ": 1214,
      "ϭ": 1215,
      "ϵ": 1216,
      "ϸ": 1217,
      "а": 1218,
      "б": 1219,
      "в": 1220,
      "г": 1221,
      "д": 1222,
      "е": 1223,
      "ж": 1224,
      "з": 1225,
      "и": 1226,
      "к": 1227,
      "л": 1228,
      "м": 1229,
      "н": 1230,
      "о": 1231,
      "п": 1232,
      "р": 1233,
      "с": 1234,
      "т": 1235,
      "у": 1236,
      "ф": 1237,
      "х": 1238,
      "ц": 1239,
      "ч": 1240,
      "ш": 1241,
      "щ": 1242,
      "ъ": 1243,
      "ы": 1244,
      "ь": 1245,
      "э": 1246,
      "ю": 1247,
      "я": 1248,
      "ђ": 1249,
      "є": 1250,
      "і": 1251,
      "ј": 1252,
      "љ": 1253,
      "њ": 1254,
      "ћ": 1255,
      "џ": 1256,
      "ѣ": 1257,
      "ѧ": 1258,
      "ѳ": 1259,
      "ґ": 1260,
      "ғ": 1261,
      "җ": 1262,
      "қ": 1263,
      "ҡ": 1264,
      "ң": 1265,
      "ҥ": 1266,
      "ү": 1267,
      "ұ": 1268,
      "ҳ": 1269,
      "ҷ": 1270,
      "һ": 1271,
      "ӕ": 1272,
      "ә": 1273,
      "ө": 1274,
      "ԑ": 1275,
      "՞": 1276,
      "ա": 1277,
      "բ": 1278,
      "գ": 1279,
      "դ": 1280,
      "ե": 1281,
      "զ": 1282,
      "է": 1283,
      "ը": 1284,
      "թ": 1285,
      "ժ": 1286,
      "ի": 1287,
      "լ": 1288,
      "խ": 1289,
      "ծ": 1290,
      "կ": 1291,
      "հ": 1292,
      "ձ": 1293,
      "ղ": 1294,
      "ճ": 1295,
      "մ": 1296,
      "յ": 1297,
      "ն": 1298,
      "շ": 1299,
      "ո": 1300,
      "չ": 1301,
      "պ": 1302,
      "ջ": 1303,
      "ռ": 1304,
      "ս": 1305,
      "վ": 1306,
      "տ": 1307,
      "ր": 1308,
      "ց": 1309,
      "ւ": 1310,
      "փ": 1311,
      "ք": 1312,
      "օ": 1313,
      "ֆ": 1314,
      "և": 1315,
      "־": 1316,
      "׀": 1317,
      "א": 1318,
      "ב": 1319,
      "ג": 1320,
      "ד": 1321,
      "ה": 1322,
      "ו": 1323,
      "ז": 1324,
      "ח": 1325,
      "ט": 1326,
      "י": 1327,
      "ך": 1328,
      "כ": 1329,
      "ל": 1330,
      "ם": 1331,
      "מ": 1332,
      "ן": 1333,
      "נ": 1334,
      "ס": 1335,
      "ע": 1336,
      "ף": 1337,
      "פ": 1338,
      "ץ": 1339,
      "צ": 1340,
      "ק": 1341,
      "ר": 1342,
      "ש": 1343,
      "ת": 1344,
      "װ": 1345,
      "ײ": 1346,
      "׳": 1347,
      "،": 1348,
      "؛": 1349,
      "؟": 1350,
      "ء": 1351,
      "ا": 1352,
      "ب": 1353,
      "ة": 1354,
      "ت": 1355,
      "ث": 1356,
      "ج": 1357,
      "ح": 1358,
      "خ": 1359,
      "د": 1360,
      "ذ": 1361,
      "ر": 1362,
      "ز": 1363,
      "س": 1364,
      "ش": 1365,
      "ص": 1366,
      "ض": 1367,
      "ط": 1368,
      "ظ": 1369,
      "ع": 1370,
      "غ": 1371,
      "ؽ": 1372,
      "ف": 1373,
      "ق": 1374,
      "ل": 1375,
      "م": 1376,
      "ن": 1377,
      "ه": 1378,
      "و": 1379,
      "ى": 1380,
      "ي": 1381,
      "٠": 1382,
      "١": 1383,
      "٢": 1384,
      "٣": 1385,
      "٤": 1386,
      "٥": 1387,
      "٦": 1388,
      "٧": 1389,
      "٨": 1390,
      "٩": 1391,
      "٪": 1392,
      "٫": 1393,
      "٬": 1394,
      "٭": 1395,
      "ٮ": 1396,
      "ٱ": 1397,
      "ٲ": 1398,
      "ٴ": 1399,
      "ٵ": 1400,
      "ٶ": 1401,
      "ٷ": 1402,
      "ٸ": 1403,
      "ٹ": 1404,
      "ٻ": 1405,
      "ټ": 1406,
      "پ": 1407,
      "ځ": 1408,
      "ڃ": 1409,
      "څ": 1410,
      "چ": 1411,
      "ڈ": 1412,
      "ډ": 1413,
      "ڌ": 1414,
      "ڍ": 1415,
      "ڏ": 1416,
      "ڑ": 1417,
      "ړ": 1418,
      "ڔ": 1419,
      "ڕ": 1420,
      "ږ": 1421,
      "ژ": 1422,
      "ښ": 1423,
      "ڠ": 1424,
      "ڤ": 1425,
      "ک": 1426,
      "ګ": 1427,
      "ڬ": 1428,
      "ڭ": 1429,
      "گ": 1430,
      "ڵ": 1431,
      "ں": 1432,
      "ڼ": 1433,
      "ھ": 1434,
      "ہ": 1435,
      "ۃ": 1436,
      "ۆ": 1437,
      "ۇ": 1438,
      "ۈ": 1439,
      "ۉ": 1440,
      "ۊ": 1441,
      "ی": 1442,
      "ۍ": 1443,
      "ێ": 1444,
      "ۏ": 1445,
      "ې": 1446,
      "ے": 1447,
      "۔": 1448,
      "ە": 1449,
      "۞": 1450,
      "ۥ": 1451,
      "۩": 1452,
      "ۮ": 1453,
      "۰": 1454,
      "۱": 1455,
      "۲": 1456,
      "۳": 1457,
      "۴": 1458,
      "۵": 1459,
      "۶": 1460,
      "۷": 1461,
      "۸": 1462,
      "۹": 1463,
      "ܐ": 1464,
      "ܒ": 1465,
      "ܓ": 1466,
      "ܕ": 1467,
      "ܗ": 1468,
      "ܘ": 1469,
      "ܙ": 1470,
      "ܚ": 1471,
      "ܛ": 1472,
      "ܝ": 1473,
      "ܟ": 1474,
      "ܠ": 1475,
      "ܡ": 1476,
      "ܢ": 1477,
      "ܣ": 1478,
      "ܤ": 1479,
      "ܥ": 1480,
      "ܦ": 1481,
      "ܨ": 1482,
      "ܩ": 1483,
      "ܪ": 1484,
      "ܫ": 1485,
      "ܬ": 1486,
      "ݐ": 1487,
      "ݔ": 1488,
      "ݖ": 1489,
      "ݚ": 1490,
      "ݝ": 1491,
      "ݩ": 1492,
      "ݸ": 1493,
      "ބ": 1494,
      "ކ": 1495,
      "ލ": 1496,
      "ޝ": 1497,
      "ࢣ": 1498,
      "ः": 1499,
      "अ": 1500,
      "आ": 1501,
      "ई": 1502,
      "उ": 1503,
      "ए": 1504,
      "ओ": 1505,
      "क": 1506,
      "ख": 1507,
      "ग": 1508,
      "ङ": 1509,
      "च": 1510,
      "छ": 1511,
      "ज": 1512,
      "झ": 1513,
      "ञ": 1514,
      "ट": 1515,
      "ठ": 1516,
      "ड": 1517,
      "ढ": 1518,
      "ण": 1519,
      "त": 1520,
      "थ": 1521,
      "द": 1522,
      "ध": 1523,
      "न": 1524,
      "प": 1525,
      "फ": 1526,
      "ब": 1527,
      "भ": 1528,
      "म": 1529,
      "य": 1530,
      "र": 1531,
      "ल": 1532,
      "ळ": 1533,
      "व": 1534,
      "श": 1535,
      "ष": 1536,
      "स": 1537,
      "ह": 1538,
      "ा": 1539,
      "ि": 1540,
      "ी": 1541,
      "ॉ": 1542,
      "ो": 1543,
      "ौ": 1544,
      "ॐ": 1545,
      "।": 1546,
      "ং": 1547,
      "ঃ": 1548,
      "অ": 1549,
      "আ": 1550,
      "ই": 1551,
      "ঈ": 1552,
      "উ": 1553,
      "ঊ": 1554,
      "এ": 1555,
      "ও": 1556,
      "ক": 1557,
      "খ": 1558,
      "গ": 1559,
      "ঘ": 1560,
      "ঙ": 1561,
      "চ": 1562,
      "ছ": 1563,
      "জ": 1564,
      "ঝ": 1565,
      "ঞ": 1566,
      "ট": 1567,
      "ঠ": 1568,
      "ড": 1569,
      "ণ": 1570,
      "ত": 1571,
      "থ": 1572,
      "দ": 1573,
      "ধ": 1574,
      "ন": 1575,
      "প": 1576,
      "ফ": 1577,
      "ব": 1578,
      "ভ": 1579,
      "ম": 1580,
      "য": 1581,
      "র": 1582,
      "ল": 1583,
      "শ": 1584,
      "ষ": 1585,
      "স": 1586,
      "হ": 1587,
      "া": 1588,
      "ি": 1589,
      "ী": 1590,
      "ে": 1591,
      "০": 1592,
      "১": 1593,
      "২": 1594,
      "৩": 1595,
      "৪": 1596,
      "৫": 1597,
      "৬": 1598,
      "৭": 1599,
      "৮": 1600,
      "৯": 1601,
      "ਅ": 1602,
      "ਆ": 1603,
      "ਕ": 1604,
      "ਖ": 1605,
      "ਗ": 1606,
      "ਘ": 1607,
      "ਚ": 1608,
      "ਜ": 1609,
      "ਣ": 1610,
      "ਤ": 1611,
      "ਦ": 1612,
      "ਧ": 1613,
      "ਨ": 1614,
      "ਪ": 1615,
      "ਬ": 1616,
      "ਭ": 1617,
      "ਮ": 1618,
      "ਰ": 1619,
      "ਲ": 1620,
      "ਵ": 1621,
      "ਸ": 1622,
      "ਹ": 1623,
      "ਾ": 1624,
      "ਿ": 1625,
      "ੀ": 1626,
      "અ": 1627,
      "ઈ": 1628,
      "ક": 1629,
      "ગ": 1630,
      "ચ": 1631,
      "ણ": 1632,
      "દ": 1633,
      "ધ": 1634,
      "ન": 1635,
      "બ": 1636,
      "ભ": 1637,
      "મ": 1638,
      "ર": 1639,
      "શ": 1640,
      "સ": 1641,
      "હ": 1642,
      "ા": 1643,
      "ી": 1644,
      "ો": 1645,
      "ଡ": 1646,
      "ଶ": 1647,
      "ୀ": 1648,
      "ஆ": 1649,
      "க": 1650,
      "ங": 1651,
      "ச": 1652,
      "ஜ": 1653,
      "ட": 1654,
      "த": 1655,
      "ந": 1656,
      "ன": 1657,
      "ப": 1658,
      "ம": 1659,
      "ய": 1660,
      "ல": 1661,
      "ள": 1662,
      "ழ": 1663,
      "வ": 1664,
      "ஷ": 1665,
      "ா": 1666,
      "ி": 1667,
      "ு": 1668,
      "ெ": 1669,
      "ே": 1670,
      "ை": 1671,
      "ం": 1672,
      "ఉ": 1673,
      "క": 1674,
      "గ": 1675,
      "చ": 1676,
      "జ": 1677,
      "డ": 1678,
      "ణ": 1679,
      "త": 1680,
      "ద": 1681,
      "న": 1682,
      "బ": 1683,
      "మ": 1684,
      "య": 1685,
      "ర": 1686,
      "ష": 1687,
      "స": 1688,
      "హ": 1689,
      "ు": 1690,
      "ూ": 1691,
      "ృ": 1692,
      "ಅ": 1693,
      "ಗ": 1694,
      "ಜ": 1695,
      "ಟ": 1696,
      "ಡ": 1697,
      "ತ": 1698,
      "ದ": 1699,
      "ನ": 1700,
      "ಪ": 1701,
      "ಮ": 1702,
      "ಯ": 1703,
      "ರ": 1704,
      "ಲ": 1705,
      "ವ": 1706,
      "ಸ": 1707,
      "ಾ": 1708,
      "ು": 1709,
      "ೂ": 1710,
      "ക": 1711,
      "ട": 1712,
      "ഥ": 1713,
      "ദ": 1714,
      "ന": 1715,
      "പ": 1716,
      "മ": 1717,
      "യ": 1718,
      "ല": 1719,
      "ള": 1720,
      "വ": 1721,
      "ശ": 1722,
      "ഷ": 1723,
      "ാ": 1724,
      "ി": 1725,
      "ീ": 1726,
      "െ": 1727,
      "ග": 1728,
      "ඝ": 1729,
      "ම": 1730,
      "ය": 1731,
      "ර": 1732,
      "ව": 1733,
      "ස": 1734,
      "හ": 1735,
      "ා": 1736,
      "ก": 1737,
      "ข": 1738,
      "ค": 1739,
      "ง": 1740,
      "จ": 1741,
      "ช": 1742,
      "ซ": 1743,
      "ณ": 1744,
      "ด": 1745,
      "ต": 1746,
      "ถ": 1747,
      "ท": 1748,
      "น": 1749,
      "บ": 1750,
      "ป": 1751,
      "ผ": 1752,
      "พ": 1753,
      "ม": 1754,
      "ย": 1755,
      "ร": 1756,
      "ฤ": 1757,
      "ล": 1758,
      "ว": 1759,
      "ศ": 1760,
      "ษ": 1761,
      "ส": 1762,
      "ห": 1763,
      "อ": 1764,
      "ะ": 1765,
      "า": 1766,
      "ำ": 1767,
      "เ": 1768,
      "แ": 1769,
      "โ": 1770,
      "ไ": 1771,
      "ກ": 1772,
      "ງ": 1773,
      "ທ": 1774,
      "ນ": 1775,
      "ຫ": 1776,
      "ະ": 1777,
      "ໄ": 1778,
      "་": 1779,
      "།": 1780,
      "ཀ": 1781,
      "ག": 1782,
      "ཏ": 1783,
      "པ": 1784,
      "བ": 1785,
      "མ": 1786,
      "འ": 1787,
      "ར": 1788,
      "ལ": 1789,
      "က": 1790,
      "င": 1791,
      "ည": 1792,
      "တ": 1793,
      "ဒ": 1794,
      "ဓ": 1795,
      "န": 1796,
      "ပ": 1797,
      "ဘ": 1798,
      "မ": 1799,
      "ယ": 1800,
      "ရ": 1801,
      "လ": 1802,
      "ာ": 1803,
      "ေ": 1804,
      "း": 1805,
      "ြ": 1806,
      "ა": 1807,
      "ბ": 1808,
      "გ": 1809,
      "დ": 1810,
      "ე": 1811,
      "ვ": 1812,
      "ზ": 1813,
      "თ": 1814,
      "ი": 1815,
      "კ": 1816,
      "ლ": 1817,
      "მ": 1818,
      "ნ": 1819,
      "ო": 1820,
      "პ": 1821,
      "რ": 1822,
      "ს": 1823,
      "ტ": 1824,
      "უ": 1825,
      "ფ": 1826,
      "ქ": 1827,
      "ღ": 1828,
      "ყ": 1829,
      "შ": 1830,
      "ც": 1831,
      "ძ": 1832,
      "წ": 1833,
      "ჭ": 1834,
      "ხ": 1835,
      "ჯ": 1836,
      "ስ": 1837,
      "በ": 1838,
      "ባ": 1839,
      "አ": 1840,
      "ዲ": 1841,
      "ᐤ": 1842,
      "ᐳ": 1843,
      "ᐸ": 1844,
      "ក": 1845,
      "ច": 1846,
      "ជ": 1847,
      "ណ": 1848,
      "ព": 1849,
      "ម": 1850,
      "រ": 1851,
      "ា": 1852,
      "ះ": 1853,
      "ᴄ": 1854,
      "ᴗ": 1855,
      "ᴠ": 1856,
      "ᴧ": 1857,
      "ᵏ": 1858,
      "ᵛ": 1859,
      "ᵪ": 1860,
      "ᵮ": 1861,
      "ᵻ": 1862,
      "ᶕ": 1863,
      "ᶲ": 1864,
      "᾿": 1865,
      "‐": 1866,
      "‑": 1867,
      "‒": 1868,
      "–": 1869,
      "—": 1870,
      "―": 1871,
      "‖": 1872,
      "†": 1873,
      "‡": 1874,
      "•": 1875,
      "…": 1876,
      "′": 1877,
      "″": 1878,
      "‴": 1879,
      "‹": 1880,
      "›": 1881,
      "※": 1882,
      "⁄": 1883,
      "⁰": 1884,
      "⁴": 1885,
      "⁺": 1886,
      "ⁿ": 1887,
      "₁": 1888,
      "₂": 1889,
      "₃": 1890,
      "₆": 1891,
      "ₓ": 1892,
      "₣": 1893,
      "₤": 1894,
      "₺": 1895,
      "⃣": 1896,
      "℃": 1897,
      "℅": 1898,
      "℉": 1899,
      "ℓ": 1900,
      "ℕ": 1901,
      "№": 1902,
      "ℝ": 1903,
      "™": 1904,
      "ℤ": 1905,
      "℧": 1906,
      "℩": 1907,
      "℮": 1908,
      "ℷ": 1909,
      "⅓": 1910,
      "⅙": 1911,
      "⅚": 1912,
      "⅛": 1913,
      "ⅲ": 1914,
      "←": 1915,
      "↑": 1916,
      "→": 1917,
      "↓": 1918,
      "↔": 1919,
      "↗": 1920,
      "↘": 1921,
      "↝": 1922,
      "↠": 1923,
      "↦": 1924,
      "↩": 1925,
      "↵": 1926,
      "⇄": 1927,
      "⇌": 1928,
      "⇐": 1929,
      "⇒": 1930,
      "⇔": 1931,
      "∀": 1932,
      "∂": 1933,
      "∃": 1934,
      "∅": 1935,
      "∆": 1936,
      "∇": 1937,
      "∈": 1938,
      "∊": 1939,
      "∋": 1940,
      "∎": 1941,
      "∏": 1942,
      "∑": 1943,
      "−": 1944,
      "∓": 1945,
      "∕": 1946,
      "∗": 1947,
      "∘": 1948,
      "∙": 1949,
      "√": 1950,
      "∝": 1951,
      "∞": 1952,
      "∟": 1953,
      "∠": 1954,
      "∥": 1955,
      "∧": 1956,
      "∨": 1957,
      "∩": 1958,
      "∪": 1959,
      "∫": 1960,
      "∶": 1961,
      "≀": 1962,
      "≅": 1963,
      "≈": 1964,
      "≘": 1965,
      "≜": 1966,
      "≝": 1967,
      "≡": 1968,
      "≤": 1969,
      "≥": 1970,
      "≧": 1971,
      "≪": 1972,
      "≫": 1973,
      "⊂": 1974,
      "⊆": 1975,
      "⊇": 1976,
      "⊕": 1977,
      "⊗": 1978,
      "⊞": 1979,
      "⊢": 1980,
      "⊤": 1981,
      "⊥": 1982,
      "⊨": 1983,
      "⋅": 1984,
      "⋆": 1985,
      "⋊": 1986,
      "⋋": 1987,
      "⋯": 1988,
      "⌈": 1989,
      "⌉": 1990,
      "⌊": 1991,
      "⌋": 1992,
      "⌘": 1993,
      "⍋": 1994,
      "⍳": 1995,
      "⍺": 1996,
      "⎯": 1997,
      "⏘": 1998,
      "␆": 1999,
      "␕": 2000,
      "##≤": 2001,
      "##x": 2002,
      "##ی": 2003,
      "##ک": 2004,
      "##و": 2005,
      "##ا": 2006,
      "##ر": 2007,
      "##ه": 2008,
      "##ت": 2009,
      "##ل": 2010,
      "##ن": 2011,
      "##گ": 2012,
      "##د": 2013,
      "##ش": 2014,
      "##م": 2015,
      "##ب": 2016,
      "##س": 2017,
      "##ج": 2018,
      "##ض": 2019,
      "##ق": 2020,
      "##چ": 2021,
      "##ز": 2022,
      "##پ": 2023,
      "##i": 2024,
      "##r": 2025,
      "##a": 2026,
      "##خ": 2027,
      "##ف": 2028,
      "##ع": 2029,
      "##o": 2030,
      "##n": 2031,
      "##s": 2032,
      "##e": 2033,
      "##k": 2034,
      "##v": 2035,
      "##c": 2036,
      "##ى": 2037,
      "##ي": 2038,
      "##h": 2039,
      "##t": 2040,
      "##l": 2041,
      "##۷": 2042,
      "##۳": 2043,
      "##۸": 2044,
      "##۱": 2045,
      "##۶": 2046,
      "##ط": 2047,
      "##y": 2048,
      "##b": 2049,
      "##m": 2050,
      "##ح": 2051,
      "##u": 2052,
      "##g": 2053,
      "##۲": 2054,
      "##۵": 2055,
      "##۹": 2056,
      "##ث": 2057,
      "##۰": 2058,
      "##d": 2059,
      "##ژ": 2060,
      "##p": 2061,
      "##ظ": 2062,
      "##ذ": 2063,
      "##f": 2064,
      "##۴": 2065,
      "##и": 2066,
      "##к": 2067,
      "##о": 2068,
      "##л": 2069,
      "##а": 2070,
      "##غ": 2071,
      "##ء": 2072,
      "##ة": 2073,
      "##w": 2074,
      "##ص": 2075,
      "##ٴ": 2076,
      "##z": 2077,
      "##j": 2078,
      "##в": 2079,
      "##ю": 2080,
      "##ە": 2081,
      "##ल": 2082,
      "##ा": 2083,
      "##म": 2084,
      "##β": 2085,
      "##п": 2086,
      "##р": 2087,
      "##д": 2088,
      "##у": 2089,
      "##т": 2090,
      "##ы": 2091,
      "##q": 2092,
      "##ь": 2093,
      "##ګ": 2094,
      "##ב": 2095,
      "##ר": 2096,
      "##י": 2097,
      "##ф": 2098,
      "##٧": 2099,
      "##ր": 2100,
      "##կ": 2101,
      "##ո": 2102,
      "##ւ": 2103,
      "##ն": 2104,
      "##ք": 2105,
      "##б": 2106,
      "##с": 2107,
      "##я": 2108,
      "##র": 2109,
      "##ব": 2110,
      "##ে": 2111,
      "##ν": 2112,
      "##θ": 2113,
      "##ρ": 2114,
      "##ω": 2115,
      "##π": 2116,
      "##ο": 2117,
      "##ς": 2118,
      "##ײ": 2119,
      "##נ": 2120,
      "##ע": 2121,
      "##ם": 2122,
      "##ა": 2123,
      "##მ": 2124,
      "##რ": 2125,
      "##ი": 2126,
      "##ێ": 2127,
      "##↔": 2128,
      "##ڃ": 2129,
      "##ں": 2130,
      "##ə": 2131,
      "##α": 2132,
      "##λ": 2133,
      "##٣": 2134,
      "##ۊ": 2135,
      "##ш": 2136,
      "##٥": 2137,
      "##ι": 2138,
      "##ξ": 2139,
      "##ε": 2140,
      "##σ": 2141,
      "##τ": 2142,
      "##υ": 2143,
      "##κ": 2144,
      "##η": 2145,
      "##٩": 2146,
      "##٤": 2147,
      "##ı": 2148,
      "##н": 2149,
      "##м": 2150,
      "##ږ": 2151,
      "##®": 2152,
      "##ך": 2153,
      "##е": 2154,
      "##°": 2155,
      "##⊆": 2156,
      "##щ": 2157,
      "##١": 2158,
      "##٠": 2159,
      "##™": 2160,
      "##¬": 2161,
      "##і": 2162,
      "##þ": 2163,
      "##ט": 2164,
      "##æ": 2165,
      "##ು": 2166,
      "##ಗ": 2167,
      "##ಾ": 2168,
      "##ದ": 2169,
      "##χ": 2170,
      "##٢": 2171,
      "##ʷ": 2172,
      "##ʰ": 2173,
      "##٦": 2174,
      "##ी": 2175,
      "##य": 2176,
      "##ж": 2177,
      "##ц": 2178,
      "##з": 2179,
      "##φ": 2180,
      "##ł": 2181,
      "##א": 2182,
      "##δ": 2183,
      "##ʾ": 2184,
      "##ۆ": 2185,
      "##ڕ": 2186,
      "##ד": 2187,
      "##ל": 2188,
      "##ה": 2189,
      "##г": 2190,
      "##ש": 2191,
      "##מ": 2192,
      "##ו": 2193,
      "##ɑ": 2194,
      "##٨": 2195,
      "##²": 2196,
      "##−": 2197,
      "##ч": 2198,
      "##ٶ": 2199,
      "##μ": 2200,
      "##×": 2201,
      "##ग": 2202,
      "##र": 2203,
      "##ি": 2204,
      "##ত": 2205,
      "##ہ": 2206,
      "##ן": 2207,
      "##ҳ": 2208,
      "##ھ": 2209,
      "##ø": 2210,
      "##³": 2211,
      "##ძ": 2212,
      "##γ": 2213,
      "##ˤ": 2214,
      "##ˈ": 2215,
      "##ʕ": 2216,
      "##ћ": 2217,
      "##ब": 2218,
      "##ि": 2219,
      "##न": 2220,
      "##˓": 2221,
      "##ٵ": 2222,
      "##΄": 2223,
      "##∆": 2224,
      "##ڵ": 2225,
      "##ð": 2226,
      "##ק": 2227,
      "##э": 2228,
      "##ː": 2229,
      "##х": 2230,
      "##œ": 2231,
      "##₂": 2232,
      "##≥": 2233,
      "##क": 2234,
      "##ष": 2235,
      "##∈": 2236,
      "##স": 2237,
      "##ß": 2238,
      "##া": 2239,
      "##ষ": 2240,
      "##ণ": 2241,
      "##բ": 2242,
      "##ա": 2243,
      "##յ": 2244,
      "##є": 2245,
      "##ז": 2246,
      "##ח": 2247,
      "##৫": 2248,
      "##৩": 2249,
      "##ই": 2250,
      "##ਧ": 2251,
      "##ਿ": 2252,
      "##ਆ": 2253,
      "##ਣ": 2254,
      "##ਾ": 2255,
      "##ץ": 2256,
      "##ג": 2257,
      "##ٲ": 2258,
      "##त": 2259,
      "##ɪ": 2260,
      "##ɛ": 2261,
      "##ე": 2262,
      "##კ": 2263,
      "##ვ": 2264,
      "##ლ": 2265,
      "##ʃ": 2266,
      "##ɬ": 2267,
      "##ী": 2268,
      "##⃣": 2269,
      "##ह": 2270,
      "##द": 2271,
      "##ٹ": 2272,
      "##ক": 2273,
      "##צ": 2274,
      "##ת": 2275,
      "##ª": 2276,
      "##ә": 2277,
      "##∨": 2278,
      "##ի": 2279,
      "##դ": 2280,
      "##∞": 2281,
      "##ۏ": 2282,
      "##ڈ": 2283,
      "##ס": 2284,
      "##ʊ": 2285,
      "##ˮ": 2286,
      "##ɐ": 2287,
      "##న": 2288,
      "##ర": 2289,
      "##գ": 2290,
      "##ս": 2291,
      "##ե": 2292,
      "##մ": 2293,
      "##ܠ": 2294,
      "##ध": 2295,
      "##ζ": 2296,
      "##श": 2297,
      "##∧": 2298,
      "##व": 2299,
      "##स": 2300,
      "##¯": 2301,
      "##დ": 2302,
      "##վ": 2303,
      "##թ": 2304,
      "##ნ": 2305,
      "##ओ": 2306,
      "##զ": 2307,
      "##দ": 2308,
      "##º": 2309,
      "##ɔ": 2310,
      "##∠": 2311,
      "##כ": 2312,
      "##ٸ": 2313,
      "##ᴧ": 2314,
      "##∂": 2315,
      "##ʻ": 2316,
      "##ґ": 2317,
      "##∫": 2318,
      "##হ": 2319,
      "##ড": 2320,
      "##য": 2321,
      "##ল": 2322,
      "##ন": 2323,
      "##©": 2324,
      "##ܐ": 2325,
      "##ܬ": 2326,
      "##ܘ": 2327,
      "##ܪ": 2328,
      "##ܝ": 2329,
      "##÷": 2330,
      "##ժ": 2331,
      "##ს": 2332,
      "##⋅": 2333,
      "##∗": 2334,
      "##ڑ": 2335,
      "##±": 2336,
      "##µ": 2337,
      "##₃": 2338,
      "##জ": 2339,
      "##ঞ": 2340,
      "##ɾ": 2341,
      "##ʲ": 2342,
      "##→": 2343,
      "##շ": 2344,
      "##ɵ": 2345,
      "##ǝ": 2346,
      "##∕": 2347,
      "##ܫ": 2348,
      "##ܦ": 2349,
      "##ფ": 2350,
      "##ხ": 2351,
      "##ტ": 2352,
      "##ყ": 2353,
      "##ო": 2354,
      "##տ": 2355,
      "##ܕ": 2356,
      "##´": 2357,
      "##≡": 2358,
      "##∇": 2359,
      "##ফ": 2360,
      "##ਜ": 2361,
      "##ਬ": 2362,
      "##ٱ": 2363,
      "##ท": 2364,
      "##ย": 2365,
      "##ღ": 2366,
      "##ҷ": 2367,
      "##ј": 2368,
      "##উ": 2369,
      "##∊": 2370,
      "##¹": 2371,
      "##ʁ": 2372,
      "##ړ": 2373,
      "##څ": 2374,
      "##ծ": 2375,
      "##½": 2376,
      "##ो": 2377,
      "##თ": 2378,
      "##ъ": 2379,
      "##ধ": 2380,
      "##פ": 2381,
      "##ʿ": 2382,
      "##ŋ": 2383,
      "##ौ": 2384,
      "##ٮ": 2385,
      "##ݔ": 2386,
      "##ܡ": 2387,
      "##¨": 2388,
      "##պ": 2389,
      "##լ": 2390,
      "##า": 2391,
      "##ช": 2392,
      "##¤": 2393,
      "##ց": 2394,
      "##ځ": 2395,
      "##հ": 2396,
      "##ǃ": 2397,
      "##ϒ": 2398,
      "##һ": 2399,
      "##ম": 2400,
      "##ɒ": 2401,
      "##ټ": 2402,
      "##ң": 2403,
      "##˛": 2404,
      "##ψ": 2405,
      "##ղ": 2406,
      "##ϕ": 2407,
      "##ট": 2408,
      "##ħ": 2409,
      "##ʂ": 2410,
      "##ɨ": 2411,
      "##ᶕ": 2412,
      "##≪": 2413,
      "##চ": 2414,
      "##ʹ": 2415,
      "##ଡ": 2416,
      "##ଶ": 2417,
      "##ୀ": 2418,
      "##ڼ": 2419,
      "##≫": 2420,
      "##प": 2421,
      "##ܩ": 2422,
      "##ڭ": 2423,
      "##გ": 2424,
      "##จ": 2425,
      "##ݐ": 2426,
      "##۩": 2427,
      "##۞": 2428,
      "##ஜ": 2429,
      "##ज": 2430,
      "##ռ": 2431,
      "##រ": 2432,
      "##ះ": 2433,
      "##ា": 2434,
      "##ជ": 2435,
      "##ណ": 2436,
      "##ច": 2437,
      "##ក": 2438,
      "##ម": 2439,
      "##ព": 2440,
      "##և": 2441,
      "##প": 2442,
      "##ɦ": 2443,
      "##শ": 2444,
      "##ზ": 2445,
      "##ɡ": 2446,
      "##∪": 2447,
      "##ছ": 2448,
      "##խ": 2449,
      "##ө": 2450,
      "##ʒ": 2451,
      "##ғ": 2452,
      "##њ": 2453,
      "##≈": 2454,
      "##ۍ": 2455,
      "##ভ": 2456,
      "##গ": 2457,
      "##←": 2458,
      "##น": 2459,
      "##˝": 2460,
      "##∑": 2461,
      "##∋": 2462,
      "##ؽ": 2463,
      "##ђ": 2464,
      "##đ": 2465,
      "##थ": 2466,
      "##փ": 2467,
      "##ბ": 2468,
      "##ջ": 2469,
      "##⊇": 2470,
      "##อ": 2471,
      "##ง": 2472,
      "##ป": 2473,
      "##ร": 2474,
      "##ɲ": 2475,
      "##ɟ": 2476,
      "##ʝ": 2477,
      "##ү": 2478,
      "##ɕ": 2479,
      "##⎯": 2480,
      "##ڌ": 2481,
      "##⁄": 2482,
      "##ར": 2483,
      "##আ": 2484,
      "##˄": 2485,
      "##ঃ": 2486,
      "##ϑ": 2487,
      "##ϵ": 2488,
      "##ף": 2489,
      "##ಲ": 2490,
      "##ತ": 2491,
      "##ನ": 2492,
      "##ະ": 2493,
      "##қ": 2494,
      "##ഥ": 2495,
      "##ക": 2496,
      "##ള": 2497,
      "##ി": 2498,
      "##ڤ": 2499,
      "##√": 2500,
      "##∘": 2501,
      "##ঠ": 2502,
      "##ܒ": 2503,
      "##ܢ": 2504,
      "##ۃ": 2505,
      "##პ": 2506,
      "##∅": 2507,
      "##⇒": 2508,
      "##ᵛ": 2509,
      "##ɘ": 2510,
      "##ٻ": 2511,
      "##ရ": 2512,
      "##ာ": 2513,
      "##း": 2514,
      "##च": 2515,
      "##ห": 2516,
      "##ม": 2517,
      "##ұ": 2518,
      "##↓": 2519,
      "##⍳": 2520,
      "##չ": 2521,
      "##ʘ": 2522,
      "##¦": 2523,
      "##∙": 2524,
      "##˚": 2525,
      "##ও": 2526,
      "##ˊ": 2527,
      "##ܙ": 2528,
      "##∩": 2529,
      "##ய": 2530,
      "##ா": 2531,
      "##ம": 2532,
      "##ள": 2533,
      "##ன": 2534,
      "##ѧ": 2535,
      "##ख": 2536,
      "##ʏ": 2537,
      "##ˌ": 2538,
      "##ก": 2539,
      "##แ": 2540,
      "##เ": 2541,
      "##ผ": 2542,
      "##ด": 2543,
      "##ং": 2544,
      "##⊕": 2545,
      "##ड": 2546,
      "##∶": 2547,
      "##ʀ": 2548,
      "##ॉ": 2549,
      "##ʑ": 2550,
      "##ˉ": 2551,
      "##ܗ": 2552,
      "##ښ": 2553,
      "##₆": 2554,
      "##ܨ": 2555,
      "##থ": 2556,
      "##খ": 2557,
      "##ස": 2558,
      "##ා": 2559,
      "##ග": 2560,
      "##ዲ": 2561,
      "##ስ": 2562,
      "##ਗ": 2563,
      "##ਰ": 2564,
      "##⇌": 2565,
      "##ɣ": 2566,
      "##င": 2567,
      "##ဒ": 2568,
      "##ေ": 2569,
      "##က": 2570,
      "##ြ": 2571,
      "##ว": 2572,
      "##ณ": 2573,
      "##ℓ": 2574,
      "##২": 2575,
      "##৯": 2576,
      "##৪": 2577,
      "##ੀ": 2578,
      "##ರ": 2579,
      "##ವ": 2580,
      "##უ": 2581,
      "##ி": 2582,
      "##ச": 2583,
      "##ு": 2584,
      "##வ": 2585,
      "##ந": 2586,
      "##த": 2587,
      "##℃": 2588,
      "##ट": 2589,
      "##ण": 2590,
      "##ݸ": 2591,
      "##ۇ": 2592,
      "##ᵏ": 2593,
      "##ാ": 2594,
      "##ന": 2595,
      "##भ": 2596,
      "##ⁿ": 2597,
      "##შ": 2598,
      "##ર": 2599,
      "##મ": 2600,
      "##ચ": 2601,
      "##દ": 2602,
      "##ெ": 2603,
      "##ழ": 2604,
      "##ப": 2605,
      "##ˆ": 2606,
      "##ਤ": 2607,
      "##ည": 2608,
      "##န": 2609,
      "##ယ": 2610,
      "##ਹ": 2611,
      "##ਦ": 2612,
      "##ం": 2613,
      "##త": 2614,
      "##స": 2615,
      "##ద": 2616,
      "##ਘ": 2617,
      "##ѳ": 2618,
      "##ˇ": 2619,
      "##ಜ": 2620,
      "##ಪ": 2621,
      "##ई": 2622,
      "##ঙ": 2623,
      "##ܚ": 2624,
      "##ܛ": 2625,
      "##ృ": 2626,
      "##ష": 2627,
      "##ణ": 2628,
      "##ے": 2629,
      "##ळ": 2630,
      "##ः": 2631,
      "##ը": 2632,
      "##ʎ": 2633,
      "##လ": 2634,
      "##ɹ": 2635,
      "##ਨ": 2636,
      "##ງ": 2637,
      "##ໄ": 2638,
      "##ຫ": 2639,
      "##ນ": 2640,
      "##ङ": 2641,
      "##ډ": 2642,
      "##യ": 2643,
      "##മ": 2644,
      "##ല": 2645,
      "##బ": 2646,
      "##ు": 2647,
      "##မ": 2648,
      "##˘": 2649,
      "##ਲ": 2650,
      "##ਸ": 2651,
      "##ˢ": 2652,
      "##¸": 2653,
      "##တ": 2654,
      "##ɜ": 2655,
      "##₁": 2656,
      "##წ": 2657,
      "##ဓ": 2658,
      "##װ": 2659,
      "##ะ": 2660,
      "##ศ": 2661,
      "##ค": 2662,
      "##ต": 2663,
      "##හ": 2664,
      "##ර": 2665,
      "##ය": 2666,
      "##ₓ": 2667,
      "##บ": 2668,
      "##↵": 2669,
      "##డ": 2670,
      "##ᵻ": 2671,
      "##फ": 2672,
      "##ܓ": 2673,
      "##ส": 2674,
      "##ˑ": 2675,
      "##ۉ": 2676,
      "##ҡ": 2677,
      "##ો": 2678,
      "##હ": 2679,
      "##ન": 2680,
      "##ા": 2681,
      "##સ": 2682,
      "##է": 2683,
      "##¼": 2684,
      "##ᴠ": 2685,
      "##ഷ": 2686,
      "##ദ": 2687,
      "##വ": 2688,
      "##ീ": 2689,
      "##പ": 2690,
      "##ކ": 2691,
      "##ޝ": 2692,
      "##ބ": 2693,
      "##ข": 2694,
      "##በ": 2695,
      "##ባ": 2696,
      "##ձ": 2697,
      "##⁺": 2698,
      "##గ": 2699,
      "##০": 2700,
      "##৭": 2701,
      "##ǁ": 2702,
      "##ქ": 2703,
      "##ϸ": 2704,
      "##ધ": 2705,
      "##ી": 2706,
      "##≅": 2707,
      "##ञ": 2708,
      "##⋋": 2709,
      "##ճ": 2710,
      "##ɳ": 2711,
      "##ℷ": 2712,
      "##ۈ": 2713,
      "##ܤ": 2714,
      "##ც": 2715,
      "##ʱ": 2716,
      "##બ": 2717,
      "##ણ": 2718,
      "##ూ": 2719,
      "##ʋ": 2720,
      "##⁴": 2721,
      "##ܟ": 2722,
      "##ڔ": 2723,
      "##ℕ": 2724,
      "##↘": 2725,
      "##ढ": 2726,
      "##৬": 2727,
      "##జ": 2728,
      "##య": 2729,
      "##ਕ": 2730,
      "##ษ": 2731,
      "##ې": 2732,
      "##ڬ": 2733,
      "##ே": 2734,
      "##ங": 2735,
      "##க": 2736,
      "##ʌ": 2737,
      "##ಡ": 2738,
      "##ਵ": 2739,
      "##ঈ": 2740,
      "##ˀ": 2741,
      "##⁰": 2742,
      "##ⅲ": 2743,
      "##െ": 2744,
      "##ട": 2745,
      "##ٷ": 2746,
      "##ભ": 2747,
      "##ઈ": 2748,
      "##ֆ": 2749,
      "##ಮ": 2750,
      "##ಯ": 2751,
      "##ལ": 2752,
      "##ݩ": 2753,
      "##ᵪ": 2754,
      "##ǀ": 2755,
      "##ۮ": 2756,
      "##ำ": 2757,
      "##ล": 2758,
      "##˃": 2759,
      "##ை": 2760,
      "##ಸ": 2761,
      "##ೂ": 2762,
      "##ݝ": 2763,
      "##ݖ": 2764,
      "##ไ": 2765,
      "##ʔ": 2766,
      "##≀": 2767,
      "##˒": 2768,
      "##འ": 2769,
      "##ฤ": 2770,
      "##ல": 2771,
      "##ட": 2772,
      "##ɚ": 2773,
      "##छ": 2774,
      "##झ": 2775,
      "##ક": 2776,
      "##શ": 2777,
      "##ƒ": 2778,
      "##ठ": 2779,
      "##ܣ": 2780,
      "##ۥ": 2781,
      "##ܥ": 2782,
      "##ان": 2783,
      "##ای": 2784,
      "##ار": 2785,
      "در": 2786,
      "##ست": 2787,
      "##ین": 2788,
      "به": 2789,
      "##ند": 2790,
      "از": 2791,
      "##ود": 2792,
      "می": 2793,
      "##های": 2794,
      "##ور": 2795,
      "##ال": 2796,
      "##اد": 2797,
      "##ام": 2798,
      "با": 2799,
      "که": 2800,
      "بر": 2801,
      "این": 2802,
      "را": 2803,
      "##رد": 2804,
      "##ید": 2805,
      "است": 2806,
      "##یر": 2807,
      "ان": 2808,
      "##ها": 2809,
      "##اه": 2810,
      "##ات": 2811,
      "##لی": 2812,
      "##ری": 2813,
      "##اب": 2814,
      "##شت": 2815,
      "##ون": 2816,
      "شد": 2817,
      "##یم": 2818,
      "##فت": 2819,
      "هم": 2820,
      "##ول": 2821,
      "ام": 2822,
      "##از": 2823,
      "##وی": 2824,
      "##سی": 2825,
      "##وان": 2826,
      "##رو": 2827,
      "##اری": 2828,
      "یک": 2829,
      "کرد": 2830,
      "برای": 2831,
      "##انی": 2832,
      "##یت": 2833,
      "بود": 2834,
      "##را": 2835,
      "##خت": 2836,
      "##ده": 2837,
      "##تر": 2838,
      "##گر": 2839,
      "رو": 2840,
      "##ارد": 2841,
      "من": 2842,
      "##مان": 2843,
      "سال": 2844,
      "مو": 2845,
      "##لا": 2846,
      "خود": 2847,
      "تا": 2848,
      "##تی": 2849,
      "نی": 2850,
      "##کن": 2851,
      "میش": 2852,
      "##اس": 2853,
      "##اده": 2854,
      "##زی": 2855,
      "##رک": 2856,
      "##ایی": 2857,
      "##یل": 2858,
      "##وم": 2859,
      "کن": 2860,
      "تو": 2861,
      "##گی": 2862,
      "##یش": 2863,
      "مح": 2864,
      "دا": 2865,
      "او": 2866,
      "کار": 2867,
      "##زار": 2868,
      "مع": 2869,
      "ال": 2870,
      "شده": 2871,
      "##هر": 2872,
      "فر": 2873,
      "##یا": 2874,
      "نم": 2875,
      "اس": 2876,
      "##بی": 2877,
      "##ههای": 2878,
      "##گاه": 2879,
      "یا": 2880,
      "##شد": 2881,
      "ار": 2882,
      "بی": 2883,
      "دی": 2884,
      "کش": 2885,
      "میشود": 2886,
      "##نگ": 2887,
      "##اند": 2888,
      "اف": 2889,
      "##ورد": 2890,
      "ایر": 2891,
      "سر": 2892,
      "##ادی": 2893,
      "##انه": 2894,
      "قر": 2895,
      "خو": 2896,
      "دو": 2897,
      "مت": 2898,
      "##له": 2899,
      "##نی": 2900,
      "مد": 2901,
      "##اید": 2902,
      "مس": 2903,
      "##می": 2904,
      "##بر": 2905,
      "##بت": 2906,
      "##قی": 2907,
      "##ما": 2908,
      "##شته": 2909,
      "دست": 2910,
      "گر": 2911,
      "##توان": 2912,
      "##اخت": 2913,
      "میک": 2914,
      "##اره": 2915,
      "دار": 2916,
      "##وری": 2917,
      "##دا": 2918,
      "##رف": 2919,
      "##جه": 2920,
      "نیز": 2921,
      "##الی": 2922,
      "##شک": 2923,
      "دارد": 2924,
      "##عی": 2925,
      "##با": 2926,
      "ایران": 2927,
      "##که": 2928,
      "##وز": 2929,
      "کشور": 2930,
      "وی": 2931,
      "##امه": 2932,
      "##شی": 2933,
      "##ستان": 2934,
      "##عه": 2935,
      "##عد": 2936,
      "هر": 2937,
      "ای": 2938,
      "اق": 2939,
      "##فته": 2940,
      "مج": 2941,
      "نظ": 2942,
      "##عت": 2943,
      "میتوان": 2944,
      "مق": 2945,
      "نو": 2946,
      "مر": 2947,
      "##ایش": 2948,
      "اما": 2949,
      "انها": 2950,
      "##اق": 2951,
      "هست": 2952,
      "##اف": 2953,
      "##به": 2954,
      "##یک": 2955,
      "##نده": 2956,
      "انت": 2957,
      "پیش": 2958,
      "قرار": 2959,
      "##هاست": 2960,
      "کم": 2961,
      "##نا": 2962,
      "##جود": 2963,
      "ما": 2964,
      "پس": 2965,
      "عم": 2966,
      "نام": 2967,
      "بخ": 2968,
      "تح": 2969,
      "اد": 2970,
      "##لام": 2971,
      "دیگر": 2972,
      "##شان": 2973,
      "داد": 2974,
      "جم": 2975,
      "رس": 2976,
      "اج": 2977,
      "##۰۰": 2978,
      "شهر": 2979,
      "میکند": 2980,
      "##فر": 2981,
      "۱۳": 2982,
      "##مین": 2983,
      "استف": 2984,
      "اب": 2985,
      "اص": 2986,
      "##نوان": 2987,
      "استفاده": 2988,
      "مش": 2989,
      "انج": 2990,
      "روز": 2991,
      "##رکت": 2992,
      "##هم": 2993,
      "##ترین": 2994,
      "##گیر": 2995,
      "داشت": 2996,
      "##نین": 2997,
      "بد": 2998,
      "مرد": 2999,
      "نق": 3000,
      "ات": 3001,
      "##وا": 3002,
      "دان": 3003,
      "##وت": 3004,
      "##ورت": 3005,
      "میکن": 3006,
      "##رس": 3007,
      "بسی": 3008,
      "جه": 3009,
      "##هی": 3010,
      "توس": 3011,
      "باز": 3012,
      "باید": 3013,
      "عنوان": 3014,
      "##خص": 3015,
      "بین": 3016,
      "گفت": 3017,
      "##ازی": 3018,
      "##امل": 3019,
      "##وند": 3020,
      "دور": 3021,
      "وجود": 3022,
      "##وه": 3023,
      "##اک": 3024,
      "پای": 3025,
      "##اهد": 3026,
      "کرده": 3027,
      "همچ": 3028,
      "زی": 3029,
      "##دید": 3030,
      "ده": 3031,
      "۱۹": 3032,
      "تن": 3033,
      "##دی": 3034,
      "حال": 3035,
      "یکی": 3036,
      "##مای": 3037,
      "##رای": 3038,
      "افز": 3039,
      "روی": 3040,
      "##خی": 3041,
      "##اص": 3042,
      "ساخت": 3043,
      "##قه": 3044,
      "گذ": 3045,
      "اش": 3046,
      "##هایی": 3047,
      "باشد": 3048,
      "##وب": 3049,
      "مورد": 3050,
      "چه": 3051,
      "شرکت": 3052,
      "دول": 3053,
      "کند": 3054,
      "##در": 3055,
      "بز": 3056,
      "بازی": 3057,
      "##گان": 3058,
      "بیشت": 3059,
      "هستند": 3060,
      "سی": 3061,
      "اح": 3062,
      "پی": 3063,
      "اگر": 3064,
      "##کی": 3065,
      "اع": 3066,
      "اول": 3067,
      "##اط": 3068,
      "##وش": 3069,
      "تص": 3070,
      "##یده": 3071,
      "##نامه": 3072,
      "شود": 3073,
      "##گذ": 3074,
      "##اتی": 3075,
      "##وس": 3076,
      "##یس": 3077,
      "تم": 3078,
      "شک": 3079,
      "صورت": 3080,
      "##شن": 3081,
      "بعد": 3082,
      "میده": 3083,
      "نس": 3084,
      "##وع": 3085,
      "مط": 3086,
      "##فی": 3087,
      "تر": 3088,
      "##ریک": 3089,
      "بال": 3090,
      "ساز": 3091,
      "تول": 3092,
      "##امی": 3093,
      "##ارت": 3094,
      "##اح": 3095,
      "انجام": 3096,
      "بزر": 3097,
      "##ره": 3098,
      "دولت": 3099,
      "دانش": 3100,
      "پر": 3101,
      "چند": 3102,
      "##فا": 3103,
      "بان": 3104,
      "مص": 3105,
      "##رات": 3106,
      "##من": 3107,
      "بخش": 3108,
      "۲۰": 3109,
      "##مت": 3110,
      "همچنین": 3111,
      "فیل": 3112,
      "##نج": 3113,
      "تولید": 3114,
      "اقت": 3115,
      "کنید": 3116,
      "##بان": 3117,
      "هی": 3118,
      "##قل": 3119,
      "باش": 3120,
      "میلی": 3121,
      "##دار": 3122,
      "##صد": 3123,
      "شما": 3124,
      "ماه": 3125,
      "##لس": 3126,
      "عل": 3127,
      "##مانی": 3128,
      "##کت": 3129,
      "بیشتر": 3130,
      "اینکه": 3131,
      "##انند": 3132,
      "میکنند": 3133,
      "##ونی": 3134,
      "اخ": 3135,
      "##رب": 3136,
      "اقتص": 3137,
      "نظر": 3138,
      "اط": 3139,
      "سه": 3140,
      "ارت": 3141,
      "کل": 3142,
      "##دود": 3143,
      "فع": 3144,
      "اند": 3145,
      "زمان": 3146,
      "بن": 3147,
      "راه": 3148,
      "جن": 3149,
      "زیر": 3150,
      "داشته": 3151,
      "نیست": 3152,
      "گرفت": 3153,
      "##ابل": 3154,
      "مردم": 3155,
      "سو": 3156,
      "##گو": 3157,
      "توسط": 3158,
      "تج": 3159,
      "##ینی": 3160,
      "##ایت": 3161,
      "##لیل": 3162,
      "بار": 3163,
      "زمین": 3164,
      "امریک": 3165,
      "##لف": 3166,
      "بزرگ": 3167,
      "کنند": 3168,
      "فیلم": 3169,
      "##سته": 3170,
      "داده": 3171,
      "##مل": 3172,
      "##کان": 3173,
      "قب": 3174,
      "تع": 3175,
      "##گیری": 3176,
      "بسیار": 3177,
      "##تاب": 3178,
      "بازار": 3179,
      "##رح": 3180,
      "##زد": 3181,
      "تب": 3182,
      "تاری": 3183,
      "مث": 3184,
      "##کر": 3185,
      "##چه": 3186,
      "بیم": 3187,
      "دارند": 3188,
      "زند": 3189,
      "##خاب": 3190,
      "افزایش": 3191,
      "حس": 3192,
      "اث": 3193,
      "##ادر": 3194,
      "شم": 3195,
      "خان": 3196,
      "##یه": 3197,
      "##شم": 3198,
      "##بار": 3199,
      "##اپ": 3200,
      "خواهد": 3201,
      "بل": 3202,
      "##عیت": 3203,
      "گرو": 3204,
      "فعال": 3205,
      "جای": 3206,
      "سپ": 3207,
      "واق": 3208,
      "شن": 3209,
      "##گری": 3210,
      "توجه": 3211,
      "جدید": 3212,
      "مدیر": 3213,
      "##دم": 3214,
      "نش": 3215,
      "##عات": 3216,
      "دل": 3217,
      "همه": 3218,
      "سیا": 3219,
      "##نه": 3220,
      "گرد": 3221,
      "##جی": 3222,
      "##زه": 3223,
      "##بال": 3224,
      "بوده": 3225,
      "پرو": 3226,
      "بانک": 3227,
      "نشان": 3228,
      "انتخاب": 3229,
      "##مند": 3230,
      "##مد": 3231,
      "شه": 3232,
      "##کس": 3233,
      "نخ": 3234,
      "تق": 3235,
      "##غی": 3236,
      "برخی": 3237,
      "میدهد": 3238,
      "کو": 3239,
      "##باره": 3240,
      "همین": 3241,
      "افر": 3242,
      "مخت": 3243,
      "صن": 3244,
      "هزار": 3245,
      "مرک": 3246,
      "##حی": 3247,
      "##وق": 3248,
      "هن": 3249,
      "کتاب": 3250,
      "ادامه": 3251,
      "##گرد": 3252,
      "منت": 3253,
      "نه": 3254,
      "##راه": 3255,
      "شب": 3256,
      "اخت": 3257,
      "##انس": 3258,
      "منط": 3259,
      "مید": 3260,
      "ور": 3261,
      "##زین": 3262,
      "##اور": 3263,
      "##ضی": 3264,
      "##کار": 3265,
      "ایج": 3266,
      "اغ": 3267,
      "غیر": 3268,
      "وق": 3269,
      "سازمان": 3270,
      "درصد": 3271,
      "اسلام": 3272,
      "میان": 3273,
      "کردن": 3274,
      "پرد": 3275,
      "اطلا": 3276,
      "کاه": 3277,
      "##برد": 3278,
      "اه": 3279,
      "ایجاد": 3280,
      "##رین": 3281,
      "میتواند": 3282,
      "خار": 3283,
      "##وص": 3284,
      "##ونه": 3285,
      "##ولی": 3286,
      "همراه": 3287,
      "مه": 3288,
      "۲۰۱": 3289,
      "##بود": 3290,
      "سا": 3291,
      "##نان": 3292,
      "میبا": 3293,
      "دن": 3294,
      "خط": 3295,
      "گرفته": 3296,
      "رفت": 3297,
      "##ضا": 3298,
      "##ستم": 3299,
      "کاهش": 3300,
      "##وط": 3301,
      "گو": 3302,
      "##هران": 3303,
      "نا": 3304,
      "##دام": 3305,
      "مرا": 3306,
      "امریکا": 3307,
      "ری": 3308,
      "مشک": 3309,
      "دلیل": 3310,
      "گزار": 3311,
      "ترک": 3312,
      "##رسی": 3313,
      "فرو": 3314,
      "##غییر": 3315,
      "اعت": 3316,
      "قط": 3317,
      "شدهاست": 3318,
      "##ازه": 3319,
      "تغییر": 3320,
      "##سان": 3321,
      "شدن": 3322,
      "##طور": 3323,
      "جنگ": 3324,
      "قیم": 3325,
      "تهران": 3326,
      "تنها": 3327,
      "##کرد": 3328,
      "برنامه": 3329,
      "دریا": 3330,
      "مانند": 3331,
      "وارد": 3332,
      "ملی": 3333,
      "وز": 3334,
      "عب": 3335,
      "۱۳۹": 3336,
      "مهم": 3337,
      "خر": 3338,
      "بودند": 3339,
      "موض": 3340,
      "##مه": 3341,
      "##لب": 3342,
      "##ژه": 3343,
      "میشوند": 3344,
      "حض": 3345,
      "میز": 3346,
      "دید": 3347,
      "##تما": 3348,
      "رسید": 3349,
      "خبر": 3350,
      "زندگی": 3351,
      "شور": 3352,
      "ري": 3353,
      "جام": 3354,
      "خی": 3355,
      "##شار": 3356,
      "برگ": 3357,
      "دوم": 3358,
      "ارز": 3359,
      "حا": 3360,
      "گزارش": 3361,
      "ولی": 3362,
      "دانشگاه": 3363,
      "اشاره": 3364,
      "نیر": 3365,
      "علی": 3366,
      "##بری": 3367,
      "نسبت": 3368,
      "##وار": 3369,
      "نر": 3370,
      "هیچ": 3371,
      "چهار": 3372,
      "میکرد": 3373,
      "##ضای": 3374,
      "وا": 3375,
      "اصلی": 3376,
      "قیمت": 3377,
      "تاریخ": 3378,
      "خودرو": 3379,
      "کردند": 3380,
      "جهان": 3381,
      "کس": 3382,
      "##ایند": 3383,
      "##تان": 3384,
      "بیش": 3385,
      "##اهی": 3386,
      "چی": 3387,
      "میباشد": 3388,
      "عر": 3389,
      "##داشت": 3390,
      "##ستی": 3391,
      "معم": 3392,
      "مجم": 3393,
      "##یمی": 3394,
      "##فه": 3395,
      "۱۰": 3396,
      "##ایل": 3397,
      "بسیاری": 3398,
      "میلیون": 3399,
      "حدود": 3400,
      "سن": 3401,
      "اعلام": 3402,
      "##قیق": 3403,
      "مشکل": 3404,
      "##یدا": 3405,
      "زیادی": 3406,
      "##هن": 3407,
      "##ریق": 3408,
      "سب": 3409,
      "مخ": 3410,
      "ريیس": 3411,
      "علا": 3412,
      "همان": 3413,
      "##ران": 3414,
      "##ومی": 3415,
      "##راي": 3416,
      "طول": 3417,
      "۲۰۰": 3418,
      "زبان": 3419,
      "نفت": 3420,
      "گذشته": 3421,
      "نیاز": 3422,
      "##باط": 3423,
      "درباره": 3424,
      "##ندی": 3425,
      "فعالیت": 3426,
      "داخ": 3427,
      "مست": 3428,
      "قان": 3429,
      "جز": 3430,
      "مختلف": 3431,
      "نفر": 3432,
      "اقتصادی": 3433,
      "گروه": 3434,
      "توان": 3435,
      "##عث": 3436,
      "تمام": 3437,
      "منطقه": 3438,
      "تیم": 3439,
      "افراد": 3440,
      "##ودی": 3441,
      "حق": 3442,
      "##سازی": 3443,
      "موضوع": 3444,
      "عمل": 3445,
      "##ویی": 3446,
      "##یری": 3447,
      "##لو": 3448,
      "اسلامی": 3449,
      "دارای": 3450,
      "##اي": 3451,
      "##ظه": 3452,
      "سرمای": 3453,
      "##سه": 3454,
      "اولین": 3455,
      "##لاح": 3456,
      "باعث": 3457,
      "##ژی": 3458,
      "##شر": 3459,
      "میخ": 3460,
      "تعد": 3461,
      "نقش": 3462,
      "##امد": 3463,
      "شی": 3464,
      "##بط": 3465,
      "حتی": 3466,
      "##ایر": 3467,
      "##ابی": 3468,
      "کمک": 3469,
      "حضور": 3470,
      "##مال": 3471,
      "##اش": 3472,
      "واقع": 3473,
      "##است": 3474,
      "توسعه": 3475,
      "مسي": 3476,
      "امرو": 3477,
      "##بین": 3478,
      "##فق": 3479,
      "##صوص": 3480,
      "##مکن": 3481,
      "استان": 3482,
      "##دن": 3483,
      "میر": 3484,
      "##ابر": 3485,
      "پرداخت": 3486,
      "ند": 3487,
      "میل": 3488,
      "سط": 3489,
      "ارتباط": 3490,
      "مالی": 3491,
      "نزد": 3492,
      "غذ": 3493,
      "یاد": 3494,
      "##ویس": 3495,
      "قابل": 3496,
      "سرمایه": 3497,
      "گل": 3498,
      "شکل": 3499,
      "اغاز": 3500,
      "مل": 3501,
      "انگ": 3502,
      "جمه": 3503,
      "شخص": 3504,
      "هد": 3505,
      "##کتر": 3506,
      "کلی": 3507,
      "##سر": 3508,
      "مشت": 3509,
      "پیدا": 3510,
      "دوره": 3511,
      "طرح": 3512,
      "خواه": 3513,
      "فرد": 3514,
      "##رایط": 3515,
      "##صول": 3516,
      "شرایط": 3517,
      "##سم": 3518,
      "خصوص": 3519,
      "پار": 3520,
      "سیستم": 3521,
      "سل": 3522,
      "سوی": 3523,
      "##گیرد": 3524,
      "جمله": 3525,
      "##وک": 3526,
      "اموز": 3527,
      "نمایش": 3528,
      "ممکن": 3529,
      "۱۲": 3530,
      "اطلاعات": 3531,
      "نخست": 3532,
      "بیان": 3533,
      "فق": 3534,
      "خرید": 3535,
      "حک": 3536,
      "رای": 3537,
      "گفته": 3538,
      "##ریان": 3539,
      "##بته": 3540,
      "روش": 3541,
      "تشک": 3542,
      "افت": 3543,
      "##امین": 3544,
      "یافت": 3545,
      "البته": 3546,
      "اور": 3547,
      "##سال": 3548,
      "##صر": 3549,
      "لی": 3550,
      "ساعت": 3551,
      "دریافت": 3552,
      "جهانی": 3553,
      "رشد": 3554,
      "##اران": 3555,
      "قبل": 3556,
      "بدون": 3557,
      "شر": 3558,
      "پایان": 3559,
      "ابت": 3560,
      "اساس": 3561,
      "مصرف": 3562,
      "اقتصاد": 3563,
      "اجتما": 3564,
      "میگو": 3565,
      "##اخ": 3566,
      "ایرانی": 3567,
      "##صل": 3568,
      "فروش": 3569,
      "قدر": 3570,
      "##کاری": 3571,
      "##ویت": 3572,
      "محصول": 3573,
      "دیگری": 3574,
      "طی": 3575,
      "##راف": 3576,
      "مرب": 3577,
      "میشد": 3578,
      "ارو": 3579,
      "۱۸": 3580,
      "شامل": 3581,
      "##زارت": 3582,
      "طرف": 3583,
      "تک": 3584,
      "اک": 3585,
      "وزارت": 3586,
      "##ومت": 3587,
      "##واه": 3588,
      "شدند": 3589,
      "مجلس": 3590,
      "##الب": 3591,
      "کنیم": 3592,
      "سری": 3593,
      "زمانی": 3594,
      "اقدام": 3595,
      "سفر": 3596,
      "رق": 3597,
      "موفق": 3598,
      "اپ": 3599,
      "##اسب": 3600,
      "پنج": 3601,
      "کوچ": 3602,
      "شاه": 3603,
      "عض": 3604,
      "اراي": 3605,
      "##وهای": 3606,
      "جان": 3607,
      "کام": 3608,
      "افزود": 3609,
      "روست": 3610,
      "##ثیر": 3611,
      "میرس": 3612,
      "مب": 3613,
      "اجتماعی": 3614,
      "کود": 3615,
      "##گذاری": 3616,
      "##ابع": 3617,
      "##یب": 3618,
      "یع": 3619,
      "نزدیک": 3620,
      "فار": 3621,
      "پیر": 3622,
      "طب": 3623,
      "صح": 3624,
      "ارايه": 3625,
      "طریق": 3626,
      "##ذیر": 3627,
      "محمد": 3628,
      "پاس": 3629,
      "تشکیل": 3630,
      "##کنون": 3631,
      "قانون": 3632,
      "چون": 3633,
      "سطح": 3634,
      "حوز": 3635,
      "نتی": 3636,
      "##ازم": 3637,
      "خانو": 3638,
      "صنعت": 3639,
      "بررسی": 3640,
      "گی": 3641,
      "##جا": 3642,
      "خاص": 3643,
      "ندارد": 3644,
      "نوع": 3645,
      "وزیر": 3646,
      "##er": 3647,
      "نمود": 3648,
      "یعنی": 3649,
      "قد": 3650,
      "هزین": 3651,
      "برخ": 3652,
      "##خانه": 3653,
      "سیاسی": 3654,
      "هنگ": 3655,
      "##یدی": 3656,
      "امکان": 3657,
      "##جر": 3658,
      "##اطر": 3659,
      "چرا": 3660,
      "قدرت": 3661,
      "##ابت": 3662,
      "برابر": 3663,
      "تلا": 3664,
      "زمینه": 3665,
      "تاثیر": 3666,
      "##ستر": 3667,
      "کنار": 3668,
      "میزان": 3669,
      "سین": 3670,
      "تحت": 3671,
      "مک": 3672,
      "مذ": 3673,
      "۱۵": 3674,
      "کی": 3675,
      "تل": 3676,
      "چنین": 3677,
      "##یشه": 3678,
      "مدت": 3679,
      "نتیجه": 3680,
      "اثر": 3681,
      "نگ": 3682,
      "بالا": 3683,
      "مشخص": 3684,
      "##اسی": 3685,
      "تعداد": 3686,
      "اسی": 3687,
      "##ضر": 3688,
      "باشند": 3689,
      "هوا": 3690,
      "ره": 3691,
      "منتشر": 3692,
      "اشت": 3693,
      "##ثر": 3694,
      "فرا": 3695,
      "احت": 3696,
      "جمهوری": 3697,
      "دستگاه": 3698,
      "بح": 3699,
      "دلار": 3700,
      "تاک": 3701,
      "##ندگان": 3702,
      "##داری": 3703,
      "طبی": 3704,
      "ست": 3705,
      "##میم": 3706,
      "##یره": 3707,
      "##راحی": 3708,
      "کال": 3709,
      "مربوط": 3710,
      "وقتی": 3711,
      "مرکزی": 3712,
      "##گران": 3713,
      "کر": 3714,
      "##پا": 3715,
      "انقل": 3716,
      "##ولا": 3717,
      "انتق": 3718,
      "##کو": 3719,
      "##ابق": 3720,
      "##دیل": 3721,
      "##زشک": 3722,
      "وض": 3723,
      "تبدیل": 3724,
      "مواد": 3725,
      "مرکز": 3726,
      "شورای": 3727,
      "ساخته": 3728,
      "##الت": 3729,
      "##شین": 3730,
      "موجود": 3731,
      "بهترین": 3732,
      "محل": 3733,
      "##ربی": 3734,
      "هو": 3735,
      "هدف": 3736,
      "صد": 3737,
      "##لاف": 3738,
      "بهطور": 3739,
      "حم": 3740,
      "##رفی": 3741,
      "میلیارد": 3742,
      "تلاش": 3743,
      "کمی": 3744,
      "قل": 3745,
      "شرو": 3746,
      "حالی": 3747,
      "مغ": 3748,
      "##نام": 3749,
      "سف": 3750,
      "##وانی": 3751,
      "شو": 3752,
      "کشورهای": 3753,
      "##وست": 3754,
      "##این": 3755,
      "میدان": 3756,
      "سمت": 3757,
      "##پی": 3758,
      "پشت": 3759,
      "موس": 3760,
      "##رده": 3761,
      "بع": 3762,
      "##جم": 3763,
      "خانه": 3764,
      "فقط": 3765,
      "جهت": 3766,
      "امروز": 3767,
      "حوزه": 3768,
      "سنگ": 3769,
      "##تری": 3770,
      "امد": 3771,
      "شروع": 3772,
      "عرض": 3773,
      "##وعه": 3774,
      "دوران": 3775,
      "سیاست": 3776,
      "دنبال": 3777,
      "##نت": 3778,
      "هنر": 3779,
      "جامعه": 3780,
      "تف": 3781,
      "##گذار": 3782,
      "##ورش": 3783,
      "##الات": 3784,
      "##ریم": 3785,
      "شناخت": 3786,
      "اض": 3787,
      "بیماری": 3788,
      "چشم": 3789,
      "##قد": 3790,
      "بده": 3791,
      "محدود": 3792,
      "تخ": 3793,
      "صف": 3794,
      "میتوانید": 3795,
      "جا": 3796,
      "۱۱": 3797,
      "بودن": 3798,
      "موسی": 3799,
      "مین": 3800,
      "##ناسی": 3801,
      "حاضر": 3802,
      "حل": 3803,
      "خاطر": 3804,
      "خیلی": 3805,
      "##راین": 3806,
      "##یتی": 3807,
      "خوان": 3808,
      "جو": 3809,
      "دنیا": 3810,
      "شدهاند": 3811,
      "حمای": 3812,
      "اجرای": 3813,
      "خارجی": 3814,
      "##فاوت": 3815,
      "سالهای": 3816,
      "کیل": 3817,
      "##خه": 3818,
      "میلادی": 3819,
      "فی": 3820,
      "نمی": 3821,
      "##یار": 3822,
      "تامین": 3823,
      "واح": 3824,
      "روح": 3825,
      "مثل": 3826,
      "نبود": 3827,
      "امن": 3828,
      "منظ": 3829,
      "مرت": 3830,
      "موج": 3831,
      "تومان": 3832,
      "سخ": 3833,
      "انقلاب": 3834,
      "تصمیم": 3835,
      "##مللی": 3836,
      "شا": 3837,
      "خدم": 3838,
      "##ادهای": 3839,
      "برج": 3840,
      "طراحی": 3841,
      "لازم": 3842,
      "داخلی": 3843,
      "ریا": 3844,
      "خانواده": 3845,
      "شع": 3846,
      "##گونه": 3847,
      "##وي": 3848,
      "نرخ": 3849,
      "عملی": 3850,
      "بناب": 3851,
      "معرفی": 3852,
      "##ساز": 3853,
      "سپس": 3854,
      "مجموعه": 3855,
      "تاکید": 3856,
      "سوم": 3857,
      "میگیرد": 3858,
      "فرانس": 3859,
      "##اهای": 3860,
      "نظام": 3861,
      "##صی": 3862,
      "تور": 3863,
      "شبکه": 3864,
      "بدن": 3865,
      "##طه": 3866,
      "اظه": 3867,
      "##an": 3868,
      "##زاری": 3869,
      "منابع": 3870,
      "##هنگ": 3871,
      "معت": 3872,
      "انسان": 3873,
      "شیر": 3874,
      "تش": 3875,
      "حمایت": 3876,
      "جریان": 3877,
      "برخورد": 3878,
      "##فاق": 3879,
      "رنگ": 3880,
      "##ریف": 3881,
      "بنابراین": 3882,
      "قس": 3883,
      "احتمال": 3884,
      "عمومی": 3885,
      "سام": 3886,
      "##ایع": 3887,
      "بتوان": 3888,
      "##ویر": 3889,
      "دهد": 3890,
      "##تا": 3891,
      "باشید": 3892,
      "بهره": 3893,
      "##واره": 3894,
      "##کننده": 3895,
      "##خش": 3896,
      "طور": 3897,
      "سایر": 3898,
      "کان": 3899,
      "نمیت": 3900,
      "متح": 3901,
      "پزشک": 3902,
      "##on": 3903,
      "##کل": 3904,
      "پاسخ": 3905,
      "##وبی": 3906,
      "موارد": 3907,
      "کنتر": 3908,
      "همکاری": 3909,
      "مسیر": 3910,
      "اموزش": 3911,
      "ازاد": 3912,
      "اظهار": 3913,
      "اذ": 3914,
      "میدهند": 3915,
      "مدیریت": 3916,
      "اثار": 3917,
      "میتوانند": 3918,
      "حرف": 3919,
      "فرمان": 3920,
      "پدر": 3921,
      "اورد": 3922,
      "نخستین": 3923,
      "نمای": 3924,
      "##سل": 3925,
      "واحد": 3926,
      "کسب": 3927,
      "پول": 3928,
      "اتفاق": 3929,
      "##اون": 3930,
      "لح": 3931,
      "سخت": 3932,
      "##انهای": 3933,
      "##اتر": 3934,
      "عد": 3935,
      "نمیتوان": 3936,
      "معمولا": 3937,
      "##یط": 3938,
      "شوند": 3939,
      "حرکت": 3940,
      "میرسد": 3941,
      "هفته": 3942,
      "##in": 3943,
      "اینده": 3944,
      "مدل": 3945,
      "مطال": 3946,
      "علاوه": 3947,
      "کنترل": 3948,
      "خوبی": 3949,
      "جذ": 3950,
      "قسمت": 3951,
      "محیط": 3952,
      "میگوید": 3953,
      "##رژی": 3954,
      "مار": 3955,
      "نور": 3956,
      "##لیس": 3957,
      "انتخابات": 3958,
      "رود": 3959,
      "هنوز": 3960,
      "##شنبه": 3961,
      "مقام": 3962,
      "ویژ": 3963,
      "##ادل": 3964,
      "جوان": 3965,
      "مشکلات": 3966,
      "نف": 3967,
      "خارج": 3968,
      "##اهم": 3969,
      "کوچک": 3970,
      "سود": 3971,
      "کاری": 3972,
      "نیم": 3973,
      "##ربه": 3974,
      "##امبر": 3975,
      "##شناس": 3976,
      "##هنگی": 3977,
      "خدمات": 3978,
      "۳۰": 3979,
      "##زند": 3980,
      "مشترک": 3981,
      "اخیر": 3982,
      "رابط": 3983,
      "وضعیت": 3984,
      "کامل": 3985,
      "انتشار": 3986,
      "##انده": 3987,
      "کشاور": 3988,
      "##دین": 3989,
      "##ایه": 3990,
      "کردهاند": 3991,
      "##نو": 3992,
      "##شناسی": 3993,
      "ارد": 3994,
      "۱۶": 3995,
      "##اله": 3996,
      "متر": 3997,
      "##سیون": 3998,
      "##یند": 3999,
      "ویژه": 4000,
      "هزینه": 4001,
      "ثبت": 4002,
      "##مز": 4003,
      "برگزار": 4004,
      "کشت": 4005,
      "مناسب": 4006,
      "ارزش": 4007,
      "ورز": 4008,
      "فرهنگی": 4009,
      "انرژی": 4010,
      "فصل": 4011,
      "۱۴": 4012,
      "گوشی": 4013,
      "درامد": 4014,
      "اضاف": 4015,
      "هایی": 4016,
      "فرهنگ": 4017,
      "کا": 4018,
      "##لق": 4019,
      "موسیقی": 4020,
      "##واهد": 4021,
      "##پرد": 4022,
      "##روف": 4023,
      "##ناوری": 4024,
      "##حه": 4025,
      "مناط": 4026,
      "##جمه": 4027,
      "##زا": 4028,
      "مقابل": 4029,
      "شهری": 4030,
      "فکر": 4031,
      "تحقیق": 4032,
      "اقای": 4033,
      "##ینه": 4034,
      "کسی": 4035,
      "موق": 4036,
      "پیشنه": 4037,
      "ازم": 4038,
      "زنان": 4039,
      "##قر": 4040,
      "##ستانی": 4041,
      "گذا": 4042,
      "##ar": 4043,
      "##تهای": 4044,
      "امام": 4045,
      "##لیه": 4046,
      "##جان": 4047,
      "فوت": 4048,
      "فضای": 4049,
      "صاد": 4050,
      "۱۷": 4051,
      "##افق": 4052,
      "بیشتری": 4053,
      "احس": 4054,
      "اصلاح": 4055,
      "##بیر": 4056,
      "گردش": 4057,
      "مرح": 4058,
      "داستان": 4059,
      "عرضه": 4060,
      "##تل": 4061,
      "پایین": 4062,
      "کمتر": 4063,
      "لب": 4064,
      "انجا": 4065,
      "فناوری": 4066,
      "هند": 4067,
      "##بران": 4068,
      "##یز": 4069,
      "##اورد": 4070,
      "هفت": 4071,
      "حقوق": 4072,
      "برد": 4073,
      "درمان": 4074,
      "تای": 4075,
      "##لاس": 4076,
      "میرود": 4077,
      "ایت": 4078,
      "##فاع": 4079,
      "محصولات": 4080,
      "##ویه": 4081,
      "چیزی": 4082,
      "پژ": 4083,
      "مطرح": 4084,
      "اسپ": 4085,
      "جلو": 4086,
      "محس": 4087,
      "روسی": 4088,
      "سرعت": 4089,
      "دستور": 4090,
      "قرارد": 4091,
      "##عا": 4092,
      "بینال": 4093,
      "##وزی": 4094,
      "کوت": 4095,
      "انتظ": 4096,
      "بلکه": 4097,
      "##ظر": 4098,
      "تد": 4099,
      "زن": 4100,
      "گون": 4101,
      "##یلات": 4102,
      "بخشی": 4103,
      "##ابه": 4104,
      "طبیعی": 4105,
      "نگه": 4106,
      "##قیم": 4107,
      "پذیر": 4108,
      "بهتر": 4109,
      "شکست": 4110,
      "##زب": 4111,
      "ندار": 4112,
      "نوشت": 4113,
      "##گاهی": 4114,
      "پوش": 4115,
      "##تور": 4116,
      "ایا": 4117,
      "امور": 4118,
      "پیشر": 4119,
      "##دهم": 4120,
      "مناطق": 4121,
      "پاد": 4122,
      "علمی": 4123,
      "خوب": 4124,
      "شرکتهای": 4125,
      "##ارهای": 4126,
      "داخل": 4127,
      "مرگ": 4128,
      "اجرا": 4129,
      "معاون": 4130,
      "۱۹۹": 4131,
      "تهی": 4132,
      "##ابد": 4133,
      "نقل": 4134,
      "##تیب": 4135,
      "خبری": 4136,
      "حدا": 4137,
      "نمایند": 4138,
      "مهمترین": 4139,
      "زیرا": 4140,
      "سرا": 4141,
      "بیر": 4142,
      "قا": 4143,
      "عو": 4144,
      "موجب": 4145,
      "##یدن": 4146,
      "نیروهای": 4147,
      "دری": 4148,
      "##شاه": 4149,
      "مسل": 4150,
      "امده": 4151,
      "##گاههای": 4152,
      "مهر": 4153,
      "##ولو": 4154,
      "شاید": 4155,
      "چین": 4156,
      "حالت": 4157,
      "نمیش": 4158,
      "داشتند": 4159,
      "شناخته": 4160,
      "فل": 4161,
      "مادر": 4162,
      "اروپا": 4163,
      "##رم": 4164,
      "تاریخی": 4165,
      "اخرین": 4166,
      "##اصله": 4167,
      "عرا": 4168,
      "##شهای": 4169,
      "##گردد": 4170,
      "پل": 4171,
      "جمعیت": 4172,
      "طبق": 4173,
      "##نای": 4174,
      "متن": 4175,
      "##انت": 4176,
      "##رت": 4177,
      "##ابط": 4178,
      "عضو": 4179,
      "حف": 4180,
      "فرزند": 4181,
      "##سیس": 4182,
      "مثال": 4183,
      "بنا": 4184,
      "##ینگ": 4185,
      "دادن": 4186,
      "تعی": 4187,
      "بودهاست": 4188,
      "احساس": 4189,
      "۲۵": 4190,
      "دخت": 4191,
      "بور": 4192,
      "تعیین": 4193,
      "دهه": 4194,
      "هنگام": 4195,
      "نوشته": 4196,
      "خوش": 4197,
      "##مایی": 4198,
      "شمال": 4199,
      "خد": 4200,
      "##افی": 4201,
      "بیمه": 4202,
      "##en": 4203,
      "حی": 4204,
      "اندازه": 4205,
      "حساب": 4206,
      "نسخه": 4207,
      "نهای": 4208,
      "اختیار": 4209,
      "مشه": 4210,
      "تهیه": 4211,
      "جنوب": 4212,
      "##الله": 4213,
      "##بات": 4214,
      "انان": 4215,
      "زیاد": 4216,
      "صرف": 4217,
      "حمله": 4218,
      "دوست": 4219,
      "سرد": 4220,
      "وسی": 4221,
      "امید": 4222,
      "ساختمان": 4223,
      "عملکرد": 4224,
      "مف": 4225,
      "عبارت": 4226,
      "برس": 4227,
      "##ریح": 4228,
      "کشاورزی": 4229,
      "بنی": 4230,
      "عق": 4231,
      "##یکی": 4232,
      "اینتر": 4233,
      "قرن": 4234,
      "گاز": 4235,
      "وس": 4236,
      "چاپ": 4237,
      "مسيول": 4238,
      "##واج": 4239,
      "##پیم": 4240,
      "اضافه": 4241,
      "درست": 4242,
      "بانکی": 4243,
      "وقت": 4244,
      "##يی": 4245,
      "تجربه": 4246,
      "ورود": 4247,
      "عدم": 4248,
      "علیه": 4249,
      "##واست": 4250,
      "رابطه": 4251,
      "ابر": 4252,
      "حد": 4253,
      "##ریه": 4254,
      "میاید": 4255,
      "فشار": 4256,
      "##نامههای": 4257,
      "مسکن": 4258,
      "رسمی": 4259,
      "حمل": 4260,
      "##al": 4261,
      "جشن": 4262,
      "تس": 4263,
      "حکومت": 4264,
      "روحانی": 4265,
      "خون": 4266,
      "ترتیب": 4267,
      "پرس": 4268,
      "مبار": 4269,
      "##افت": 4270,
      "##یشان": 4271,
      "راست": 4272,
      "ماده": 4273,
      "ویژگی": 4274,
      "دیده": 4275,
      "سید": 4276,
      "##غال": 4277,
      "تیر": 4278,
      "میکنیم": 4279,
      "مرحله": 4280,
      "اکنون": 4281,
      "ظرف": 4282,
      "دکتر": 4283,
      "انوا": 4284,
      "سلام": 4285,
      "کوه": 4286,
      "##لال": 4287,
      "##or": 4288,
      "لو": 4289,
      "نیروی": 4290,
      "نظامی": 4291,
      "بینالمللی": 4292,
      "##فع": 4293,
      "ایم": 4294,
      "قهر": 4295,
      "اعضای": 4296,
      "منظور": 4297,
      "امار": 4298,
      "خصوصی": 4299,
      "اهم": 4300,
      "سیم": 4301,
      "میکردند": 4302,
      "انواع": 4303,
      "##at": 4304,
      "المان": 4305,
      "کیف": 4306,
      "پژوه": 4307,
      "##ايل": 4308,
      "ابتدا": 4309,
      "موا": 4310,
      "روابط": 4311,
      "روسیه": 4312,
      "خدا": 4313,
      "داریم": 4314,
      "##پر": 4315,
      "بحث": 4316,
      "بگیر": 4317,
      "مجموع": 4318,
      "فراهم": 4319,
      "##ظیم": 4320,
      "فرایند": 4321,
      "بعضی": 4322,
      "##وف": 4323,
      "##لاق": 4324,
      "##مر": 4325,
      "##وران": 4326,
      "##گون": 4327,
      "##نگی": 4328,
      "عراق": 4329,
      "مقا": 4330,
      "شهرستان": 4331,
      "##طان": 4332,
      "##گشت": 4333,
      "۱۰۰": 4334,
      "کاملا": 4335,
      "رشته": 4336,
      "یافته": 4337,
      "نشده": 4338,
      "ایست": 4339,
      "علت": 4340,
      "بسته": 4341,
      "##گوی": 4342,
      "نکرد": 4343,
      "ریاست": 4344,
      "##وال": 4345,
      "##وتی": 4346,
      "حفظ": 4347,
      "انتقال": 4348,
      "مال": 4349,
      "یون": 4350,
      "فرانسه": 4351,
      "تاب": 4352,
      "##چار": 4353,
      "##ههایی": 4354,
      "الکتر": 4355,
      "ازد": 4356,
      "ارام": 4357,
      "ول": 4358,
      "دش": 4359,
      "پیشنهاد": 4360,
      "خاک": 4361,
      "##وید": 4362,
      "عرب": 4363,
      "جلس": 4364,
      "##ستگی": 4365,
      "کد": 4366,
      "اطلاع": 4367,
      "گست": 4368,
      "##ریب": 4369,
      "چیز": 4370,
      "شناس": 4371,
      "##اهده": 4372,
      "نویس": 4373,
      "عه": 4374,
      "ظاه": 4375,
      "##وریه": 4376,
      "۱۳۸": 4377,
      "انتظار": 4378,
      "نداشت": 4379,
      "##عتی": 4380,
      "##زمین": 4381,
      "اتح": 4382,
      "عامل": 4383,
      "بلند": 4384,
      "تحص": 4385,
      "صحبت": 4386,
      "معروف": 4387,
      "خودش": 4388,
      "امر": 4389,
      "عملیات": 4390,
      "مخال": 4391,
      "عالی": 4392,
      "روند": 4393,
      "سایت": 4394,
      "##جوی": 4395,
      "استاند": 4396,
      "##راک": 4397,
      "بزرگترین": 4398,
      "##ضایی": 4399,
      "تاسیس": 4400,
      "نب": 4401,
      "سخن": 4402,
      "گردید": 4403,
      "##یتهای": 4404,
      "##تو": 4405,
      "حزب": 4406,
      "نگاه": 4407,
      "##بانی": 4408,
      "محم": 4409,
      "مدرس": 4410,
      "دقیق": 4411,
      "##انیا": 4412,
      "##سیم": 4413,
      "##هاش": 4414,
      "تلف": 4415,
      "##es": 4416,
      "امریکایی": 4417,
      "اهمیت": 4418,
      "##اصل": 4419,
      "انچه": 4420,
      "##پرداز": 4421,
      "ضر": 4422,
      "##هها": 4423,
      "اختص": 4424,
      "##قا": 4425,
      "شاهد": 4426,
      "##جد": 4427,
      "هوش": 4428,
      "##بندی": 4429,
      "روان": 4430,
      "پیام": 4431,
      "بند": 4432,
      "دولتی": 4433,
      "سازی": 4434,
      "جنوبی": 4435,
      "گرم": 4436,
      "##غان": 4437,
      "##لیسی": 4438,
      "##خان": 4439,
      "رخ": 4440,
      "هواپیم": 4441,
      "##چی": 4442,
      "جد": 4443,
      "خرد": 4444,
      "درخ": 4445,
      "##ابقه": 4446,
      "تکن": 4447,
      "تقری": 4448,
      "امنیت": 4449,
      "میخواه": 4450,
      "##شده": 4451,
      "##لیت": 4452,
      "خیاب": 4453,
      "کردهاست": 4454,
      "درجه": 4455,
      "##طی": 4456,
      "ماند": 4457,
      "علوم": 4458,
      "نهایت": 4459,
      "ایشان": 4460,
      "اولیه": 4461,
      "پن": 4462,
      "اجازه": 4463,
      "غربی": 4464,
      "فاصله": 4465,
      "ازدواج": 4466,
      "همیشه": 4467,
      "فوتبال": 4468,
      "##ونت": 4469,
      "##مندان": 4470,
      "جل": 4471,
      "کوتاه": 4472,
      "حاک": 4473,
      "##ویزی": 4474,
      "بهبود": 4475,
      "فارسی": 4476,
      "دام": 4477,
      "مز": 4478,
      "تمامی": 4479,
      "بیمار": 4480,
      "##داران": 4481,
      "مشاهده": 4482,
      "صند": 4483,
      "پروژه": 4484,
      "مسيله": 4485,
      "متفاوت": 4486,
      "خطر": 4487,
      "##وسی": 4488,
      "غرب": 4489,
      "اجر": 4490,
      "##دیگر": 4491,
      "فعالیتهای": 4492,
      "تسه": 4493,
      "##وله": 4494,
      "مراسم": 4495,
      "گرفتن": 4496,
      "تصویر": 4497,
      "##بور": 4498,
      "کسانی": 4499,
      "##قق": 4500,
      "گستر": 4501,
      "ساله": 4502,
      "##جو": 4503,
      "۵۰": 4504,
      "پسر": 4505,
      "محسوب": 4506,
      "استخ": 4507,
      "الکترون": 4508,
      "قاب": 4509,
      "دوباره": 4510,
      "##وین": 4511,
      "هشت": 4512,
      "صادرات": 4513,
      "برنامههای": 4514,
      "##خته": 4515,
      "مقدار": 4516,
      "پایه": 4517,
      "چندین": 4518,
      "غذایی": 4519,
      "تلویزی": 4520,
      "۲۴": 4521,
      "انگلیسی": 4522,
      "سبک": 4523,
      "ترکیب": 4524,
      "انس": 4525,
      "اتاق": 4526,
      "الی": 4527,
      "ارتباطات": 4528,
      "خورش": 4529,
      "قرارداد": 4530,
      "روزنامه": 4531,
      "اسیب": 4532,
      "اختصاص": 4533,
      "##اظ": 4534,
      "الب": 4535,
      "منجر": 4536,
      "##بیه": 4537,
      "##اساس": 4538,
      "ایالات": 4539,
      "سق": 4540,
      "رقابت": 4541,
      "توانست": 4542,
      "جدا": 4543,
      "پدید": 4544,
      "تجاری": 4545,
      "##گز": 4546,
      "ابی": 4547,
      "متحده": 4548,
      "تحریم": 4549,
      "عصر": 4550,
      "جمع": 4551,
      "اشک": 4552,
      "همچون": 4553,
      "گسترش": 4554,
      "روستا": 4555,
      "۱۹۸": 4556,
      "صنایع": 4557,
      "خواست": 4558,
      "##الیا": 4559,
      "بازگشت": 4560,
      "فرص": 4561,
      "##کنان": 4562,
      "درون": 4563,
      "خواهند": 4564,
      "کاربرد": 4565,
      "بالای": 4566,
      "حتما": 4567,
      "تعریف": 4568,
      "معتقد": 4569,
      "##زمان": 4570,
      "جایی": 4571,
      "##شا": 4572,
      "##هایم": 4573,
      "مواجه": 4574,
      "##خصوص": 4575,
      "موتور": 4576,
      "دهند": 4577,
      "کافی": 4578,
      "دچار": 4579,
      "براساس": 4580,
      "تقریبا": 4581,
      "سهام": 4582,
      "رسیده": 4583,
      "##تن": 4584,
      "ازمایش": 4585,
      "مکان": 4586,
      "مام": 4587,
      "##حل": 4588,
      "کیفیت": 4589,
      "هستیم": 4590,
      "صادر": 4591,
      "لذ": 4592,
      "##سون": 4593,
      "##صه": 4594,
      "##داشته": 4595,
      "ارتش": 4596,
      "اغلب": 4597,
      "خورد": 4598,
      "##گانی": 4599,
      "گونه": 4600,
      "##ماند": 4601,
      "نکت": 4602,
      "تایید": 4603,
      "گذاری": 4604,
      "مسايل": 4605,
      "##تای": 4606,
      "##ندان": 4607,
      "وظ": 4608,
      "بورس": 4609,
      "ترکیه": 4610,
      "۱۳۹۵": 4611,
      "ویر": 4612,
      "ساده": 4613,
      "همچنان": 4614,
      "جلوگیری": 4615,
      "کننده": 4616,
      "دادند": 4617,
      "عبد": 4618,
      "##دهی": 4619,
      "متو": 4620,
      "کودکان": 4621,
      "احمد": 4622,
      "مبت": 4623,
      "اهدا": 4624,
      "##ومتر": 4625,
      "##دان": 4626,
      "جایزه": 4627,
      "##گار": 4628,
      "تقسیم": 4629,
      "بعدی": 4630,
      "##کش": 4631,
      "۲۲": 4632,
      "مها": 4633,
      "افرادی": 4634,
      "شماره": 4635,
      "##حت": 4636,
      "رهبری": 4637,
      "##رانی": 4638,
      "سوال": 4639,
      "پزشکی": 4640,
      "۱۳۹۶": 4641,
      "یه": 4642,
      "گوش": 4643,
      "##ic": 4644,
      "محلی": 4645,
      "مهند": 4646,
      "##نتی": 4647,
      "حذ": 4648,
      "نص": 4649,
      "باقی": 4650,
      "نشد": 4651,
      "امپ": 4652,
      "داشتن": 4653,
      "دقی": 4654,
      "عکس": 4655,
      "رفتار": 4656,
      "واکن": 4657,
      "غذا": 4658,
      "روشن": 4659,
      "بهع": 4660,
      "پارک": 4661,
      "اتش": 4662,
      "تجارت": 4663,
      "اساسی": 4664,
      "##کتری": 4665,
      "واقعی": 4666,
      "##روش": 4667,
      "##نش": 4668,
      "بانکها": 4669,
      "وب": 4670,
      "گاهی": 4671,
      "نج": 4672,
      "رون": 4673,
      "##یتر": 4674,
      "مول": 4675,
      "ورزش": 4676,
      "ژاپ": 4677,
      "##لهای": 4678,
      "پاک": 4679,
      "دسته": 4680,
      "ابتد": 4681,
      "##نهای": 4682,
      "تحلیل": 4683,
      "نمیشود": 4684,
      "ته": 4685,
      "باور": 4686,
      "میگردد": 4687,
      "رک": 4688,
      "۱۹۷": 4689,
      "دم": 4690,
      "مستقیم": 4691,
      "فوق": 4692,
      "نگر": 4693,
      "باغ": 4694,
      "انکه": 4695,
      "مدار": 4696,
      "##خیص": 4697,
      "ضد": 4698,
      "اعتبار": 4699,
      "##قدر": 4700,
      "یکدیگر": 4701,
      "عهده": 4702,
      "توافق": 4703,
      "شاخص": 4704,
      "برادر": 4705,
      "میگیر": 4706,
      "##يت": 4707,
      "رفته": 4708,
      "نشست": 4709,
      "موفقیت": 4710,
      "چر": 4711,
      "ماشین": 4712,
      "مرتبط": 4713,
      "دختر": 4714,
      "شرقی": 4715,
      "درخت": 4716,
      "دارید": 4717,
      "مذاک": 4718,
      "نباید": 4719,
      "متع": 4720,
      "خور": 4721,
      "حداقل": 4722,
      "نمونه": 4723,
      "##امت": 4724,
      "حسن": 4725,
      "حسین": 4726,
      "جذب": 4727,
      "ارزی": 4728,
      "##ادگی": 4729,
      "فلس": 4730,
      "##ولوژی": 4731,
      "استاندارد": 4732,
      "سیاه": 4733,
      "مای": 4734,
      "حجم": 4735,
      "میکنید": 4736,
      "##وریت": 4737,
      "اداره": 4738,
      "##رکز": 4739,
      "##رافی": 4740,
      "شخصی": 4741,
      "پا": 4742,
      "۴۰": 4743,
      "ضمن": 4744,
      "ادبی": 4745,
      "نح": 4746,
      "پیشرفت": 4747,
      "دیگران": 4748,
      "کارگرد": 4749,
      "خرو": 4750,
      "پخش": 4751,
      "مدرسه": 4752,
      "دفاع": 4753,
      "##زاده": 4754,
      "۲۱": 4755,
      "ماهی": 4756,
      "کیلومتر": 4757,
      "##امپ": 4758,
      "سهم": 4759,
      "گذاشت": 4760,
      "اجرایی": 4761,
      "##باز": 4762,
      "##بد": 4763,
      "مان": 4764,
      "رسیدن": 4765,
      "ابزار": 4766,
      "دانست": 4767,
      "توضی": 4768,
      "##۵۰": 4769,
      "دنی": 4770,
      "##ادث": 4771,
      "فرم": 4772,
      "##کا": 4773,
      "کارشناس": 4774,
      "##لم": 4775,
      "شمار": 4776,
      "قوان": 4777,
      "تشخیص": 4778,
      "مقای": 4779,
      "همزمان": 4780,
      "همسر": 4781,
      "اصفه": 4782,
      "مختل": 4783,
      "##کنند": 4784,
      "شمالی": 4785,
      "##ریز": 4786,
      "##قت": 4787,
      "اماده": 4788,
      "سعی": 4789,
      "قصد": 4790,
      "##ژاد": 4791,
      "بیرون": 4792,
      "باشیم": 4793,
      "اصل": 4794,
      "پایگاه": 4795,
      "##وده": 4796,
      "نامه": 4797,
      "##جام": 4798,
      "##ورتی": 4799,
      "رییس": 4800,
      "##تح": 4801,
      "شهرهای": 4802,
      "مرداد": 4803,
      "حاصل": 4804,
      "وح": 4805,
      "شش": 4806,
      "انجمن": 4807,
      "استاد": 4808,
      "##ماد": 4809,
      "پیچ": 4810,
      "مسابق": 4811,
      "زیست": 4812,
      "ندارند": 4813,
      "##حس": 4814,
      "شنبه": 4815,
      "کاربران": 4816,
      "لحاظ": 4817,
      "البوم": 4818,
      "کری": 4819,
      "دهید": 4820,
      "شخصیت": 4821,
      "مرز": 4822,
      "میگویند": 4823,
      "صنعتی": 4824,
      "دسترسی": 4825,
      "خواب": 4826,
      "اسف": 4827,
      "تنظیم": 4828,
      "سبب": 4829,
      "مشغ": 4830,
      "##باری": 4831,
      "نقطه": 4832,
      "##لیم": 4833,
      "دوربین": 4834,
      "کارهای": 4835,
      "توضیح": 4836,
      "حج": 4837,
      "##بل": 4838,
      "استقل": 4839,
      "سفید": 4840,
      "زیب": 4841,
      "نماینده": 4842,
      "تی": 4843,
      "##الع": 4844,
      "دبیر": 4845,
      "##احب": 4846,
      "##کنندگان": 4847,
      "##غل": 4848,
      "##الدین": 4849,
      "##it": 4850,
      "جدی": 4851,
      "ناشی": 4852,
      "دقیقه": 4853,
      "حاف": 4854,
      "ارسال": 4855,
      "ساختار": 4856,
      "کالا": 4857,
      "##بینی": 4858,
      "##لیک": 4859,
      "اقدامات": 4860,
      "سریع": 4861,
      "##پذیر": 4862,
      "صفحه": 4863,
      "مقایسه": 4864,
      "بریت": 4865,
      "۱۹۶": 4866,
      "مراج": 4867,
      "موثر": 4868,
      "صدا": 4869,
      "##ویش": 4870,
      "بهعنوان": 4871,
      "موقعیت": 4872,
      "مبارزه": 4873,
      "برخوردار": 4874,
      "سرویس": 4875,
      "شدید": 4876,
      "##انهها": 4877,
      "گیاه": 4878,
      "خدمت": 4879,
      "ازادی": 4880,
      "نوعی": 4881,
      "کمپ": 4882,
      "تحقیقات": 4883,
      "حذف": 4884,
      "استقلال": 4885,
      "سرزمین": 4886,
      "##ظت": 4887,
      "حالا": 4888,
      "سع": 4889,
      "##گفت": 4890,
      "کودک": 4891,
      "درد": 4892,
      "مطالعه": 4893,
      "۲۳": 4894,
      "متوس": 4895,
      "قوانین": 4896,
      "##يین": 4897,
      "نیمه": 4898,
      "##گل": 4899,
      "اینترنت": 4900,
      "سران": 4901,
      "میگذ": 4902,
      "پوست": 4903,
      "##اج": 4904,
      "درخواست": 4905,
      "وزن": 4906,
      "اسم": 4907,
      "مشغول": 4908,
      "نکته": 4909,
      "##شند": 4910,
      "عص": 4911,
      "خاصی": 4912,
      "وسیله": 4913,
      "ثابت": 4914,
      "الم": 4915,
      "شهرد": 4916,
      "زاده": 4917,
      "اطراف": 4918,
      "##الم": 4919,
      "کشف": 4920,
      "مقر": 4921,
      "فارس": 4922,
      "تازه": 4923,
      "معنی": 4924,
      "بودجه": 4925,
      "##کز": 4926,
      "##بع": 4927,
      "میداد": 4928,
      "دین": 4929,
      "قانونی": 4930,
      "شدت": 4931,
      "صندوق": 4932,
      "سلامت": 4933,
      "تبلی": 4934,
      "اصول": 4935,
      "افغان": 4936,
      "خیابان": 4937,
      "اینجا": 4938,
      "فیزی": 4939,
      "##روم": 4940,
      "جاری": 4941,
      "مشابه": 4942,
      "سپاه": 4943,
      "##فتر": 4944,
      "حو": 4945,
      "صب": 4946,
      "قم": 4947,
      "نار": 4948,
      "##is": 4949,
      "الله": 4950,
      "اسک": 4951,
      "سرمایهگذاری": 4952,
      "ژوي": 4953,
      "اهنگ": 4954,
      "امسال": 4955,
      "درص": 4956,
      "##تون": 4957,
      "کره": 4958,
      "##ریزی": 4959,
      "مساف": 4960,
      "رژ": 4961,
      "بگیرد": 4962,
      "تي": 4963,
      "زد": 4964,
      "پیروزی": 4965,
      "رت": 4966,
      "ذخ": 4967,
      "لباس": 4968,
      "نخواهد": 4969,
      "میی": 4970,
      "تاکنون": 4971,
      "قدیمی": 4972,
      "##ازدهم": 4973,
      "چگونه": 4974,
      "تخص": 4975,
      "مذه": 4976,
      "طولانی": 4977,
      "مکانی": 4978,
      "کدام": 4979,
      "هوشمند": 4980,
      "فنی": 4981,
      "##ماه": 4982,
      "هنری": 4983,
      "سک": 4984,
      "کشته": 4985,
      "شرق": 4986,
      "نمیک": 4987,
      "درو": 4988,
      "##برداری": 4989,
      "خشک": 4990,
      "##ایان": 4991,
      "توانایی": 4992,
      "اتحادی": 4993,
      "هنگامی": 4994,
      "تغییرات": 4995,
      "##ویب": 4996,
      "پست": 4997,
      "عوامل": 4998,
      "ببین": 4999,
      "تفاوت": 5000,
      "ذکر": 5001,
      "مثلا": 5002,
      "برگزاری": 5003,
      "پت": 5004,
      "رست": 5005,
      "##گن": 5006,
      "##او": 5007,
      "تسهیلات": 5008,
      "مسجد": 5009,
      "بهداشت": 5010,
      "اروپ": 5011,
      "تصویب": 5012,
      "مسی": 5013,
      "خام": 5014,
      "بروز": 5015,
      "تبلیغ": 5016,
      "شان": 5017,
      "##ویل": 5018,
      "جدیدی": 5019,
      "بزرگی": 5020,
      "نظارت": 5021,
      "##ظم": 5022,
      "##گیز": 5023,
      "##ژن": 5024,
      "##ربای": 5025,
      "لغ": 5026,
      "##بوب": 5027,
      "##le": 5028,
      "##راتور": 5029,
      "حاکم": 5030,
      "جزیره": 5031,
      "پوشش": 5032,
      "قطع": 5033,
      "##ادت": 5034,
      "نهایی": 5035,
      "بازیهای": 5036,
      "##طر": 5037,
      "عربستان": 5038,
      "جایگاه": 5039,
      "اعتماد": 5040,
      "معماری": 5041,
      "مختلفی": 5042,
      "سلول": 5043,
      "دیدار": 5044,
      "مسابقات": 5045,
      "##غذ": 5046,
      "باشگاه": 5047,
      "مثبت": 5048,
      "مشهور": 5049,
      "##گانه": 5050,
      "درگذ": 5051,
      "گردشگری": 5052,
      "حرفهای": 5053,
      "اعمال": 5054,
      "بازدید": 5055,
      "چهارم": 5056,
      "##لاین": 5057,
      "اصفهان": 5058,
      "رژیم": 5059,
      "متعد": 5060,
      "انسانی": 5061,
      "قلعه": 5062,
      "##عف": 5063,
      "منطق": 5064,
      "##زل": 5065,
      "ملت": 5066,
      "##عامل": 5067,
      "واب": 5068,
      "موسسه": 5069,
      "تقویت": 5070,
      "مطلب": 5071,
      "صبح": 5072,
      "سوریه": 5073,
      "##بههای": 5074,
      "لیگ": 5075,
      "شناسایی": 5076,
      "نیرو": 5077,
      "سنتی": 5078,
      "فردی": 5079,
      "رادی": 5080,
      "نسل": 5081,
      "رقم": 5082,
      "امروزه": 5083,
      "##انههای": 5084,
      "بخشهای": 5085,
      "اختلاف": 5086,
      "بش": 5087,
      "بدان": 5088,
      "احتمالا": 5089,
      "هوایی": 5090,
      "دشمن": 5091,
      "##اوری": 5092,
      "نقاط": 5093,
      "قالب": 5094,
      "رد": 5095,
      "هج": 5096,
      "اذربای": 5097,
      "نمایندگان": 5098,
      "رز": 5099,
      "اهداف": 5100,
      "شبیه": 5101,
      "نداشته": 5102,
      "پلیس": 5103,
      "##علی": 5104,
      "مجد": 5105,
      "تحصیل": 5106,
      "ناب": 5107,
      "کارت": 5108,
      "اخر": 5109,
      "طل": 5110,
      "روزهای": 5111,
      "سینما": 5112,
      "عمر": 5113,
      "##as": 5114,
      "هستهای": 5115,
      "##نظر": 5116,
      "جلسه": 5117,
      "میبرد": 5118,
      "ویت": 5119,
      "علم": 5120,
      "کف": 5121,
      "تصریح": 5122,
      "برق": 5123,
      "روشهای": 5124,
      "موزه": 5125,
      "##گین": 5126,
      "ظرفیت": 5127,
      "نتای": 5128,
      "مدتی": 5129,
      "دع": 5130,
      "برقر": 5131,
      "نک": 5132,
      "منفی": 5133,
      "##ولیت": 5134,
      "سای": 5135,
      "کشتی": 5136,
      "واکنش": 5137,
      "میبین": 5138,
      "بس": 5139,
      "دستی": 5140,
      "جشنواره": 5141,
      "امیر": 5142,
      "مشار": 5143,
      "پو": 5144,
      "متوجه": 5145,
      "بست": 5146,
      "مور": 5147,
      "میگیرند": 5148,
      "پیک": 5149,
      "روزانه": 5150,
      "نهاد": 5151,
      "##گه": 5152,
      "##وج": 5153,
      "اید": 5154,
      "سبز": 5155,
      "په": 5156,
      "##راض": 5157,
      "سوخت": 5158,
      "##روس": 5159,
      "فول": 5160,
      "بیشترین": 5161,
      "##هام": 5162,
      "نظیر": 5163,
      "ناح": 5164,
      "میکنم": 5165,
      "اکت": 5166,
      "##عم": 5167,
      "بخوان": 5168,
      "##وذ": 5169,
      "زیبا": 5170,
      "##میل": 5171,
      "جنسی": 5172,
      "سراسر": 5173,
      "مسلمان": 5174,
      "فرصت": 5175,
      "کلیس": 5176,
      "گیر": 5177,
      "عضویت": 5178,
      "اتحادیه": 5179,
      "طبقه": 5180,
      "روستای": 5181,
      "خرداد": 5182,
      "تدری": 5183,
      "زنج": 5184,
      "پژوهش": 5185,
      "هیات": 5186,
      "مدیران": 5187,
      "تقا": 5188,
      "مناس": 5189,
      "تورم": 5190,
      "امتی": 5191,
      "##اخر": 5192,
      "معامل": 5193,
      "ماج": 5194,
      "ژان": 5195,
      "دومین": 5196,
      "چال": 5197,
      "تعدادی": 5198,
      "مخالف": 5199,
      "رفتن": 5200,
      "سریال": 5201,
      "گزین": 5202,
      "نفتی": 5203,
      "مخاط": 5204,
      "منص": 5205,
      "نتایج": 5206,
      "مشاور": 5207,
      "معنای": 5208,
      "دنیای": 5209,
      "پروت": 5210,
      "##el": 5211,
      "رتبه": 5212,
      "کشورها": 5213,
      "فرود": 5214,
      "اهل": 5215,
      "مراکز": 5216,
      "مقاومت": 5217,
      "سابق": 5218,
      "##کور": 5219,
      "ترس": 5220,
      "بهمن": 5221,
      "اینها": 5222,
      "گسترده": 5223,
      "محبوب": 5224,
      "##شتی": 5225,
      "لای": 5226,
      "##انش": 5227,
      "##شکده": 5228,
      "بیت": 5229,
      "ویژگیهای": 5230,
      "عش": 5231,
      "قابلیت": 5232,
      "قدیم": 5233,
      "۱۳۵": 5234,
      "خبرنگ": 5235,
      "دفتر": 5236,
      "۲۸": 5237,
      "عبور": 5238,
      "افغانستان": 5239,
      "##ro": 5240,
      "زنده": 5241,
      "سیاستهای": 5242,
      "هیيت": 5243,
      "جمهور": 5244,
      "۲۶": 5245,
      "##داد": 5246,
      "تما": 5247,
      "۶۰": 5248,
      "پرداز": 5249,
      "جاذ": 5250,
      "کمیسیون": 5251,
      "ریال": 5252,
      "نبرد": 5253,
      "اموزشی": 5254,
      "خلی": 5255,
      "مخصوص": 5256,
      "متوسط": 5257,
      "افس": 5258,
      "##۲۰": 5259,
      "##فون": 5260,
      "گروههای": 5261,
      "تروری": 5262,
      "شبک": 5263,
      "##حال": 5264,
      "##اشی": 5265,
      "عین": 5266,
      "نیستند": 5267,
      "بیا": 5268,
      "##یشن": 5269,
      "##لات": 5270,
      "هستید": 5271,
      "مشارکت": 5272,
      "مانده": 5273,
      "حر": 5274,
      "۲۷": 5275,
      "شوید": 5276,
      "مییابد": 5277,
      "سالگی": 5278,
      "عربی": 5279,
      "##عده": 5280,
      "نبا": 5281,
      "##شید": 5282,
      "ارم": 5283,
      "##قاد": 5284,
      "##گرفت": 5285,
      "توصی": 5286,
      "##یدان": 5287,
      "##بیت": 5288,
      "مهمی": 5289,
      "محور": 5290,
      "مبل": 5291,
      "ذهن": 5292,
      "همواره": 5293,
      "اورده": 5294,
      "ظاهر": 5295,
      "رساند": 5296,
      "زم": 5297,
      "##ناد": 5298,
      "موسس": 5299,
      "روغ": 5300,
      "قهرمان": 5301,
      "درصدی": 5302,
      "باد": 5303,
      "محک": 5304,
      "ژاپن": 5305,
      "##قیه": 5306,
      "پرونده": 5307,
      "۱۹۴": 5308,
      "محقق": 5309,
      "اگرچه": 5310,
      "قادر": 5311,
      "مقد": 5312,
      "کمیت": 5313,
      "کرب": 5314,
      "خودروهای": 5315,
      "##رن": 5316,
      "نویسنده": 5317,
      "طبیعت": 5318,
      "معادل": 5319,
      "دریایی": 5320,
      "پیاده": 5321,
      "برجام": 5322,
      "گذاشته": 5323,
      "ريیسجمه": 5324,
      "##فس": 5325,
      "##وپ": 5326,
      "##am": 5327,
      "فهر": 5328,
      "##لند": 5329,
      "جذاب": 5330,
      "اشتغال": 5331,
      "##فانه": 5332,
      "##جویان": 5333,
      "کردیم": 5334,
      "هتل": 5335,
      "حکم": 5336,
      "##راج": 5337,
      "باب": 5338,
      "##هاید": 5339,
      "سپرده": 5340,
      "واقعیت": 5341,
      "سنت": 5342,
      "حقیق": 5343,
      "##ion": 5344,
      "##ارش": 5345,
      "پادشاه": 5346,
      "اذربایجان": 5347,
      "انتقاد": 5348,
      "##واری": 5349,
      "##et": 5350,
      "علاقه": 5351,
      "ساح": 5352,
      "جست": 5353,
      "##الد": 5354,
      "گیرد": 5355,
      "##ندگی": 5356,
      "کرمان": 5357,
      "مطالب": 5358,
      "چهر": 5359,
      "برداشت": 5360,
      "فرست": 5361,
      "بدین": 5362,
      "سند": 5363,
      "توزی": 5364,
      "##انیه": 5365,
      "##ac": 5366,
      "واردات": 5367,
      "مغز": 5368,
      "اشنا": 5369,
      "رع": 5370,
      "شیمی": 5371,
      "گذشت": 5372,
      "منتقل": 5373,
      "پرواز": 5374,
      "رهبر": 5375,
      "##روی": 5376,
      "تجه": 5377,
      "اکثر": 5378,
      "##افع": 5379,
      "دارو": 5380,
      "امتیاز": 5381,
      "گروهی": 5382,
      "##ماف": 5383,
      "##یبانی": 5384,
      "##رز": 5385,
      "نامهای": 5386,
      "سلط": 5387,
      "رضا": 5388,
      "پیم": 5389,
      "##گزین": 5390,
      "تجهیز": 5391,
      "منبع": 5392,
      "##نایی": 5393,
      "##مهای": 5394,
      "نظریه": 5395,
      "##ولد": 5396,
      "دیوار": 5397,
      "گذر": 5398,
      "پشتیبانی": 5399,
      "کنم": 5400,
      "نتوان": 5401,
      "قبلی": 5402,
      "ایل": 5403,
      "بتواند": 5404,
      "##کسی": 5405,
      "ترا": 5406,
      "تلفن": 5407,
      "افتاد": 5408,
      "عمده": 5409,
      "افریق": 5410,
      "اواخر": 5411,
      "نرماف": 5412,
      "مسابقه": 5413,
      "##تم": 5414,
      "توزیع": 5415,
      "تهدید": 5416,
      "##نوی": 5417,
      "رفع": 5418,
      "چنان": 5419,
      "پیشبینی": 5420,
      "مستقل": 5421,
      "بالاتر": 5422,
      "شعر": 5423,
      "المللی": 5424,
      "برده": 5425,
      "صورتی": 5426,
      "مجازی": 5427,
      "دیدن": 5428,
      "پیوست": 5429,
      "نمایشگاه": 5430,
      "سان": 5431,
      "رم": 5432,
      "اروپایی": 5433,
      "##نس": 5434,
      "##الهای": 5435,
      "ترکی": 5436,
      "اصط": 5437,
      "##re": 5438,
      "تکر": 5439,
      "دوستان": 5440,
      "دیر": 5441,
      "انلاین": 5442,
      "محاف": 5443,
      "عدد": 5444,
      "پرورش": 5445,
      "اکس": 5446,
      "پلی": 5447,
      "##شه": 5448,
      "مجبور": 5449,
      "##عهد": 5450,
      "##حتی": 5451,
      "سم": 5452,
      "طلا": 5453,
      "۱۳۷": 5454,
      "نفوذ": 5455,
      "منح": 5456,
      "نان": 5457,
      "ابتدای": 5458,
      "##نز": 5459,
      "بریتانیا": 5460,
      "مهندسی": 5461,
      "جی": 5462,
      "صاحب": 5463,
      "قتل": 5464,
      "بحران": 5465,
      "صدای": 5466,
      "سرانجام": 5467,
      "سالها": 5468,
      "ناحیه": 5469,
      "قوی": 5470,
      "مدیرعامل": 5471,
      "گونا": 5472,
      "زده": 5473,
      "وظی": 5474,
      "##گزاری": 5475,
      "وام": 5476,
      "اخبار": 5477,
      "##روند": 5478,
      "##سب": 5479,
      "متاس": 5480,
      "##us": 5481,
      "اندرو": 5482,
      "نزدیکی": 5483,
      "جالب": 5484,
      "فیلمهای": 5485,
      "برتر": 5486,
      "کاب": 5487,
      "بازیکن": 5488,
      "خرا": 5489,
      "بو": 5490,
      "تمای": 5491,
      "کامپی": 5492,
      "برسد": 5493,
      "##he": 5494,
      "دلایل": 5495,
      "جامع": 5496,
      "شهرداری": 5497,
      "جاده": 5498,
      "پاید": 5499,
      "استر": 5500,
      "کردم": 5501,
      "کور": 5502,
      "فعلی": 5503,
      "مجوز": 5504,
      "زود": 5505,
      "بینی": 5506,
      "گیری": 5507,
      "گم": 5508,
      "رض": 5509,
      "ناخ": 5510,
      "زندان": 5511,
      "تض": 5512,
      "هرچ": 5513,
      "۹۰": 5514,
      "خلا": 5515,
      "##تخت": 5516,
      "فضا": 5517,
      "تلویزیون": 5518,
      "میباشند": 5519,
      "درک": 5520,
      "انگل": 5521,
      "رعایت": 5522,
      "##اصر": 5523,
      "امکانات": 5524,
      "##مینی": 5525,
      "تکنولوژی": 5526,
      "ادبیات": 5527,
      "شهید": 5528,
      "بدست": 5529,
      "جوانان": 5530,
      "۵۰۰": 5531,
      "##وتر": 5532,
      "##باه": 5533,
      "پرت": 5534,
      "عقب": 5535,
      "اون": 5536,
      "۲۹": 5537,
      "گراف": 5538,
      "۸۰": 5539,
      "حقیقت": 5540,
      "##زم": 5541,
      "همس": 5542,
      "ارزیابی": 5543,
      "اوایل": 5544,
      "اعتراض": 5545,
      "بخوانید": 5546,
      "جنب": 5547,
      "##صورت": 5548,
      "##يم": 5549,
      "مفه": 5550,
      "اژ": 5551,
      "بافت": 5552,
      "مسيولان": 5553,
      "باستان": 5554,
      "##ناک": 5555,
      "قطعه": 5556,
      "##خصص": 5557,
      "اسراي": 5558,
      "میدانند": 5559,
      "##زر": 5560,
      "فهرست": 5561,
      "هوای": 5562,
      "مراجعه": 5563,
      "خس": 5564,
      "تمرکز": 5565,
      "پایتخت": 5566,
      "گران": 5567,
      "ترد": 5568,
      "کلا": 5569,
      "ارتفاع": 5570,
      "متاسفانه": 5571,
      "میرزا": 5572,
      "هزینههای": 5573,
      "نرم": 5574,
      "مبنی": 5575,
      "چار": 5576,
      "اردی": 5577,
      "##زان": 5578,
      "گشت": 5579,
      "اعد": 5580,
      "##قای": 5581,
      "ترجمه": 5582,
      "##جار": 5583,
      "اعتقاد": 5584,
      "تصور": 5585,
      "متخصص": 5586,
      "هدایت": 5587,
      "قران": 5588,
      "طوری": 5589,
      "مردان": 5590,
      "مهاجر": 5591,
      "##بهشت": 5592,
      "ایتالیا": 5593,
      "جایگزین": 5594,
      "رودخانه": 5595,
      "نصب": 5596,
      "شرح": 5597,
      "خودشان": 5598,
      "واژه": 5599,
      "##کنید": 5600,
      "مطل": 5601,
      "برند": 5602,
      "۹۵": 5603,
      "##ریت": 5604,
      "ذخیره": 5605,
      "شبکههای": 5606,
      "اردیبهشت": 5607,
      "میب": 5608,
      "معاملات": 5609,
      "۲۰۱۶": 5610,
      "اسیا": 5611,
      "بالایی": 5612,
      "کارشناسان": 5613,
      "هماه": 5614,
      "۷۰": 5615,
      "بازارهای": 5616,
      "بعدها": 5617,
      "##اباد": 5618,
      "غذاهای": 5619,
      "نگهداری": 5620,
      "خودتان": 5621,
      "استق": 5622,
      "امیدوار": 5623,
      "حاشی": 5624,
      "مدرن": 5625,
      "مالیات": 5626,
      "روغن": 5627,
      "۱۹۳": 5628,
      "مطالعات": 5629,
      "بیمارستان": 5630,
      "دانشکده": 5631,
      "##کهای": 5632,
      "فرام": 5633,
      "##om": 5634,
      "میپرداز": 5635,
      "##وح": 5636,
      "دادگاه": 5637,
      "ترامپ": 5638,
      "سرطان": 5639,
      "بگذار": 5640,
      "ورودی": 5641,
      "##os": 5642,
      "استرات": 5643,
      "سالم": 5644,
      "کمیته": 5645,
      "بازر": 5646,
      "گن": 5647,
      "مذهبی": 5648,
      "##روت": 5649,
      "قهرمانی": 5650,
      "##زای": 5651,
      "##ادا": 5652,
      "گام": 5653,
      "تال": 5654,
      "خواهید": 5655,
      "نمیکند": 5656,
      "دارایی": 5657,
      "##قب": 5658,
      "جزيی": 5659,
      "مجاز": 5660,
      "درگذشت": 5661,
      "نامزد": 5662,
      "تماس": 5663,
      "نامیده": 5664,
      "صحنه": 5665,
      "توص": 5666,
      "اسفند": 5667,
      "واقعا": 5668,
      "تاج": 5669,
      "توصیه": 5670,
      "قبول": 5671,
      "##ing": 5672,
      "زدن": 5673,
      "فس": 5674,
      "##اویر": 5675,
      "ایده": 5676,
      "شیخ": 5677,
      "روید": 5678,
      "الع": 5679,
      "تحول": 5680,
      "شف": 5681,
      "جمعه": 5682,
      "مقدم": 5683,
      "##ol": 5684,
      "##وگ": 5685,
      "##برند": 5686,
      "بیست": 5687,
      "موافق": 5688,
      "برنده": 5689,
      "خواهیم": 5690,
      "پال": 5691,
      "هرچند": 5692,
      "سور": 5693,
      "۱۳۶": 5694,
      "دستگاههای": 5695,
      "معل": 5696,
      "سرخ": 5697,
      "مصر": 5698,
      "##ادار": 5699,
      "شیوه": 5700,
      "عن": 5701,
      "کلم": 5702,
      "بم": 5703,
      "دادهاند": 5704,
      "##خواه": 5705,
      "رشت": 5706,
      "##چر": 5707,
      "راهن": 5708,
      "##پذ": 5709,
      "##ومتری": 5710,
      "فرار": 5711,
      "ريیسجمهور": 5712,
      "##روشیمی": 5713,
      "زیبایی": 5714,
      "اهن": 5715,
      "شوروی": 5716,
      "وظیفه": 5717,
      "حادث": 5718,
      "فرانسوی": 5719,
      "##انیان": 5720,
      "خیر": 5721,
      "هاش": 5722,
      "۰۰۰": 5723,
      "##اکی": 5724,
      "امنیتی": 5725,
      "##طرف": 5726,
      "##شاهی": 5727,
      "دعوت": 5728,
      "##ارف": 5729,
      "##اوی": 5730,
      "پدرش": 5731,
      "کلاس": 5732,
      "منتقد": 5733,
      "خورشیدی": 5734,
      "قرمز": 5735,
      "##شمار": 5736,
      "خل": 5737,
      "حافظه": 5738,
      "توجهی": 5739,
      "سامانه": 5740,
      "قطر": 5741,
      "همانند": 5742,
      "اپل": 5743,
      "یار": 5744,
      "##کری": 5745,
      "##ایف": 5746,
      "۰۰": 5747,
      "اوراق": 5748,
      "معدن": 5749,
      "##ستند": 5750,
      "##ورک": 5751,
      "خلق": 5752,
      "عنا": 5753,
      "لیست": 5754,
      "توصیف": 5755,
      "##وقی": 5756,
      "راهی": 5757,
      "سنگین": 5758,
      "الگ": 5759,
      "##ومتی": 5760,
      "رویکرد": 5761,
      "اشتباه": 5762,
      "واس": 5763,
      "نمیتواند": 5764,
      "پتروشیمی": 5765,
      "کات": 5766,
      "ارشد": 5767,
      "##روز": 5768,
      "گاه": 5769,
      "تکمیل": 5770,
      "جغ": 5771,
      "##ژیک": 5772,
      "توم": 5773,
      "انگلستان": 5774,
      "ستاره": 5775,
      "۱۹۵": 5776,
      "##عود": 5777,
      "##گرم": 5778,
      "اسب": 5779,
      "انح": 5780,
      "مشتریان": 5781,
      "ریشه": 5782,
      "انداز": 5783,
      "عمد": 5784,
      "همانطور": 5785,
      "نقاشی": 5786,
      "هواپیما": 5787,
      "##ابله": 5788,
      "حیوان": 5789,
      "##اریس": 5790,
      "کنونی": 5791,
      "ماد": 5792,
      "گونهای": 5793,
      "##حیح": 5794,
      "دریاچه": 5795,
      "##مون": 5796,
      "۲۰۱۷": 5797,
      "عجی": 5798,
      "شرایطی": 5799,
      "چینی": 5800,
      "قلب": 5801,
      "عرصه": 5802,
      "بزن": 5803,
      "##لاک": 5804,
      "کاخ": 5805,
      "##ed": 5806,
      "امپرات": 5807,
      "نماد": 5808,
      "##یترین": 5809,
      "##غیر": 5810,
      "##مندی": 5811,
      "تمرین": 5812,
      "ممن": 5813,
      "##اشق": 5814,
      "##ad": 5815,
      "تابستان": 5816,
      "مسيولیت": 5817,
      "ریس": 5818,
      "وابسته": 5819,
      "##لت": 5820,
      "یازدهم": 5821,
      "مقدس": 5822,
      "اطلاعاتی": 5823,
      "مقابله": 5824,
      "چیست": 5825,
      "##ویم": 5826,
      "##مي": 5827,
      "##زن": 5828,
      "##لح": 5829,
      "شرکتها": 5830,
      "اصطلاح": 5831,
      "فرمانده": 5832,
      "شای": 5833,
      "نقد": 5834,
      "گوشت": 5835,
      "##زام": 5836,
      "یهودی": 5837,
      "هاشمی": 5838,
      "دهنده": 5839,
      "میخواهد": 5840,
      "##میر": 5841,
      "راحتی": 5842,
      "یابد": 5843,
      "##ساخت": 5844,
      "روس": 5845,
      "تخت": 5846,
      "سوي": 5847,
      "شاخ": 5848,
      "##il": 5849,
      "مفید": 5850,
      "فاز": 5851,
      "شهریور": 5852,
      "انگلیس": 5853,
      "##اهیم": 5854,
      "##ثی": 5855,
      "متعلق": 5856,
      "ماز": 5857,
      "ایالت": 5858,
      "پولی": 5859,
      "محاس": 5860,
      "تصاویر": 5861,
      "بودهاند": 5862,
      "لحظه": 5863,
      "تجهیزات": 5864,
      "بازیگر": 5865,
      "میداند": 5866,
      "نوج": 5867,
      "حفا": 5868,
      "المانی": 5869,
      "۳۰۰": 5870,
      "له": 5871,
      "##رهای": 5872,
      "امضا": 5873,
      "##اندازی": 5874,
      "فرض": 5875,
      "۳۵": 5876,
      "روب": 5877,
      "قبیل": 5878,
      "نوز": 5879,
      "دانشجویان": 5880,
      "##سین": 5881,
      "رمز": 5882,
      "حضرت": 5883,
      "دقت": 5884,
      "##غم": 5885,
      "مبلغ": 5886,
      "خروج": 5887,
      "سالانه": 5888,
      "اتم": 5889,
      "##اندن": 5890,
      "لذت": 5891,
      "قلم": 5892,
      "علاق": 5893,
      "تز": 5894,
      "بدهی": 5895,
      "مهارت": 5896,
      "##یان": 5897,
      "شار": 5898,
      "اصلا": 5899,
      "سده": 5900,
      "خورشید": 5901,
      "نحوه": 5902,
      "خارجه": 5903,
      "سیستمهای": 5904,
      "موشک": 5905,
      "۳۱": 5906,
      "ارا": 5907,
      "نرمافزار": 5908,
      "۱۳۴": 5909,
      "ناپ": 5910,
      "غیرم": 5911,
      "واحدهای": 5912,
      "گرفتند": 5913,
      "برنامهریزی": 5914,
      "##خیر": 5915,
      "##ur": 5916,
      "رمان": 5917,
      "##ضل": 5918,
      "بگو": 5919,
      "لند": 5920,
      "اباد": 5921,
      "درمانی": 5922,
      "اسرايیل": 5923,
      "پهل": 5924,
      "گوشیهای": 5925,
      "تکرار": 5926,
      "حداک": 5927,
      "پیوند": 5928,
      "ها": 5929,
      "##ct": 5930,
      "محمود": 5931,
      "غل": 5932,
      "##کشی": 5933,
      "گوگل": 5934,
      "محاسبه": 5935,
      "بندی": 5936,
      "عموم": 5937,
      "نکرده": 5938,
      "کلید": 5939,
      "بگیرید": 5940,
      "مقامات": 5941,
      "بنیاد": 5942,
      "رستوران": 5943,
      "کمپانی": 5944,
      "تند": 5945,
      "سپت": 5946,
      "##درا": 5947,
      "##گرام": 5948,
      "امپراتوری": 5949,
      "مهدی": 5950,
      "##اتیک": 5951,
      "##بیل": 5952,
      "##پار": 5953,
      "پروژ": 5954,
      "ورزشی": 5955,
      "##رض": 5956,
      "سرباز": 5957,
      "بزرگتر": 5958,
      "##عیف": 5959,
      "پیگیری": 5960,
      "مطمي": 5961,
      "اپراتور": 5962,
      "کیلومتری": 5963,
      "ملل": 5964,
      "##یدند": 5965,
      "شغل": 5966,
      "مالک": 5967,
      "چندان": 5968,
      "درس": 5969,
      "خراسان": 5970,
      "الان": 5971,
      "مناسبی": 5972,
      "کشوری": 5973,
      "سیر": 5974,
      "قضایی": 5975,
      "##کاران": 5976,
      "جلب": 5977,
      "##گاری": 5978,
      "حادثه": 5979,
      "رح": 5980,
      "میافت": 5981,
      "روایت": 5982,
      "ادم": 5983,
      "دیدگاه": 5984,
      "عباس": 5985,
      "هرگز": 5986,
      "پنجم": 5987,
      "کاربر": 5988,
      "ویتامین": 5989,
      "سپتامبر": 5990,
      "بچه": 5991,
      "دس": 5992,
      "مجله": 5993,
      "دهیم": 5994,
      "صرفا": 5995,
      "مفهوم": 5996,
      "سخنرانی": 5997,
      "میلاد": 5998,
      "اختلال": 5999,
      "خبرگزاری": 6000,
      "پان": 6001,
      "کمبود": 6002,
      "جس": 6003,
      "مرغ": 6004,
      "۱۳۹۴": 6005,
      "حقوقی": 6006,
      "اسید": 6007,
      "نماید": 6008,
      "##يو": 6009,
      "توپ": 6010,
      "کارشناسی": 6011,
      "مقاله": 6012,
      "شیمیایی": 6013,
      "ایس": 6014,
      "لین": 6015,
      "##کام": 6016,
      "بهار": 6017,
      "متولد": 6018,
      "##نجی": 6019,
      "میاورد": 6020,
      "سرک": 6021,
      "داشتهاست": 6022,
      "مارس": 6023,
      "۱۹۱": 6024,
      "رده": 6025,
      "نادر": 6026,
      "میتوانیم": 6027,
      "##تاح": 6028,
      "مراحل": 6029,
      "جزو": 6030,
      "ششم": 6031,
      "اقامت": 6032,
      "نگرانی": 6033,
      "کارگردانی": 6034,
      "سد": 6035,
      "درح": 6036,
      "حاوی": 6037,
      "ماس": 6038,
      "تبریز": 6039,
      "تاز": 6040,
      "نمون": 6041,
      "کشیده": 6042,
      "##ارتی": 6043,
      "ثروت": 6044,
      "ابن": 6045,
      "تلویزیونی": 6046,
      "پاریس": 6047,
      "##چاق": 6048,
      "مساله": 6049,
      "دینی": 6050,
      "##رار": 6051,
      "دارم": 6052,
      "ژن": 6053,
      "شاع": 6054,
      "استقبال": 6055,
      "جبه": 6056,
      "##ارا": 6057,
      "درگیری": 6058,
      "##ادن": 6059,
      "۹۶": 6060,
      "صفر": 6061,
      "نشود": 6062,
      "تان": 6063,
      "هجری": 6064,
      "موب": 6065,
      "##قات": 6066,
      "##سیل": 6067,
      "ابان": 6068,
      "##طل": 6069,
      "خوا": 6070,
      "ریز": 6071,
      "قطعات": 6072,
      "۲۰۱۵": 6073,
      "پرچ": 6074,
      "کامپیوتر": 6075,
      "برجسته": 6076,
      "تپ": 6077,
      "##وانه": 6078,
      "تحویل": 6079,
      "##وردین": 6080,
      "قوه": 6081,
      "منطقهای": 6082,
      "بشر": 6083,
      "بودم": 6084,
      "رایج": 6085,
      "خلیج": 6086,
      "##تها": 6087,
      "دخ": 6088,
      "علیر": 6089,
      "##احت": 6090,
      "##ونا": 6091,
      "عث": 6092,
      "نژاد": 6093,
      "عشق": 6094,
      "اولویت": 6095,
      "##وای": 6096,
      "موسسات": 6097,
      "##نشان": 6098,
      "خش": 6099,
      "رونق": 6100,
      "in": 6101,
      "دف": 6102,
      "##گرایی": 6103,
      "معمول": 6104,
      "ایمنی": 6105,
      "تخصصی": 6106,
      "وسایل": 6107,
      "الف": 6108,
      "بیماریهای": 6109,
      "برمی": 6110,
      "عادی": 6111,
      "فن": 6112,
      "شهرو": 6113,
      "##ریش": 6114,
      "اعتباری": 6115,
      "گیل": 6116,
      "بندر": 6117,
      "فضایی": 6118,
      "راستای": 6119,
      "فروردین": 6120,
      "شهرت": 6121,
      "دیج": 6122,
      "وال": 6123,
      "##منستان": 6124,
      "قاچاق": 6125,
      "بپرداز": 6126,
      "علايم": 6127,
      "##عب": 6128,
      "چطور": 6129,
      "بنیان": 6130,
      "پادشاهی": 6131,
      "ضروری": 6132,
      "ریاضی": 6133,
      "مخالفت": 6134,
      "##صال": 6135,
      "خاور": 6136,
      "نیازمند": 6137,
      "برقرار": 6138,
      "نسخ": 6139,
      "ممنوع": 6140,
      "میساز": 6141,
      "جرم": 6142,
      "اکتبر": 6143,
      "میوه": 6144,
      "خانم": 6145,
      "خوردن": 6146,
      "##ورو": 6147,
      "خویش": 6148,
      "چپ": 6149,
      "دهم": 6150,
      "رانند": 6151,
      "##ایق": 6152,
      "غیرق": 6153,
      "بخواه": 6154,
      "پذیرش": 6155,
      "افتتاح": 6156,
      "الکترونیک": 6157,
      "##گا": 6158,
      "سینمایی": 6159,
      "الکترونیکی": 6160,
      "خانگی": 6161,
      "سقف": 6162,
      "خلاف": 6163,
      "بالات": 6164,
      "روستایی": 6165,
      "بومی": 6166,
      "##وقف": 6167,
      "گرفتهاست": 6168,
      "دمای": 6169,
      "لغو": 6170,
      "##کها": 6171,
      "سلطان": 6172,
      "جواب": 6173,
      "وید": 6174,
      "ستاد": 6175,
      "متوقف": 6176,
      "بتوانند": 6177,
      "سامسون": 6178,
      "##نوعی": 6179,
      "ژانویه": 6180,
      "بهشمار": 6181,
      "چهارشنبه": 6182,
      "میروند": 6183,
      "درام": 6184,
      "اگاهی": 6185,
      "حفاظت": 6186,
      "مشهد": 6187,
      "##اکس": 6188,
      "نموده": 6189,
      "نجات": 6190,
      "ازمون": 6191,
      "سختی": 6192,
      "حداکثر": 6193,
      "اینگونه": 6194,
      "بدهد": 6195,
      "قضا": 6196,
      "الگوریت": 6197,
      "نباشد": 6198,
      "میشدند": 6199,
      "ایرانیان": 6200,
      "##ch": 6201,
      "##سازان": 6202,
      "بک": 6203,
      "شفاف": 6204,
      "گوناگون": 6205,
      "مطابق": 6206,
      "پیمان": 6207,
      "میرا": 6208,
      "مشرو": 6209,
      "داری": 6210,
      "نیوی": 6211,
      "اذر": 6212,
      "سلی": 6213,
      "تخریب": 6214,
      "ژوين": 6215,
      "چای": 6216,
      "محت": 6217,
      "جاذبههای": 6218,
      "اتوم": 6219,
      "محله": 6220,
      "کیلو": 6221,
      "لذا": 6222,
      "تصاد": 6223,
      "##ot": 6224,
      "بازسازی": 6225,
      "##ناس": 6226,
      "ساکن": 6227,
      "عبدال": 6228,
      "مذاکرات": 6229,
      "تولیدی": 6230,
      "##کران": 6231,
      "##فاوتی": 6232,
      "الکتری": 6233,
      "خالی": 6234,
      "سامسونگ": 6235,
      "##عش": 6236,
      "##قیان": 6237,
      "لندن": 6238,
      "##ag": 6239,
      "ضرب": 6240,
      "عمی": 6241,
      "##خار": 6242,
      "صلح": 6243,
      "##بند": 6244,
      "درگیر": 6245,
      "سیل": 6246,
      "جنبش": 6247,
      "امدن": 6248,
      "st": 6249,
      "بانکهای": 6250,
      "متصل": 6251,
      "۲۰۱۴": 6252,
      "عبارتند": 6253,
      "بهر": 6254,
      "فراوانی": 6255,
      "اوریل": 6256,
      "وار": 6257,
      "مانع": 6258,
      "اندروید": 6259,
      "حدی": 6260,
      "میرفت": 6261,
      "the": 6262,
      "##جع": 6263,
      "قز": 6264,
      "##جانی": 6265,
      "ادعا": 6266,
      "مبتلا": 6267,
      "فرودگاه": 6268,
      "خریداری": 6269,
      "چش": 6270,
      "##لیلی": 6271,
      "بای": 6272,
      "##وچ": 6273,
      "باره": 6274,
      "۴۵": 6275,
      "##بخت": 6276,
      "دیپ": 6277,
      "جغرافی": 6278,
      "هید": 6279,
      "کارگردان": 6280,
      "دوشنبه": 6281,
      "ایین": 6282,
      "مهاجرت": 6283,
      "تياتر": 6284,
      "کتابهای": 6285,
      "##ویق": 6286,
      "##ودگی": 6287,
      "##id": 6288,
      "اسناد": 6289,
      "بازرگانی": 6290,
      "حاشیه": 6291,
      "فیزیکی": 6292,
      "عجیب": 6293,
      "رف": 6294,
      "جدول": 6295,
      "بشک": 6296,
      "##امون": 6297,
      "متقا": 6298,
      "کنندگان": 6299,
      "۳۲": 6300,
      "مذکور": 6301,
      "بید": 6302,
      "قه": 6303,
      "نکنید": 6304,
      "مذاکره": 6305,
      "##بول": 6306,
      "کارخانه": 6307,
      "صحیح": 6308,
      "راحت": 6309,
      "کلمه": 6310,
      "زبانهای": 6311,
      "تابع": 6312,
      "بگوی": 6313,
      "اطمین": 6314,
      "سقوط": 6315,
      "مواردی": 6316,
      "۱۳۳": 6317,
      "پیشین": 6318,
      "محکوم": 6319,
      "تعط": 6320,
      "جع": 6321,
      "بارها": 6322,
      "##ردگی": 6323,
      "هما": 6324,
      "پیچیده": 6325,
      "##تیک": 6326,
      "نوامبر": 6327,
      "وعده": 6328,
      "بردن": 6329,
      "##لاقی": 6330,
      "##طوری": 6331,
      "##قیب": 6332,
      "مگ": 6333,
      "لا": 6334,
      "افزوده": 6335,
      "##un": 6336,
      "بروید": 6337,
      "بهد": 6338,
      "تعامل": 6339,
      "سابقه": 6340,
      "زمینی": 6341,
      "تری": 6342,
      "های": 6343,
      "۲۰۱۲": 6344,
      "نیویورک": 6345,
      "نفس": 6346,
      "قدم": 6347,
      "##شتر": 6348,
      "دریای": 6349,
      "دسامبر": 6350,
      "ارامش": 6351,
      "مینم": 6352,
      "قی": 6353,
      "جبهه": 6354,
      "رکود": 6355,
      "مبتنی": 6356,
      "##سیر": 6357,
      "پور": 6358,
      "صدور": 6359,
      "میانگین": 6360,
      "بگیرند": 6361,
      "متعددی": 6362,
      "خاطرنشان": 6363,
      "متغیر": 6364,
      "خطوط": 6365,
      "##دراسیون": 6366,
      "روزی": 6367,
      "یکشنبه": 6368,
      "هشد": 6369,
      "##لر": 6370,
      "روبرو": 6371,
      "باستانی": 6372,
      "خال": 6373,
      "نات": 6374,
      "##زاد": 6375,
      "فلسفه": 6376,
      "محدودیت": 6377,
      "اطمینان": 6378,
      "بقیه": 6379,
      "ارزان": 6380,
      "زا": 6381,
      "##پور": 6382,
      "فعالان": 6383,
      "##کول": 6384,
      "بهصورت": 6385,
      "کانال": 6386,
      "تدوین": 6387,
      "خواندن": 6388,
      "میانه": 6389,
      "داشتهاند": 6390,
      "یخ": 6391,
      "مقررات": 6392,
      "##انداز": 6393,
      "متهم": 6394,
      "طرحهای": 6395,
      "پایدار": 6396,
      "مجمع": 6397,
      "منافع": 6398,
      "فولاد": 6399,
      "##ویز": 6400,
      "##امله": 6401,
      "اوت": 6402,
      "رسیدگی": 6403,
      "مجدد": 6404,
      "##اشت": 6405,
      "اژانس": 6406,
      "خمینی": 6407,
      "ارمنی": 6408,
      "##زده": 6409,
      "فراوان": 6410,
      "کت": 6411,
      "نظری": 6412,
      "فتح": 6413,
      "گردد": 6414,
      "ابع": 6415,
      "عدهای": 6416,
      "تخم": 6417,
      "مون": 6418,
      "ایفون": 6419,
      "##دنی": 6420,
      "انداخت": 6421,
      "##ویا": 6422,
      "بودیم": 6423,
      "پناه": 6424,
      "خات": 6425,
      "##گرا": 6426,
      "##زوم": 6427,
      "مشتری": 6428,
      "بدانید": 6429,
      "##خو": 6430,
      "زمستان": 6431,
      "ساحل": 6432,
      "روانی": 6433,
      "فلز": 6434,
      "تحقق": 6435,
      "خن": 6436,
      "وجه": 6437,
      "فرزندان": 6438,
      "مستند": 6439,
      "میگفت": 6440,
      "بازیکنان": 6441,
      "##یرد": 6442,
      "ارتباطی": 6443,
      "رسانههای": 6444,
      "دموک": 6445,
      "لایه": 6446,
      "سلولهای": 6447,
      "##شای": 6448,
      "گرفتهاند": 6449,
      "##پولی": 6450,
      "۱۹۲": 6451,
      "زرد": 6452,
      "لشک": 6453,
      "توق": 6454,
      "رسانهها": 6455,
      "۳۶": 6456,
      "جر": 6457,
      "##انا": 6458,
      "##گردان": 6459,
      "چرخ": 6460,
      "مرور": 6461,
      "عدالت": 6462,
      "مجه": 6463,
      "پرچم": 6464,
      "۲۰۱۰": 6465,
      "فوریه": 6466,
      "##میه": 6467,
      "اشتراک": 6468,
      "اسپانیا": 6469,
      "متحد": 6470,
      "دسترس": 6471,
      "کنس": 6472,
      "چربی": 6473,
      "تعهد": 6474,
      "حرک": 6475,
      "##داث": 6476,
      "دستگیر": 6477,
      "میخوان": 6478,
      "۴۰۰": 6479,
      "۲۰۱۳": 6480,
      "##املی": 6481,
      "##پیک": 6482,
      "##زنی": 6483,
      "عاشق": 6484,
      "برگز": 6485,
      "خودروی": 6486,
      "##برت": 6487,
      "##ابری": 6488,
      "پهلوی": 6489,
      "جلوی": 6490,
      "خوانده": 6491,
      "کتابخانه": 6492,
      "الکتریکی": 6493,
      "بدهید": 6494,
      "تحصیلات": 6495,
      "##پس": 6496,
      "ریزی": 6497,
      "##ندر": 6498,
      "تقاضا": 6499,
      "تمایل": 6500,
      "اندازی": 6501,
      "تبلیغات": 6502,
      "تنگ": 6503,
      "نبوده": 6504,
      "بگذ": 6505,
      "یادگیری": 6506,
      "عوار": 6507,
      "حیات": 6508,
      "احداث": 6509,
      "محدوده": 6510,
      "درحالی": 6511,
      "خداوند": 6512,
      "میگرفت": 6513,
      "قطعا": 6514,
      "پروتيین": 6515,
      "انگیز": 6516,
      "خاط": 6517,
      "ماجرا": 6518,
      "رسانه": 6519,
      "۲۰۱۱": 6520,
      "تغذ": 6521,
      "##لین": 6522,
      "##پرس": 6523,
      "میراث": 6524,
      "مجموعهای": 6525,
      "معامله": 6526,
      "ساس": 6527,
      "کلیه": 6528,
      "رکورد": 6529,
      "عف": 6530,
      "##چوب": 6531,
      "کارکنان": 6532,
      "چالش": 6533,
      "خبرنگار": 6534,
      "جنگل": 6535,
      "سلاح": 6536,
      "اوقات": 6537,
      "نوجوان": 6538,
      "دیجیت": 6539,
      "برود": 6540,
      "مینویس": 6541,
      "ضعف": 6542,
      "انف": 6543,
      "##جویی": 6544,
      "موبایل": 6545,
      "##زیک": 6546,
      "مسلمانان": 6547,
      "پنه": 6548,
      "ران": 6549,
      "##زیه": 6550,
      "ثانیه": 6551,
      "رایگان": 6552,
      "##وبه": 6553,
      "وضع": 6554,
      "مربی": 6555,
      "اپلیک": 6556,
      "۲۰۰۸": 6557,
      "خودم": 6558,
      "##شهر": 6559,
      "##لز": 6560,
      "ولایت": 6561,
      "##احی": 6562,
      "یافتن": 6563,
      "ابعاد": 6564,
      "کالاهای": 6565,
      "##شاد": 6566,
      "نوری": 6567,
      "معمولی": 6568,
      "رها": 6569,
      "##راح": 6570,
      "اوج": 6571,
      "##مالی": 6572,
      "عناصر": 6573,
      "احتر": 6574,
      "فراموش": 6575,
      "بکار": 6576,
      "روزها": 6577,
      "معرض": 6578,
      "##ولان": 6579,
      "وقوع": 6580,
      "تحریمها": 6581,
      "داي": 6582,
      "اتحاد": 6583,
      "متم": 6584,
      "##مار": 6585,
      "جنس": 6586,
      "##ورا": 6587,
      "بازنش": 6588,
      "انع": 6589,
      "ردی": 6590,
      "پایانی": 6591,
      "##هایش": 6592,
      "۳۳": 6593,
      "خواص": 6594,
      "زخ": 6595,
      "پارس": 6596,
      "نوشتن": 6597,
      "میافتد": 6598,
      "شیراز": 6599,
      "ژويیه": 6600,
      "مردمی": 6601,
      "شگفت": 6602,
      "ویروس": 6603,
      "اتصال": 6604,
      "شبه": 6605,
      "سومین": 6606,
      "سالن": 6607,
      "نمیده": 6608,
      "##رسانی": 6609,
      "معتقدند": 6610,
      "تراف": 6611,
      "##کم": 6612,
      "##جز": 6613,
      "چقدر": 6614,
      "بازداشت": 6615,
      "لط": 6616,
      "کمتری": 6617,
      "##ورده": 6618,
      "##ازده": 6619,
      "وان": 6620,
      "صفح": 6621,
      "##لاغ": 6622,
      "##الح": 6623,
      "مطب": 6624,
      "منع": 6625,
      "کارگران": 6626,
      "مشترکین": 6627,
      "رویداد": 6628,
      "اشنایی": 6629,
      "کانادا": 6630,
      "##گذاران": 6631,
      "اتوب": 6632,
      "##ندههای": 6633,
      "هشدار": 6634,
      "فارغ": 6635,
      "اوردن": 6636,
      "حملات": 6637,
      "##العمل": 6638,
      "بیماران": 6639,
      "هماهنگی": 6640,
      "روم": 6641,
      "شیرین": 6642,
      "هماکنون": 6643,
      "##جای": 6644,
      "برداری": 6645,
      "##ig": 6646,
      "##جات": 6647,
      "عثمانی": 6648,
      "معنا": 6649,
      "نقشه": 6650,
      "توی": 6651,
      "##اژ": 6652,
      "تقد": 6653,
      "گیاهان": 6654,
      "معظم": 6655,
      "۱۳۹۳": 6656,
      "سرپر": 6657,
      "##کتور": 6658,
      "پیرامون": 6659,
      "فران": 6660,
      "همراهی": 6661,
      "##مدی": 6662,
      "مربع": 6663,
      "سوء": 6664,
      "##وام": 6665,
      "##نشین": 6666,
      "قدرتمند": 6667,
      "راهکار": 6668,
      "زیرساخت": 6669,
      "##ut": 6670,
      "اوپ": 6671,
      "پیشگیری": 6672,
      "##بخش": 6673,
      "نسبتا": 6674,
      "##ستا": 6675,
      "مجهز": 6676,
      "اسما": 6677,
      "راس": 6678,
      "گردشگران": 6679,
      "مخاب": 6680,
      "کلان": 6681,
      "##ستری": 6682,
      "مقط": 6683,
      "سخنان": 6684,
      "سعودی": 6685,
      "##زستان": 6686,
      "۱۳۲": 6687,
      "##iv": 6688,
      "نمایشگر": 6689,
      "افکار": 6690,
      "ابراز": 6691,
      "تدریس": 6692,
      "##شیر": 6693,
      "اهالی": 6694,
      "مایک": 6695,
      "قمری": 6696,
      "عوارض": 6697,
      "اتی": 6698,
      "اسان": 6699,
      "##راحت": 6700,
      "نهادهای": 6701,
      "دستاورد": 6702,
      "بارد": 6703,
      "انتی": 6704,
      "سوز": 6705,
      "ارمنستان": 6706,
      "افتاده": 6707,
      "##باب": 6708,
      "##گاهها": 6709,
      "ستون": 6710,
      "خاند": 6711,
      "هویت": 6712,
      "##سیک": 6713,
      "مقاومتی": 6714,
      "باند": 6715,
      "اصلاحات": 6716,
      "##ia": 6717,
      "گند": 6718,
      "an": 6719,
      "نماز": 6720,
      "دربارهی": 6721,
      "ملک": 6722,
      "سیب": 6723,
      "ریسک": 6724,
      "۹۴": 6725,
      "میایند": 6726,
      "##مدت": 6727,
      "عوض": 6728,
      "قربانی": 6729,
      "منحصر": 6730,
      "عمدتا": 6731,
      "حیوانات": 6732,
      "تدا": 6733,
      "اگاه": 6734,
      "کلیسای": 6735,
      "پروژههای": 6736,
      "پدیده": 6737,
      "##زایی": 6738,
      "##گویی": 6739,
      "داعش": 6740,
      "دقیقا": 6741,
      "میگذارد": 6742,
      "اضطر": 6743,
      "عک": 6744,
      "فساد": 6745,
      "تماشا": 6746,
      "متعدد": 6747,
      "صادق": 6748,
      "وظایف": 6749,
      "صدر": 6750,
      "قلبی": 6751,
      "##اقع": 6752,
      "۲۰۰۹": 6753,
      "برخلاف": 6754,
      "احترام": 6755,
      "##ینژاد": 6756,
      "سراغ": 6757,
      "##سک": 6758,
      "##فاعی": 6759,
      "##قیقی": 6760,
      "تربیت": 6761,
      "میزبان": 6762,
      "##od": 6763,
      "بوی": 6764,
      "سالی": 6765,
      "هیجان": 6766,
      "ضبط": 6767,
      "##ملل": 6768,
      "ارتقا": 6769,
      "سرم": 6770,
      "گفتگو": 6771,
      "نواحی": 6772,
      "اداری": 6773,
      "پلاس": 6774,
      "سنج": 6775,
      "##ضان": 6776,
      "ترکیبی": 6777,
      "گری": 6778,
      "##ردهای": 6779,
      "انسانها": 6780,
      "##دل": 6781,
      "اخذ": 6782,
      "پیشرفته": 6783,
      "فدراسیون": 6784,
      "ملاق": 6785,
      "حوادث": 6786,
      "فرماندهی": 6787,
      "شهروندان": 6788,
      "تون": 6789,
      "۲۰۱۸": 6790,
      "##لیف": 6791,
      "میبرند": 6792,
      "ادع": 6793,
      "هستم": 6794,
      "هور": 6795,
      "صلاح": 6796,
      "میهن": 6797,
      "عزی": 6798,
      "##ay": 6799,
      "گور": 6800,
      "سازمانهای": 6801,
      "چهره": 6802,
      "اثبات": 6803,
      "پاپ": 6804,
      "موضوعات": 6805,
      "بشکه": 6806,
      "کجا": 6807,
      "گلکسی": 6808,
      "هنرمندان": 6809,
      "استراتژی": 6810,
      "##جب": 6811,
      "وین": 6812,
      "ترانه": 6813,
      "مدعی": 6814,
      "میخواهید": 6815,
      "##اما": 6816,
      "مصوب": 6817,
      "##جایی": 6818,
      "خواند": 6819,
      "ببینید": 6820,
      "مسیحی": 6821,
      "##ایست": 6822,
      "استرس": 6823,
      "##خوان": 6824,
      "اینترنتی": 6825,
      "مبنای": 6826,
      "##ستها": 6827,
      "چک": 6828,
      "مسلح": 6829,
      "##کیه": 6830,
      "##خر": 6831,
      "معتبر": 6832,
      "اشکار": 6833,
      "اکث": 6834,
      "واسطه": 6835,
      "باری": 6836,
      "مزای": 6837,
      "کنفر": 6838,
      "مطمين": 6839,
      "of": 6840,
      "##مع": 6841,
      "##ent": 6842,
      "اتهام": 6843,
      "##پوش": 6844,
      "معدنی": 6845,
      "توانسته": 6846,
      "یونانی": 6847,
      "دیوان": 6848,
      "کنگر": 6849,
      "خاورمی": 6850,
      "اقیان": 6851,
      "مصاح": 6852,
      "انقدر": 6853,
      "##همند": 6854,
      "سینمای": 6855,
      "قبلا": 6856,
      "ضعیف": 6857,
      "##مانه": 6858,
      "واگذار": 6859,
      "ارک": 6860,
      "##اموز": 6861,
      "استخوان": 6862,
      "ببر": 6863,
      "یورو": 6864,
      "عمیق": 6865,
      "استرالیا": 6866,
      "الودگی": 6867,
      "##پذیری": 6868,
      "##یتان": 6869,
      "دما": 6870,
      "##برگ": 6871,
      "دانشمندان": 6872,
      "افتخار": 6873,
      "کابینه": 6874,
      "هرچه": 6875,
      "اسمان": 6876,
      "بازاری": 6877,
      "منتظر": 6878,
      "مکت": 6879,
      "تغذیه": 6880,
      "##درضا": 6881,
      "تشویق": 6882,
      "##im": 6883,
      "جمعا": 6884,
      "کانون": 6885,
      "خانوار": 6886,
      "اشغال": 6887,
      "بت": 6888,
      "ترجی": 6889,
      "مسک": 6890,
      "فلسط": 6891,
      "۵۵": 6892,
      "۲۰۰۶": 6893,
      "موافقت": 6894,
      "نگران": 6895,
      "لزوم": 6896,
      "سلس": 6897,
      "##چههای": 6898,
      "نمایندگی": 6899,
      "##سو": 6900,
      "تکنیک": 6901,
      "گفتو": 6902,
      "راهاندازی": 6903,
      "ارایه": 6904,
      "موقع": 6905,
      "جور": 6906,
      "الگوریتم": 6907,
      "تحریک": 6908,
      "متفاوتی": 6909,
      "##صاب": 6910,
      "استی": 6911,
      "۲۰۰۰": 6912,
      "برنج": 6913,
      "ادرس": 6914,
      "##ايی": 6915,
      "##لان": 6916,
      "گزینه": 6917,
      "##سلط": 6918,
      "مازند": 6919,
      "اندکی": 6920,
      "فایل": 6921,
      "جمعی": 6922,
      "ضربه": 6923,
      "افریقا": 6924,
      "کشورمان": 6925,
      "مصاحبه": 6926,
      "سرو": 6927,
      "هار": 6928,
      "زنگ": 6929,
      "##اتور": 6930,
      "جراحی": 6931,
      "پیشنهادی": 6932,
      "پرسش": 6933,
      "دای": 6934,
      "انقلابی": 6935,
      "برگشت": 6936,
      "مربوطه": 6937,
      "غار": 6938,
      "قول": 6939,
      "نوسان": 6940,
      "کاف": 6941,
      "خاورمیانه": 6942,
      "۱۳۰": 6943,
      "چوب": 6944,
      "خروجی": 6945,
      "میپردازد": 6946,
      "چارچوب": 6947,
      "سبزی": 6948,
      "رضایت": 6949,
      "ایستگاه": 6950,
      "جزيیات": 6951,
      "##ir": 6952,
      "مظ": 6953,
      "پاکستان": 6954,
      "##غام": 6955,
      "وف": 6956,
      "هیدرو": 6957,
      "ابتدایی": 6958,
      "##ul": 6959,
      "مطبوع": 6960,
      "تولد": 6961,
      "##پولیس": 6962,
      "##انو": 6963,
      "مطلوب": 6964,
      "امتح": 6965,
      "##باح": 6966,
      "ملاقات": 6967,
      "استودی": 6968,
      "فهم": 6969,
      "شیعه": 6970,
      "همایش": 6971,
      "میزند": 6972,
      "گش": 6973,
      "##دهنده": 6974,
      "##وشی": 6975,
      "##انگ": 6976,
      "##شکل": 6977,
      "ناگه": 6978,
      "ظه": 6979,
      "۳۷": 6980,
      "ماهه": 6981,
      "مدارس": 6982,
      "گرایش": 6983,
      "۲۰۰۷": 6984,
      "خواننده": 6985,
      "جغرافیایی": 6986,
      "انگی": 6987,
      "گیاهی": 6988,
      "مینویسد": 6989,
      "جهاد": 6990,
      "دستورالعمل": 6991,
      "پیامبر": 6992,
      "##صیلی": 6993,
      "ویژهای": 6994,
      "مسیح": 6995,
      "درم": 6996,
      "خشونت": 6997,
      "عبدالله": 6998,
      "نمیکنند": 6999,
      "عملیاتی": 7000,
      "بالغ": 7001,
      "نشانه": 7002,
      "##کردن": 7003,
      "هل": 7004,
      "منزل": 7005,
      "روبه": 7006,
      "کنفرانس": 7007,
      "کاند": 7008,
      "محتو": 7009,
      "روزه": 7010,
      "ثبات": 7011,
      "نای": 7012,
      "حسینی": 7013,
      "بهینه": 7014,
      "۱۳۹۲": 7015,
      "دندان": 7016,
      "شهرها": 7017,
      "دون": 7018,
      "اتفا": 7019,
      "بران": 7020,
      "رسم": 7021,
      "##انیایی": 7022,
      "##شدن": 7023,
      "یزد": 7024,
      "راههای": 7025,
      "حین": 7026,
      "میزن": 7027,
      "متقاضی": 7028,
      "امروزی": 7029,
      "داروهای": 7030,
      "دود": 7031,
      "مری": 7032,
      "براورد": 7033,
      "میسازد": 7034,
      "شغ": 7035,
      "##یاری": 7036,
      "غذای": 7037,
      "مقصد": 7038,
      "گمرک": 7039,
      "کاپ": 7040,
      "##امیز": 7041,
      "کودکی": 7042,
      "افزار": 7043,
      "ابراهیم": 7044,
      "اعط": 7045,
      "الهی": 7046,
      "چراکه": 7047,
      "۱۹۰": 7048,
      "##وردی": 7049,
      "لوازم": 7050,
      "##ap": 7051,
      "نیازهای": 7052,
      "##نامهای": 7053,
      "رادیو": 7054,
      "##عهده": 7055,
      "میخواهند": 7056,
      "خواستار": 7057,
      "اخلاقی": 7058,
      "گنج": 7059,
      "تجزیه": 7060,
      "۹۲": 7061,
      "سوار": 7062,
      "نوین": 7063,
      "اعدام": 7064,
      "منتقدان": 7065,
      "##غه": 7066,
      "##um": 7067,
      "##ومه": 7068,
      "حلقه": 7069,
      "فش": 7070,
      "همهی": 7071,
      "مدرک": 7072,
      "بازیگران": 7073,
      "نرس": 7074,
      "یکم": 7075,
      "خاندان": 7076,
      "انص": 7077,
      "مشکلی": 7078,
      "##رق": 7079,
      "سکه": 7080,
      "دره": 7081,
      "اتفاقی": 7082,
      "دورههای": 7083,
      "باکتری": 7084,
      "بدی": 7085,
      "عصبی": 7086,
      "##امع": 7087,
      "۱۳۱": 7088,
      "##em": 7089,
      "مسو": 7090,
      "مادرش": 7091,
      "##باسی": 7092,
      "شرط": 7093,
      "تفسیر": 7094,
      "##امن": 7095,
      "باقیم": 7096,
      "باتری": 7097,
      "یاداور": 7098,
      "دیدنی": 7099,
      "گرچه": 7100,
      "قیمتها": 7101,
      "مامور": 7102,
      "خوزستان": 7103,
      "مصوبه": 7104,
      "جنگی": 7105,
      "بهتری": 7106,
      "##بس": 7107,
      "ناد": 7108,
      "ضرورت": 7109,
      "تقاضای": 7110,
      "دستیابی": 7111,
      "اتوبوس": 7112,
      "۳۸": 7113,
      "هرک": 7114,
      "ویند": 7115,
      "##ولین": 7116,
      "استانبول": 7117,
      "سخنگ": 7118,
      "پرسپولیس": 7119,
      "##st": 7120,
      "نع": 7121,
      "##سری": 7122,
      "محمدرضا": 7123,
      "##ستهای": 7124,
      "محققان": 7125,
      "کوچکتر": 7126,
      "نخواه": 7127,
      "##گونی": 7128,
      "برایتان": 7129,
      "##نیا": 7130,
      "پلا": 7131,
      "قاجار": 7132,
      "کربن": 7133,
      "پرداخته": 7134,
      "حافظ": 7135,
      "ابتلا": 7136,
      "احمدینژاد": 7137,
      "رونمایی": 7138,
      "ناک": 7139,
      "##بازی": 7140,
      "عظیم": 7141,
      "قض": 7142,
      "##ارات": 7143,
      "مراق": 7144,
      "ترجیح": 7145,
      "رنج": 7146,
      "مدلهای": 7147,
      "پنهان": 7148,
      "خواهر": 7149,
      "نشانی": 7150,
      "گذار": 7151,
      "ساختن": 7152,
      "رانندگی": 7153,
      "دامنه": 7154,
      "بخت": 7155,
      "دشت": 7156,
      "شنا": 7157,
      "نمید": 7158,
      "##گرفته": 7159,
      "##فل": 7160,
      "کنگره": 7161,
      "رسانی": 7162,
      "مدیره": 7163,
      "کاربردی": 7164,
      "فت": 7165,
      "انز": 7166,
      "۴۸": 7167,
      "امدهاست": 7168,
      "افسردگی": 7169,
      "تروریستی": 7170,
      "بگذارید": 7171,
      "برزی": 7172,
      "نمایید": 7173,
      "دروازه": 7174,
      "خلاق": 7175,
      "ارس": 7176,
      "احتی": 7177,
      "طرفداران": 7178,
      "میخورد": 7179,
      "تصرف": 7180,
      "منطقی": 7181,
      "فکری": 7182,
      "بنای": 7183,
      "ماموریت": 7184,
      "وک": 7185,
      "##زدی": 7186,
      "دشوار": 7187,
      "##۰۰۰": 7188,
      "قیمتی": 7189,
      "المپیک": 7190,
      "انتهای": 7191,
      "تقل": 7192,
      "۳۴": 7193,
      "##طبی": 7194,
      "احساسات": 7195,
      "کاغذ": 7196,
      "حامی": 7197,
      "کشید": 7198,
      "مجددا": 7199,
      "##خانههای": 7200,
      "درستی": 7201,
      "محاسب": 7202,
      "تعادل": 7203,
      "زنی": 7204,
      "سوا": 7205,
      "##غد": 7206,
      "مخفی": 7207,
      "خطی": 7208,
      "##اپور": 7209,
      "ناصر": 7210,
      "قاضی": 7211,
      "اختصاصی": 7212,
      "پذیرفت": 7213,
      "اتمام": 7214,
      "احتمالی": 7215,
      "امتحان": 7216,
      "##ینا": 7217,
      "##ویری": 7218,
      "##هات": 7219,
      "هفتم": 7220,
      "جزء": 7221,
      "ایفا": 7222,
      "نگاهی": 7223,
      "بالاترین": 7224,
      "##بک": 7225,
      "شورا": 7226,
      "قبر": 7227,
      "ویل": 7228,
      "##یکس": 7229,
      "امریکای": 7230,
      "نمیر": 7231,
      "##دت": 7232,
      "جانشین": 7233,
      "لبنان": 7234,
      "جمعاوری": 7235,
      "دانسته": 7236,
      "فری": 7237,
      "شکار": 7238,
      "کلاسیک": 7239,
      "ابزارهای": 7240,
      "تفکر": 7241,
      "##یسی": 7242,
      "جیم": 7243,
      "الح": 7244,
      "ایسنا": 7245,
      "پالایش": 7246,
      "فیزیک": 7247,
      "سلطنت": 7248,
      "اخیرا": 7249,
      "طلب": 7250,
      "ابلاغ": 7251,
      "سطوح": 7252,
      "دادهاست": 7253,
      "مصنوعی": 7254,
      "بنزین": 7255,
      "نهم": 7256,
      "سلسله": 7257,
      "محافظت": 7258,
      "##یاش": 7259,
      "توقف": 7260,
      "راهبرد": 7261,
      "قند": 7262,
      "##ایتی": 7263,
      "##وسف": 7264,
      "مایع": 7265,
      "بمب": 7266,
      "میخواهیم": 7267,
      "اسکار": 7268,
      "اشع": 7269,
      "دادههای": 7270,
      "درختان": 7271,
      "تنهایی": 7272,
      "کاربری": 7273,
      "همگی": 7274,
      "محیطی": 7275,
      "هسته": 7276,
      "کهن": 7277,
      "امادگی": 7278,
      "##اطع": 7279,
      "##وسته": 7280,
      "نواز": 7281,
      "کردستان": 7282,
      "والدین": 7283,
      "خز": 7284,
      "هرگونه": 7285,
      "تحریمهای": 7286,
      "شکر": 7287,
      "مخاطب": 7288,
      "سازنده": 7289,
      "بستگی": 7290,
      "##خاص": 7291,
      "مالیاتی": 7292,
      "##الیایی": 7293,
      "گفتند": 7294,
      "جلسات": 7295,
      "حساسی": 7296,
      "پذیرفته": 7297,
      "برقراری": 7298,
      "تنوع": 7299,
      "میکشد": 7300,
      "ابوال": 7301,
      "خم": 7302,
      "کلاه": 7303,
      "##ter": 7304,
      "گیلان": 7305,
      "ظهور": 7306,
      "##ارستان": 7307,
      "محروم": 7308,
      "##گونگی": 7309,
      "تاثیرگذار": 7310,
      "فرس": 7311,
      "##ورند": 7312,
      "##یدر": 7313,
      "واژ": 7314,
      "امو": 7315,
      "انگشت": 7316,
      "تصویری": 7317,
      "قسم": 7318,
      "هندی": 7319,
      "لوله": 7320,
      "ترافیک": 7321,
      "##کارت": 7322,
      "اندازهگیری": 7323,
      "##نویسی": 7324,
      "کریست": 7325,
      "معاصر": 7326,
      "هنرمند": 7327,
      "دربار": 7328,
      "##ایم": 7329,
      "غیره": 7330,
      "طیف": 7331,
      "خودکار": 7332,
      "خواسته": 7333,
      "##ویان": 7334,
      "کنسر": 7335,
      "محسن": 7336,
      "صلی": 7337,
      "رفاه": 7338,
      "نفع": 7339,
      "ایکس": 7340,
      "کارها": 7341,
      "تولیدکنندگان": 7342,
      "حاج": 7343,
      "دانشگاهی": 7344,
      "مگر": 7345,
      "چگونگی": 7346,
      "تجدید": 7347,
      "گستردهای": 7348,
      "بدنه": 7349,
      "قسمتهای": 7350,
      "تحمل": 7351,
      "لایحه": 7352,
      "مسافر": 7353,
      "ارزشم": 7354,
      "کوش": 7355,
      "مساحت": 7356,
      "شعار": 7357,
      "ویندوز": 7358,
      "##ادو": 7359,
      "دانل": 7360,
      "##حسین": 7361,
      "بستر": 7362,
      "داشتیم": 7363,
      "کرمانشاه": 7364,
      "مقطع": 7365,
      "ایمیل": 7366,
      "کلیسا": 7367,
      "خانههای": 7368,
      "##وایی": 7369,
      "لات": 7370,
      "۲۰۰۵": 7371,
      "پارل": 7372,
      "مراقبت": 7373,
      "برعهده": 7374,
      "##رفه": 7375,
      "اندیش": 7376,
      "دراز": 7377,
      "تمدن": 7378,
      "کوتاهی": 7379,
      "##نظ": 7380,
      "کوچکی": 7381,
      "هکت": 7382,
      "دوازدهم": 7383,
      "de": 7384,
      "یونان": 7385,
      "امت": 7386,
      "ظاهرا": 7387,
      "بهخ": 7388,
      "سینه": 7389,
      "خبرنامه": 7390,
      "گفتوگو": 7391,
      "همسرش": 7392,
      "##اذ": 7393,
      "بیاید": 7394,
      "۴۴": 7395,
      "یکسان": 7396,
      "##میلی": 7397,
      "سعید": 7398,
      "##وکار": 7399,
      "##افر": 7400,
      "گیگ": 7401,
      "کالای": 7402,
      "سلامتی": 7403,
      "شاعر": 7404,
      "تیمهای": 7405,
      "##پت": 7406,
      "##ونگ": 7407,
      "##نگاری": 7408,
      "توری": 7409,
      "جبران": 7410,
      "۲۰۱۹": 7411,
      "فین": 7412,
      "رشتههای": 7413,
      "شواهد": 7414,
      "نداریم": 7415,
      "تردد": 7416,
      "سخنگوی": 7417,
      "ch": 7418,
      "ناز": 7419,
      "امین": 7420,
      "نویسندگان": 7421,
      "دلاری": 7422,
      "جانبی": 7423,
      "مینماید": 7424,
      "متمرکز": 7425,
      "##راس": 7426,
      "عمق": 7427,
      "تجربی": 7428,
      "تاخیر": 7429,
      "مشکلاتی": 7430,
      "دیپلم": 7431,
      "شغلی": 7432,
      "##اقد": 7433,
      "##پرداخت": 7434,
      "قطار": 7435,
      "مسکونی": 7436,
      "معاونت": 7437,
      "لر": 7438,
      "ماههای": 7439,
      "نیازی": 7440,
      "##یدگی": 7441,
      "خوشبخت": 7442,
      "محتوای": 7443,
      "##فرو": 7444,
      "کارگ": 7445,
      "رسانهای": 7446,
      "نقدین": 7447,
      "##بتی": 7448,
      "عنصر": 7449,
      "شارژ": 7450,
      "##ایات": 7451,
      "##التی": 7452,
      "گیم": 7453,
      "اری": 7454,
      "##ضه": 7455,
      "صوتی": 7456,
      "نمیدان": 7457,
      "شکایت": 7458,
      "##ضاع": 7459,
      "شهرک": 7460,
      "##مزد": 7461,
      "##صیل": 7462,
      "اولی": 7463,
      "نقدینگی": 7464,
      "قطعی": 7465,
      "فرستاد": 7466,
      "##عهای": 7467,
      "منصوب": 7468,
      "پرده": 7469,
      "اقیانوس": 7470,
      "حوزههای": 7471,
      "گندم": 7472,
      "کنسول": 7473,
      "خوراکی": 7474,
      "میبایست": 7475,
      "اسل": 7476,
      "سردار": 7477,
      "یادداشت": 7478,
      "ایستنا": 7479,
      "##گهای": 7480,
      "مسافران": 7481,
      "دشمنان": 7482,
      "ژاپنی": 7483,
      "۷۵": 7484,
      "##ورید": 7485,
      "بدهند": 7486,
      "مازندران": 7487,
      "اکران": 7488,
      "نده": 7489,
      "رومی": 7490,
      "میدادند": 7491,
      "مرات": 7492,
      "اثرات": 7493,
      "اپلیکیشن": 7494,
      "##راسی": 7495,
      "مات": 7496,
      "پارسی": 7497,
      "میدهیم": 7498,
      "پرست": 7499,
      "پهن": 7500,
      "##ابتی": 7501,
      "برطرف": 7502,
      "کمال": 7503,
      "##ow": 7504,
      "تخلف": 7505,
      "##گش": 7506,
      "دبیرستان": 7507,
      "انتخاباتی": 7508,
      "##فای": 7509,
      "دانلود": 7510,
      "زوج": 7511,
      "##واز": 7512,
      "نیک": 7513,
      "حقیقی": 7514,
      "فاقد": 7515,
      "کاس": 7516,
      "##na": 7517,
      "بغ": 7518,
      "وزارتخانه": 7519,
      "شدم": 7520,
      "دیجیتال": 7521,
      "اندیشه": 7522,
      "متناسب": 7523,
      "پرتاب": 7524,
      "استخدام": 7525,
      "عقل": 7526,
      "اوری": 7527,
      "##گرایان": 7528,
      "بعدا": 7529,
      "##رنگ": 7530,
      "افتاب": 7531,
      "طلایی": 7532,
      "خورده": 7533,
      "متری": 7534,
      "ازای": 7535,
      "##کلی": 7536,
      "##روسافت": 7537,
      "##ادله": 7538,
      "الا": 7539,
      "زمینههای": 7540,
      "##ابند": 7541,
      "شاد": 7542,
      "##اسم": 7543,
      "معلوم": 7544,
      "۱۵۰": 7545,
      "فیلمی": 7546,
      "ایام": 7547,
      "سانت": 7548,
      "ون": 7549,
      "راستا": 7550,
      "اتفاقات": 7551,
      "بوش": 7552,
      "استع": 7553,
      "نوزاد": 7554,
      "میخواست": 7555,
      "##ation": 7556,
      "##وها": 7557,
      "میتوانست": 7558,
      "##وارد": 7559,
      "نظرات": 7560,
      "سایه": 7561,
      "##ندهای": 7562,
      "تلگرام": 7563,
      "الکت": 7564,
      "پراک": 7565,
      "خبرنگاران": 7566,
      "مخل": 7567,
      "موان": 7568,
      "عرو": 7569,
      "ماری": 7570,
      "عقیده": 7571,
      "شخصیتهای": 7572,
      "گال": 7573,
      "پیوسته": 7574,
      "##وعی": 7575,
      "معرو": 7576,
      "مورخ": 7577,
      "انگیزه": 7578,
      "هزاران": 7579,
      "نکات": 7580,
      "بابت": 7581,
      "بیل": 7582,
      "اظهارات": 7583,
      "##پو": 7584,
      "کمترین": 7585,
      "حالیکه": 7586,
      "میاور": 7587,
      "مترو": 7588,
      "تبع": 7589,
      "هشتم": 7590,
      "۹۳": 7591,
      "##نوشت": 7592,
      "بهرهبرداری": 7593,
      "تيوری": 7594,
      "مایکروسافت": 7595,
      "هکتار": 7596,
      "یهودیان": 7597,
      "بالاخ": 7598,
      "خشم": 7599,
      "جری": 7600,
      "جنبه": 7601,
      "واگذاری": 7602,
      "قالی": 7603,
      "##ردی": 7604,
      "##شناخت": 7605,
      "فا": 7606,
      "یکپار": 7607,
      "کردهایم": 7608,
      "##عیل": 7609,
      "فیبر": 7610,
      "موز": 7611,
      "##ریس": 7612,
      "خانوادگی": 7613,
      "##ته": 7614,
      "الگوی": 7615,
      "جلد": 7616,
      "زمینهای": 7617,
      "بماند": 7618,
      "اوضاع": 7619,
      "عط": 7620,
      "خودکشی": 7621,
      "پژوهشی": 7622,
      "تست": 7623,
      "نامگذاری": 7624,
      "غنی": 7625,
      "گفتم": 7626,
      "قص": 7627,
      "شرک": 7628,
      "##خوانی": 7629,
      "امی": 7630,
      "کوههای": 7631,
      "بگوییم": 7632,
      "لقب": 7633,
      "تسهیل": 7634,
      "##کین": 7635,
      "##ایلی": 7636,
      "بالاخره": 7637,
      "دانشگاههای": 7638,
      "پردازنده": 7639,
      "##وههای": 7640,
      "مرتب": 7641,
      "غلام": 7642,
      "خودمان": 7643,
      "طرفی": 7644,
      "##يون": 7645,
      "تار": 7646,
      "اشخاص": 7647,
      "دخالت": 7648,
      "الگو": 7649,
      "مستقر": 7650,
      "فرش": 7651,
      "متق": 7652,
      "دفاعی": 7653,
      "بیکاری": 7654,
      "##ورهای": 7655,
      "نگهبان": 7656,
      "عز": 7657,
      "مخاطبان": 7658,
      "روستاهای": 7659,
      "دايمی": 7660,
      "وسط": 7661,
      "##تاژ": 7662,
      "الهام": 7663,
      "اقا": 7664,
      "سفارت": 7665,
      "اشکال": 7666,
      "اوست": 7667,
      "معیار": 7668,
      "پنجشنبه": 7669,
      "جستجو": 7670,
      "##هنی": 7671,
      "میامد": 7672,
      "خطرناک": 7673,
      "مض": 7674,
      "امضای": 7675,
      "##ویسی": 7676,
      "بردار": 7677,
      "دوچر": 7678,
      "صرفه": 7679,
      "##og": 7680,
      "یارانه": 7681,
      "توج": 7682,
      "انب": 7683,
      "گیگاب": 7684,
      "##ویج": 7685,
      "استانهای": 7686,
      "حرارت": 7687,
      "انجایی": 7688,
      "کیلوگرم": 7689,
      "قطب": 7690,
      "##يه": 7691,
      "حساس": 7692,
      "دروغ": 7693,
      "سیگن": 7694,
      "سیما": 7695,
      "تمی": 7696,
      "اچ": 7697,
      "برزیل": 7698,
      "کالی": 7699,
      "الس": 7700,
      "##and": 7701,
      "##کنی": 7702,
      "سواحل": 7703,
      "##ایشی": 7704,
      "دهان": 7705,
      "##یاء": 7706,
      "مشخصات": 7707,
      "ارشاد": 7708,
      "##ولت": 7709,
      "صندلی": 7710,
      "خسارت": 7711,
      "۴۲": 7712,
      "گونههای": 7713,
      "داوط": 7714,
      "یو": 7715,
      "میکرو": 7716,
      "##شماری": 7717,
      "##ابور": 7718,
      "انتظامی": 7719,
      "ادغام": 7720,
      "احمدی": 7721,
      "سنگی": 7722,
      "تزریق": 7723,
      "جاب": 7724,
      "ایمی": 7725,
      "گزارشی": 7726,
      "طراح": 7727,
      "ذرات": 7728,
      "باقیمانده": 7729,
      "لحظ": 7730,
      "بساز": 7731,
      "##وکس": 7732,
      "کنون": 7733,
      "ردیف": 7734,
      "پیروز": 7735,
      "مصد": 7736,
      "صحن": 7737,
      "ریش": 7738,
      "ابشار": 7739,
      "خودروسازان": 7740,
      "شهرسازی": 7741,
      "داغ": 7742,
      "۸۸": 7743,
      "بخار": 7744,
      "سانتی": 7745,
      "هنرهای": 7746,
      "میماند": 7747,
      "دموکرات": 7748,
      "##ودر": 7749,
      "##ستیک": 7750,
      "مسعود": 7751,
      "دختران": 7752,
      "تحولات": 7753,
      "میگرد": 7754,
      "پردازش": 7755,
      "عملا": 7756,
      "وحدت": 7757,
      "##فترین": 7758,
      "##اسیون": 7759,
      "شباه": 7760,
      "اعداد": 7761,
      "جوانی": 7762,
      "اوپک": 7763,
      "کلیدی": 7764,
      "ببرید": 7765,
      "مقاد": 7766,
      "مجازات": 7767,
      "##زدهم": 7768,
      "ایتالله": 7769,
      "شناسی": 7770,
      "##ادمی": 7771,
      "تومانی": 7772,
      "طعم": 7773,
      "تنش": 7774,
      "کارکرد": 7775,
      "شری": 7776,
      "منف": 7777,
      "##الیف": 7778,
      "بتوانیم": 7779,
      "علیرغم": 7780,
      "اتومبیل": 7781,
      "موقت": 7782,
      "۴۱": 7783,
      "باخت": 7784,
      "سفارش": 7785,
      "##یما": 7786,
      "میشوید": 7787,
      "مباح": 7788,
      "میشناس": 7789,
      "معلم": 7790,
      "جانب": 7791,
      "##ظاه": 7792,
      "مدال": 7793,
      "اجاره": 7794,
      "رهبران": 7795,
      "بزنید": 7796,
      "سپرد": 7797,
      "امپراتور": 7798,
      "اسماعیل": 7799,
      "هواوی": 7800,
      "همد": 7801,
      "بلاف": 7802,
      "تحصیلی": 7803,
      "ورزشگاه": 7804,
      "۶۴": 7805,
      "مخدر": 7806,
      "گردن": 7807,
      "ارتقای": 7808,
      "خوشم": 7809,
      "ویلی": 7810,
      "اخلاق": 7811,
      "نمک": 7812,
      "تلاشهای": 7813,
      "نیوز": 7814,
      "تایل": 7815,
      "زودی": 7816,
      "اموال": 7817,
      "استح": 7818,
      "##ایز": 7819,
      "فدر": 7820,
      "قدمت": 7821,
      "استعد": 7822,
      "اکثریت": 7823,
      "تفک": 7824,
      "##یمتر": 7825,
      "استانه": 7826,
      "اسن": 7827,
      "اردو": 7828,
      "تضمین": 7829,
      "پرف": 7830,
      "ابهای": 7831,
      "##مح": 7832,
      "ملاح": 7833,
      "چندی": 7834,
      "ناو": 7835,
      "دارویی": 7836,
      "##وهی": 7837,
      "مطالبات": 7838,
      "مایل": 7839,
      "غیرقابل": 7840,
      "تولیدات": 7841,
      "فراتر": 7842,
      "کلیک": 7843,
      "برداشته": 7844,
      "کرو": 7845,
      "سریعتر": 7846,
      "رقیب": 7847,
      "##صری": 7848,
      "بهداشتی": 7849,
      "راننده": 7850,
      "میگذار": 7851,
      "نابود": 7852,
      "مینام": 7853,
      "حمام": 7854,
      "تکیه": 7855,
      "بلافاصله": 7856,
      "ژنتی": 7857,
      "دبی": 7858,
      "پایی": 7859,
      "##پل": 7860,
      "رقص": 7861,
      "سنی": 7862,
      "کارایی": 7863,
      "گره": 7864,
      "##ظی": 7865,
      "نمیتوانند": 7866,
      "لم": 7867,
      "دارا": 7868,
      "نهایتا": 7869,
      "صعود": 7870,
      "مردی": 7871,
      "##راب": 7872,
      "شکلی": 7873,
      "##ذر": 7874,
      "جوش": 7875,
      "اضطراب": 7876,
      "استراحت": 7877,
      "متنوع": 7878,
      "سازمانی": 7879,
      "سیمکارت": 7880,
      "ایتالیایی": 7881,
      "فلزی": 7882,
      "چندانی": 7883,
      "مهمان": 7884,
      "نتوانست": 7885,
      "قضیه": 7886,
      "مى": 7887,
      "##اصره": 7888,
      "مذهب": 7889,
      "۶۵": 7890,
      "شیعی": 7891,
      "اکبر": 7892,
      "سلطنتی": 7893,
      "سار": 7894,
      "نقدی": 7895,
      "##خورد": 7896,
      "عکاسی": 7897,
      "۴۳": 7898,
      "##ri": 7899,
      "فیلی": 7900,
      "تدریج": 7901,
      "امارات": 7902,
      "خودروها": 7903,
      "۱۸۹": 7904,
      "تماشای": 7905,
      "استد": 7906,
      "جزایر": 7907,
      "عرف": 7908,
      "قوم": 7909,
      "همدان": 7910,
      "خاطرات": 7911,
      "بنده": 7912,
      "میت": 7913,
      "##دای": 7914,
      "۵۷": 7915,
      "بری": 7916,
      "گز": 7917,
      "منظم": 7918,
      "تلقی": 7919,
      "##ra": 7920,
      "##اقی": 7921,
      "اتمی": 7922,
      "حجت": 7923,
      "تعلق": 7924,
      "قزوین": 7925,
      "کابل": 7926,
      "۲۰۰۴": 7927,
      "مکمل": 7928,
      "میگذرد": 7929,
      "برون": 7930,
      "قاي": 7931,
      "نمونههای": 7932,
      "شعبه": 7933,
      "موضوعی": 7934,
      "بهکار": 7935,
      "##جاست": 7936,
      "##اتل": 7937,
      "سربازان": 7938,
      "##فیف": 7939,
      "دب": 7940,
      "استانداردهای": 7941,
      "۱۳۹۰": 7942,
      "##op": 7943,
      "مقی": 7944,
      "دغد": 7945,
      "زین": 7946,
      "تشریح": 7947,
      "بلی": 7948,
      "زر": 7949,
      "محاصره": 7950,
      "فرستاده": 7951,
      "##ناطی": 7952,
      "سکونت": 7953,
      "خطاب": 7954,
      "علام": 7955,
      "##پین": 7956,
      "تحقیقاتی": 7957,
      "انبار": 7958,
      "مالکیت": 7959,
      "##ناطیسی": 7960,
      "گذاران": 7961,
      "مسکو": 7962,
      "منتهی": 7963,
      "قسمتی": 7964,
      "خودداری": 7965,
      "ذهنی": 7966,
      "خلاصه": 7967,
      "##وود": 7968,
      "##غر": 7969,
      "مغزی": 7970,
      "کلام": 7971,
      "##راع": 7972,
      "نکند": 7973,
      "زندانی": 7974,
      "شبانه": 7975,
      "##سد": 7976,
      "مقادیر": 7977,
      "مخالفان": 7978,
      "##اع": 7979,
      "قدیمیترین": 7980,
      "re": 7981,
      "عروس": 7982,
      "ماست": 7983,
      "قار": 7984,
      "##oc": 7985,
      "فاط": 7986,
      "عفونت": 7987,
      "شام": 7988,
      "چاه": 7989,
      "دراورد": 7990,
      "التها": 7991,
      "##زاب": 7992,
      "ایمیلی": 7993,
      "قراردادهای": 7994,
      "دوچرخه": 7995,
      "حاکی": 7996,
      "اتخ": 7997,
      "میرسید": 7998,
      "##کوپ": 7999,
      "کول": 8000,
      "۶۰۰": 8001,
      "دادهها": 8002,
      "##دامی": 8003,
      "ازار": 8004,
      "نشر": 8005,
      "موانع": 8006,
      "سواری": 8007,
      "تالار": 8008,
      "همینطور": 8009,
      "ناس": 8010,
      "ادعای": 8011,
      "توابع": 8012,
      "بسیج": 8013,
      "پایینتر": 8014,
      "##ازن": 8015,
      "۵۱": 8016,
      "##فتد": 8017,
      "۱۳۹۱": 8018,
      "راهنمای": 8019,
      "امیدواریم": 8020,
      "زیبای": 8021,
      "##عدی": 8022,
      "ساکنان": 8023,
      "پیشتر": 8024,
      "##سانی": 8025,
      "فرمول": 8026,
      "بچهها": 8027,
      "۱۲۰": 8028,
      "مقداری": 8029,
      "شیشه": 8030,
      "لشکر": 8031,
      "بازاریابی": 8032,
      "##رال": 8033,
      "الن": 8034,
      "شاخه": 8035,
      "نداشتند": 8036,
      "##باف": 8037,
      "قهوه": 8038,
      "خب": 8039,
      "##پزشک": 8040,
      "فض": 8041,
      "رفتارهای": 8042,
      "۲۰۰۳": 8043,
      "ستار": 8044,
      "برساند": 8045,
      "حساسیت": 8046,
      "سرنوشت": 8047,
      "نوار": 8048,
      "بلو": 8049,
      "اتخاذ": 8050,
      "۳۹": 8051,
      "نسبی": 8052,
      "مرزهای": 8053,
      "فرک": 8054,
      "کشیدن": 8055,
      "کتابی": 8056,
      "تظاه": 8057,
      "##قان": 8058,
      "انیم": 8059,
      "##جاع": 8060,
      "تپه": 8061,
      "بره": 8062,
      "بازیها": 8063,
      "هواد": 8064,
      "داشتم": 8065,
      "##اوز": 8066,
      "##سکی": 8067,
      "۱۹۹۰": 8068,
      "صلاحیت": 8069,
      "مکتب": 8070,
      "گازی": 8071,
      "همکاران": 8072,
      "تازگی": 8073,
      "شایع": 8074,
      "فراورده": 8075,
      "رنگی": 8076,
      "نخستوز": 8077,
      "اواز": 8078,
      "چنانچه": 8079,
      "قاره": 8080,
      "کلمات": 8081,
      "##طن": 8082,
      "##مرد": 8083,
      "بام": 8084,
      "گرافیک": 8085,
      "حرکات": 8086,
      "جنا": 8087,
      "عموما": 8088,
      "جدیدترین": 8089,
      "##صار": 8090,
      "۰۹": 8091,
      "مبارز": 8092,
      "برگزیده": 8093,
      "بنام": 8094,
      "موضع": 8095,
      "شویم": 8096,
      "هاست": 8097,
      "محتر": 8098,
      "شتاب": 8099,
      "نوت": 8100,
      "شهادت": 8101,
      "گنبد": 8102,
      "##راتی": 8103,
      "وبس": 8104,
      "جیمز": 8105,
      "فوقالع": 8106,
      "راک": 8107,
      "تخمین": 8108,
      "ویدي": 8109,
      "برن": 8110,
      "عظ": 8111,
      "فقر": 8112,
      "دهی": 8113,
      "مسا": 8114,
      "نت": 8115,
      "##شو": 8116,
      "۸۵": 8117,
      "بانکداری": 8118,
      "مخابرات": 8119,
      "بیاب": 8120,
      "روبهرو": 8121,
      "مند": 8122,
      "بهطوری": 8123,
      "بازگرد": 8124,
      "تکلیف": 8125,
      "گیت": 8126,
      "اشپ": 8127,
      "بگذارد": 8128,
      "دگر": 8129,
      "ویلیام": 8130,
      "قلمرو": 8131,
      "چراغ": 8132,
      "##صره": 8133,
      "استدلال": 8134,
      "کارگر": 8135,
      "##لیتهای": 8136,
      "مدارک": 8137,
      "خدای": 8138,
      "##زبور": 8139,
      "مشورت": 8140,
      "اکادمی": 8141,
      "بگیریم": 8142,
      "##۸۰": 8143,
      "نشانههای": 8144,
      "عادت": 8145,
      "میبینید": 8146,
      "۸۰۰": 8147,
      "سفیر": 8148,
      "صهی": 8149,
      "بیرونی": 8150,
      "باران": 8151,
      "راهنمایی": 8152,
      "کشورهایی": 8153,
      "وسیع": 8154,
      "شورش": 8155,
      "درج": 8156,
      "نقض": 8157,
      "فلسطین": 8158,
      "اگ": 8159,
      "##مانند": 8160,
      "حاکمیت": 8161,
      "ارزشمند": 8162,
      "دوازده": 8163,
      "تشد": 8164,
      "##وفی": 8165,
      "مرزی": 8166,
      "##افز": 8167,
      "تمیز": 8168,
      "##جاری": 8169,
      "بله": 8170,
      "بیستم": 8171,
      "##نویس": 8172,
      "##سمه": 8173,
      "معادن": 8174,
      "##سا": 8175,
      "مدا": 8176,
      "se": 8177,
      "لیس": 8178,
      "موسوم": 8179,
      "ضریب": 8180,
      "بهای": 8181,
      "خالص": 8182,
      "کمونی": 8183,
      "تشدید": 8184,
      "##عان": 8185,
      "##کوس": 8186,
      "##دیه": 8187,
      "ظاهری": 8188,
      "اسیای": 8189,
      "##بورگ": 8190,
      "دانشگاهها": 8191,
      "امیز": 8192,
      "جاس": 8193,
      "##جستان": 8194,
      "کیه": 8195,
      "سطحی": 8196,
      "برگرد": 8197,
      "۵۳": 8198,
      "کامی": 8199,
      "زرت": 8200,
      "فدرال": 8201,
      "##طو": 8202,
      "متشکل": 8203,
      "برتری": 8204,
      "im": 8205,
      "هلند": 8206,
      "اعزام": 8207,
      "نیت": 8208,
      "درونی": 8209,
      "گوشه": 8210,
      "ببرد": 8211,
      "##ab": 8212,
      "نشریه": 8213,
      "مجتم": 8214,
      "موسوی": 8215,
      "درامدهای": 8216,
      "نیش": 8217,
      "۴۷": 8218,
      "متمای": 8219,
      "صحت": 8220,
      "پدیدار": 8221,
      "فره": 8222,
      "وبسایت": 8223,
      "##کنیم": 8224,
      "##قرار": 8225,
      "محوط": 8226,
      "۹۱": 8227,
      "##فتی": 8228,
      "والی": 8229,
      "al": 8230,
      "##دری": 8231,
      "سرکوب": 8232,
      "گزارشها": 8233,
      "کالری": 8234,
      "پری": 8235,
      "بغداد": 8236,
      "مهندس": 8237,
      "حرم": 8238,
      "۴۶": 8239,
      "تحلیلی": 8240,
      "مایکل": 8241,
      "تسلیم": 8242,
      "مهاج": 8243,
      "هواپیمای": 8244,
      "تعطیل": 8245,
      "کارهایی": 8246,
      "مخلوط": 8247,
      "خنک": 8248,
      "حفر": 8249,
      "##فیق": 8250,
      "تفاهم": 8251,
      "پتان": 8252,
      "مجسمه": 8253,
      "چشمه": 8254,
      "اسیایی": 8255,
      "لهستان": 8256,
      "شمسی": 8257,
      "پزشکان": 8258,
      "بیند": 8259,
      "ابه": 8260,
      "دوستی": 8261,
      "تصمیمگیری": 8262,
      "یمن": 8263,
      "عبار": 8264,
      "##اندهی": 8265,
      "الزام": 8266,
      "سگ": 8267,
      "##ختن": 8268,
      "استخراج": 8269,
      "تعمیر": 8270,
      "##اسط": 8271,
      "اندک": 8272,
      "بارداری": 8273,
      "طرز": 8274,
      "سويد": 8275,
      "کارمندان": 8276,
      "##فش": 8277,
      "هایش": 8278,
      "تولیدکننده": 8279,
      "اندام": 8280,
      "فیلمبرداری": 8281,
      "##فرم": 8282,
      "ناام": 8283,
      "ایرانسل": 8284,
      "رایانه": 8285,
      "بنابر": 8286,
      "البر": 8287,
      "مستم": 8288,
      "تصادفی": 8289,
      "یکبار": 8290,
      "استث": 8291,
      "##کب": 8292,
      "۵۲": 8293,
      "روانشناسی": 8294,
      "چرخه": 8295,
      "##طلب": 8296,
      "گردیده": 8297,
      "عهد": 8298,
      "۵۴": 8299,
      "اختل": 8300,
      "##ویژه": 8301,
      "##متر": 8302,
      "بکش": 8303,
      "لوک": 8304,
      "افرا": 8305,
      "ساختمانهای": 8306,
      "نمیدهد": 8307,
      "مشم": 8308,
      "مباحث": 8309,
      "##اورده": 8310,
      "مهار": 8311,
      "خوشبختانه": 8312,
      "هواداران": 8313,
      "عالم": 8314,
      "گزارشهای": 8315,
      "داستانهای": 8316,
      "مدافع": 8317,
      "اله": 8318,
      "تام": 8319,
      "کردید": 8320,
      "ماندن": 8321,
      "##اونی": 8322,
      "ساماندهی": 8323,
      "دولتهای": 8324,
      "همسایه": 8325,
      "قهرمانان": 8326,
      "ماجرای": 8327,
      "مناسبت": 8328,
      "کاروان": 8329,
      "فرمانرو": 8330,
      "رام": 8331,
      "کیس": 8332,
      "تردید": 8333,
      "درگذشته": 8334,
      "مالزی": 8335,
      "وابستگی": 8336,
      "احزاب": 8337,
      "##حسن": 8338,
      "ساختمانی": 8339,
      "جدایی": 8340,
      "۷۰۰": 8341,
      "طال": 8342,
      "میزنند": 8343,
      "اتریش": 8344,
      "نظم": 8345,
      "انکار": 8346,
      "##شویی": 8347,
      "خودروسازی": 8348,
      "اسکن": 8349,
      "دانشجو": 8350,
      "قوا": 8351,
      "##فران": 8352,
      "زودتر": 8353,
      "ایوان": 8354,
      "اکسی": 8355,
      "##پذیرد": 8356,
      "محبوبیت": 8357,
      "قن": 8358,
      "محاسبات": 8359,
      "جاذبه": 8360,
      "تابل": 8361,
      "بازمی": 8362,
      "سرمربی": 8363,
      "۳۵۰": 8364,
      "۴۹": 8365,
      "سپری": 8366,
      "رنگهای": 8367,
      "فرید": 8368,
      "مزایای": 8369,
      "##چهای": 8370,
      "بهویژه": 8371,
      "فیر": 8372,
      "نمودند": 8373,
      "تجاوز": 8374,
      "مرجع": 8375,
      "کیش": 8376,
      "##بای": 8377,
      "مصط": 8378,
      "جنگهای": 8379,
      "۵۶": 8380,
      "برنامهها": 8381,
      "علیرضا": 8382,
      "تها": 8383,
      "تصادف": 8384,
      "چهل": 8385,
      "الدین": 8386,
      "مخصوصا": 8387,
      "جوامع": 8388,
      "شل": 8389,
      "بزند": 8390,
      "رسما": 8391,
      "امری": 8392,
      "##الا": 8393,
      "هماهنگ": 8394,
      "لاتین": 8395,
      "شاهزاده": 8396,
      "##زمینی": 8397,
      "اضافی": 8398,
      "تعاونی": 8399,
      "ساحلی": 8400,
      "نوجوانان": 8401,
      "تبادل": 8402,
      "##سام": 8403,
      "هندو": 8404,
      "صادراتی": 8405,
      "پات": 8406,
      "شوهر": 8407,
      "چیزهایی": 8408,
      "هیچگاه": 8409,
      "اشعار": 8410,
      "نمیکرد": 8411,
      "##ce": 8412,
      "کشاورزان": 8413,
      "ايت": 8414,
      "خراب": 8415,
      "صدها": 8416,
      "مواقع": 8417,
      "تقدیر": 8418,
      "امدند": 8419,
      "نوشید": 8420,
      "##خواهی": 8421,
      "مدنی": 8422,
      "پارلمان": 8423,
      "برایش": 8424,
      "یاری": 8425,
      "تث": 8426,
      "##ak": 8427,
      "مراجع": 8428,
      "مجری": 8429,
      "##احتی": 8430,
      "سرپرست": 8431,
      "داستانی": 8432,
      "ایمان": 8433,
      "##وجود": 8434,
      "فیلمنامه": 8435,
      "ویدی": 8436,
      "زیستی": 8437,
      "##یرهای": 8438,
      "توجیه": 8439,
      "##بیا": 8440,
      "سوسی": 8441,
      "رسیدند": 8442,
      "ترکیبات": 8443,
      "معده": 8444,
      "##وندی": 8445,
      "نوروز": 8446,
      "جداگانه": 8447,
      "خسرو": 8448,
      "اعضا": 8449,
      "بشود": 8450,
      "یکپارچه": 8451,
      "میرساند": 8452,
      "##رود": 8453,
      "تعطیلات": 8454,
      "میدانید": 8455,
      "معروفترین": 8456,
      "جستجوی": 8457,
      "الوده": 8458,
      "نداد": 8459,
      "سانتیمتر": 8460,
      "تروریسم": 8461,
      "##صلی": 8462,
      "۲۰۰۲": 8463,
      "فروشگاه": 8464,
      "مکر": 8465,
      "مقیاس": 8466,
      "##ثری": 8467,
      "ماهیت": 8468,
      "خرم": 8469,
      "مصرفی": 8470,
      "مشخصی": 8471,
      "pro": 8472,
      "سادگی": 8473,
      "کاش": 8474,
      "اواسط": 8475,
      "شکم": 8476,
      "خوشمزه": 8477,
      "##ers": 8478,
      "##انیهای": 8479,
      "رضوی": 8480,
      "بخاطر": 8481,
      "تفریح": 8482,
      "رفتند": 8483,
      "محرک": 8484,
      "##دهای": 8485,
      "شهردار": 8486,
      "کریم": 8487,
      "بیه": 8488,
      "ترش": 8489,
      "منشا": 8490,
      "تیره": 8491,
      "روحی": 8492,
      "سایپا": 8493,
      "ذخایر": 8494,
      "نرو": 8495,
      "محترم": 8496,
      "##یاط": 8497,
      "قیمتهای": 8498,
      "پرا": 8499,
      "شریف": 8500,
      "هواپیمایی": 8501,
      "ماموران": 8502,
      "برنامهای": 8503,
      "استقرار": 8504,
      "العاده": 8505,
      "##گم": 8506,
      "##ونها": 8507,
      "نوش": 8508,
      "##وتو": 8509,
      "ایز": 8510,
      "رج": 8511,
      "نوبت": 8512,
      "نامش": 8513,
      "##عل": 8514,
      "##ارک": 8515,
      "بزرگان": 8516,
      "امواج": 8517,
      "اخراج": 8518,
      "ضخ": 8519,
      "##یدهای": 8520,
      "تکامل": 8521,
      "اصلاحطل": 8522,
      "تبلیغاتی": 8523,
      "نواوری": 8524,
      "راز": 8525,
      "##اسر": 8526,
      "##ولف": 8527,
      "مکانهای": 8528,
      "پرندگان": 8529,
      "گرجستان": 8530,
      "یافتهاست": 8531,
      "ساسانی": 8532,
      "اختلالات": 8533,
      "##ارن": 8534,
      "دستگیری": 8535,
      "پشتی": 8536,
      "مردمان": 8537,
      "تاکسی": 8538,
      "لن": 8539,
      "گفتن": 8540,
      "##قام": 8541,
      "##age": 8542,
      "فیلتر": 8543,
      "##چسب": 8544,
      "شنیده": 8545,
      "دستاوردهای": 8546,
      "نوشیدنی": 8547,
      "دادستان": 8548,
      "##خل": 8549,
      "پایداری": 8550,
      "sp": 8551,
      "دیوید": 8552,
      "کوهستانی": 8553,
      "نحوی": 8554,
      "رقابتهای": 8555,
      "##خود": 8556,
      "اعتی": 8557,
      "صهیونی": 8558,
      "بیانیه": 8559,
      "وحشت": 8560,
      "رواج": 8561,
      "##وسیله": 8562,
      "دیروز": 8563,
      "مداوم": 8564,
      "ارومیه": 8565,
      "زاي": 8566,
      "نیمی": 8567,
      "اي": 8568,
      "روشی": 8569,
      "نسخههای": 8570,
      "ظریف": 8571,
      "زیان": 8572,
      "پروانه": 8573,
      "تداوم": 8574,
      "فرکانس": 8575,
      "##بهای": 8576,
      "برقی": 8577,
      "معین": 8578,
      "جفت": 8579,
      "خوراک": 8580,
      "عید": 8581,
      "انفجار": 8582,
      "بگویم": 8583,
      "##ظف": 8584,
      "ممل": 8585,
      "شانس": 8586,
      "۲۰۰۱": 8587,
      "۱۹۸۰": 8588,
      "پذ": 8589,
      "چهارمین": 8590,
      "غیرقان": 8591,
      "عباسی": 8592,
      "تجرب": 8593,
      "محلول": 8594,
      "میکردم": 8595,
      "com": 8596,
      "صفحات": 8597,
      "زه": 8598,
      "##قلی": 8599,
      "میاورند": 8600,
      "۲۰۲۰": 8601,
      "میدانیم": 8602,
      "توت": 8603,
      "##جمله": 8604,
      "مولکول": 8605,
      "مراتب": 8606,
      "خامنهای": 8607,
      "املاک": 8608,
      "اعتیاد": 8609,
      "ناخال": 8610,
      "##سور": 8611,
      "##ویچ": 8612,
      "##التح": 8613,
      "ظرفیتهای": 8614,
      "##ولیک": 8615,
      "سوپ": 8616,
      "غیرقانونی": 8617,
      "جوایز": 8618,
      "بهدلیل": 8619,
      "مشا": 8620,
      "لاری": 8621,
      "##شها": 8622,
      "میدانست": 8623,
      "دستمزد": 8624,
      "مزار": 8625,
      "##مره": 8626,
      "موظف": 8627,
      "##ماسی": 8628,
      "راضی": 8629,
      "حمید": 8630,
      "برابری": 8631,
      "##افرینی": 8632,
      "عام": 8633,
      "ملا": 8634,
      "ایفای": 8635,
      "##تین": 8636,
      "اوب": 8637,
      "##الدوله": 8638,
      "قایق": 8639,
      "سرشار": 8640,
      "مولف": 8641,
      "فارغالتح": 8642,
      "کامپ": 8643,
      "مشاوره": 8644,
      "زاویه": 8645,
      "ساختاری": 8646,
      "اقوام": 8647,
      "ترویج": 8648,
      "##امده": 8649,
      "شنید": 8650,
      "کوان": 8651,
      "همکاریهای": 8652,
      "خواهان": 8653,
      "##خانهای": 8654,
      "قصر": 8655,
      "گمان": 8656,
      "فو": 8657,
      "بینالملل": 8658,
      "۰۸": 8659,
      "انق": 8660,
      "مهمتر": 8661,
      "##ess": 8662,
      "جسم": 8663,
      "بف": 8664,
      "طاق": 8665,
      "بهدست": 8666,
      "عسل": 8667,
      "##باع": 8668,
      "۱۰۰۰": 8669,
      "نادیده": 8670,
      "پوشیده": 8671,
      "برادرش": 8672,
      "اماری": 8673,
      "زلز": 8674,
      "سپه": 8675,
      "۱۳۸۸": 8676,
      "مطلق": 8677,
      "مهارتهای": 8678,
      "میانی": 8679,
      "پسرش": 8680,
      "مطبوعات": 8681,
      "شلیک": 8682,
      "صفوی": 8683,
      "وص": 8684,
      "ارامگاه": 8685,
      "ar": 8686,
      "am": 8687,
      "بختیاری": 8688,
      "شکلگیری": 8689,
      "تاثیرات": 8690,
      "پرنده": 8691,
      "کالیفر": 8692,
      "##یص": 8693,
      "ناه": 8694,
      "فرق": 8695,
      "اسیبهای": 8696,
      "sh": 8697,
      "##ضع": 8698,
      "متون": 8699,
      "میبینیم": 8700,
      "سبزیجات": 8701,
      "حامل": 8702,
      "وکیل": 8703,
      "##باس": 8704,
      "پیروی": 8705,
      "مانی": 8706,
      "سوالات": 8707,
      "شیش": 8708,
      "مارت": 8709,
      "تراز": 8710,
      "پژوهشهای": 8711,
      "تالیف": 8712,
      "نعمت": 8713,
      "سیمکارتهای": 8714,
      "الوم": 8715,
      "تدبیر": 8716,
      "نوک": 8717,
      "رفتاری": 8718,
      "خلیفه": 8719,
      "میشویم": 8720,
      "دورهای": 8721,
      "فیس": 8722,
      "##شینی": 8723,
      "نامن": 8724,
      "سکوت": 8725,
      "متقاضیان": 8726,
      "استراتژیک": 8727,
      "الاس": 8728,
      "۸۲": 8729,
      "وقایع": 8730,
      "۱۹۷۰": 8731,
      "##بو": 8732,
      "##پیوند": 8733,
      "سرقت": 8734,
      "##گرمی": 8735,
      "گوی": 8736,
      "رمضان": 8737,
      "##یتون": 8738,
      "معنوی": 8739,
      "۱۸۶": 8740,
      "لاک": 8741,
      "##روه": 8742,
      "##یتا": 8743,
      "##پای": 8744,
      "عزیز": 8745,
      "##جهای": 8746,
      "پاییز": 8747,
      "شباهت": 8748,
      "ترور": 8749,
      "ریچ": 8750,
      "مفاهیم": 8751,
      "سیاره": 8752,
      "بلوچ": 8753,
      "نوشتههای": 8754,
      "اجباری": 8755,
      "##همان": 8756,
      "بتوانید": 8757,
      "وای": 8758,
      "##سکو": 8759,
      "الت": 8760,
      "##نشینی": 8761,
      "کردهاید": 8762,
      "وسعت": 8763,
      "برم": 8764,
      "زح": 8765,
      "رادیویی": 8766,
      "کارل": 8767,
      "دستگاهها": 8768,
      "گذاشتن": 8769,
      "دز": 8770,
      "تفری": 8771,
      "امریکاییها": 8772,
      "تثبیت": 8773,
      "##الیسم": 8774,
      "##افل": 8775,
      "تسلط": 8776,
      "انهایی": 8777,
      "ساعات": 8778,
      "قابلیتهای": 8779,
      "سفرهای": 8780,
      "۱۳۵۷": 8781,
      "الکس": 8782,
      "تفکیک": 8783,
      "##نجان": 8784,
      "##ویض": 8785,
      "فروشی": 8786,
      "##واس": 8787,
      "خوار": 8788,
      "نفره": 8789,
      "حش": 8790,
      "خوی": 8791,
      "تجمع": 8792,
      "اوردند": 8793,
      "##يیه": 8794,
      "##واک": 8795,
      "۱۲۸": 8796,
      "##ثیری": 8797,
      "پید": 8798,
      "##یهای": 8799,
      "جوی": 8800,
      "##ینت": 8801,
      "نقط": 8802,
      "پژو": 8803,
      "محمدعلی": 8804,
      "##شیان": 8805,
      "دهستان": 8806,
      "ملکه": 8807,
      "صلیبی": 8808,
      "۱۸۷": 8809,
      "گناه": 8810,
      "##te": 8811,
      "درخش": 8812,
      "اقدامی": 8813,
      "حکایت": 8814,
      "برف": 8815,
      "کارنامه": 8816,
      "اکسیژن": 8817,
      "##ip": 8818,
      "فرمود": 8819,
      "همج": 8820,
      "سهامداران": 8821,
      "پورت": 8822,
      "علامت": 8823,
      "سرود": 8824,
      "۵۹": 8825,
      "اراضی": 8826,
      "هورمون": 8827,
      "وسیعی": 8828,
      "سراسری": 8829,
      "۲۵۰": 8830,
      "دامن": 8831,
      "فراز": 8832,
      "فرایندهای": 8833,
      "سیاستم": 8834,
      "ذوب": 8835,
      "بخواهد": 8836,
      "انتشارات": 8837,
      "راجع": 8838,
      "قايم": 8839,
      "##افرین": 8840,
      "۸۶": 8841,
      "بدل": 8842,
      "##اندر": 8843,
      "پیامکی": 8844,
      "همت": 8845,
      "اصرار": 8846,
      "بزرگسال": 8847,
      "بهشت": 8848,
      "شناختی": 8849,
      "خرج": 8850,
      "خانوادههای": 8851,
      "##هیز": 8852,
      "صاح": 8853,
      "چسب": 8854,
      "اکسید": 8855,
      "اهواز": 8856,
      "خاصیت": 8857,
      "##راکم": 8858,
      "ضل": 8859,
      "کرم": 8860,
      "توانستند": 8861,
      "قیام": 8862,
      "##سرای": 8863,
      "##ادهاش": 8864,
      "##یسم": 8865,
      "##ملک": 8866,
      "گیگابایت": 8867,
      "قله": 8868,
      "مدیرکل": 8869,
      "فیروز": 8870,
      "بازیگری": 8871,
      "محض": 8872,
      "امکانپذیر": 8873,
      "تایلند": 8874,
      "شکن": 8875,
      "واض": 8876,
      "اینطور": 8877,
      "ورزشک": 8878,
      "اوی": 8879,
      "کنسرت": 8880,
      "بناهای": 8881,
      "شکاف": 8882,
      "مغناطیسی": 8883,
      "بازرسی": 8884,
      "رایانهای": 8885,
      "زیارت": 8886,
      "خیال": 8887,
      "اعتراف": 8888,
      "جعفر": 8889,
      "۹۹": 8890,
      "طبقهبندی": 8891,
      "##گزینی": 8892,
      "مسيولین": 8893,
      "اینستا": 8894,
      "##ذی": 8895,
      "مصطفی": 8896,
      "##چین": 8897,
      "دیابت": 8898,
      "۵۸": 8899,
      "تغییراتی": 8900,
      "بررسیهای": 8901,
      "افریقای": 8902,
      "طاه": 8903,
      "سیگار": 8904,
      "واری": 8905,
      "نمیشوند": 8906,
      "سرشماری": 8907,
      "شیعیان": 8908,
      "یاداوری": 8909,
      "##ادات": 8910,
      "اسد": 8911,
      "کسبوکار": 8912,
      "##یکا": 8913,
      "اسپانیایی": 8914,
      "ثمر": 8915,
      "##ژیکی": 8916,
      "طلاق": 8917,
      "##رضا": 8918,
      "مدیریتی": 8919,
      "تعهدات": 8920,
      "##گام": 8921,
      "تبی": 8922,
      "منتخ": 8923,
      "مکزیک": 8924,
      "بهانه": 8925,
      "فردا": 8926,
      "سیگنال": 8927,
      "میخواند": 8928,
      "رابرت": 8929,
      "تیرماه": 8930,
      "##وریان": 8931,
      "هخ": 8932,
      "##البی": 8933,
      "نقشی": 8934,
      "بخشهایی": 8935,
      "فای": 8936,
      "نادرست": 8937,
      "بروند": 8938,
      "رقابتی": 8939,
      "چوبی": 8940,
      "مقالات": 8941,
      "ویديو": 8942,
      "مسدود": 8943,
      "کاراک": 8944,
      "##نگری": 8945,
      "کاربردهای": 8946,
      "##سرا": 8947,
      "مجتمع": 8948,
      "چشمگیری": 8949,
      "درخشان": 8950,
      "سويیس": 8951,
      "دونالد": 8952,
      "وصل": 8953,
      "فروخته": 8954,
      "##شور": 8955,
      "##ارتمان": 8956,
      "ضرر": 8957,
      "لیتر": 8958,
      "##av": 8959,
      "##گراد": 8960,
      "درخصوص": 8961,
      "نیروگاه": 8962,
      "تصمیمات": 8963,
      "وات": 8964,
      "نوسازی": 8965,
      "۱۸۸": 8966,
      "پلت": 8967,
      "انبوه": 8968,
      "غلط": 8969,
      "قايل": 8970,
      "محوطه": 8971,
      "متدا": 8972,
      "متخصصان": 8973,
      "قبال": 8974,
      "نابودی": 8975,
      "خستگی": 8976,
      "##اکتور": 8977,
      "زلزله": 8978,
      "##البا": 8979,
      "کمرب": 8980,
      "حرارتی": 8981,
      "اثری": 8982,
      "گوناگونی": 8983,
      "مود": 8984,
      "داریوش": 8985,
      "##اء": 8986,
      "شکسته": 8987,
      "شعب": 8988,
      "حز": 8989,
      "ايتلاف": 8990,
      "زاد": 8991,
      "دفن": 8992,
      "بیاورد": 8993,
      "##انگیز": 8994,
      "اساسا": 8995,
      "فتنه": 8996,
      "بق": 8997,
      "##ولهای": 8998,
      "##مایشی": 8999,
      "خاموش": 9000,
      "رزرو": 9001,
      "انگاه": 9002,
      "شدیم": 9003,
      "اوک": 9004,
      "دانشجویی": 9005,
      "گویش": 9006,
      "کارامد": 9007,
      "بازتاب": 9008,
      "وحشی": 9009,
      "کشتار": 9010,
      "ثروتمند": 9011,
      "ارمان": 9012,
      "##مایند": 9013,
      "پراکنده": 9014,
      "رنو": 9015,
      "نشدهاست": 9016,
      "اجتن": 9017,
      "گواهی": 9018,
      "فقیه": 9019,
      "اختلافات": 9020,
      "نگار": 9021,
      "##جن": 9022,
      "منس": 9023,
      "کالیفرنیا": 9024,
      "گاو": 9025,
      "حریف": 9026,
      "##if": 9027,
      "##فاده": 9028,
      "کلین": 9029,
      "هرمز": 9030,
      "برادران": 9031,
      "دوی": 9032,
      "##خشی": 9033,
      "تخصیص": 9034,
      "##جمهوری": 9035,
      "کفش": 9036,
      "التهاب": 9037,
      "##سوم": 9038,
      "فراوردههای": 9039,
      "فشرده": 9040,
      "سیستان": 9041,
      "پنجاه": 9042,
      "مدتها": 9043,
      "اصولگرایان": 9044,
      "مرتبه": 9045,
      "##ودا": 9046,
      "کناره": 9047,
      "میگذارند": 9048,
      "شست": 9049,
      "پنجره": 9050,
      "ببرند": 9051,
      "پیکر": 9052,
      "هخامن": 9053,
      "##پن": 9054,
      "پژوهشگران": 9055,
      "بوشهر": 9056,
      "##all": 9057,
      "لطف": 9058,
      "بلوک": 9059,
      "احتیاط": 9060,
      "جنایت": 9061,
      "مقرر": 9062,
      "پاش": 9063,
      "بخصوص": 9064,
      "فناوریهای": 9065,
      "نگارش": 9066,
      "میخواهم": 9067,
      "ازجمله": 9068,
      "زای": 9069,
      "چالشهای": 9070,
      "##گرای": 9071,
      "فلزات": 9072,
      "خونی": 9073,
      "ناظر": 9074,
      "صاحبان": 9075,
      "مختص": 9076,
      "مسیرهای": 9077,
      "زخم": 9078,
      "میگفتند": 9079,
      "بهطوریکه": 9080,
      "کرسی": 9081,
      "اینچ": 9082,
      "اختراع": 9083,
      "تخصص": 9084,
      "عراقی": 9085,
      "پتانسیل": 9086,
      "پروتکل": 9087,
      "and": 9088,
      "اجتناب": 9089,
      "کارش": 9090,
      "ابری": 9091,
      "اعم": 9092,
      "تشکر": 9093,
      "ایه": 9094,
      "نخستوزیر": 9095,
      "نصر": 9096,
      "##وات": 9097,
      "تعاون": 9098,
      "مبادل": 9099,
      "۷۲": 9100,
      "اموزان": 9101,
      "##منی": 9102,
      "قرون": 9103,
      "زنجانی": 9104,
      "غالبا": 9105,
      "##فیه": 9106,
      "ریخته": 9107,
      "ماب": 9108,
      "تبعید": 9109,
      "بقای": 9110,
      "دراین": 9111,
      "هدیه": 9112,
      "##نم": 9113,
      "محاک": 9114,
      "همکار": 9115,
      "حاجی": 9116,
      "لوکس": 9117,
      "۸۴": 9118,
      "##عکس": 9119,
      "دهها": 9120,
      "نایب": 9121,
      "کیهان": 9122,
      "سونی": 9123,
      "##بایی": 9124,
      "صی": 9125,
      "شادی": 9126,
      "قدس": 9127,
      "کبد": 9128,
      "بوت": 9129,
      "قراردادی": 9130,
      "##اتوری": 9131,
      "کردی": 9132,
      "##کوه": 9133,
      "ناگهانی": 9134,
      "##طاف": 9135,
      "میرسند": 9136,
      "جناح": 9137,
      "فروند": 9138,
      "دولتها": 9139,
      "فوقالعاده": 9140,
      "##سن": 9141,
      "تجار": 9142,
      "خاتمی": 9143,
      "رستور": 9144,
      "##۳۰": 9145,
      "بیدار": 9146,
      "استحکام": 9147,
      "اعظم": 9148,
      "حدودی": 9149,
      "داراییهای": 9150,
      "##ونزی": 9151,
      "صنفی": 9152,
      "تخفیف": 9153,
      "راهبردی": 9154,
      "کالاها": 9155,
      "لیت": 9156,
      "##ردن": 9157,
      "استناد": 9158,
      "بنگاههای": 9159,
      "عضلات": 9160,
      "بازنشستگی": 9161,
      "روزگار": 9162,
      "بدنی": 9163,
      "مرتضی": 9164,
      "دال": 9165,
      "استعداد": 9166,
      "سرت": 9167,
      "سرمایهگذاران": 9168,
      "مزیت": 9169,
      "توه": 9170,
      "ابهام": 9171,
      "اینستاگرام": 9172,
      "##ستون": 9173,
      "۱۳۸۹": 9174,
      "فور": 9175,
      "پم": 9176,
      "روانه": 9177,
      "۱۹۶۰": 9178,
      "##طالب": 9179,
      "دربر": 9180,
      "امداد": 9181,
      "قضاوت": 9182,
      "دفع": 9183,
      "دانه": 9184,
      "##شناسان": 9185,
      "عصبانی": 9186,
      "دک": 9187,
      "اصلاحطلبان": 9188,
      "ارژ": 9189,
      "انجامید": 9190,
      "دانشاموز": 9191,
      "دایره": 9192,
      "بهادار": 9193,
      "رصد": 9194,
      "استن": 9195,
      "موجودات": 9196,
      "##ov": 9197,
      "سختاف": 9198,
      "بزرگر": 9199,
      "مثبتی": 9200,
      "نقص": 9201,
      "بخواهید": 9202,
      "غر": 9203,
      "تحرک": 9204,
      "سیف": 9205,
      "خریداران": 9206,
      "چهرههای": 9207,
      "میگوی": 9208,
      "نمایان": 9209,
      "محدودیتهای": 9210,
      "خزانه": 9211,
      "رگ": 9212,
      "##میمی": 9213,
      "خصوصا": 9214,
      "پارام": 9215,
      "ناوگان": 9216,
      "کب": 9217,
      "نقلیه": 9218,
      "بلیط": 9219,
      "مغول": 9220,
      "مادی": 9221,
      "تخلیه": 9222,
      "حکومتی": 9223,
      "##الو": 9224,
      "اینه": 9225,
      "##یمان": 9226,
      "زبانی": 9227,
      "اینچی": 9228,
      "۶۲": 9229,
      "امتداد": 9230,
      "خسته": 9231,
      "بلا": 9232,
      "بلغ": 9233,
      "۶۱": 9234,
      "اگو": 9235,
      "##ard": 9236,
      "نکنند": 9237,
      "متداول": 9238,
      "طرفین": 9239,
      "##گشایی": 9240,
      "سازندگان": 9241,
      "برلین": 9242,
      "##ساله": 9243,
      "سنگهای": 9244,
      "پیامد": 9245,
      "جسمی": 9246,
      "دادیم": 9247,
      "بهرام": 9248,
      "##شق": 9249,
      "ندارم": 9250,
      "فاطمه": 9251,
      "سرزمینهای": 9252,
      "##est": 9253,
      "##چشم": 9254,
      "۱۸۰": 9255,
      "مکانیکی": 9256,
      "معبد": 9257,
      "سرور": 9258,
      "سپاهی": 9259,
      "بابک": 9260,
      "تفریحی": 9261,
      "گرما": 9262,
      "اعطای": 9263,
      "مسیری": 9264,
      "شلو": 9265,
      "نازی": 9266,
      "میبیند": 9267,
      "مستقیما": 9268,
      "مرو": 9269,
      "استانی": 9270,
      "استانها": 9271,
      "##ub": 9272,
      "کارفر": 9273,
      "مرحوم": 9274,
      "طرفدار": 9275,
      "امان": 9276,
      "ارای": 9277,
      "شیرینی": 9278,
      "یافتند": 9279,
      "th": 9280,
      "##ومیت": 9281,
      "میلیمتر": 9282,
      "دیدگاههای": 9283,
      "شریک": 9284,
      "نقره": 9285,
      "اندازهای": 9286,
      "کمدی": 9287,
      "برگرفته": 9288,
      "وج": 9289,
      "رسمیت": 9290,
      "فاکتور": 9291,
      "پیادهسازی": 9292,
      "فجر": 9293,
      "ناخالص": 9294,
      "##نر": 9295,
      "ریاض": 9296,
      "تحلیلهای": 9297,
      "##کف": 9298,
      "انعطاف": 9299,
      "سلیمان": 9300,
      "هادی": 9301,
      "شفافیت": 9302,
      "میرو": 9303,
      "محص": 9304,
      "##شترین": 9305,
      "محتوی": 9306,
      "ارتقاء": 9307,
      "بخواهیم": 9308,
      "مگاپ": 9309,
      "واضح": 9310,
      "pl": 9311,
      "تعقیب": 9312,
      "ظهر": 9313,
      "صبر": 9314,
      "میدارد": 9315,
      "تعرفه": 9316,
      "میدهید": 9317,
      "تحسین": 9318,
      "مصاحب": 9319,
      "نوزدهم": 9320,
      "مشاغل": 9321,
      "اصلیترین": 9322,
      "زور": 9323,
      "##رفت": 9324,
      "بپردازد": 9325,
      "وارداتی": 9326,
      "##نمایی": 9327,
      "قرص": 9328,
      "بنویس": 9329,
      "تعویض": 9330,
      "نیا": 9331,
      "ارایش": 9332,
      "چرب": 9333,
      "کوانت": 9334,
      "حبس": 9335,
      "گویا": 9336,
      "ابدا": 9337,
      "بینداز": 9338,
      "قضاییه": 9339,
      "##انتین": 9340,
      "ویرایش": 9341,
      "ایرنا": 9342,
      "فیلمها": 9343,
      "۱۲۹": 9344,
      "جایگزینی": 9345,
      "دنباله": 9346,
      "فرصتهای": 9347,
      "سنجش": 9348,
      "تیمی": 9349,
      "برپ": 9350,
      "دوری": 9351,
      "نامی": 9352,
      "فاج": 9353,
      "الکل": 9354,
      "بعنوان": 9355,
      "قضايیه": 9356,
      "میری": 9357,
      "گلستان": 9358,
      "فینال": 9359,
      "سازماندهی": 9360,
      "اراده": 9361,
      "چشماند": 9362,
      "##راق": 9363,
      "لاریجانی": 9364,
      "کوب": 9365,
      "جنین": 9366,
      "تحمیل": 9367,
      "میکرده": 9368,
      "جلال": 9369,
      "نز": 9370,
      "##اهنگ": 9371,
      "گذراند": 9372,
      "غافل": 9373,
      "##ورن": 9374,
      "یاران": 9375,
      "میزد": 9376,
      "جواد": 9377,
      "بگویید": 9378,
      "##چال": 9379,
      "رسیدهاست": 9380,
      "کیم": 9381,
      "##شهری": 9382,
      "حفاری": 9383,
      "فارغالتحصیل": 9384,
      "مقت": 9385,
      "غلبه": 9386,
      "زیبات": 9387,
      "مجاهد": 9388,
      "##توجه": 9389,
      "##ابادی": 9390,
      "پرهیز": 9391,
      "کمکهای": 9392,
      "علاقهمند": 9393,
      "##ang": 9394,
      "بهخاطر": 9395,
      "ولتاژ": 9396,
      "مصالح": 9397,
      "جنگلهای": 9398,
      "کروم": 9399,
      "معتر": 9400,
      "مصل": 9401,
      "واکنشهای": 9402,
      "##باران": 9403,
      "ندارید": 9404,
      "##رید": 9405,
      "تمدید": 9406,
      "جریمه": 9407,
      "غالب": 9408,
      "##یای": 9409,
      "مترم": 9410,
      "لباسهای": 9411,
      "ip": 9412,
      "##الین": 9413,
      "درحالیکه": 9414,
      "نظارتی": 9415,
      "##ذکر": 9416,
      "۶۶": 9417,
      "شاگردان": 9418,
      "زخمی": 9419,
      "الجز": 9420,
      "نمایشنامه": 9421,
      "جواه": 9422,
      "عاط": 9423,
      "کارمند": 9424,
      "غز": 9425,
      "##بره": 9426,
      "نجف": 9427,
      "##شنگ": 9428,
      "##ie": 9429,
      "داوطلب": 9430,
      "خانوادهاش": 9431,
      "کاوش": 9432,
      "هیل": 9433,
      "۱۹۹۹": 9434,
      "مسایل": 9435,
      "##نجانی": 9436,
      "پرداختند": 9437,
      "نبودند": 9438,
      "کاست": 9439,
      "کارد": 9440,
      "##په": 9441,
      "اوباما": 9442,
      "یوسف": 9443,
      "ژنتیکی": 9444,
      "ارشی": 9445,
      "سازگار": 9446,
      "الملل": 9447,
      "مجل": 9448,
      "سمی": 9449,
      "رسان": 9450,
      "تازهای": 9451,
      "نمیشد": 9452,
      "رسول": 9453,
      "روزمره": 9454,
      "فرصتی": 9455,
      "اعراب": 9456,
      "شنیدن": 9457,
      "##قهای": 9458,
      "طلای": 9459,
      "زنجیره": 9460,
      "ناق": 9461,
      "##فرست": 9462,
      "کرج": 9463,
      "۷۶": 9464,
      "##ob": 9465,
      "##سمی": 9466,
      "میف": 9467,
      "محمدی": 9468,
      "##ell": 9469,
      "##رها": 9470,
      "تران": 9471,
      "خوشحال": 9472,
      "بزرگراه": 9473,
      "ict": 9474,
      "رسانده": 9475,
      "اقایان": 9476,
      "##ist": 9477,
      "سایتهای": 9478,
      "محکم": 9479,
      "حرکتی": 9480,
      "کاندید": 9481,
      "##گیل": 9482,
      "معص": 9483,
      "بات": 9484,
      "##نیم": 9485,
      "جنبههای": 9486,
      "منظر": 9487,
      "حاي": 9488,
      "ناگهان": 9489,
      "عیسی": 9490,
      "۷۷": 9491,
      "گلو": 9492,
      "جین": 9493,
      "دلیلی": 9494,
      "مواضع": 9495,
      "دوش": 9496,
      "خصوصیات": 9497,
      "جعف": 9498,
      "عکسهای": 9499,
      "هالی": 9500,
      "##ایا": 9501,
      "##نگار": 9502,
      "مشروطه": 9503,
      "زیباترین": 9504,
      "تظاهرات": 9505,
      "سازمانها": 9506,
      "۷۴": 9507,
      "بازه": 9508,
      "نشری": 9509,
      "موت": 9510,
      "##ايو": 9511,
      "شاخصهای": 9512,
      "##بوک": 9513,
      "فاضل": 9514,
      "##خشد": 9515,
      "تطبی": 9516,
      "سوپر": 9517,
      "وزیران": 9518,
      "توهین": 9519,
      "##الث": 9520,
      "اطلاعی": 9521,
      "۱۹۹۸": 9522,
      "تقلید": 9523,
      "باشم": 9524,
      "ارزشهای": 9525,
      "اکتش": 9526,
      "عارف": 9527,
      "عادل": 9528,
      "خطا": 9529,
      "اعتراضات": 9530,
      "بگوید": 9531,
      "بهرهگیری": 9532,
      "جابه": 9533,
      "تاثیری": 9534,
      "نشسته": 9535,
      "رفس": 9536,
      "سلطه": 9537,
      "un": 9538,
      "میشده": 9539,
      "##th": 9540,
      "کویت": 9541,
      "امارهای": 9542,
      "##جاز": 9543,
      "کارتهای": 9544,
      "to": 9545,
      "کپی": 9546,
      "بردند": 9547,
      "فردوسی": 9548,
      "پنجمین": 9549,
      "پیکسل": 9550,
      "واقعه": 9551,
      "بنیانگذار": 9552,
      "سون": 9553,
      "ارقام": 9554,
      "احکام": 9555,
      "رویه": 9556,
      "معای": 9557,
      "داروها": 9558,
      "برکن": 9559,
      "تلخ": 9560,
      "##رویی": 9561,
      "بهدن": 9562,
      "پسران": 9563,
[...]
